<unk>	0
<s>	0
</s>	0
<pad>	0
.	-3.14043
,	-3.32295
▁the	-4.0442
s	-4.48528
▁of	-4.6463
'	-4.6908
▁to	-4.73515
▁and	-4.84989
▁a	-4.91003
▁là	-4.92962
▁của	-4.93668
▁và	-4.96417
▁in	-4.98138
▁I	-5.14235
▁một	-5.17408
▁có	-5.18679
?	-5.26081
▁được	-5.31673
▁	-5.34838
▁không	-5.39357
▁you	-5.41337
▁is	-5.52539
▁đã	-5.53303
▁tôi	-5.6038
▁trong	-5.60792
▁các	-5.63088
▁that	-5.66004
-	-5.67672
▁người	-5.74191
t	-5.74236
▁(	-5.74539
▁cho	-5.76924
▁với	-5.79381
▁was	-5.80072
▁năm	-5.86052
▁for	-5.89604
▁it	-5.92693
▁"	-5.93596
▁ta	-5.93917
▁ở	-5.93972
▁đó	-5.94388
▁này	-5.96965
▁-	-5.97195
▁The	-5.98665
▁thể	-6.02696
▁những	-6.05444
▁on	-6.06938
)	-6.09437
▁with	-6.12635
▁vào	-6.14567
▁sẽ	-6.17835
▁anh	-6.19525
▁ra	-6.21257
...	-6.22362
▁chúng	-6.23183
▁as	-6.25023
▁đến	-6.25807
▁để	-6.29004
▁làm	-6.29592
▁khi	-6.29824
▁như	-6.3529
▁be	-6.39451
▁this	-6.40169
▁từ	-6.41439
▁sự	-6.41632
▁are	-6.43162
▁phải	-6.44187
▁have	-6.44646
▁by	-6.45025
▁nó	-6.4668
▁về	-6.46898
▁thành	-6.47494
▁Tôi	-6.49294
:	-6.5046
▁we	-6.51064
▁đầu	-6.51217
m	-6.51524
▁from	-6.52877
▁do	-6.5486
re	-6.57485
▁at	-6.57698
▁ông	-6.59204
▁con	-6.60584
"	-6.62956
▁gì	-6.63942
▁tháng	-6.64321
▁tại	-6.64688
▁thế	-6.65223
▁lại	-6.65604
▁nói	-6.66097
▁bị	-6.67144
▁not	-6.67308
▁cô	-6.68017
▁an	-6.70048
▁đi	-6.70822
▁biết	-6.71071
▁You	-6.71469
▁me	-6.71474
▁mà	-6.72106
▁he	-6.72262
!	-6.72373
▁cũng	-6.72605
▁can	-6.7292
▁việc	-6.74738
▁ngày	-6.76318
▁trên	-6.77934
▁số	-6.78053
▁It	-6.80014
▁họ	-6.80423
▁công	-6.80786
▁nhà	-6.82294
▁Anh	-6.85005
▁cả	-6.85378
d	-6.85521
▁hơn	-6.8709
▁chỉ	-6.87766
▁đây	-6.87884
▁học	-6.88704
▁nhất	-6.88875
▁khác	-6.89166
▁đang	-6.91093
▁chính	-6.91781
▁điều	-6.92204
ing	-6.92479
▁his	-6.94233
▁1	-6.94299
▁And	-6.94465
▁In	-6.94924
▁nhiều	-6.96903
▁your	-6.9729
▁my	-6.97362
▁or	-6.97658
▁gia	-6.98109
▁bạn	-6.9813
▁were	-6.98512
▁one	-6.99472
▁sau	-6.99712
▁thấy	-7.00036
▁all	-7.0149
▁they	-7.01721
▁thứ	-7.02408
▁but	-7.04348
▁động	-7.05095
▁rằng	-7.05235
▁mình	-7.05716
▁what	-7.06052
▁cách	-7.06803
▁know	-7.06905
▁about	-7.0696
▁muốn	-7.07493
▁ấy	-7.09147
▁quan	-7.09263
▁her	-7.09341
▁nào	-7.09526
▁hiện	-7.10706
▁nhưng	-7.13043
▁còn	-7.13669
▁A	-7.15001
▁em	-7.16173
▁vì	-7.16303
ed	-7.17991
▁has	-7.18934
▁He	-7.19764
▁rồi	-7.20392
▁sao	-7.20701
▁so	-7.20729
▁had	-7.20983
▁phát	-7.20987
▁cái	-7.21035
▁cùng	-7.2232
▁thời	-7.23596
▁Và	-7.23871
▁dụng	-7.24162
▁out	-7.24225
▁which	-7.24819
▁hai	-7.2482
▁theo	-7.25812
n	-7.25847
▁rất	-7.25962
▁cuộc	-7.26098
i	-7.26139
▁there	-7.26718
▁nhân	-7.26723
▁We	-7.27194
▁thực	-7.27336
▁like	-7.27513
▁thì	-7.27585
▁just	-7.29223
▁nghĩ	-7.29951
;	-7.30897
▁hành	-7.31111
▁she	-7.31138
▁sử	-7.31822
a	-7.31978
▁định	-7.31986
▁trước	-7.32453
▁bởi	-7.32608
▁Chúng	-7.33491
▁tới	-7.34334
▁bộ	-7.34384
▁2	-7.36294
ll	-7.36593
▁hình	-7.36628
▁been	-7.36765
▁bản	-7.36857
▁nhận	-7.36937
y	-7.37663
▁giờ	-7.37716
▁don	-7.37785
▁giới	-7.38941
ve	-7.39076
▁who	-7.39168
▁bao	-7.3961
▁up	-7.39745
▁chuyện	-7.39891
▁bằng	-7.41039
▁cậu	-7.42616
▁time	-7.42974
▁So	-7.43125
▁first	-7.43224
▁vậy	-7.43262
▁nước	-7.4341
▁their	-7.43512
▁tự	-7.43531
▁qua	-7.44244
▁bắt	-7.4472
▁hợp	-7.44729
▁will	-7.44895
▁lớn	-7.45083
▁cần	-7.45321
▁viên	-7.45388
e	-7.45492
▁xuất	-7.45864
▁trở	-7.45942
▁sinh	-7.4705
▁him	-7.47328
▁here	-7.47678
).	-7.47847
▁also	-7.47959
▁chiến	-7.48126
▁lên	-7.48448
▁more	-7.48928
▁nên	-7.49125
▁kết	-7.49615
▁tiên	-7.49773
▁if	-7.5077
▁would	-7.51456
▁phần	-7.51903
▁quốc	-7.5191
▁tên	-7.52016
▁3	-7.52228
▁đồng	-7.53585
▁tìm	-7.53631
▁when	-7.54085
o	-7.54657
▁tiếp	-7.54955
▁hàng	-7.55997
▁sống	-7.56018
▁get	-7.56193
),	-7.56424
▁This	-7.56637
▁Các	-7.57149
▁lý	-7.57318
▁mới	-7.5787
▁gọi	-7.5927
▁hoặc	-7.5934
▁cơ	-7.59457
▁trình	-7.59611
▁trường	-7.5978
▁Nhưng	-7.6025
▁giải	-7.60404
▁people	-7.60415
▁But	-7.60722
▁tin	-7.60722
▁them	-7.61042
▁thường	-7.61181
▁other	-7.612
▁Nó	-7.61414
▁vị	-7.61925
▁nữa	-7.62263
▁think	-7.62633
▁đề	-7.63131
▁no	-7.63247
▁tạo	-7.64086
▁Một	-7.64418
▁two	-7.64565
▁hay	-7.6471
▁tế	-7.65481
▁Không	-7.66018
▁lần	-7.66115
▁Có	-7.66356
▁thống	-7.66832
▁quân	-7.6729
▁tính	-7.67368
▁lập	-7.67617
▁Trong	-7.67761
▁vụ	-7.68452
ly	-7.68632
▁thông	-7.68747
▁vật	-7.68865
▁đối	-7.69493
▁đại	-7.69668
▁lượng	-7.69871
▁right	-7.7003
▁nhau	-7.70455
▁She	-7.70723
▁into	-7.71232
▁gian	-7.71792
▁dân	-7.71975
▁want	-7.72462
▁ý	-7.72563
▁now	-7.7335
▁hội	-7.73485
▁some	-7.73748
▁tiếng	-7.73847
."	-7.74349
▁nhiên	-7.74395
▁hệ	-7.75028
▁only	-7.7509
▁mọi	-7.75294
▁than	-7.75397
▁đâu	-7.75908
▁nơi	-7.763
▁over	-7.76347
▁toàn	-7.76617
▁Ông	-7.77508
▁độ	-7.77616
th	-7.77664
▁máy	-7.77715
▁bà	-7.78141
▁năng	-7.78669
▁mặt	-7.78888
▁our	-7.79156
▁nếu	-7.79271
▁us	-7.80328
▁sản	-7.80639
▁Cô	-7.81245
▁cao	-7.81315
▁phía	-7.8203
▁They	-7.82082
▁its	-7.82168
▁đường	-7.82397
▁đổi	-7.82437
▁vẫn	-7.82612
er	-7.82658
▁4	-7.83103
▁10	-7.83358
▁diễn	-7.83488
▁see	-7.83645
▁bảo	-7.83756
▁chủ	-7.84255
▁quá	-7.84304
▁tất	-7.84787
▁5	-7.8508
▁trị	-7.85309
▁khu	-7.85367
▁loại	-7.85371
▁ai	-7.85644
▁could	-7.86036
▁thay	-7.86114
▁tốt	-7.86384
▁liên	-7.86442
▁go	-7.86705
▁lực	-7.87233
▁đội	-7.87612
▁after	-7.88555
▁thức	-7.89134
▁where	-7.89329
▁tâm	-7.89406
▁chức	-7.89598
▁then	-7.89934
▁years	-7.90023
▁these	-7.90037
▁thật	-7.9011
▁going	-7.90229
▁cầu	-7.9027
▁That	-7.90564
▁got	-7.90765
▁điểm	-7.91429
▁thích	-7.91841
▁chuyển	-7.92005
▁trung	-7.92135
▁tác	-7.92295
▁quyền	-7.92693
▁hóa	-7.93277
".	-7.9367
▁chưa	-7.93971
▁gồm	-7.94531
▁What	-7.94608
c	-7.94715
▁how	-7.94796
▁Quốc	-7.95203
▁cảm	-7.95676
▁bất	-7.95681
▁trọng	-7.96296
▁đưa	-7.9765
▁sĩ	-7.98106
▁tranh	-7.98672
▁thiết	-7.9869
in	-7.98761
▁đấy	-7.99032
▁cuối	-7.99099
▁biệt	-7.99409
▁cứu	-7.99636
▁cấp	-7.99793
▁ảnh	-7.99795
▁nay	-8.0015
▁ba	-8.0033
▁phố	-8.00839
▁--	-8.01041
▁chết	-8.0177
▁most	-8.01974
▁bay	-8.02997
▁tập	-8.03215
▁vực	-8.03563
▁way	-8.03672
▁Nếu	-8.04005
▁6	-8.04112
▁nghĩa	-8.04333
▁need	-8.04665
ng	-8.0469
▁bố	-8.04916
▁bỏ	-8.05063
▁chơi	-8.05364
▁giữa	-8.05447
▁yêu	-8.05496
▁giáo	-8.05743
▁phim	-8.05845
▁very	-8.06035
▁báo	-8.06048
▁câu	-8.06504
▁khoảng	-8.06758
▁make	-8.06929
▁because	-8.07469
▁phân	-8.07603
▁ăn	-8.07653
▁triển	-8.07913
▁lúc	-8.08422
▁tình	-8.08588
▁ngoài	-8.08737
▁bên	-8.08847
S	-8.0892
▁nghiệp	-8.09028
▁No	-8.09178
▁đều	-8.09423
▁hoạt	-8.09446
▁de	-8.09753
▁used	-8.10327
▁hết	-8.10428
▁địa	-8.10824
▁Do	-8.10973
▁kế	-8.111
▁did	-8.11213
▁giúp	-8.11221
▁tiền	-8.11262
▁take	-8.11311
▁tay	-8.11444
▁7	-8.11695
▁There	-8.11981
▁new	-8.12279
▁phòng	-8.12318
▁gần	-8.12543
▁New	-8.127
▁hiệu	-8.12882
▁world	-8.13073
▁hắn	-8.1347
▁C	-8.13781
▁sáng	-8.13858
▁đánh	-8.1394
▁nữ	-8.14205
g	-8.14258
▁biến	-8.1429
▁tương	-8.14367
▁thuật	-8.14475
▁nhìn	-8.14538
al	-8.14546
▁vấn	-8.14633
▁said	-8.14792
▁từng	-8.14815
▁Sau	-8.14935
▁pháp	-8.14986
▁chất	-8.15056
▁If	-8.15285
▁Trung	-8.15307
▁phương	-8.15356
▁tham	-8.1556
▁12	-8.15561
▁S	-8.1557
▁kinh	-8.15624
u	-8.15785
▁Well	-8.1614
▁thôi	-8.16447
▁truyền	-8.1657
▁giống	-8.16624
▁đất	-8.16663
▁thị	-8.16893
▁xem	-8.17325
▁mất	-8.17492
▁really	-8.17595
▁nhỏ	-8.17652
▁kỳ	-8.17686
▁sát	-8.17967
▁khỏi	-8.18389
▁tàu	-8.18937
▁gặp	-8.18982
▁giá	-8.19096
▁Năm	-8.19405
▁hoàn	-8.19536
▁many	-8.19726
▁Mỹ	-8.19886
▁đặc	-8.19933
▁thuộc	-8.19978
▁8	-8.2017
▁Em	-8.20228
▁trí	-8.20256
▁điện	-8.20478
▁Đây	-8.20666
▁phụ	-8.20684
es	-8.2094
▁nghe	-8.21063
▁liệu	-8.21157
▁dưới	-8.21497
▁Ta	-8.21637
▁Đó	-8.21727
▁something	-8.21748
▁any	-8.21808
▁such	-8.22341
▁di	-8.22748
▁mẹ	-8.23246
▁well	-8.23364
▁dùng	-8.23411
▁may	-8.23463
r	-8.23556
▁Hoa	-8.23602
▁work	-8.23607
▁say	-8.23821
▁đơn	-8.2385
▁dịch	-8.24039
▁đấu	-8.24505
▁before	-8.24686
▁good	-8.24695
▁sách	-8.24896
▁quả	-8.24941
▁Những	-8.25092
▁tử	-8.25175
▁B	-8.25187
▁văn	-8.25287
▁lời	-8.2567
▁chứ	-8.25712
▁tưởng	-8.26004
▁down	-8.26028
▁made	-8.26093
▁thủ	-8.26339
▁xác	-8.2649
▁dẫn	-8.26569
▁life	-8.2679
▁between	-8.26849
▁9	-8.26937
▁man	-8.27411
▁gonna	-8.27427
▁chiếc	-8.27467
▁đặt	-8.27728
▁bình	-8.27791
▁vài	-8.27975
▁đạo	-8.28267
▁much	-8.28658
▁Nam	-8.28925
▁vùng	-8.28933
▁Con	-8.29165
▁three	-8.29198
▁nhạc	-8.29476
▁bệnh	-8.29519
▁thương	-8.30278
▁tăng	-8.30436
▁chế	-8.30684
▁thu	-8.3074
▁bài	-8.30821
▁15	-8.30825
▁dù	-8.31034
▁dự	-8.31066
▁ứng	-8.31271
▁cố	-8.314
▁20	-8.31458
▁tổ	-8.31666
▁ngay	-8.31934
▁vô	-8.32005
▁tài	-8.3206
▁Họ	-8.32071
▁cứ	-8.32191
▁xe	-8.32628
▁quyết	-8.32728
▁ban	-8.32773
▁through	-8.32801
A	-8.32897
▁tiêu	-8.33451
h	-8.34011
▁Khi	-8.34076
▁trẻ	-8.34191
▁Vào	-8.34214
▁phẩm	-8.34311
▁being	-8.34449
▁loài	-8.34834
▁viết	-8.35165
▁even	-8.3554
C	-8.35665
▁hỏi	-8.35925
▁come	-8.35993
▁tư	-8.36001
2	-8.3608
▁Vậy	-8.3615
▁never	-8.36371
▁–	-8.36567
▁11	-8.3663
l	-8.36661
▁xảy	-8.36734
▁little	-8.36751
▁Kỳ	-8.37174
▁part	-8.37355
▁gái	-8.37403
▁T	-8.37544
▁should	-8.37682
▁On	-8.37886
▁đúng	-8.38244
▁kể	-8.38271
▁same	-8.38492
▁hiểu	-8.38597
▁lấy	-8.38637
▁mang	-8.38688
▁minh	-8.38693
▁chứng	-8.38948
▁tiến	-8.39005
▁day	-8.39185
▁tell	-8.39417
▁tục	-8.39667
▁nhiệm	-8.39716
▁U	-8.40015
I	-8.40148
▁giữ	-8.40389
p	-8.40462
▁nổi	-8.40733
▁bán	-8.40762
▁giết	-8.4094
▁tuổi	-8.40986
▁phép	-8.4131
▁Ba	-8.41499
▁cảnh	-8.41501
▁âm	-8.41526
▁around	-8.41577
▁M	-8.41856
▁phục	-8.41876
▁nhóm	-8.41926
▁nguyên	-8.42305
▁those	-8.42467
▁kỷ	-8.42891
▁phủ	-8.42947
▁đảo	-8.43029
▁name	-8.43166
▁đời	-8.43277
▁nằm	-8.44002
▁thing	-8.44016
▁Đại	-8.44308
▁still	-8.44402
▁off	-8.4467
▁trò	-8.44752
▁known	-8.4504
▁use	-8.45226
▁thân	-8.45255
▁United	-8.45385
▁khí	-8.4548
▁mạnh	-8.45644
▁đáng	-8.45809
▁dài	-8.46692
▁D	-8.4672
▁vệ	-8.4704
▁found	-8.47401
▁long	-8.47571
▁during	-8.47606
▁mở	-8.47677
▁called	-8.47743
▁ty	-8.47954
▁danh	-8.47997
▁nghệ	-8.48089
▁trưởng	-8.48361
▁year	-8.48745
▁Now	-8.48809
▁đình	-8.49039
▁tích	-8.49129
k	-8.4947
▁trai	-8.49895
▁Cậu	-8.49972
▁thêm	-8.49985
▁mô	-8.50019
",	-8.50475
▁didn	-8.50507
▁Tây	-8.50546
▁luôn	-8.5055
▁tượng	-8.50602
▁16	-8.50811
▁As	-8.51018
▁trang	-8.51025
▁thần	-8.51399
▁under	-8.5147
▁nghiên	-8.51947
▁tinh	-8.5204
▁mỗi	-8.52303
▁ít	-8.52799
▁à	-8.52922
▁cá	-8.53211
▁too	-8.53265
▁đồ	-8.53526
▁Người	-8.53578
▁trả	-8.54203
▁find	-8.54438
▁last	-8.54506
▁place	-8.54868
▁bóng	-8.55143
▁ngữ	-8.55194
▁nhập	-8.55225
▁biển	-8.55248
▁giao	-8.55378
▁viện	-8.55474
▁gây	-8.55514
▁things	-8.55536
▁...	-8.55551
▁chọn	-8.55657
▁vi	-8.55733
▁cung	-8.55799
▁duy	-8.56019
▁cộng	-8.56102
▁nghiệm	-8.5682
▁sở	-8.56985
▁chi	-8.5705
▁dựng	-8.5715
▁bé	-8.57196
▁triệu	-8.57291
▁chương	-8.57443
▁number	-8.57464
▁hạn	-8.57466
▁P	-8.57653
b	-8.5799
▁rộng	-8.57997
▁trận	-8.58047
▁yếu	-8.58088
D	-8.58258
▁xuống	-8.58278
▁'	-8.58424
▁mục	-8.58502
▁Nhật	-8.58549
▁look	-8.58626
▁án	-8.58689
▁later	-8.58974
▁phá	-8.59597
▁xây	-8.59683
▁Vì	-8.60016
▁diện	-8.60089
▁La	-8.60287
▁hướng	-8.60385
▁thi	-8.60637
▁Đức	-8.60767
▁own	-8.6082
▁biểu	-8.60907
▁lịch	-8.61059
▁khả	-8.61114
▁while	-8.61236
▁lẽ	-8.61236
▁E	-8.61363
▁châu	-8.61441
▁G	-8.61497
▁đóng	-8.61647
▁tối	-8.61711
▁tổng	-8.6209
▁until	-8.62354
▁both	-8.62554
▁N	-8.62767
▁17	-8.62874
▁cha	-8.62891
▁Công	-8.62996
▁O	-8.63497
▁city	-8.63659
▁lạc	-8.63677
▁let	-8.63894
▁My	-8.64289
▁luật	-8.64333
▁phản	-8.64427
▁mùa	-8.64812
▁Oh	-8.65025
▁thuyết	-8.65039
▁chí	-8.65104
▁How	-8.65206
▁đoàn	-8.65352
▁Pháp	-8.65362
▁đủ	-8.65761
▁why	-8.65911
▁chắc	-8.65921
▁won	-8.65957
▁nguồn	-8.65971
▁ca	-8.66164
▁thought	-8.66311
▁Điều	-8.66385
▁became	-8.66394
▁F	-8.66479
an	-8.66561
to	-8.66764
▁trợ	-8.66833
▁All	-8.66899
▁Bản	-8.67102
▁Liên	-8.67156
▁hát	-8.67225
▁When	-8.67466
▁K	-8.67564
▁cổ	-8.67936
▁Tuy	-8.68051
▁again	-8.68052
▁nam	-8.68131
man	-8.68153
▁R	-8.68227
▁đông	-8.68379
▁tra	-8.68546
▁album	-8.68646
▁vai	-8.68834
▁giả	-8.69066
▁family	-8.69097
B	-8.69153
▁kẻ	-8.69336
▁lâu	-8.69552
▁second	-8.69827
▁mạng	-8.704
▁hưởng	-8.70746
▁Lan	-8.70772
▁re	-8.71042
▁help	-8.71051
▁vận	-8.71057
▁giảm	-8.71102
▁give	-8.71267
▁độc	-8.7141
▁game	-8.71587
▁H	-8.71615
▁mean	-8.7194
▁World	-8.72041
▁khó	-8.72188
▁Thế	-8.72221
▁dạng	-8.72288
▁14	-8.72411
▁tuần	-8.72556
▁home	-8.7272
on	-8.72732
▁vũ	-8.72915
▁system	-8.73016
▁30	-8.7318
▁chống	-8.73218
▁nhớ	-8.73493
▁end	-8.73591
▁Bắc	-8.73789
▁chú	-8.73849
▁thúc	-8.74091
▁must	-8.74352
▁different	-8.74483
▁kiện	-8.74921
▁kiến	-8.75162
▁since	-8.75584
▁xã	-8.75619
▁mắt	-8.75806
▁cửa	-8.7583
▁đô	-8.75867
▁tớ	-8.75869
▁chẳng	-8.75931
▁sức	-8.76015
▁rõ	-8.76182
▁đá	-8.76205
▁another	-8.76453
▁hộ	-8.76479
▁each	-8.76628
▁chung	-8.76723
▁After	-8.7692
us	-8.77244
▁cháu	-8.77285
▁lỗi	-8.77327
▁ký	-8.77471
en	-8.77612
▁lãnh	-8.77692
▁For	-8.77734
▁left	-8.77931
▁khoa	-8.78167
▁kiểm	-8.78214
▁hãy	-8.78281
▁thắng	-8.78379
▁against	-8.78505
▁put	-8.78722
▁ngôi	-8.7879
▁ghi	-8.79183
▁13	-8.79423
▁hòa	-8.79443
▁mày	-8.79517
▁every	-8.79564
▁khiến	-8.79848
▁II	-8.79884
▁Yeah	-8.80093
▁father	-8.80104
▁m	-8.80298
T	-8.80845
▁cử	-8.80919
ta	-8.8095
▁cáo	-8.80972
▁sư	-8.80987
▁chỗ	-8.8099
▁tuyệt	-8.81077
▁thư	-8.81249
or	-8.81363
▁riêng	-8.81842
▁May	-8.81957
▁xa	-8.82287
▁lo	-8.82491
z	-8.82492
▁cây	-8.82503
▁love	-8.82519
▁lưu	-8.82585
▁cư	-8.82787
▁At	-8.82949
▁Bà	-8.83473
▁đoạn	-8.83635
▁mặc	-8.84213
▁y	-8.84402
▁chịu	-8.84612
▁thuốc	-8.84627
▁vòng	-8.8465
▁dụ	-8.8503
x	-8.85082
3	-8.85099
▁màu	-8.85168
▁million	-8.85211
▁đàn	-8.85236
▁chút	-8.85481
▁took	-8.85653
▁Why	-8.85773
ch	-8.85808
▁hoàng	-8.85868
▁To	-8.85874
▁chia	-8.85978
▁government	-8.86076
▁thử	-8.8642
▁States	-8.86539
▁water	-8.86552
▁South	-8.86831
▁doing	-8.86874
▁quay	-8.86988
▁mức	-8.87241
▁L	-8.87258
▁chuẩn	-8.8729
▁ever	-8.87355
▁Sao	-8.8769
▁show	-8.87905
▁bọn	-8.87919
▁mua	-8.88052
▁including	-8.88054
▁away	-8.8825
▁đôi	-8.88444
▁bang	-8.88583
▁khách	-8.88712
▁four	-8.88728
▁vọng	-8.88737
▁high	-8.88921
▁Ban	-8.8895
▁chạy	-8.89007
▁lợi	-8.89058
▁tiết	-8.89229
▁Bộ	-8.89404
▁York	-8.89507
▁better	-8.89591
▁quản	-8.89626
▁actually	-8.89759
▁always	-8.89849
F	-8.89904
▁km	-8.89996
▁War	-8.90285
▁tồn	-8.9034
▁Âu	-8.90466
▁came	-8.90852
H	-8.90921
▁Al	-8.90959
▁V	-8.91004
▁quanh	-8.91055
▁hôn	-8.91239
▁lot	-8.91304
▁John	-8.91389
▁talk	-8.91444
▁ơn	-8.91558
▁xin	-8.91791
▁kiếm	-8.91819
▁San	-8.9183
▁hữu	-8.91929
▁told	-8.92109
▁song	-8.9213
▁country	-8.92165
▁American	-8.92517
▁am	-8.92644
▁anything	-8.92666
▁kind	-8.92748
–	-8.9285
▁Chỉ	-8.9314
1	-8.93686
▁tội	-8.93696
▁call	-8.93752
▁next	-8.93834
▁tiểu	-8.93907
▁18	-8.94146
▁Hãy	-8.94166
▁Ngày	-8.94189
▁Ý	-8.94301
▁best	-8.94578
▁sân	-8.94632
▁thanh	-8.94751
▁dành	-8.94808
▁Tại	-8.94891
▁kích	-8.95047
▁đẹp	-8.95085
na	-8.95089
▁luận	-8.95347
▁đứng	-8.95354
▁One	-8.95575
▁lệ	-8.95672
▁đứa	-8.95818
▁vừa	-8.95852
▁An	-8.96067
▁great	-8.9617
▁men	-8.96339
▁might	-8.96672
▁old	-8.96937
▁hôm	-8.96976
ers	-8.97033
▁hậu	-8.97292
▁cập	-8.97361
▁area	-8.97397
▁Phi	-8.97682
▁dục	-8.97827
▁áp	-8.98022
▁gốc	-8.98131
▁bắc	-8.98186
M	-8.98497
▁does	-8.98618
▁Don	-8.98671
▁night	-8.98859
▁19	-8.99271
▁early	-8.99301
▁few	-8.99321
▁bức	-8.99339
▁tả	-8.99381
▁video	-8.9948
▁group	-8.99502
▁ngoại	-8.99712
▁đạt	-8.99794
▁vẻ	-8.99815
▁quy	-9.00091
▁kia	-9.00118
▁film	-9.00313
▁dễ	-9.00541
▁lắm	-9.00774
G	-9.01254
▁important	-9.01266
▁trực	-9.01386
▁sang	-9.01439
▁sông	-9.01473
▁cực	-9.01762
▁hoạch	-9.01837
O	-9.0207
▁school	-9.02088
▁Đông	-9.02119
N	-9.02167
▁together	-9.02236
▁without	-9.02429
▁war	-9.02508
la	-9.02621
▁c	-9.02921
▁phạm	-9.02952
▁Theo	-9.02978
▁power	-9.03053
▁nhanh	-9.03113
▁J	-9.03143
the	-9.03194
▁ngài	-9.03265
▁state	-9.036
▁Bạn	-9.03654
▁coi	-9.03731
▁vui	-9.03902
▁days	-9.04002
▁đêm	-9.04015
▁doanh	-9.04036
▁bầu	-9.04096
▁Ai	-9.04255
▁Thái	-9.04286
▁nghị	-9.04317
▁hạng	-9.04366
▁several	-9.04397
▁thiên	-9.04488
▁Ở	-9.04751
▁khai	-9.04758
▁trái	-9.04764
ra	-9.04986
▁live	-9.05343
▁ngôn	-9.05346
▁bây	-9.0535
▁trời	-9.05438
▁began	-9.05478
▁money	-9.05513
▁xử	-9.05513
▁bàn	-9.05633
▁nội	-9.05941
▁tao	-9.05963
▁suy	-9.06031
▁100	-9.06034
▁ước	-9.06051
▁toán	-9.06253
▁vua	-9.06443
▁Cha	-9.0645
▁bắn	-9.06551
▁nền	-9.06634
▁buổi	-9.06686
▁hầu	-9.06694
▁phong	-9.06795
▁wanted	-9.06871
▁released	-9.06933
▁thú	-9.06983
▁chị	-9.07062
▁sợ	-9.07583
ma	-9.07591
E	-9.07744
▁chiếm	-9.07747
▁went	-9.07808
▁death	-9.07918
▁kỹ	-9.08018
▁Sự	-9.08077
▁tộc	-9.08079
▁mấy	-9.08248
ic	-9.08322
▁Từ	-9.0833
▁today	-9.08372
▁du	-9.08789
▁team	-9.08801
▁mối	-9.08971
▁phổ	-9.09074
▁lòng	-9.09236
▁Cho	-9.09482
▁small	-9.09672
▁Để	-9.09678
▁mẫu	-9.09686
▁Mr	-9.09729
▁25	-9.09774
▁set	-9.09806
--	-9.09822
▁Được	-9.09893
▁chuyên	-9.09918
▁chân	-9.1009
▁human	-9.1027
▁đa	-9.10424
▁species	-9.10509
▁often	-9.10689
le	-9.10889
▁These	-9.10945
▁“	-9.1107
▁nhiệt	-9.11239
▁la	-9.11489
▁rời	-9.1157
▁century	-9.11589
▁ngươi	-9.11594
▁mother	-9.11622
▁five	-9.11853
▁Tổng	-9.11892
▁sắc	-9.11894
▁dựa	-9.11917
▁real	-9.12021
▁Let	-9.12221
▁June	-9.12371
▁bại	-9.12388
▁Nhà	-9.12472
▁Nha	-9.12668
▁phí	-9.12789
▁tỉnh	-9.1284
▁believe	-9.12885
▁March	-9.12947
K	-9.13019
▁thoại	-9.13042
▁October	-9.13046
▁August	-9.13048
▁chấp	-9.13058
no	-9.13548
▁series	-9.13672
▁thập	-9.13693
▁July	-9.13693
▁giành	-9.13704
ia	-9.13782
▁University	-9.13823
▁Your	-9.13826
▁Nga	-9.13942
de	-9.13958
▁single	-9.14012
▁done	-9.14062
▁phiên	-9.14422
da	-9.14459
▁become	-9.14785
▁niên	-9.14837
▁doesn	-9.14855
▁everything	-9.1491
▁keep	-9.15176
▁North	-9.15304
▁However	-9.15386
▁tây	-9.15394
▁point	-9.15479
▁cánh	-9.15654
▁head	-9.15722
▁xếp	-9.15813
▁change	-9.15885
▁January	-9.16038
▁started	-9.1606
▁thất	-9.16241
▁sure	-9.16295
▁cụ	-9.16454
▁tuyên	-9.1649
▁nothing	-9.16676
able	-9.16807
▁April	-9.16859
▁September	-9.16985
▁núi	-9.17013
▁son	-9.17479
▁binh	-9.17529
▁lệnh	-9.17581
▁đầy	-9.17623
▁suốt	-9.17691
?"	-9.1776
▁large	-9.17912
’	-9.18086
▁ma	-9.18091
v	-9.1811
▁hại	-9.18225
▁bác	-9.18266
▁Because	-9.18288
▁trúc	-9.18292
▁hiểm	-9.1835
▁population	-9.18355
▁League	-9.18588
▁cạnh	-9.1874
▁phút	-9.18741
▁within	-9.18878
ne	-9.1888
▁Just	-9.18913
▁miền	-9.19001
▁buộc	-9.19119
▁Can	-9.19274
▁enough	-9.1935
▁kéo	-9.19435
▁tố	-9.19445
▁guy	-9.19482
▁seen	-9.19508
▁French	-9.19515
▁un	-9.19576
▁start	-9.196
▁Ấn	-9.19725
▁càng	-9.19825
▁thấp	-9.19906
▁dữ	-9.19915
4	-9.20019
ton	-9.20131
▁children	-9.20294
▁dòng	-9.2036
▁play	-9.20411
▁Tất	-9.2048
▁sẵn	-9.2056
▁&	-9.20589
▁X	-9.20793
▁company	-9.20906
ka	-9.20991
▁soát	-9.20993
▁24	-9.21215
▁Japanese	-9.21261
▁side	-9.21297
▁căn	-9.21391
▁tuyến	-9.21428
(	-9.21679
▁house	-9.2173
▁21	-9.2186
▁Độ	-9.21887
▁giác	-9.2191
▁trụ	-9.22215
▁khá	-9.22455
▁times	-9.22492
▁God	-9.22501
▁Na	-9.22717
▁băng	-9.22736
▁dấu	-9.22894
▁Hey	-9.22915
▁tòa	-9.23028
▁women	-9.23185
▁hơi	-9.23301
▁His	-9.23404
▁China	-9.23474
▁City	-9.2357
▁bào	-9.23871
P	-9.23965
f	-9.24033
▁n	-9.2404
▁chuyến	-9.24185
▁feel	-9.2434
L	-9.24349
▁gắng	-9.24374
▁hồi	-9.24389
▁big	-9.24584
▁form	-9.24639
▁hạt	-9.24646
▁sắp	-9.24749
▁phi	-9.2478
▁Chúa	-9.24823
ation	-9.24928
▁huy	-9.24928
▁leave	-9.24967
▁December	-9.24978
▁cuốn	-9.25093
▁nhé	-9.2522
▁đoán	-9.25247
▁cải	-9.25414
▁sai	-9.25722
▁National	-9.25725
▁bước	-9.26083
▁vợ	-9.26109
▁Me	-9.26115
▁đổ	-9.26231
▁along	-9.26343
▁person	-9.26481
▁saw	-9.26696
▁bốn	-9.27001
te	-9.27146
▁Hai	-9.27301
el	-9.27341
▁November	-9.27438
▁biên	-9.27545
co	-9.27557
▁control	-9.27723
▁kiểu	-9.27878
▁tạp	-9.27945
▁De	-9.28152
▁tức	-9.28402
▁máu	-9.28439
▁cấu	-9.28457
▁hạ	-9.28509
▁body	-9.28735
▁Man	-9.28844
▁Hoàng	-9.28899
▁care	-9.28951
▁lễ	-9.29028
▁co	-9.29076
▁whole	-9.2916
▁born	-9.29242
▁trạng	-9.29291
▁top	-9.29451
▁idea	-9.29508
▁case	-9.29516
▁50	-9.29546
▁order	-9.2956
▁quần	-9.29716
▁kill	-9.29734
▁Then	-9.29779
▁mật	-9.29784
▁means	-9.29943
▁following	-9.29953
▁da	-9.30108
▁trying	-9.30167
ro	-9.30204
▁hỗ	-9.30231
do	-9.3024
▁already	-9.30267
▁having	-9.30334
▁thái	-9.30429
▁once	-9.30556
▁xét	-9.30608
▁ago	-9.30723
▁Chính	-9.30955
▁able	-9.3097
▁Hắn	-9.30983
▁Chiến	-9.31086
▁music	-9.31135
▁luyện	-9.31137
▁Giờ	-9.31192
▁story	-9.31199
▁light	-9.31212
▁killed	-9.31444
▁named	-9.31513
▁lai	-9.31563
▁súng	-9.31579
▁St	-9.32034
ry	-9.32132
▁môi	-9.32156
is	-9.32182
ine	-9.32204
▁xung	-9.32218
▁looking	-9.32245
▁Japan	-9.32381
▁someone	-9.32589
The	-9.32686
▁Go	-9.32752
▁nạn	-9.32899
▁đừng	-9.33056
▁using	-9.33137
▁chắn	-9.33203
▁Cái	-9.33276
▁course	-9.33395
▁hủy	-9.33528
▁Đừng	-9.33576
▁nối	-9.33598
▁trao	-9.33617
▁địch	-9.33714
▁late	-9.33759
▁British	-9.33764
▁example	-9.33884
▁based	-9.34085
▁↑	-9.34129
▁d	-9.34144
▁Her	-9.34212
▁car	-9.34253
▁Re	-9.34335
▁nguy	-9.34347
▁making	-9.34409
▁tỷ	-9.34466
▁working	-9.34466
▁ràng	-9.34506
▁business	-9.34548
▁major	-9.34704
▁đốc	-9.34786
▁By	-9.34823
▁understand	-9.35055
ri	-9.35189
▁King	-9.3571
▁Làm	-9.35801
▁ổn	-9.35808
▁woman	-9.35931
▁ko	-9.36114
▁trừ	-9.36392
▁Hải	-9.36414
▁tái	-9.36468
▁chứa	-9.36601
▁half	-9.36641
▁thuận	-9.36727
▁đau	-9.36752
▁phóng	-9.36809
▁♪	-9.37066
▁ánh	-9.37198
▁trách	-9.37204
▁hả	-9.37207
▁girl	-9.37225
▁Cộng	-9.37234
▁Tớ	-9.37239
▁giản	-9.3729
▁countries	-9.37315
▁niệm	-9.37346
▁far	-9.37427
▁hồ	-9.37449
▁stop	-9.37595
▁22	-9.37669
▁x	-9.37764
▁Dur	-9.3777
▁coming	-9.37852
V	-9.3799
▁nghi	-9.38014
▁February	-9.38158
▁đài	-9.38203
▁tôn	-9.38208
▁ngắn	-9.38248
▁run	-9.38273
▁line	-9.38289
▁lộ	-9.38443
▁Canada	-9.38465
▁due	-9.38526
ity	-9.38539
▁gửi	-9.38765
▁lost	-9.38796
▁hand	-9.38838
▁mi	-9.38917
ian	-9.38995
▁German	-9.39046
Laughter	-9.39243
▁sâu	-9.39348
▁tướng	-9.39629
▁cận	-9.39703
▁W	-9.39712
▁vương	-9.4002
▁age	-9.40207
▁least	-9.40238
▁ngủ	-9.40346
▁less	-9.40351
▁public	-9.40353
▁problem	-9.4039
▁Some	-9.40632
▁cũ	-9.40638
ist	-9.40684
▁trải	-9.40804
▁Hy	-9.40811
▁friend	-9.40827
▁Or	-9.40835
▁Not	-9.40843
▁Với	-9.40889
▁Okay	-9.40913
▁Việc	-9.41219
▁months	-9.41275
▁Hội	-9.41277
▁sớm	-9.41443
▁died	-9.41616
▁dung	-9.4163
▁town	-9.41668
▁giai	-9.41777
—	-9.418
▁season	-9.41846
▁quý	-9.41913
▁vàng	-9.42086
▁national	-9.42251
▁local	-9.42274
▁đọc	-9.42363
▁bổ	-9.42381
▁(19	-9.42412
-19	-9.42441
▁thưởng	-9.42481
▁sóng	-9.42707
▁Phải	-9.42813
▁stay	-9.42917
▁hard	-9.42936
land	-9.42949
▁El	-9.43055
▁brother	-9.43096
▁xúc	-9.43151
▁uống	-9.43304
▁military	-9.43345
▁ask	-9.43379
▁Look	-9.43506
▁Việt	-9.43538
▁dạy	-9.43627
▁bit	-9.43723
▁23	-9.4378
▁dead	-9.43857
▁else	-9.43879
▁nhiễm	-9.43921
▁ngành	-9.43955
▁lửa	-9.44282
se	-9.44331
▁period	-9.44354
▁wife	-9.44391
▁non	-9.44491
▁Y	-9.44493
▁happened	-9.44597
▁six	-9.44644
▁trấn	-9.44667
▁given	-9.44681
▁English	-9.44685
son	-9.44738
▁l	-9.44775
▁đích	-9.44875
▁main	-9.44896
▁per	-9.44918
▁giám	-9.44967
▁Còn	-9.45087
▁open	-9.45114
▁tốc	-9.4522
▁khởi	-9.45261
▁guys	-9.45274
▁ví	-9.45327
▁Bây	-9.45378
▁support	-9.45401
▁ngồi	-9.45505
▁chữ	-9.45568
▁thoát	-9.45649
▁history	-9.45658
▁al	-9.45733
▁)	-9.45852
▁đế	-9.45932
▁Mặc	-9.46062
▁Á	-9.46157
▁tù	-9.46157
▁book	-9.46187
▁room	-9.46255
▁air	-9.463
▁built	-9.46303
me	-9.46376
▁Cup	-9.46617
▁getting	-9.46624
▁though	-9.46655
▁include	-9.4673
▁tệ	-9.46778
▁ngăn	-9.46856
ko	-9.4689
▁London	-9.4693
▁chiều	-9.47002
▁khắp	-9.47013
R	-9.47319
▁dương	-9.47465
▁đột	-9.47523
▁bí	-9.47674
▁America	-9.47748
ar	-9.47775
▁hear	-9.47905
il	-9.47916
▁held	-9.47946
▁Mẹ	-9.48147
▁fact	-9.48183
st	-9.48262
▁located	-9.48354
W	-9.48382
▁Are	-9.48444
▁{\	-9.4851
▁third	-9.48528
▁mại	-9.48561
▁California	-9.48595
▁Thật	-9.48664
▁near	-9.48742
▁nông	-9.48756
▁face	-9.48791
▁close	-9.4882
▁Ra	-9.48834
▁e	-9.48872
▁b	-9.48921
▁young	-9.49354
▁try	-9.49396
▁ngựa	-9.49502
▁vượt	-9.49546
▁sàng	-9.49643
▁lựa	-9.49682
▁gave	-9.49855
ca	-9.49866
▁bờ	-9.49913
▁Ma	-9.49915
▁common	-9.49949
▁bad	-9.50061
▁nặng	-9.5018
▁bảng	-9.50195
▁move	-9.50275
▁trì	-9.5029
▁US	-9.50317
▁language	-9.50323
▁Earth	-9.50519
▁France	-9.50541
▁Paris	-9.50691
▁thờ	-9.50729
▁sửa	-9.50795
▁tấn	-9.50939
▁remember	-9.51003
▁lục	-9.51184
▁mong	-9.51266
▁khẩu	-9.51348
▁club	-9.51372
▁food	-9.51392
▁chờ	-9.51515
▁job	-9.51614
▁t	-9.51777
▁vời	-9.51783
▁cười	-9.51811
▁40	-9.51901
▁khủng	-9.51906
▁nửa	-9.52055
▁information	-9.52244
▁kịch	-9.52424
▁Giải	-9.52496
▁President	-9.52589
▁Mọi	-9.5271
li	-9.5275
▁não	-9.52881
it	-9.5291
▁isn	-9.5291
▁thậm	-9.52983
▁27	-9.53073
▁With	-9.5323
w	-9.53333
▁wrong	-9.53438
▁Mã	-9.5348
▁hoa	-9.5353
▁26	-9.53645
▁nổ	-9.53681
▁ích	-9.53741
&	-9.53769
ni	-9.5385
▁thiện	-9.53886
be	-9.53943
▁mind	-9.54157
▁0	-9.54272
▁development	-9.54303
▁thằng	-9.54319
▁nhằm	-9.54354
▁Co	-9.54459
ism	-9.54478
▁free	-9.54604
sa	-9.54668
go	-9.54779
▁thổ	-9.54831
▁Chinese	-9.54842
▁Xô	-9.54874
▁okay	-9.54913
▁đảm	-9.54981
▁28	-9.55006
▁West	-9.55036
▁kì	-9.55155
▁political	-9.55503
up	-9.55629
ce	-9.55711
▁blood	-9.55974
▁tín	-9.56012
▁nghỉ	-9.56052
▁khoản	-9.56229
at	-9.56275
▁áo	-9.56275
▁trông	-9.56906
▁cắt	-9.56992
▁yet	-9.57167
▁Europe	-9.57323
▁heard	-9.57367
▁Africa	-9.57397
▁Ko	-9.5745
▁hours	-9.57484
▁led	-9.57506
▁thẳng	-9.57666
▁sơ	-9.57673
▁khăn	-9.57725
▁word	-9.57749
▁hy	-9.57827
▁full	-9.57867
▁talking	-9.57919
U	-9.5802
▁lĩnh	-9.58168
▁tim	-9.58269
▁xuyên	-9.58282
▁Yes	-9.58392
▁almost	-9.58472
▁knew	-9.58546
▁region	-9.58595
ki	-9.58729
▁thăm	-9.58901
▁land	-9.58938
▁building	-9.59049
▁lá	-9.59379
▁loạt	-9.59384
▁process	-9.59449
em	-9.59459
▁maybe	-9.59563
▁đĩa	-9.59614
▁law	-9.59623
▁developed	-9.59671
▁ủng	-9.59678
▁Park	-9.59755
▁matter	-9.59815
▁họa	-9.59816
tiếng	-9.59832
▁received	-9.59845
▁Thành	-9.59846
▁Kim	-9.59853
▁short	-9.59859
▁daughter	-9.59901
▁probably	-9.60092
▁across	-9.60145
▁From	-9.60174
▁wasn	-9.60179
▁Be	-9.60267
nh	-9.60271
▁future	-9.60433
▁played	-9.60494
▁thiếu	-9.6064
▁George	-9.60647
▁yourself	-9.60688
▁Trái	-9.60794
ion	-9.60814
▁g	-9.61044
▁Châu	-9.61105
▁among	-9.61166
▁Maybe	-9.61189
▁Chi	-9.61249
▁data	-9.61331
▁Là	-9.61394
▁sorry	-9.61403
ba	-9.61528
▁Xin	-9.61642
▁phối	-9.61675
▁James	-9.61765
▁created	-9.61766
▁rest	-9.61813
ya	-9.61828
▁hải	-9.61962
▁please	-9.61989
▁v	-9.6211
▁phận	-9.62146
▁either	-9.62193
▁Dương	-9.62255
ga	-9.6227
▁south	-9.62387
▁north	-9.62419
lo	-9.62438
▁đợi	-9.62448
▁friends	-9.62473
▁production	-9.62487
▁heart	-9.62532
▁khỏe	-9.62645
▁Như	-9.62809
▁tịch	-9.62952
▁role	-9.62958
▁considered	-9.6301
and	-9.63046
▁International	-9.63107
▁đẩy	-9.63239
6	-9.63246
▁fire	-9.63253
▁service	-9.63269
▁thủy	-9.63312
▁past	-9.6337
▁Soviet	-9.63394
▁possible	-9.63424
▁saying	-9.63462
5	-9.63508
▁final	-9.63576
▁nhiêu	-9.6377
▁total	-9.63836
▁others	-9.63873
▁Bởi	-9.63962
▁moved	-9.63983
▁rối	-9.64038
▁rút	-9.64089
▁Vương	-9.64252
▁Come	-9.64274
▁chồng	-9.64371
▁turn	-9.64375
▁party	-9.64384
▁Ả	-9.64433
▁suất	-9.64477
▁original	-9.64558
▁rừng	-9.64639
di	-9.64661
▁mã	-9.64818
▁Di	-9.64963
▁East	-9.65137
▁living	-9.6519
▁lạ	-9.65256
▁space	-9.6535
▁đám	-9.65456
▁members	-9.65471
▁xấu	-9.65664
▁tầm	-9.65665
▁taken	-9.66054
▁soon	-9.66119
▁taking	-9.66137
▁tiện	-9.66222
▁Giáo	-9.6626
▁largest	-9.663
▁level	-9.66306
é	-9.66366
▁general	-9.66367
one	-9.66457
▁nghiêm	-9.66494
um	-9.66517
▁asked	-9.66615
▁First	-9.66618
▁percent	-9.66627
▁sent	-9.66646
▁child	-9.66759
▁thí	-9.66766
▁loạn	-9.6681
▁ngờ	-9.66924
▁minutes	-9.67166
▁nuôi	-9.67235
▁European	-9.67494
▁international	-9.67521
▁outside	-9.67586
▁India	-9.67588
born	-9.6773
▁trùng	-9.67735
▁Ngoài	-9.67788
za	-9.6781
ty	-9.67829
▁member	-9.67922
▁lính	-9.67945
▁fight	-9.67992
▁khắc	-9.68066
▁social	-9.68151
▁linh	-9.68165
j	-9.68332
▁makes	-9.6836
▁2010	-9.68438
▁2011	-9.68609
▁đăng	-9.68651
▁hit	-9.68666
▁làng	-9.68668
▁nhỉ	-9.68748
▁present	-9.68865
▁Trước	-9.68972
▁worked	-9.68974
▁Le	-9.69175
▁29	-9.69189
▁Mi	-9.69306
▁món	-9.69357
ur	-9.69359
▁dần	-9.69381
▁phức	-9.69436
ge	-9.69616
▁wouldn	-9.69667
ment	-9.69723
▁giấy	-9.69803
ha	-9.69806
▁Ha	-9.69913
▁bánh	-9.69928
▁Mexico	-9.6998
▁Sa	-9.69999
ter	-9.70021
▁thưa	-9.70164
▁usually	-9.70216
▁Who	-9.70223
▁Ca	-9.70279
▁Did	-9.70293
▁trại	-9.70369
▁Windows	-9.70393
▁question	-9.70571
▁energy	-9.70585
▁reason	-9.70593
▁version	-9.70607
▁areas	-9.70802
as	-9.7082
▁thiệu	-9.70897
▁kim	-9.70919
▁chiếu	-9.71184
▁position	-9.71453
▁myself	-9.71539
▁nhờ	-9.71544
▁Hàn	-9.71598
men	-9.71633
▁mai	-9.7164
▁says	-9.71768
▁inside	-9.71832
▁tầng	-9.71896
▁tải	-9.71976
▁published	-9.72025
▁forces	-9.72053
▁sáu	-9.72091
▁sometimes	-9.72148
▁kính	-9.72172
▁special	-9.72188
mo	-9.72242
displaystyle	-9.72352
▁married	-9.72365
▁Ho	-9.72444
▁chó	-9.72491
ir	-9.72494
▁thinking	-9.72598
▁2008	-9.72638
▁model	-9.72682
▁mời	-9.72689
▁similar	-9.72739
▁research	-9.72792
▁lớp	-9.72917
▁uh	-9.72922
den	-9.72936
ie	-9.73037
▁tránh	-9.73111
▁góp	-9.73122
▁former	-9.73208
▁result	-9.73261
▁meet	-9.73414
▁triều	-9.73429
ling	-9.73481
ate	-9.73539
▁true	-9.73569
▁David	-9.73649
▁đỏ	-9.73679
▁tu	-9.73681
▁low	-9.73754
▁pretty	-9.73767
▁various	-9.73796
▁bring	-9.73883
▁chủng	-9.73907
ke	-9.73945
▁study	-9.7404
▁Mặt	-9.74054
▁phê	-9.74065
▁chữa	-9.74168
▁established	-9.74206
▁morning	-9.74297
▁Bo	-9.74369
▁Paul	-9.74429
▁lives	-9.74572
▁i	-9.74618
▁returned	-9.74653
▁Ka	-9.74676
}	-9.74683
▁island	-9.74717
▁thù	-9.74767
▁ô	-9.74777
▁works	-9.74868
▁River	-9.74915
▁thừa	-9.74935
▁Nhiều	-9.7495
▁thơ	-9.74954
▁himself	-9.75017
▁trăm	-9.75054
▁office	-9.75059
▁Rập	-9.75161
▁Tên	-9.75313
▁boy	-9.75313
▁thảo	-9.75398
▁Se	-9.75407
▁Su	-9.75419
▁sea	-9.7544
▁p	-9.75461
am	-9.75529
▁trốn	-9.75548
▁sa	-9.75754
ary	-9.75828
wa	-9.75839
com	-9.75846
year	-9.75868
▁capital	-9.75971
▁web	-9.76058
Y	-9.76111
▁brought	-9.76147
▁quên	-9.76208
▁Z	-9.76288
▁trắng	-9.76373
▁Đến	-9.76489
▁rượu	-9.76513
▁week	-9.76513
▁modern	-9.76521
▁hope	-9.76747
▁met	-9.76764
▁return	-9.76827
▁2006	-9.76917
▁chăm	-9.76919
▁khám	-9.77069
▁cơn	-9.77096
▁tuyển	-9.77208
▁Australia	-9.77235
▁dầu	-9.773
▁served	-9.77487
▁design	-9.77522
▁deal	-9.77577
▁pay	-9.77592
▁further	-9.77604
▁dậy	-9.77696
▁bày	-9.77711
▁Ar	-9.77734
▁đỡ	-9.77741
▁=	-9.77828
▁comes	-9.77834
▁nhật	-9.7791
▁dây	-9.77989
▁đào	-9.77994
▁tai	-9.77999
▁Dù	-9.78052
▁rơi	-9.78064
▁front	-9.78242
▁r	-9.78275
▁phù	-9.78403
▁TV	-9.78462
ley	-9.78476
▁lược	-9.78479
-1	-9.78491
▁however	-9.78578
▁Nói	-9.78674
X	-9.78712
▁rather	-9.78841
”	-9.78859
▁anyone	-9.78864
▁House	-9.78889
ive	-9.79036
ner	-9.79123
▁force	-9.79136
▁vốn	-9.79238
▁huấn	-9.793
▁xanh	-9.7935
ness	-9.79471
▁Quân	-9.79548
▁2014	-9.7963
▁behind	-9.79641
▁Charles	-9.79671
▁Cuộc	-9.79778
▁tri	-9.7989
▁khiển	-9.79949
▁màn	-9.79969
▁read	-9.80096
▁Mày	-9.80134
▁Air	-9.80237
▁Phần	-9.80309
▁aircraft	-9.80345
▁đảng	-9.80347
▁alone	-9.80443
▁Nghe	-9.80473
▁type	-9.80475
mi	-9.80507
▁term	-9.80582
▁William	-9.80582
▁lao	-9.80586
▁police	-9.80597
▁announced	-9.80607
▁Union	-9.8061
▁trục	-9.80613
▁Army	-9.80707
▁ship	-9.8072
▁tận	-9.80772
▁ngân	-9.80882
▁trưng	-9.80897
▁lắng	-9.80944
▁Dr	-9.81034
ti	-9.81035
▁°	-9.8108
▁Bố	-9.81093
▁siêu	-9.8115
▁brain	-9.81173
▁Lạp	-9.81294
ji	-9.81458
▁School	-9.81531
▁chảy	-9.81703
▁trữ	-9.81706
▁hút	-9.81707
con	-9.81781
J	-9.81843
▁career	-9.81877
▁nóng	-9.81893
▁f	-9.81979
▁king	-9.82024
▁mơ	-9.82178
▁III	-9.82181
▁hề	-9.82201
▁happen	-9.82261
▁die	-9.82336
▁nhắc	-9.82346
▁Red	-9.82391
▁Miss	-9.82465
▁People	-9.82487
▁Russian	-9.82505
▁Chủ	-9.82535
▁produced	-9.82729
▁Tao	-9.82811
os	-9.82816
▁2007	-9.82817
per	-9.82993
▁Tháng	-9.83004
▁mộ	-9.83048
▁hạnh	-9.83065
▁phán	-9.83108
▁Israel	-9.8322
▁tách	-9.83222
▁ly	-9.83243
▁Where	-9.83252
▁Bọn	-9.83301
va	-9.83487
▁longer	-9.83611
▁moment	-9.83636
▁điên	-9.83649
id	-9.83702
▁thụ	-9.83844
▁written	-9.83849
▁Germany	-9.83911
▁31	-9.83942
▁sóc	-9.83992
▁lead	-9.84023
▁Robert	-9.84112
lin	-9.84129
▁2013	-9.84132
▁2015	-9.84178
▁Since	-9.84207
▁tắc	-9.84269
▁2012	-9.84307
▁project	-9.84312
▁popular	-9.84501
▁hấp	-9.84548
▁dừng	-9.84778
▁môn	-9.84799
▁pre	-9.84879
▁General	-9.84925
▁nhảy	-9.85009
▁vẽ	-9.85024
ron	-9.85113
▁Đảng	-9.85293
▁phúc	-9.85517
ja	-9.85524
ul	-9.85541
▁quen	-9.85616
sinh	-9.85717
sh	-9.85832
▁chỉnh	-9.8585
▁official	-9.85999
▁army	-9.86022
▁Chắc	-9.86221
▁joined	-9.8633
▁đuổi	-9.86349
▁sense	-9.86438
lt	-9.86439
▁200	-9.86585
▁Pro	-9.86688
ent	-9.86767
▁miễn	-9.86784
▁sir	-9.86956
▁stuff	-9.8727
▁Syria	-9.87335
▁xâm	-9.8739
chi	-9.8755
▁Roman	-9.87606
▁exactly	-9.87671
nd	-9.87683
▁phone	-9.87808
▁tước	-9.87811
ting	-9.87978
▁ngược	-9.87996
▁chance	-9.88026
▁Khu	-9.88033
▁chúa	-9.88069
▁Korea	-9.88102
▁art	-9.88151
▁Nhân	-9.88319
▁release	-9.88337
▁technology	-9.88354
▁gã	-9.88399
▁quảng	-9.88408
▁2009	-9.88451
▁Minister	-9.88524
▁couldn	-9.8855
▁thỏa	-9.8859
▁Lo	-9.88595
▁Vietnam	-9.88617
▁Úc	-9.88643
▁record	-9.8867
▁hứng	-9.88677
▁2011,	-9.88683
ru	-9.88683
▁According	-9.88698
▁tờ	-9.88714
▁games	-9.88838
▁Ben	-9.8884
▁Republic	-9.88843
▁60	-9.88856
▁included	-9.88888
▁nỗ	-9.88967
▁2010,	-9.89015
▁parents	-9.89031
▁Tu	-9.89039
▁pháo	-9.89089
▁săn	-9.89091
less	-9.89127
▁đo	-9.89197
")	-9.89234
age	-9.89241
▁Michael	-9.89248
▁lái	-9.8927
▁Washington	-9.89345
▁field	-9.89373
▁đương	-9.89483
▁+	-9.89523
▁available	-9.89585
▁sẻ	-9.89586
ized	-9.89641
▁eyes	-9.89641
▁cannot	-9.89706
bo	-9.8971
▁thuyền	-9.89931
▁nice	-9.89938
line	-9.90047
est	-9.90088
▁Vâng	-9.90178
▁hands	-9.90219
▁bom	-9.90262
▁Cũng	-9.90278
▁chàng	-9.90298
▁plan	-9.90325
▁Mary	-9.90362
▁Internet	-9.90417
▁xong	-9.90423
10	-9.90458
▁dàng	-9.90533
▁hãng	-9.90609
▁Đúng	-9.9064
▁program	-9.90803
▁("	-9.90814
▁everyone	-9.90853
▁hold	-9.90893
▁truyện	-9.90921
▁systems	-9.90997
▁although	-9.91019
▁shot	-9.91048
pe	-9.91128
▁sót	-9.9113
▁range	-9.91139
▁wanna	-9.91236
▁chối	-9.91273
▁đỉnh	-9.91341
▁ẩn	-9.91446
▁Li	-9.91536
▁h	-9.91584
▁lạnh	-9.91596
▁cân	-9.91626
▁Bảo	-9.9166
▁wrote	-9.91759
▁Two	-9.91804
▁Lee	-9.91805
▁kháng	-9.9186
time	-9.91946
▁parts	-9.91949
▁wants	-9.91983
▁market	-9.91992
▁village	-9.92127
▁health	-9.92133
▁title	-9.92253
▁Most	-9.923
der	-9.92346
▁Tư	-9.92439
▁Cháu	-9.92445
▁decided	-9.92469
▁Frank	-9.92494
▁thịt	-9.92537
▁Hiệp	-9.92594
▁cầm	-9.92596
▁husband	-9.92661
▁changed	-9.92731
▁Rồi	-9.92738
▁create	-9.92739
▁Although	-9.92754
▁strong	-9.92807
ated	-9.92816
▁State	-9.9282
▁mừng	-9.9288
▁Cả	-9.92983
▁Này	-9.93064
▁mềm	-9.93091
▁Sam	-9.93183
▁instead	-9.93244
▁continued	-9.93495
▁2012,	-9.93518
▁hiệp	-9.93521
▁tấm	-9.93575
▁Thụy	-9.93711
▁quite	-9.93894
▁mẽ	-9.93918
▁Tom	-9.93941
▁mắc	-9.93969
▁While	-9.93989
▁Bình	-9.94077
▁mạch	-9.94078
▁đáp	-9.94113
▁natural	-9.94201
▁baby	-9.94218
▁chim	-9.94269
▁gone	-9.94306
▁ready	-9.94331
▁Here	-9.94381
▁entire	-9.94393
▁sister	-9.94573
ek	-9.94612
▁Lu	-9.94649
▁Hồi	-9.94675
un	-9.94744
gi	-9.94818
▁described	-9.9484
▁Island	-9.9487
▁Sea	-9.94908
▁2006,	-9.94936
ina	-9.94937
▁Đất	-9.95006
▁words	-9.95008
▁ft	-9.95011
▁win	-9.95024
▁Thiên	-9.95035
▁seven	-9.95142
ci	-9.95171
▁list	-9.95173
▁2013,	-9.95194
rs	-9.95254
▁president	-9.95274
▁Like	-9.95344
▁couple	-9.95345
▁red	-9.95371
▁2015,	-9.95385
▁wait	-9.95435
▁nắm	-9.95566
▁itself	-9.95626
▁2001	-9.95628
▁1960	-9.95665
ak	-9.95879
▁truy	-9.95904
by	-9.95992
▁Mo	-9.96014
ant	-9.96055
▁haven	-9.96105
▁bão	-9.96125
▁Ngài	-9.96186
▁2016	-9.96344
▁white	-9.96424
bi	-9.96453
▁Of	-9.966
▁upon	-9.96603
▁2000	-9.96638
▁tường	-9.96651
Tôi	-9.96696
▁kids	-9.96792
▁television	-9.96928
▁player	-9.9694
vi	-9.96953
▁Los	-9.96983
▁hè	-9.97045
▁Ni	-9.97082
▁certain	-9.97155
▁ấn	-9.97212
▁economic	-9.97253
▁ground	-9.97297
▁hứa	-9.97318
▁tried	-9.97354
▁già	-9.97365
▁Brazil	-9.97448
ad	-9.97448
▁khúc	-9.97505
▁states	-9.97536
ran	-9.97598
▁thao	-9.97783
old	-9.978
▁save	-9.97832
▁Bài	-9.97911
▁Ga	-9.97923
▁ten	-9.97931
▁đem	-9.98057
▁weeks	-9.98145
▁especially	-9.98169
▁guess	-9.98268
▁cut	-9.98368
ted	-9.98422
▁radio	-9.98438
▁Cập	-9.98447
▁Henry	-9.98461
▁problems	-9.98655
▁sort	-9.98729
▁tàng	-9.98964
▁learn	-9.9908
▁2014,	-9.99118
▁tỏ	-9.99118
▁quỹ	-9.99273
▁♫	-9.99283
▁test	-9.99325
▁Central	-9.99358
▁happy	-9.99387
▁Lúc	-9.99389
▁eight	-9.99401
tic	-9.99418
▁playing	-9.9948
▁2007,	-9.99499
▁trào	-9.99522
▁clear	-9.99544
”.	-9.99565
▁Kingdom	-9.9958
▁cause	-9.99635
▁northern	-9.99654
▁cai	-9.99719
▁computer	-9.9974
▁bề	-9.99756
▁Tell	-9.99761
▁nguyện	-9.99788
▁tá	-9.99817
▁star	-9.99822
▁groups	-9.99864
▁(18	-9.99865
▁speak	-9.99875
▁tán	-9.99902
▁lẫn	-9.9994
▁cưới	-9.99942
▁mãi	-9.99965
▁bữa	-9.99977
▁diệt	-9.99997
▁east	-10.0006
▁thuê	-10.0009
▁beginning	-10.0013
▁Cơ	-10.0014
▁nâng	-10.0023
▁education	-10.0025
7	-10.003
▁goes	-10.0037
▁2008,	-10.0044
▁—	-10.0045
▁community	-10.0048
▁hài	-10.007
▁Hi	-10.0092
▁tàn	-10.0093
▁Da	-10.0099
▁Retrieved	-10.01
▁họp	-10.0102
▁ch	-10.0107
▁Du	-10.0116
▁Nên	-10.0121
▁cường	-10.0138
▁quang	-10.014
▁battle	-10.0141
▁bạo	-10.0144
▁Dân	-10.0145
▁mái	-10.0147
▁dọa	-10.015
▁Pa	-10.0162
▁anti	-10.0169
ster	-10.0171
▁Peter	-10.018
▁Korean	-10.0182
▁xạ	-10.0187
▁training	-10.0188
▁2009,	-10.019
▁mười	-10.0204
▁size	-10.0208
▁formed	-10.0215
ku	-10.0217
▁Truy	-10.0223
que	-10.0227
▁above	-10.023
▁African	-10.0243
et	-10.0251
▁Great	-10.0256
▁sub	-10.0257
▁quận	-10.0263
▁needs	-10.0268
▁fine	-10.0273
ho	-10.0274
9	-10.0277
▁Please	-10.0279
▁science	-10.0284
▁Đế	-10.029
▁1990	-10.029
▁football	-10.0298
▁southern	-10.0298
▁ngừng	-10.0301
▁sold	-10.0307
▁Party	-10.0327
▁xu	-10.0327
▁break	-10.0331
▁eat	-10.0338
▁Bay	-10.0348
▁chụp	-10.0352
▁chặn	-10.0355
▁England	-10.036
▁hùng	-10.0364
▁xứ	-10.0366
▁beautiful	-10.0368
▁sound	-10.0371
▁Division	-10.0374
▁stand	-10.0383
▁Ví	-10.0386
▁Vi	-10.0391
▁tan	-10.0391
▁phiếu	-10.0392
▁build	-10.042
▁Get	-10.0422
▁sắt	-10.0427
▁ạ	-10.0442
▁nhẹ	-10.045
▁giỏi	-10.0454
ies	-10.0454
▁central	-10.0457
ah	-10.046
▁west	-10.0464
▁reported	-10.0464
po	-10.0465
▁chạm	-10.0465
▁answer	-10.047
▁discovered	-10.0479
rd	-10.0482
▁đe	-10.0488
▁Tokyo	-10.0503
▁self	-10.0509
io	-10.0516
▁yên	-10.053
ol	-10.0533
▁buồn	-10.0537
▁cases	-10.0539
▁gun	-10.0542
▁Mar	-10.0551
▁feet	-10.0552
▁phỏng	-10.0564
▁throughout	-10.0566
▁lan	-10.0567
▁supposed	-10.0569
▁khảo	-10.0591
▁Sir	-10.0601
20	-10.0602
▁media	-10.0602
▁hàm	-10.0606
▁dọc	-10.0607
▁current	-10.0608
▁Philippines	-10.061
▁Thực	-10.0623
▁finally	-10.0634
▁Trường	-10.0634
▁Câu	-10.0636
▁thước	-10.0647
▁2005	-10.0653
ze	-10.0659
ite	-10.066
▁Chuyện	-10.0663
▁Tiên	-10.0668
▁quyển	-10.067
▁cost	-10.067
▁news	-10.0671
▁bạc	-10.0674
30	-10.0677
▁figure	-10.069
▁involved	-10.0692
shi	-10.0695
▁hạm	-10.071
▁Empire	-10.0713
▁Uh	-10.0714
▁action	-10.0715
▁protect	-10.0718
▁nỗi	-10.0721
▁tonight	-10.073
▁Richard	-10.0733
▁surface	-10.0735
▁Ne	-10.0746
▁dặm	-10.0758
▁spent	-10.0762
▁Triều	-10.0764
▁billion	-10.0764
▁Saint	-10.0775
▁virus	-10.0777
▁tắt	-10.0778
▁theory	-10.0779
▁đạn	-10.0783
▁Ngay	-10.0786
▁Jo	-10.0789
pa	-10.079
▁dị	-10.0791
▁experience	-10.0792
▁cells	-10.0808
▁followed	-10.0814
▁cờ	-10.0814
▁trade	-10.0818
▁Music	-10.0819
▁Western	-10.0824
▁sung	-10.0824
▁Poland	-10.0825
▁site	-10.0831
▁running	-10.0843
▁vỡ	-10.0845
▁pro	-10.085
▁addition	-10.0855
á	-10.0878
▁Mỗi	-10.0881
▁Even	-10.0884
▁ưu	-10.0884
▁chuỗi	-10.0893
▁value	-10.0893
▁Ireland	-10.0895
8	-10.0899
▁kê	-10.0903
▁Asia	-10.0919
▁safe	-10.0929
▁DNA	-10.0932
▁ex	-10.0938
sen	-10.0939
▁Kinh	-10.0944
▁numbers	-10.0946
▁Sun	-10.0954
▁mét	-10.0958
▁trust	-10.0966
▁river	-10.0975
▁truth	-10.0977
▁month	-10.0988
▁2016,	-10.0988
so	-10.099
▁cell	-10.0991
ish	-10.1005
▁liệt	-10.1008
▁À	-10.1009
▁Many	-10.1013
▁cities	-10.1028
▁gotta	-10.103
▁Cuối	-10.1032
ous	-10.1033
▁takes	-10.1041
▁character	-10.1049
▁needed	-10.1055
▁Spanish	-10.1055
▁giàu	-10.106
▁Singapore	-10.1065
▁Car	-10.1067
▁hoang	-10.1069
▁personal	-10.1069
▁Thủ	-10.1079
▁Our	-10.1083
▁hẹn	-10.1085
▁ngầm	-10.1102
▁Latin	-10.1103
▁tỉ	-10.1108
▁rate	-10.1108
ization	-10.1112
▁tổn	-10.1115
he	-10.1119
▁phái	-10.1121
▁themselves	-10.1136
▁Đã	-10.1148
▁tống	-10.1161
▁kênh	-10.1163
▁cặp	-10.1164
▁Ki	-10.1165
ov	-10.1169
▁animals	-10.1173
▁Đội	-10.1174
▁signed	-10.1179
▁ga	-10.1181
ber	-10.1182
▁lí	-10.1183
▁dối	-10.1184
▁vết	-10.1189
▁Hà	-10.1192
▁giây	-10.1196
▁higher	-10.1199
▁1980	-10.1212
▁whether	-10.1213
▁sex	-10.1214
ang	-10.1217
▁key	-10.1217
▁evidence	-10.122
▁post	-10.122
▁thuế	-10.1221
ally	-10.123
-2	-10.1239
▁En	-10.124
▁founded	-10.1256
▁Am	-10.1265
▁mid	-10.1267
▁huyện	-10.127
▁reached	-10.1274
▁Royal	-10.128
▁cà	-10.1282
▁gió	-10.1288
▁lầm	-10.1295
ung	-10.1296
▁oil	-10.1298
▁bật	-10.132
▁bi	-10.1321
▁vĩ	-10.1326
▁Edward	-10.1337
40	-10.1337
▁cấm	-10.1337
we	-10.1345
▁protein	-10.1349
▁khối	-10.1355
▁Group	-10.1358
▁allowed	-10.1368
▁thiệt	-10.1375
▁quán	-10.138
▁District	-10.1383
▁xương	-10.1384
▁looks	-10.139
▁walk	-10.1395
▁Louis	-10.1398
▁Have	-10.1406
▁risk	-10.1411
▁Hay	-10.1415
▁See	-10.1419
▁turned	-10.1433
ten	-10.1436
▁góc	-10.1438
▁mưa	-10.1443
▁trích	-10.1446
▁relationship	-10.145
▁2015.	-10.1451
▁changes	-10.1453
▁tạm	-10.1455
▁Long	-10.1457
▁terms	-10.1459
▁ngàn	-10.146
▁thẩm	-10.146
▁share	-10.1461
▁thận	-10.1467
▁band	-10.1473
▁planet	-10.1477
▁en	-10.1481
▁simple	-10.1483
▁ung	-10.1487
off	-10.1499
▁structure	-10.1499
▁designed	-10.1502
bu	-10.1511
▁Queen	-10.1515
▁ống	-10.1524
▁Ya	-10.1527
▁wish	-10.1537
▁niềm	-10.154
ver	-10.1547
▁students	-10.1548
▁$	-10.155
▁2017	-10.155
▁thác	-10.1556
▁Russia	-10.1563
▁thăng	-10.1572
gen	-10.158
▁disease	-10.1594
▁Cách	-10.1602
▁easy	-10.1603
▁Po	-10.1604
▁culture	-10.1608
▁related	-10.1615
▁mine	-10.1615
▁lived	-10.1618
ph	-10.1619
▁Sha	-10.162
▁thánh	-10.1623
▁hi	-10.1624
▁k	-10.1628
▁2004	-10.1629
▁effect	-10.1648
▁2014.	-10.1649
ler	-10.1654
▁thách	-10.1659
▁bãi	-10.166
▁Thượng	-10.1666
▁recorded	-10.1668
▁80	-10.1675
▁Minh	-10.1686
▁Google	-10.169
▁đức	-10.1691
▁act	-10.1695
một	-10.1697
▁1970	-10.1701
00	-10.1702
Cười	-10.1706
▁Will	-10.1709
▁happens	-10.1714
▁trống	-10.1718
▁Battle	-10.1719
▁Rome	-10.1724
▁kid	-10.1725
–19	-10.1726
▁Italian	-10.1728
▁Ủ	-10.1733
▁khóa	-10.1733
▁bar	-10.1738
▁một	-10.1739
gt	-10.1742
▁remained	-10.1755
▁giáp	-10.1757
▁particular	-10.1757
▁FC	-10.1758
▁gắn	-10.1767
▁interest	-10.1767
▁tặng	-10.1773
▁Argentina	-10.1778
▁Star	-10.1783
▁completely	-10.1783
▁tomorrow	-10.1791
cha	-10.1793
Z	-10.1799
gu	-10.1801
jo	-10.1802
▁door	-10.181
▁seems	-10.1814
▁chậm	-10.1814
▁phó	-10.1818
▁thải	-10.182
▁security	-10.182
▁Chú	-10.1821
▁Lord	-10.1823
▁access	-10.1823
▁court	-10.1828
▁500	-10.1831
▁Mark	-10.1832
▁chóng	-10.1837
▁difficult	-10.1846
▁fall	-10.1847
▁Thứ	-10.1849
▁ngạc	-10.1864
▁meeting	-10.1879
▁Chị	-10.1902
▁highest	-10.191
▁Zealand	-10.1911
▁mm	-10.1921
▁events	-10.1921
▁station	-10.1924
▁hiến	-10.1929
▁hoá	-10.193
▁cháy	-10.1938
▁Grand	-10.1944
▁Take	-10.1945
▁tuy	-10.1948
▁lối	-10.1949
▁success	-10.1956
ong	-10.1957
▁cãi	-10.1959
▁bảy	-10.1961
▁vong	-10.1964
▁generally	-10.1965
▁Đồng	-10.197
▁eventually	-10.1971
ium	-10.1973
▁caused	-10.1975
▁companies	-10.1983
▁center	-10.1984
▁tĩnh	-10.1999
▁girls	-10.2008
▁bậc	-10.2008
▁lower	-10.2009
▁2016.	-10.2009
▁Italy	-10.2011
▁coast	-10.2014
▁Polish	-10.2021
▁che	-10.2022
▁Te	-10.2036
▁Viện	-10.2037
▁hộp	-10.2055
▁ném	-10.2061
che	-10.2063
▁thai	-10.2063
▁lose	-10.2066
▁nhu	-10.2068
▁ác	-10.2071
▁2,	-10.2075
▁giọng	-10.2079
▁Love	-10.2082
▁buy	-10.2092
▁moving	-10.2093
▁Good	-10.2107
▁average	-10.2108
▁campaign	-10.2108
ance	-10.2114
▁cứng	-10.2119
▁gets	-10.212
▁nature	-10.2121
í	-10.2124
▁services	-10.2125
▁Super	-10.2127
▁marriage	-10.213
▁Bi	-10.2133
▁appeared	-10.2136
▁amount	-10.2144
▁pressure	-10.2146
▁cover	-10.2146
▁Microsoft	-10.215
▁date	-10.2152
▁Maria	-10.2152
▁industry	-10.2154
▁cướp	-10.2159
▁stage	-10.2163
▁Ro	-10.217
▁th	-10.2178
▁bò	-10.2182
kin	-10.219
▁Martin	-10.2196
▁gas	-10.2204
▁Sẽ	-10.2209
▁foreign	-10.2215
▁miles	-10.222
ger	-10.2222
▁lũ	-10.2226
ful	-10.2229
▁2013.	-10.2232
▁source	-10.2232
▁ơi	-10.2234
▁significant	-10.2238
▁2005,	-10.2244
▁private	-10.2251
tin	-10.2288
▁Mình	-10.229
▁High	-10.2297
▁treatment	-10.2297
way	-10.2302
▁eye	-10.2304
▁fast	-10.2305
▁tiệc	-10.2305
▁khổ	-10.2306
▁đòi	-10.2307
▁medical	-10.2307
▁sleep	-10.2317
▁alive	-10.2319
▁anymore	-10.232
lan	-10.2325
▁round	-10.2326
▁base	-10.2326
▁dưỡng	-10.2326
▁rule	-10.2336
▁Về	-10.2339
▁Thomas	-10.2341
day	-10.2348
▁sạch	-10.2348
▁trouble	-10.2359
▁lưới	-10.236
▁lương	-10.2365
▁rãi	-10.2368
▁write	-10.2371
▁currently	-10.2373
▁Rất	-10.2378
▁rights	-10.2378
▁hospital	-10.2389
▁summer	-10.239
mer	-10.2394
fa	-10.2396
▁chấm	-10.2404
ut	-10.2406
▁Scotland	-10.2409
▁Ngươi	-10.2409
▁miệng	-10.2409
▁knows	-10.2413
▁Đ	-10.2414
▁(1	-10.2423
si	-10.2424
yl	-10.2426
▁gấp	-10.2431
▁lượt	-10.2445
▁Đi	-10.2458
▁troops	-10.2459
▁Hiện	-10.246
▁Texas	-10.2462
dy	-10.2463
▁border	-10.2463
▁Angeles	-10.248
▁2012.	-10.2484
vo	-10.2487
▁leaving	-10.2489
▁2011.	-10.2492
▁event	-10.2501
▁hư	-10.251
▁road	-10.2512
▁nhánh	-10.2514
▁gold	-10.2517
▁performed	-10.2518
▁follow	-10.2519
▁thang	-10.2524
ard	-10.2526
▁Prince	-10.2545
▁chặt	-10.2551
▁situation	-10.2552
▁gen	-10.2562
▁Indonesia	-10.2565
▁vườn	-10.2571
▁tóc	-10.2578
▁code	-10.2582
▁Lần	-10.2583
▁Force	-10.2586
60	-10.2589
ó	-10.259
▁telling	-10.2592
▁felt	-10.26
▁Trên	-10.26
▁fish	-10.2603
▁choice	-10.2604
]	-10.2614
▁provide	-10.2616
▁director	-10.2617
▁listen	-10.2625
▁Hầu	-10.2635
Tiếng	-10.2637
▁Iran	-10.264
▁peace	-10.264
▁Pe	-10.2644
ating	-10.2652
▁whatever	-10.2653
▁complex	-10.2654
out	-10.2658
ana	-10.2662
▁product	-10.2663
▁successful	-10.2666
▁picture	-10.2668
▁tiêm	-10.2673
▁Ch	-10.2681
▁chào	-10.2683
▁hang	-10.2684
▁introduced	-10.2691
▁tháp	-10.2695
▁Francisco	-10.2696
▁2017.	-10.2699
▁hiếm	-10.27
▁tùy	-10.2701
lu	-10.271
▁mũi	-10.2716
▁viễn	-10.2718
▁towards	-10.2718
tu	-10.272
▁features	-10.2722
▁Yu	-10.2723
▁cựu	-10.2724
▁vinh	-10.2724
▁famous	-10.2731
▁khái	-10.2738
▁Council	-10.2743
▁female	-10.2749
▁opened	-10.2752
Q	-10.2756
▁BC	-10.2768
▁secret	-10.2772
fe	-10.2787
▁ho	-10.279
▁website	-10.2806
▁movement	-10.2806
▁Thời	-10.281
▁increase	-10.2815
▁thầy	-10.2839
cho	-10.2847
ham	-10.2854
▁machine	-10.2855
▁2018	-10.2861
▁đua	-10.287
▁ways	-10.2872
▁2017,	-10.2873
▁Kể	-10.2875
▁OK	-10.2884
▁material	-10.2885
▁powerful	-10.2894
▁phạt	-10.2895
tra	-10.2903
▁hurt	-10.2904
▁Văn	-10.2907
▁Nữ	-10.2908
min	-10.2909
▁performance	-10.2915
▁hòn	-10.2919
▁Hồng	-10.2925
▁thua	-10.2927
▁professional	-10.2927
▁Gi	-10.293
▁growth	-10.2931
!"	-10.2933
ny	-10.2934
▁Danh	-10.2935
▁traditional	-10.2941
▁Thank	-10.2946
▁Other	-10.2951
▁fun	-10.2952
▁thả	-10.2956
▁Mu	-10.2963
▁sign	-10.2964
▁shows	-10.2965
▁White	-10.2968
sk	-10.2973
▁leading	-10.2974
▁global	-10.2977
▁1991	-10.2979
▁Thổ	-10.2985
▁kho	-10.2988
▁nghèo	-10.2995
▁arrived	-10.2997
▁poor	-10.3006
▁^	-10.3012
▁nghề	-10.3021
▁whose	-10.3026
▁believed	-10.3029
▁giving	-10.3029
▁district	-10.3031
▁Đài	-10.3033
▁Ừ	-10.3034
▁middle	-10.3039
▁Th	-10.3048
▁acid	-10.305
▁bè	-10.3051
▁Pan	-10.3053
▁reach	-10.3053
▁Hong	-10.3058
▁attention	-10.3062
▁books	-10.3065
▁send	-10.307
▁cancer	-10.3076
▁Per	-10.3081
▁ngọn	-10.3093
▁ninh	-10.3093
▁im	-10.3095
▁kêu	-10.3097
▁command	-10.31
▁Đầu	-10.3101
▁Navy	-10.3101
▁Indian	-10.3103
▁individual	-10.3104
▁nàng	-10.3105
▁debut	-10.3105
▁join	-10.3106
▁ships	-10.3109
19	-10.3113
▁trồng	-10.3114
▁70	-10.3116
ize	-10.3116
▁function	-10.3129
▁ha	-10.3134
▁increased	-10.3154
▁USD	-10.3155
▁Cứ	-10.316
▁ancient	-10.3164
▁300	-10.3166
▁Only	-10.3167
▁mỏ	-10.3167
▁languages	-10.317
▁dường	-10.3177
▁Cổ	-10.3186
▁hot	-10.3191
▁construction	-10.3193
▁Right	-10.3197
▁Islands	-10.3203
▁ghét	-10.3214
▁đới	-10.3216
▁report	-10.322
▁carbon	-10.322
▁90	-10.3227
▁larger	-10.3233
les	-10.3234
▁ổng	-10.3239
▁active	-10.3239
▁cảng	-10.324
▁meaning	-10.3244
▁Greek	-10.3256
▁trú	-10.326
▁Cuba	-10.326
▁ngu	-10.3261
▁đốt	-10.3265
▁decision	-10.3266
▁mạc	-10.3268
▁normal	-10.3268
▁Ru	-10.3268
▁writing	-10.3272
▁Đối	-10.3277
▁particularly	-10.3293
▁hương	-10.3293
▁names	-10.3298
▁pain	-10.3298
oc	-10.3303
▁allow	-10.3304
▁operations	-10.3305
▁va	-10.3308
▁according	-10.3309
▁Cảm	-10.3323
▁Kong	-10.3323
▁hồn	-10.3325
ren	-10.3326
▁products	-10.333
▁likely	-10.3348
▁earlier	-10.3354
▁waiting	-10.3355
▁somebody	-10.3358
▁u	-10.3361
▁kỉ	-10.3365
▁khuẩn	-10.3368
▁Đào	-10.3369
▁plant	-10.3375
▁piece	-10.3383
▁Tòa	-10.3387
▁Hệ	-10.339
▁looked	-10.339
▁tour	-10.3392
+	-10.3394
▁society	-10.34
▁view	-10.3407
▁approximately	-10.3413
▁phe	-10.3431
▁Nội	-10.3432
▁Chile	-10.3433
▁Bồ	-10.3439
▁Giống	-10.344
led	-10.3443
▁người	-10.3454
▁questions	-10.3458
▁fighting	-10.3465
▁giận	-10.347
▁physical	-10.3474
▁mission	-10.3474
▁hà	-10.3477
▁produce	-10.3478
▁hour	-10.3479
▁phẫu	-10.3484
▁hoảng	-10.3487
▁Street	-10.3492
▁giảng	-10.3492
▁complete	-10.3495
ô	-10.35
▁nh	-10.3501
▁Second	-10.3502
▁drug	-10.3502
▁Si	-10.3503
▁Serie	-10.3505
▁chu	-10.3512
zi	-10.3515
▁standard	-10.3518
▁Số	-10.3522
▁Berlin	-10.3533
▁afraid	-10.3535
▁khứ	-10.3538
▁bed	-10.3538
▁leader	-10.3538
▁Pacific	-10.3542
▁effects	-10.3545
▁conditions	-10.3566
of	-10.3572
▁Chẳng	-10.3573
▁quái	-10.3575
▁tảng	-10.3576
▁Sinh	-10.3579
▁ngang	-10.3582
▁County	-10.3583
▁includes	-10.3584
▁ability	-10.3585
▁khuôn	-10.3589
▁western	-10.3597
▁Men	-10.3598
▁liền	-10.3598
▁specific	-10.3603
▁step	-10.3604
▁thank	-10.3606
▁hẳn	-10.3613
▁mệnh	-10.3614
▁stories	-10.3617
▁Florida	-10.3626
▁thượng	-10.3631
▁worry	-10.3632
▁Nhìn	-10.3633
▁heavy	-10.3635
ea	-10.3641
▁Bar	-10.3644
▁studies	-10.3645
ene	-10.3646
▁dãy	-10.3647
▁2008.	-10.3656
▁2009.	-10.3659
▁cản	-10.3667
▁2010.	-10.3668
▁khích	-10.3679
▁legal	-10.3684
▁fear	-10.3686
▁added	-10.3688
▁hair	-10.3705
▁tám	-10.3716
▁blue	-10.3719
▁speed	-10.3732
▁o	-10.3738
▁UK	-10.3738
wi	-10.374
▁cold	-10.3742
ring	-10.3744
▁shall	-10.3749
▁novel	-10.3756
▁đẳng	-10.3758
▁ghế	-10.3761
▁tha	-10.3762
▁kém	-10.3764
▁ngốc	-10.3764
▁Za	-10.3767
▁aren	-10.377
▁nearly	-10.378
▁park	-10.3784
▁seem	-10.3795
▁Hôm	-10.38
▁3,	-10.3811
▁tồi	-10.3814
▁Ku	-10.3822
▁competition	-10.3823
▁Van	-10.3826
▁Day	-10.3829
▁1993	-10.3834
▁Cùng	-10.3834
▁contact	-10.3835
▁network	-10.3847
based	-10.3848
▁Ge	-10.3862
25	-10.3866
▁Ri	-10.3866
▁1950	-10.3869
▁Emperor	-10.3877
▁xứng	-10.388
▁Thông	-10.3881
▁Bill	-10.3885
su	-10.3898
▁replaced	-10.39
▁everybody	-10.3901
au	-10.3903
▁nine	-10.3903
▁Bu	-10.3905
▁Entertainment	-10.391
▁environment	-10.391
▁35	-10.3912
▁dance	-10.3914
▁deep	-10.392
▁tụ	-10.3934
▁ended	-10.3937
0	-10.3939
▁College	-10.3941
▁rắc	-10.3941
▁dõi	-10.3944
▁forms	-10.3946
▁Wales	-10.3948
▁mảnh	-10.3952
▁Malaysia	-10.3957
▁completed	-10.3957
▁thiểu	-10.3958
▁ro	-10.3965
▁results	-10.3968
ker	-10.3971
▁hảo	-10.3978
▁kept	-10.3983
▁influence	-10.3986
▁2003	-10.3993
▁simply	-10.3995
▁Điển	-10.3998
▁sổ	-10.4001
▁miêu	-10.4007
15	-10.4019
▁degree	-10.4022
▁Spain	-10.4027
▁directly	-10.4033
▁units	-10.4035
▁Award	-10.4036
ê	-10.4039
▁originally	-10.4039
▁unit	-10.4041
▁2004,	-10.4052
▁Town	-10.4056
▁board	-10.4057
▁ice	-10.4058
▁ngại	-10.4066
▁Song	-10.4068
▁smaller	-10.4069
▁becoming	-10.4071
▁hào	-10.4073
ise	-10.408
▁previous	-10.4085
▁điệu	-10.4092
▁cỡ	-10.4092
▁Another	-10.4092
tr	-10.4095
▁Christian	-10.4096
▁Thánh	-10.4101
▁dark	-10.4114
▁placed	-10.4115
op	-10.4119
ria	-10.4121
▁policy	-10.413
▁Han	-10.413
▁difference	-10.4134
▁được	-10.4135
▁paper	-10.4139
▁sánh	-10.4141
▁[	-10.4143
▁Hall	-10.4147
tion	-10.4155
sha	-10.416
▁tr	-10.416
▁Ja	-10.4165
▁places	-10.4168
▁Shin	-10.4176
▁ức	-10.4179
▁Prime	-10.418
▁huh	-10.4189
▁types	-10.4193
mp	-10.4196
▁travel	-10.4205
im	-10.4219
▁color	-10.4227
▁continue	-10.4228
▁drive	-10.4229
▁Khoa	-10.4233
▁đập	-10.4234
▁price	-10.4235
▁nợ	-10.4238
▁voice	-10.4238
▁goal	-10.4241
▁starting	-10.4242
▁camera	-10.425
▁Iraq	-10.4261
▁IV	-10.4262
▁learned	-10.4266
▁offer	-10.4273
▁separate	-10.4278
▁cm	-10.4279
▁1989	-10.4281
▁feeling	-10.4283
▁asking	-10.4284
▁ảo	-10.4286
▁crazy	-10.429
▁Captain	-10.4293
▁khơi	-10.4296
ial	-10.4299
90	-10.4302
▁More	-10.4305
▁location	-10.4312
▁biện	-10.4313
▁worth	-10.4314
▁humans	-10.4315
▁Joseph	-10.4316
▁tròn	-10.4317
ura	-10.432
▁kh	-10.4328
▁software	-10.4331
zo	-10.4334
ence	-10.4344
▁doctor	-10.4345
▁Mac	-10.435
▁Sân	-10.4351
▁minute	-10.4352
▁studio	-10.4352
▁commercial	-10.4354
▁Địa	-10.4358
▁lâm	-10.4367
▁khuyến	-10.4369
▁Ti	-10.4399
▁serious	-10.4403
▁lỗ	-10.4404
▁spend	-10.4404
▁finished	-10.4405
▁mê	-10.4405
▁phiền	-10.4405
ep	-10.4406
▁1943	-10.4406
▁management	-10.4407
▁appointed	-10.4414
▁drink	-10.4414
▁Egypt	-10.4414
▁dứt	-10.4423
▁Games	-10.4432
du	-10.4434
▁Tổ	-10.4436
mar	-10.4445
▁remains	-10.4449
▁Best	-10.4456
▁street	-10.4456
▁ủy	-10.448
▁2007.	-10.4484
▁giấu	-10.4491
▁equal	-10.4494
▁interesting	-10.4498
▁Tập	-10.4501
▁Tin	-10.4504
▁forced	-10.4507
▁chinh	-10.4511
▁issue	-10.4511
▁Tri	-10.4519
▁Har	-10.4519
▁birth	-10.4527
▁#	-10.4529
▁Over	-10.4529
▁sun	-10.454
▁axit	-10.454
▁fourth	-10.4542
▁sạn	-10.4543
ase	-10.4551
▁thở	-10.4552
▁practice	-10.4553
▁Trời	-10.4555
▁territory	-10.4558
▁contract	-10.4559
▁economy	-10.4561
▁animal	-10.4575
80	-10.4581
red	-10.459
▁tiềm	-10.4591
▁damage	-10.4595
▁required	-10.4596
▁meant	-10.4597
▁Harry	-10.4598
▁32	-10.46
▁direct	-10.4601
▁shoot	-10.4601
▁Time	-10.4605
▁plays	-10.4605
▁entered	-10.4605
▁points	-10.4611
▁dad	-10.4617
▁thảm	-10.462
▁levels	-10.4621
▁bối	-10.463
50	-10.4637
▁Ah	-10.4648
▁Olympic	-10.465
▁stars	-10.4652
▁file	-10.4664
▁players	-10.4673
ita	-10.4674
▁pha	-10.4681
▁2002	-10.4687
om	-10.4692
▁teams	-10.4697
▁Club	-10.4703
▁điển	-10.4707
▁mostly	-10.4707
▁Lake	-10.471
▁Center	-10.4711
▁songs	-10.472
ship	-10.4728
ju	-10.4729
▁giam	-10.4738
▁hỏng	-10.474
▁Colombia	-10.4745
▁via	-10.4746
▁activity	-10.4747
▁clean	-10.4749
for	-10.4754
▁Times	-10.4754
▁respect	-10.4757
▁flight	-10.4758
▁điệp	-10.4759
rin	-10.4762
▁chép	-10.4762
▁robot	-10.4766
▁loss	-10.4769
▁ám	-10.4771
▁giấc	-10.4774
▁supply	-10.4777
▁super	-10.4778
▁thám	-10.478
uk	-10.4782
▁4,	-10.4782
▁khô	-10.4786
▁sales	-10.4787
don	-10.4789
▁thus	-10.4795
▁feed	-10.4796
▁45	-10.4797
▁subject	-10.4797
▁eastern	-10.4799
▁civil	-10.4803
▁mom	-10.4811
▁showed	-10.4811
▁grow	-10.4815
fi	-10.4817
▁hiển	-10.482
▁helped	-10.4821
▁patients	-10.4823
▁Kết	-10.4828
▁khấu	-10.4833
▁primary	-10.4836
▁chuột	-10.4839
▁Lý	-10.4846
ino	-10.4846
▁Ke	-10.4848
▁Hình	-10.4851
▁Every	-10.4854
▁honor	-10.4859
▁square	-10.4862
▁studied	-10.4867
▁online	-10.4868
▁vịnh	-10.4869
ries	-10.487
▁forward	-10.4872
45	-10.488
▁issues	-10.4883
▁hỏa	-10.4885
▁box	-10.4887
▁Dan	-10.489
▁Big	-10.4892
▁trộm	-10.4898
▁whom	-10.49
▁cất	-10.4901
▁independent	-10.4908
ex	-10.4914
▁responsible	-10.4923
▁Tối	-10.4925
▁đền	-10.4936
▁provided	-10.4942
pro	-10.4945
▁launched	-10.495
▁Football	-10.4954
▁style	-10.4954
tes	-10.4956
▁Nhĩ	-10.4957
▁lành	-10.4959
▁spread	-10.496
▁Alexander	-10.4961
▁Their	-10.4969
▁singer	-10.4974
▁đèn	-10.4981
▁contains	-10.4982
▁referred	-10.4983
▁mưu	-10.4983
mon	-10.4986
-3	-10.4987
▁potential	-10.4987
▁Tự	-10.4989
▁cục	-10.499
han	-10.499
tter	-10.4993
▁pop	-10.4994
▁nô	-10.4995
▁Q	-10.4997
▁Học	-10.5001
▁lôi	-10.5004
▁bank	-10.5014
▁killing	-10.5021
▁hate	-10.5024
▁movie	-10.5027
▁Before	-10.5033
▁Victoria	-10.5036
▁hỗn	-10.5039
▁shown	-10.504
▁sit	-10.5042
▁1930	-10.5043
▁thạch	-10.5043
▁image	-10.5044
▁Kh	-10.5045
ey	-10.5046
▁nhầm	-10.5052
▁elected	-10.5056
▁ain	-10.506
ble	-10.5062
▁Company	-10.5068
▁stated	-10.507
▁length	-10.5073
▁kg	-10.5073
ping	-10.5075
▁limited	-10.5076
tro	-10.5077
▁lừa	-10.5077
▁Thôi	-10.5087
▁plants	-10.509
lic	-10.5093
▁response	-10.5096
ier	-10.5103
▁immediately	-10.5104
▁dog	-10.5106
▁below	-10.5107
ius	-10.5112
▁Seoul	-10.5113
▁vây	-10.5113
▁đồn	-10.5119
▁church	-10.5119
▁message	-10.5122
You	-10.5123
▁Pre	-10.5124
▁Cape	-10.5125
▁touch	-10.5126
▁tung	-10.5127
▁organization	-10.5131
▁master	-10.514
▁tiếc	-10.5141
▁memory	-10.5144
gan	-10.5146
▁Ồ	-10.5147
▁Those	-10.5148
▁lông	-10.5149
▁Lực	-10.5151
▁ư	-10.5153
▁Art	-10.5154
▁content	-10.5158
▁del	-10.5164
▁table	-10.5164
q	-10.5164
▁hầm	-10.517
▁charge	-10.5176
▁gỗ	-10.5176
▁destroyed	-10.5191
▁van	-10.5194
▁wide	-10.5208
je	-10.521
▁lẻ	-10.5216
▁enemy	-10.5218
ab	-10.5219
ft	-10.5221
▁dream	-10.5223
/	-10.5225
▁chìm	-10.5229
▁Mà	-10.523
▁temperature	-10.523
▁đón	-10.5231
▁Pi	-10.5236
▁positive	-10.5243
▁lồ	-10.5243
▁quà	-10.5244
▁Act	-10.5246
▁khổng	-10.5251
▁visit	-10.5253
▁5,	-10.5255
▁cross	-10.5255
▁Đô	-10.5255
▁!	-10.5261
▁Cảnh	-10.5263
▁greater	-10.5263
▁Un	-10.5265
▁nhóc	-10.5267
▁forget	-10.5276
Th	-10.528
▁skin	-10.5286
▁Chicago	-10.5286
▁Ju	-10.5291
▁focus	-10.5292
▁Show	-10.5295
▁Three	-10.5298
\	-10.5302
▁Mùa	-10.5302
▁Đường	-10.5302
▁huyết	-10.5306
▁imagine	-10.5311
▁recent	-10.5314
ski	-10.5316
▁dám	-10.5325
▁prison	-10.5329
▁TCN	-10.5335
▁Institute	-10.5335
▁raised	-10.5337
▁Awards	-10.5339
▁rules	-10.5339
▁Hu	-10.5342
▁căng	-10.5343
tan	-10.5344
▁(2	-10.5345
▁estimated	-10.5347
và	-10.5351
▁Academy	-10.5354
▁religious	-10.5356
side	-10.536
▁election	-10.5362
▁ideas	-10.5362
▁soldiers	-10.5363
▁grew	-10.5368
▁Thần	-10.5368
ville	-10.5369
▁yeah	-10.5371
▁tree	-10.5385
▁seeing	-10.5386
▁Jean	-10.5393
▁Gia	-10.5396
▁Shi	-10.5398
pi	-10.5398
▁Che	-10.5401
▁Women	-10.5402
▁yes	-10.5407
▁Bất	-10.5411
tri	-10.5413
▁Sal	-10.5416
▁Peru	-10.5422
tal	-10.5423
#244;	-10.5426
▁lãng	-10.5433
ding	-10.5436
▁Court	-10.5444
▁Which	-10.5444
▁hãi	-10.5446
bar	-10.5447
▁Old	-10.5448
▁răng	-10.545
▁Its	-10.5455
▁boys	-10.5458
qui	-10.5464
▁weight	-10.5464
▁distance	-10.5467
▁Fa	-10.5467
▁lão	-10.547
▁highly	-10.5473
▁failed	-10.5479
▁nhấn	-10.5479
▁financial	-10.5481
▁wind	-10.5481
▁older	-10.5489
▁dollars	-10.5489
▁Ver	-10.5498
ff	-10.5503
▁cool	-10.5507
▁perhaps	-10.5507
▁chả	-10.5508
▁explain	-10.5509
▁search	-10.5515
▁nuclear	-10.5515
▁league	-10.5517
▁majority	-10.5522
▁Giám	-10.5524
ara	-10.5526
▁horse	-10.5527
▁Đặc	-10.5529
▁Middle	-10.5532
▁ngon	-10.5533
▁lũng	-10.5533
▁Sĩ	-10.5546
▁bá	-10.5549
▁mainly	-10.5549
▁growing	-10.555
▁province	-10.5557
▁Game	-10.5557
▁except	-10.5563
▁vầ	-10.5564
len	-10.5568
▁Nigeria	-10.5574
▁cam	-10.5576
▁thể	-10.5579
ris	-10.5592
▁Boy	-10.5593
▁object	-10.5594
Ma	-10.5595
không	-10.5596
▁Phòng	-10.5606
▁Hungary	-10.5609
▁becomes	-10.561
▁paid	-10.5618
can	-10.5624
▁thousands	-10.5624
▁Santa	-10.5627
▁Both	-10.5627
▁choose	-10.563
▁Afghanistan	-10.5632
▁(3	-10.5633
▁Pakistan	-10.5634
nes	-10.5635
▁Disney	-10.5635
▁remain	-10.5636
▁begin	-10.5638
▁Britain	-10.5639
ola	-10.5646
▁perfect	-10.5649
▁khán	-10.5651
35	-10.5655
▁vững	-10.5656
▁đựng	-10.5656
▁Thưa	-10.5664
▁Fu	-10.5665
▁account	-10.567
▁regions	-10.5678
▁6,	-10.5682
▁sell	-10.5685
▁lines	-10.5686
▁Today	-10.5692
▁commonly	-10.5696
Applause	-10.5696
▁mouth	-10.57
ap	-10.5709
▁Bob	-10.571
▁breed	-10.5712
▁status	-10.5713
▁fell	-10.5718
gar	-10.572
▁Col	-10.5731
▁families	-10.5732
tz	-10.5733
▁CD	-10.5737
▁Smith	-10.5739
▁Mike	-10.575
▁train	-10.5759
▁List	-10.5759
▁Bank	-10.5764
▁Anna	-10.5767
san	-10.5774
lon	-10.5777
▁plane	-10.5786
▁Cor	-10.5788
▁mát	-10.579
▁elements	-10.579
cy	-10.5793
ray	-10.5795
▁Bác	-10.5795
▁1999	-10.58
▁islands	-10.5807
▁anime	-10.5812
▁green	-10.5812
▁Khoảng	-10.5819
▁nation	-10.5822
▁happening	-10.5829
▁Far	-10.583
▁Young	-10.5832
ists	-10.5832
▁opening	-10.5836
▁additional	-10.5836
▁Arab	-10.5841
▁appear	-10.5842
▁inter	-10.5843
field	-10.5845
▁cultural	-10.5845
▁ahead	-10.5854
▁gives	-10.5855
▁kìa	-10.5862
king	-10.5865
▁dư	-10.5869
▁weapons	-10.5877
▁manga	-10.5878
▁Vua	-10.588
▁nhắn	-10.5881
▁Dubai	-10.5884
▁Quan	-10.5886
▁Tr	-10.5887
▁beyond	-10.5887
▁student	-10.5889
▁uses	-10.589
▁seat	-10.5891
▁lies	-10.5901
▁Northern	-10.5905
▁Nintendo	-10.5906
▁mùi	-10.5907
▁Following	-10.5909
▁Ross	-10.5921
▁chief	-10.5924
▁Warsaw	-10.5926
▁Church	-10.5932
▁Thanh	-10.5934
▁vở	-10.594
▁lặp	-10.5946
▁dao	-10.5947
▁Green	-10.5951
▁8,	-10.5952
▁400	-10.5953
▁camp	-10.5953
▁climate	-10.5953
▁appears	-10.5959
▁exist	-10.5961
▁mèo	-10.5964
▁Eastern	-10.5966
▁Carl	-10.5972
ua	-10.5983
▁rắn	-10.5984
▁method	-10.5987
38	-10.5987
▁artist	-10.5993
11	-10.5996
12	-10.6001
▁recently	-10.6007
▁buôn	-10.6009
▁gi	-10.6011
án	-10.6011
▁quê	-10.6017
▁universe	-10.6019
like	-10.6022
▁nhuận	-10.6023
▁divided	-10.6024
▁sụp	-10.6026
▁knowledge	-10.603
▁triết	-10.6033
▁ordered	-10.6047
▁native	-10.6048
ok	-10.605
ities	-10.6056
We	-10.6057
▁đợt	-10.6058
▁Department	-10.6058
▁Life	-10.6058
▁interested	-10.6059
ken	-10.6061
▁serve	-10.6066
▁Congress	-10.6066
▁Thị	-10.6071
▁Open	-10.6073
▁tax	-10.6081
đ	-10.6083
▁worse	-10.6086
▁đói	-10.6092
▁Tiểu	-10.6096
▁plans	-10.6102
▁concept	-10.6104
▁missing	-10.6105
▁patient	-10.611
▁variety	-10.611
kh	-10.6111
▁2003,	-10.612
pt	-10.6123
▁1920	-10.6123
▁Hơn	-10.6128
▁purpose	-10.6138
▁Virginia	-10.614
▁Top	-10.6141
▁crew	-10.6142
▁{	-10.6143
▁Apple	-10.6144
▁Asian	-10.6144
▁beat	-10.6144
ros	-10.6153
▁films	-10.6156
▁activities	-10.6156
ology	-10.6157
▁lọc	-10.6161
ach	-10.6163
▁officially	-10.6166
▁tắm	-10.617
▁wall	-10.6173
▁Would	-10.6176
▁operation	-10.6177
▁Trận	-10.6178
▁engine	-10.6186
▁Gar	-10.6187
à	-10.6188
ban	-10.6189
▁schools	-10.6192
▁li	-10.6195
▁Under	-10.6196
▁ran	-10.6198
▁Tiếng	-10.6202
▁hundred	-10.6208
▁chôn	-10.6209
▁150	-10.6212
▁typically	-10.6226
-4	-10.6229
▁Fi	-10.623
▁chín	-10.6232
▁expected	-10.6234
vin	-10.6237
▁impact	-10.6245
▁1986	-10.6251
▁cột	-10.6255
▁officer	-10.6257
▁1975	-10.6263
▁dã	-10.6263
▁Port	-10.6267
tor	-10.6271
▁reign	-10.6274
▁letter	-10.6277
▁Jim	-10.628
▁scientific	-10.628
70	-10.6288
▁huge	-10.6297
▁khuyên	-10.6299
▁thiệp	-10.631
▁Once	-10.631
▁widely	-10.6311
▁tụi	-10.6315
La	-10.6315
▁condition	-10.6319
▁university	-10.6324
▁ones	-10.6331
14	-10.6335
▁dangerous	-10.6336
▁ấm	-10.634
▁tốn	-10.6347
▁Nguyên	-10.6353
ou	-10.6361
▁tuyết	-10.6364
▁store	-10.6365
▁đen	-10.6366
car	-10.6369
▁trạm	-10.6378
▁những	-10.6378
▁chemical	-10.6379
▁1981	-10.6385
▁Diego	-10.6385
▁prevent	-10.6385
▁wear	-10.639
▁Ten	-10.6394
▁straight	-10.6397
▁Loài	-10.64
▁male	-10.6403
▁ring	-10.6406
▁giường	-10.6407
▁Arthur	-10.6411
▁scale	-10.6411
▁thợ	-10.6414
▁Thống	-10.6418
▁floor	-10.6419
▁Listen	-10.6432
▁calling	-10.6436
);	-10.6436
▁closed	-10.6437
ns	-10.6439
▁Cao	-10.6441
ano	-10.6442
▁division	-10.6445
▁với	-10.6447
▁forest	-10.6458
▁broke	-10.6462
▁thẻ	-10.6465
▁hổ	-10.6466
▁press	-10.6471
▁quality	-10.6487
▁hồng	-10.6488
▁liều	-10.6491
ser	-10.6492
75	-10.6493
▁7,	-10.6496
▁attempt	-10.6497
▁Chris	-10.6497
▁10,	-10.6497
▁winter	-10.6501
▁race	-10.6502
▁multiple	-10.6503
▁đùa	-10.6509
▁lỏng	-10.6513
net	-10.6513
▁promise	-10.6515
▁:	-10.6516
▁đằng	-10.6516
▁previously	-10.6517
▁murder	-10.6517
▁Master	-10.652
▁2000,	-10.6522
▁Hồ	-10.6522
▁Moon	-10.6525
ide	-10.6528
▁bận	-10.6531
ow	-10.6534
▁draw	-10.6538
▁mu	-10.6538
▁airport	-10.6547
ac	-10.6548
▁dính	-10.655
▁Daniel	-10.655
▁kĩ	-10.655
▁target	-10.6551
▁approach	-10.6566
55	-10.6566
▁Luật	-10.6575
▁shouldn	-10.6577
sky	-10.6579
▁xưa	-10.6583
my	-10.6583
▁caught	-10.6583
▁trứng	-10.659
▁invasion	-10.6594
▁Venezuela	-10.6596
▁Đạo	-10.6612
▁Year	-10.6613
▁bơi	-10.6614
ối	-10.6616
our	-10.6623
▁earth	-10.6626
▁1998	-10.6626
▁Tính	-10.6628
▁soạn	-10.6629
ez	-10.6633
▁mountain	-10.6634
▁Later	-10.6634
2)	-10.6636
▁2006.	-10.6637
vis	-10.6641
▁opportunity	-10.6646
yo	-10.6647
99	-10.665
val	-10.6659
05	-10.666
▁expect	-10.6664
▁operating	-10.6665
fer	-10.6666
▁Manchester	-10.6668
▁direction	-10.6672
▁numerous	-10.6675
▁Elizabeth	-10.6679
▁đàm	-10.668
▁trip	-10.6685
▁Brown	-10.6687
▁fly	-10.6688
▁đai	-10.6689
zu	-10.6691
▁đồi	-10.6693
▁Hoặc	-10.6694
▁chở	-10.6694
▁confirmed	-10.6697
▁carried	-10.6702
▁learning	-10.6702
let	-10.6709
▁Phương	-10.6717
▁resources	-10.6718
▁Committee	-10.672
▁taught	-10.6723
▁scene	-10.6724
ven	-10.6728
▁von	-10.6734
izing	-10.6734
▁trăng	-10.6739
▁Columbia	-10.6741
▁cú	-10.6744
▁greatest	-10.6749
ative	-10.6751
▁se	-10.6757
▁buildings	-10.6759
°	-10.6763
▁therefore	-10.6765
tus	-10.6766
▁somewhere	-10.6774
▁2018,	-10.6776
ure	-10.6778
▁Chiếc	-10.678
▁conflict	-10.6782
▁foot	-10.6784
▁Chu	-10.6788
▁Lady	-10.6798
▁heat	-10.6804
ised	-10.6805
tel	-10.6806
▁Ali	-10.681
▁Moscow	-10.681
▁mực	-10.6815
▁Premier	-10.6818
▁necessary	-10.6822
▁Er	-10.6828
▁nghìn	-10.6829
▁host	-10.6831
▁tô	-10.6832
▁Mấy	-10.6834
▁realize	-10.6836
ini	-10.6836
▁Province	-10.6845
▁presence	-10.6845
▁túi	-10.6854
ose	-10.6855
▁Phát	-10.6856
▁Nhóm	-10.6862
▁Tình	-10.6866
▁cẩn	-10.6867
▁tournament	-10.6867
▁rich	-10.687
▁ngũ	-10.6871
▁supported	-10.6874
▁strength	-10.6891
▁gợi	-10.6898
48	-10.6901
▁Cu	-10.6903
37	-10.6917
▁solution	-10.6919
▁1985	-10.6924
▁Museum	-10.6928
17	-10.6931
ps	-10.6935
br	-10.6937
▁Scott	-10.6951
▁FIFA	-10.6951
dan	-10.6964
ā	-10.6967
▁slow	-10.697
▁finish	-10.6972
▁directed	-10.698
▁2018.	-10.698
▁gián	-10.6982
ile	-10.6989
▁Album	-10.6995
▁partner	-10.6996
her	-10.6997
▁Hill	-10.6999
well	-10.7005
▁college	-10.7005
ot	-10.701
▁carry	-10.7011
▁Live	-10.7012
▁twice	-10.7013
ō	-10.7013
▁ép	-10.7013
▁acting	-10.7014
▁agreed	-10.7015
ata	-10.7015
▁negative	-10.7017
85	-10.7019
▁Billboard	-10.7024
▁escape	-10.7033
▁lặng	-10.7045
ud	-10.7047
ev	-10.7057
▁Records	-10.7057
▁tia	-10.7057
▁port	-10.7062
▁standing	-10.7067
▁Thì	-10.7071
▁Uganda	-10.7071
3%	-10.7071
berg	-10.7079
▁reality	-10.7079
▁Dự	-10.7093
▁Bằng	-10.7095
ai	-10.7096
▁anybody	-10.7098
▁9,	-10.7099
▁pin	-10.7099
▁develop	-10.7107
▁1972	-10.7111
▁models	-10.7113
Đ	-10.712
▁sources	-10.7137
▁anyway	-10.7137
▁Government	-10.7138
▁lui	-10.7147
▁Each	-10.715
▁metal	-10.7151
▁ở	-10.7152
▁Sorry	-10.7156
▁stopped	-10.7161
▁lie	-10.7165
▁Ottoman	-10.7173
▁guns	-10.7174
▁thousand	-10.7177
▁Thay	-10.718
▁card	-10.7181
39	-10.7186
▁\	-10.7189
09	-10.719
▁awarded	-10.7194
▁Par	-10.7198
▁victory	-10.7199
66	-10.7202
▁cừu	-10.7204
▁quỷ	-10.7207
▁screen	-10.7208
▁chừng	-10.7211
▁tựa	-10.7212
▁defeated	-10.7215
▁Ngoại	-10.7215
▁bodies	-10.7219
▁characters	-10.7222
illa	-10.7223
ning	-10.7227
▁individuals	-10.7227
▁dinner	-10.7227
har	-10.7228
▁Alex	-10.7229
▁ng	-10.7231
▁Bệnh	-10.7234
▁remaining	-10.7234
0.000	-10.7235
hi	-10.7237
▁basic	-10.724
▁hô	-10.7245
▁primarily	-10.7247
▁industrial	-10.7248
▁fan	-10.7254
▁khóc	-10.7256
▁muộn	-10.7258
▁path	-10.7261
▁đậu	-10.7262
▁dò	-10.7265
▁gan	-10.7269
▁bùng	-10.7273
ica	-10.7275
86	-10.728
▁occur	-10.728
▁mươi	-10.7282
▁Australian	-10.7282
▁Joe	-10.7283
▁Ôi	-10.7295
▁túc	-10.7295
▁Christmas	-10.7296
▁Tour	-10.7297
▁Máy	-10.7298
▁oxy	-10.7298
▁Um	-10.7299
▁amazing	-10.7302
▁micro	-10.7303
▁1955	-10.7303
▁pull	-10.7307
▁(20	-10.7309
▁fully	-10.7314
▁huống	-10.7314
▁bridge	-10.7314
▁Max	-10.7314
▁defeat	-10.7316
▁Law	-10.7319
24	-10.7319
▁Chương	-10.7322
▁Francis	-10.7326
▁Jan	-10.7331
có	-10.7333
▁proposed	-10.7333
-20	-10.7334
▁Wait	-10.7337
▁chấn	-10.7338
▁digital	-10.7342
▁11,	-10.7343
▁đống	-10.7343
▁bia	-10.7346
▁Đôi	-10.7351
ub	-10.7352
▁magazine	-10.7353
▁Min	-10.7355
ese	-10.7357
▁(4	-10.7372
rus	-10.7375
▁possibly	-10.7376
▁rise	-10.7377
▁Ph	-10.7382
▁dâm	-10.7382
21	-10.7386
idae	-10.7387
▁Bên	-10.7387
▁Catholic	-10.739
▁extra	-10.739
▁feature	-10.7395
yan	-10.74
port	-10.7401
ella	-10.7402
▁Blue	-10.7402
64	-10.7404
▁reasons	-10.7404
▁Val	-10.7407
▁teacher	-10.741
▁sếp	-10.741
▁captured	-10.7414
▁relatively	-10.7417
ik	-10.7423
▁waste	-10.7425
▁royal	-10.7445
zy	-10.7451
▁transport	-10.7451
▁Nations	-10.7451
▁Fe	-10.7453
▁drop	-10.7455
▁accept	-10.7455
all	-10.7455
▁Hạ	-10.7456
▁attended	-10.7458
▁Phiên	-10.7463
32	-10.7464
▁multi	-10.7475
▁wedding	-10.7482
▁boat	-10.7496
▁Nu	-10.7497
sia	-10.7502
▁Vấn	-10.7507
Re	-10.7508
▁TED	-10.7508
▁staff	-10.7508
▁Real	-10.751
▁property	-10.7511
▁shut	-10.7517
▁miss	-10.7518
18	-10.7524
bằng	-10.7524
▁allows	-10.7527
bit	-10.753
▁sữa	-10.7531
▁appearance	-10.7533
▁Áo	-10.7534
▁sợi	-10.754
▁1979	-10.7544
▁um	-10.7546
16	-10.7546
▁kilometres	-10.7547
ichi	-10.7553
$	-10.7553
▁Bell	-10.7554
▁Ly	-10.7554
▁Any	-10.756
▁sounds	-10.7561
▁Give	-10.7566
▁treo	-10.7569
13	-10.7571
▁nhắm	-10.7571
▁visual	-10.7571
▁Albert	-10.7579
▁map	-10.7584
▁compared	-10.7587
▁ourselves	-10.7588
▁1997	-10.7588
bel	-10.7591
In	-10.7591
▁shape	-10.7595
▁Yo	-10.7596
▁hydro	-10.7597
▁ngọt	-10.76
▁lady	-10.7606
▁crime	-10.7607
▁adopted	-10.7607
#224;	-10.7608
▁independence	-10.7609
▁handle	-10.7619
▁zero	-10.7623
▁Ji	-10.7626
▁Also	-10.7637
▁bụng	-10.7637
▁covered	-10.7647
▁fuel	-10.7648
▁Guinea	-10.7649
▁Tiến	-10.7651
▁brand	-10.7651
wood	-10.7652
▁worldwide	-10.7654
ão	-10.7658
▁survive	-10.7663
▁chain	-10.7667
▁claimed	-10.7668
▁biết	-10.767
65	-10.7671
▁wild	-10.7673
▁Despite	-10.7674
▁unique	-10.7683
▁fleet	-10.7684
▁agent	-10.7691
▁leaders	-10.7694
▁Office	-10.7695
war	-10.7698
▁mãn	-10.7698
▁Boston	-10.7699
▁Tra	-10.77
▁Nobel	-10.7702
▁Alice	-10.7703
▁route	-10.7703
▁Wa	-10.7703
▁planned	-10.7703
▁lang	-10.7704
▁nhẫn	-10.7707
▁objects	-10.7709
ford	-10.771
▁loved	-10.771
▁bội	-10.7712
▁Mars	-10.7714
▁xóa	-10.7717
▁initially	-10.772
ible	-10.7724
▁Oliver	-10.7725
▁herself	-10.7731
49	-10.7733
▁Airport	-10.7736
▁Rio	-10.7739
▁task	-10.774
68	-10.7744
▁behavior	-10.7746
▁YouTube	-10.7752
▁kèm	-10.7753
▁cast	-10.7755
▁author	-10.7755
▁Media	-10.7756
▁Kar	-10.7756
ric	-10.7758
▁Khan	-10.7765
ông	-10.7766
▁thoải	-10.7775
What	-10.7776
▁vote	-10.7779
▁FA	-10.7782
▁BBC	-10.7782
▁xoay	-10.7783
▁lò	-10.7785
500	-10.7786
▁Chào	-10.7788
36	-10.7791
▁stupid	-10.7794
▁agree	-10.7795
▁1990,	-10.7803
▁Ocean	-10.7807
▁Dad	-10.7807
▁declared	-10.7809
ned	-10.781
▁1940	-10.7811
▁Hitler	-10.7811
êu	-10.7811
▁reaction	-10.7812
era	-10.7814
▁centre	-10.7814
▁treat	-10.7815
ani	-10.7822
27	-10.7829
▁san	-10.783
▁Kenya	-10.7833
mu	-10.7837
44	-10.7837
▁Mục	-10.7841
▁mù	-10.7849
▁defined	-10.7851
▁occurred	-10.7853
▁Southern	-10.7857
▁Quá	-10.7858
▁Gen	-10.7859
▁Atlantic	-10.7864
▁double	-10.7867
▁đoạt	-10.7869
▁vỏ	-10.787
▁Little	-10.7871
95	-10.7875
▁trầm	-10.7878
▁centuries	-10.7882
▁Sara	-10.7884
▁Phó	-10.7887
▁Festival	-10.789
▁developing	-10.7893
▁Gold	-10.7893
▁dàn	-10.7894
▁Mc	-10.7895
▁thuần	-10.7896
ification	-10.7897
▁vuông	-10.7903
▁Video	-10.7912
▁thề	-10.7914
▁Line	-10.7921
ơ	-10.7923
▁despite	-10.7928
▁holding	-10.7931
▁bus	-10.7932
▁2001,	-10.7934
▁basis	-10.794
▁dọn	-10.7941
▁1994	-10.7945
▁cổng	-10.7946
▁recognized	-10.7956
▁xinh	-10.7956
▁Wi	-10.7959
43	-10.7961
▁Mor	-10.7965
▁1992	-10.7967
▁1995	-10.7968
▁Mrs	-10.7969
▁medicine	-10.7975
▁1953	-10.7989
ì	-10.7991
▁workers	-10.7997
▁exchange	-10.7998
▁CA	-10.8
▁initial	-10.8004
▁drugs	-10.8007
▁Uy	-10.8013
▁About	-10.8013
▁address	-10.8014
▁Land	-10.8015
ula	-10.8018
▁36	-10.8019
van	-10.802
hu	-10.802
tis	-10.8021
▁Society	-10.8022
nic	-10.8028
▁tuân	-10.8031
▁sitting	-10.8044
Ba	-10.8045
▁offered	-10.8046
▁dược	-10.8052
▁Va	-10.8054
▁connected	-10.806
▁fit	-10.8069
▁Jewish	-10.8071
▁storm	-10.8073
▁regular	-10.8077
▁Rachel	-10.8078
▁avoid	-10.8081
▁teach	-10.8082
if	-10.8085
▁CO	-10.8091
▁2002,	-10.8091
▁Fox	-10.8093
33	-10.8096
▁protection	-10.8097
▁Covid	-10.8099
▁sexual	-10.8104
▁sweet	-10.8106
▁rửa	-10.8107
▁orders	-10.8109
ors	-10.811
▁Hiến	-10.8112
▁arms	-10.8115
▁mạo	-10.8118
▁Call	-10.8118
▁citizens	-10.8118
▁turns	-10.8127
▁ocean	-10.8127
▁Hàng	-10.8127
▁coffee	-10.8133
▁Loan	-10.8136
▁actress	-10.8138
▁mượn	-10.8138
fo	-10.814
▁effective	-10.8141
cu	-10.8146
yn	-10.8147
▁Inter	-10.8147
▁generation	-10.8164
▁device	-10.8164
▁1938	-10.8165
▁consider	-10.8166
▁duty	-10.8171
▁hò	-10.8172
▁failure	-10.8172
▁historical	-10.8173
▁Up	-10.8175
▁Jordan	-10.8176
▁distribution	-10.8176
▁cốt	-10.8179
No	-10.8182
use	-10.8183
▁st	-10.8183
qu	-10.8186
▁Mal	-10.8189
▁freedom	-10.819
▁weren	-10.819
nia	-10.8195
2,	-10.8195
▁1996	-10.8203
kan	-10.8206
000	-10.8208
▁department	-10.8208
▁capacity	-10.8208
▁Je	-10.821
▁wonder	-10.8218
▁hối	-10.822
người	-10.8221
▁bottom	-10.8222
▁Free	-10.8223
ice	-10.8227
ney	-10.8234
▁Bang	-10.8241
▁era	-10.8244
ther	-10.8245
▁đệ	-10.8253
▁Wall	-10.8271
ada	-10.8273
▁biggest	-10.8276
▁mạn	-10.8282
▁fought	-10.8285
end	-10.8286
pp	-10.8288
▁manager	-10.829
▁urban	-10.829
ero	-10.8293
▁Ít	-10.8294
▁collection	-10.8294
▁nấu	-10.8294
▁khung	-10.8296
▁accepted	-10.8298
▁managed	-10.8307
▁analysis	-10.831
▁calls	-10.8311
▁Does	-10.8311
▁prove	-10.8312
mann	-10.8318
▁thôn	-10.8319
▁Mai	-10.832
▁hoại	-10.8323
▁rác	-10.8327
▁đuôi	-10.8329
lia	-10.8341
fu	-10.8341
ye	-10.8343
▁destroy	-10.8346
▁Nothing	-10.8346
▁advantage	-10.8347
▁combat	-10.8354
▁ương	-10.8363
▁launch	-10.8365
xi	-10.8366
79	-10.8371
ama	-10.8372
▁Luân	-10.8374
▁Film	-10.8376
▁trees	-10.8376
67	-10.8377
8%	-10.8379
▁Night	-10.8379
▁dry	-10.8381
▁trộn	-10.8383
law	-10.8384
▁laws	-10.8385
▁winning	-10.8385
▁tí	-10.8388
28	-10.839
▁powers	-10.8391
▁represented	-10.8393
▁phase	-10.84
stra	-10.84
▁kí	-10.84
▁horses	-10.8402
▁till	-10.8405
ena	-10.8407
Con	-10.8408
▁NGC	-10.8409
dia	-10.8416
▁Vietnamese	-10.8434
▁Quận	-10.8435
▁domestic	-10.8439
▁Valley	-10.8441
").	-10.8449
▁duyệt	-10.8449
gy	-10.845
▁DVD	-10.8459
▁Tốt	-10.8461
▁Everything	-10.8464
▁section	-10.8468
▁bought	-10.8471
▁2005.	-10.8475
ip	-10.8477
▁1945	-10.8482
▁creating	-10.8484
▁agreement	-10.8484
▁planning	-10.8489
▁Hot	-10.8491
▁Sư	-10.8491
lus	-10.8498
▁1937	-10.8503
▁gỡ	-10.8507
▁Vũ	-10.8514
▁Was	-10.8514
▁System	-10.8517
▁genus	-10.8518
▁chán	-10.8519
▁Last	-10.852
76	-10.8521
▁ion	-10.8526
▁transferred	-10.8534
ee	-10.8534
▁signal	-10.8535
▁voi	-10.8535
▁Ray	-10.8539
▁Something	-10.8541
▁text	-10.8546
▁mì	-10.8551
"),	-10.8553
Ch	-10.8556
):	-10.8559
sis	-10.8564
08	-10.8565
▁scientists	-10.8573
▁ngón	-10.8575
▁Panama	-10.8575
▁cắp	-10.8578
▁Nghiên	-10.8578
▁throw	-10.858
▁saved	-10.8586
▁records	-10.859
▁Ok	-10.8594
ations	-10.86
▁writer	-10.8601
▁Stone	-10.8604
▁Qu	-10.8605
▁sáp	-10.861
▁Ze	-10.8613
▁mis	-10.8617
▁giày	-10.8621
▁Nghệ	-10.8622
ú	-10.8628
▁Championship	-10.8629
house	-10.8634
ator	-10.8639
▁(5	-10.8642
▁Prize	-10.8647
▁interview	-10.8649
qua	-10.8652
▁Thailand	-10.8656
ư	-10.8657
▁Ed	-10.8657
▁ẩm	-10.866
▁sứ	-10.8662
▁arm	-10.8662
88	-10.8664
▁materials	-10.8664
▁reading	-10.8666
▁News	-10.8666
It	-10.8667
▁ph	-10.8669
▁methods	-10.867
▁Hợp	-10.8673
▁Chief	-10.8674
▁nobody	-10.8675
▁broken	-10.8678
▁castle	-10.8679
▁boss	-10.8686
▁challenge	-10.8688
▁split	-10.8696
58	-10.8696
▁lãm	-10.8696
rk	-10.87
gon	-10.87
▁transfer	-10.8702
▁phổi	-10.8706
▁moon	-10.8711
▁Hawaii	-10.8713
▁−	-10.8713
▁(17	-10.8717
▁cat	-10.8719
▁Ngân	-10.8719
ân	-10.872
96	-10.8726
Arabic	-10.8727
▁Brasil	-10.8728
ü	-10.8729
▁1945,	-10.8732
6%	-10.8734
▁enter	-10.8737
▁Điện	-10.8738
▁VI	-10.874
▁featured	-10.874
▁33	-10.8744
ón	-10.8748
ped	-10.8752
▁đ	-10.8753
▁brothers	-10.8758
26	-10.8759
ala	-10.876
▁khẩn	-10.8765
▁sword	-10.877
▁smart	-10.877
ette	-10.8778
▁Charlie	-10.8779
▁count	-10.8783
▁mây	-10.8789
▁Fleet	-10.8793
▁musical	-10.8794
▁Adam	-10.8796
▁metres	-10.8798
▁Human	-10.8802
▁formation	-10.8812
▁ranh	-10.8813
▁38	-10.8819
▁easily	-10.882
▁spoken	-10.8825
▁episode	-10.8827
des	-10.883
▁relations	-10.883
▁programs	-10.883
▁talked	-10.8833
▁anywhere	-10.8835
▁Inc	-10.8844
▁seconds	-10.8845
▁demand	-10.8846
23	-10.8851
7%	-10.8851
wan	-10.8851
▁causes	-10.8852
▁spring	-10.8853
▁Bur	-10.8854
▁Princess	-10.8855
▁occurs	-10.8859
ł	-10.886
▁Samsung	-10.8864
▁Facebook	-10.8866
▁extremely	-10.887
▁tị	-10.888
▁viêm	-10.888
▁authorities	-10.8881
-5	-10.8884
ima	-10.8886
▁Ministry	-10.889
▁FBI	-10.889
▁Ken	-10.8894
bin	-10.8895
▁artists	-10.8901
▁túy	-10.8901
▁projects	-10.8906
ida	-10.8908
▁doubt	-10.8913
▁goals	-10.8914
▁Xem	-10.8914
▁participated	-10.8915
▁Could	-10.8918
▁prepared	-10.8919
▁Os	-10.8919
▁iron	-10.8921
▁Kông	-10.8924
▁Sh	-10.8932
▁Corporation	-10.8936
▁blow	-10.894
▁12,	-10.8942
▁efforts	-10.8944
▁hung	-10.8946
62	-10.8946
29	-10.8949
57	-10.8949
▁48	-10.8954
ả	-10.8955
▁Phụ	-10.8955
▁Toàn	-10.8957
eo	-10.8958
▁removed	-10.8967
▁reduced	-10.897
▁kín	-10.8972
▁Vùng	-10.8974
▁leaves	-10.8978
▁leo	-10.8981
▁Science	-10.8981
▁Mer	-10.8984
▁Đưa	-10.8988
▁showing	-10.8991
ward	-10.8991
▁Carolina	-10.8993
▁contain	-10.8996
▁internal	-10.8999
▁intended	-10.9
▁receive	-10.9002
47	-10.9003
lla	-10.9008
▁largely	-10.9009
▁Juan	-10.9011
▁để	-10.9011
▁piano	-10.9012
▁regional	-10.9012
▁cu	-10.9013
▁Got	-10.9019
▁accident	-10.9022
▁spot	-10.9033
▁raise	-10.9037
ens	-10.9037
▁1951	-10.904
▁khía	-10.9041
▁mentioned	-10.9042
tha	-10.9043
▁weather	-10.9044
▁Revolution	-10.9044
▁consists	-10.9049
▁coach	-10.9051
78	-10.9052
▁ride	-10.9052
▁understanding	-10.9053
▁equipment	-10.9054
▁gương	-10.9054
▁Imperial	-10.9055
▁Sta	-10.9056
22	-10.9057
light	-10.9057
▁Ash	-10.9058
▁photo	-10.9059
▁composed	-10.9059
▁hide	-10.9065
▁Phong	-10.9066
▁Out	-10.9068
▁Pu	-10.9069
▁birthday	-10.9073
▁nhịp	-10.9074
▁warm	-10.9076
▁effort	-10.9079
▁bomb	-10.9079
▁Đan	-10.9085
▁promoted	-10.9085
▁úy	-10.9087
Vỗ	-10.9088
▁Communist	-10.9089
▁Matt	-10.909
▁Ana	-10.9094
▁muối	-10.9097
▁tân	-10.9102
▁su	-10.9104
▁notice	-10.9104
▁ball	-10.9105
▁Bỉ	-10.9107
▁favor	-10.9115
▁ngư	-10.9117
▁bền	-10.9119
▁drama	-10.912
▁Research	-10.9124
▁parties	-10.9126
▁thoảng	-10.9131
▁phun	-10.9133
▁conducted	-10.9133
▁le	-10.9137
▁Thiết	-10.9144
▁marry	-10.915
▁Tân	-10.9151
uri	-10.916
ability	-10.9162
▁professor	-10.9168
▁income	-10.9172
ở	-10.9172
▁Philip	-10.9176
77	-10.9176
4%	-10.9177
▁tells	-10.9182
▁annual	-10.9182
▁perform	-10.9183
▁award	-10.9184
nt	-10.9187
▁census	-10.9197
▁ngưỡng	-10.9197
▁dinh	-10.9197
41	-10.9202
▁radar	-10.9205
▁lân	-10.9207
ori	-10.9207
dong	-10.9208
▁Ab	-10.9212
▁claim	-10.9212
▁favorite	-10.9212
▁younger	-10.9214
▁Sp	-10.922
▁trúng	-10.9222
bal	-10.9223
▁Hollywood	-10.9225
▁oxygen	-10.9226
▁environmental	-10.9227
92	-10.9232
71	-10.9233
▁administration	-10.9235
▁meat	-10.9239
▁Kra	-10.9242
▁images	-10.9244
▁ti	-10.9245
▁PC	-10.9248
▁Xã	-10.925
▁corner	-10.9253
▁Put	-10.9253
▁clothes	-10.9255
low	-10.9258
▁UEFA	-10.9259
▁gene	-10.9265
▁Anne	-10.9266
▁senior	-10.9269
▁apartment	-10.927
▁chosen	-10.9272
▁commander	-10.9274
ari	-10.9278
▁sky	-10.9283
▁Georgia	-10.9285
69	-10.9288
▁mồi	-10.9289
▁canh	-10.9294
▁flag	-10.9296
▁fix	-10.9297
▁communities	-10.9298
▁none	-10.9299
▁flying	-10.9301
▁politics	-10.9303
▁Major	-10.9304
▁realized	-10.9305
▁flow	-10.9312
▁noted	-10.9312
59	-10.9314
▁lây	-10.9318
ef	-10.9318
▁safety	-10.9319
▁Parliament	-10.9322
▁crisis	-10.9322
▁window	-10.9324
́	-10.9324
▁ngẫu	-10.9327
▁64	-10.9328
▁revealed	-10.9329
▁smell	-10.9332
▁trial	-10.9337
87	-10.9337
▁minister	-10.9337
▁Johnson	-10.9338
▁Gần	-10.9343
▁Nơi	-10.9362
▁actual	-10.9362
▁costs	-10.9365
▁Puerto	-10.9366
ae	-10.9367
▁fair	-10.9368
▁Steve	-10.9371
▁vân	-10.9373
▁võ	-10.9377
▁tần	-10.9378
▁đeo	-10.9379
▁strange	-10.9382
▁1000	-10.9385
▁fault	-10.9386
▁ghép	-10.9387
46	-10.9389
▁sp	-10.9393
dic	-10.94
gg	-10.9405
▁increasing	-10.9407
see	-10.9408
▁Lãnh	-10.9415
61	-10.9419
▁losing	-10.9421
▁thung	-10.9421
▁Home	-10.9423
▁Pat	-10.9427
▁Nghị	-10.9429
▁federal	-10.9429
▁funny	-10.943
rate	-10.9435
ight	-10.9435
ral	-10.9439
▁tật	-10.944
▁hưu	-10.944
▁Phật	-10.9449
▁ngã	-10.945
▁suggested	-10.945
cer	-10.9451
▁0,	-10.9457
over	-10.9463
▁lu	-10.9466
▁Ve	-10.9473
▁creation	-10.9474
▁Ci	-10.9479
ct	-10.948
▁wonderful	-10.9481
▁Ex	-10.9483
trong	-10.9487
▁add	-10.9489
▁Water	-10.9492
▁trần	-10.9499
▁kingdom	-10.9501
▁plus	-10.9504
▁lay	-10.9505
▁hoan	-10.9508
▁applied	-10.9508
▁Wilson	-10.9509
▁extended	-10.9516
▁prior	-10.9517
▁forever	-10.9517
▁hundreds	-10.952
▁journey	-10.9523
▁Barry	-10.9523
=	-10.9524
▁enjoy	-10.9525
▁issued	-10.9526
bra	-10.9526
34	-10.9526
▁Sri	-10.9527
▁branch	-10.9528
▁Egyptian	-10.9529
▁begins	-10.953
▁Four	-10.9531
tte	-10.9531
1%	-10.9531
ale	-10.9535
▁khẳng	-10.9538
▁worst	-10.9543
but	-10.9548
▁capable	-10.9548
ví	-10.9551
▁wave	-10.9551
▁closer	-10.9555
▁Jones	-10.9556
los	-10.9563
▁Thư	-10.9567
▁nations	-10.9568
▁Amazon	-10.9568
▁bear	-10.9569
sta	-10.957
▁Pra	-10.9573
▁phu	-10.9573
▁core	-10.9575
▁Marie	-10.9575
▁motion	-10.9578
▁page	-10.9578
▁opera	-10.9582
▁Health	-10.9583
▁gained	-10.9584
▁Son	-10.9585
▁origin	-10.9586
▁painting	-10.9592
▁trà	-10.9592
▁strategy	-10.9593
▁Madrid	-10.9593
▁cỏ	-10.9597
▁trượt	-10.9598
▁Armenia	-10.9602
▁audience	-10.9606
▁Bắt	-10.9608
▁unless	-10.9611
▁Jin	-10.9612
nce	-10.9614
▁users	-10.9616
▁Play	-10.9616
▁aid	-10.9619
iv	-10.9619
▁reduce	-10.962
▁wearing	-10.9621
▁latter	-10.9624
▁gift	-10.9627
▁critical	-10.9628
▁operated	-10.963
▁identified	-10.9633
mus	-10.9637
2%	-10.9637
▁identity	-10.9638
▁sq	-10.964
▁emperor	-10.9641
▁Lục	-10.9643
▁Mad	-10.9643
▁móc	-10.9644
▁visited	-10.9649
▁fifth	-10.9651
▁solo	-10.9653
▁tea	-10.9656
▁Bra	-10.9663
▁Father	-10.9668
▁sight	-10.9676
▁Mạch	-10.9679
▁mention	-10.9683
▁Summer	-10.9684
▁authority	-10.9684
▁Claire	-10.9688
▁fellow	-10.9688
▁height	-10.969
▁officers	-10.9691
▁bụi	-10.9698
ram	-10.97
AR	-10.9701
▁soil	-10.9702
▁unknown	-10.9704
▁bạch	-10.9709
▁changing	-10.9711
▁táo	-10.9712
▁recognize	-10.9718
▁vision	-10.9723
▁cycle	-10.9725
▁measure	-10.9725
▁speech	-10.9726
▁soul	-10.9727
▁represent	-10.9727
▁mệt	-10.9728
▁channel	-10.973
▁violence	-10.973
▁subsequently	-10.9731
▁god	-10.9732
▁combination	-10.9733
▁Thi	-10.9734
▁footballer	-10.9734
97	-10.974
▁actions	-10.9743
▁Ter	-10.9746
▁Gulf	-10.975
▁2004.	-10.9753
▁Jimmy	-10.9759
▁rain	-10.9763
ụ	-10.9765
▁ưa	-10.9765
▁Jesus	-10.9769
▁Road	-10.9769
▁mo	-10.9773
▁cậy	-10.9774
▁genetic	-10.9774
Ta	-10.9775
▁user	-10.9776
▁Cat	-10.9779
07	-10.978
▁advanced	-10.9782
▁1944	-10.9785
▁clan	-10.9789
▁Tony	-10.9791
▁Hama	-10.9792
▁prime	-10.9794
53	-10.9798
▁conference	-10.9802
▁Jane	-10.9803
▁tropical	-10.9804
▁Kế	-10.9805
▁Rose	-10.9805
▁Bor	-10.9808
▁shared	-10.9808
▁Simon	-10.9811
ery	-10.9812
ec	-10.9812
anh	-10.9813
▁Tác	-10.9813
ane	-10.9814
▁HIV	-10.9818
ò	-10.9821
31	-10.9825
▁nhãn	-10.9826
▁totally	-10.9828
ây	-10.983
▁toward	-10.9832
▁đực	-10.9835
▁lộn	-10.9836
▁tràn	-10.9837
▁Actually	-10.984
▁Walter	-10.9842
▁walls	-10.9846
▁runs	-10.9848
▁evening	-10.9848
▁scared	-10.9849
▁Ser	-10.9852
▁Think	-10.9854
▁threat	-10.9854
▁COVID	-10.9855
▁Thu	-10.9859
▁yours	-10.9861
head	-10.9865
▁Fire	-10.987
▁Lincoln	-10.9871
▁trưa	-10.9871
▁Gu	-10.9871
▁Mount	-10.9871
▁provides	-10.9871
▁resulting	-10.9874
▁Costa	-10.9875
▁grown	-10.9877
▁GDP	-10.9877
▁Vo	-10.9878
right	-10.9879
94	-10.9879
▁(6	-10.988
▁useful	-10.988
▁nhạy	-10.9881
▁weapon	-10.9883
▁Taylor	-10.9886
▁organizations	-10.9887
Cl	-10.9887
▁internet	-10.9892
▁connection	-10.9893
▁stress	-10.9894
▁ngập	-10.9897
▁Canadian	-10.9899
Ha	-10.9905
▁improve	-10.9906
▁lật	-10.9907
98	-10.9909
▁selling	-10.9909
zer	-10.9909
▁leg	-10.9912
▁trễ	-10.9912
▁throne	-10.9912
long	-10.9922
dom	-10.9929
▁lb	-10.9931
ến	-10.9932
▁minor	-10.9933
▁wake	-10.9935
▁reports	-10.994
ib	-10.9941
▁quét	-10.9943
è	-10.9946
▁impossible	-10.9948
▁hâm	-10.9948
▁cương	-10.9949
▁Light	-10.9954
▁1999,	-10.9957
sion	-10.9957
▁applications	-10.9965
▁surrounding	-10.9971
sch	-10.9972
ls	-10.9973
▁article	-10.9976
▁rồi	-10.9979
▁Hạm	-10.9983
ified	-10.9991
▁1998,	-10.9995
▁finding	-10.9996
▁Make	-10.9997
mal	-10.9998
▁cám	-10.9998
PA	-11
▁75	-11.0006
▁Foundation	-11.0011
▁*	-11.0013
▁beauty	-11.0016
▁dropped	-11.0016
▁NASA	-11.0021
▁42	-11.0025
▁Sometimes	-11.0026
▁34	-11.0027
▁respectively	-11.0027
▁Cục	-11.0028
▁presented	-11.0028
▁$1	-11.0034
xin	-11.0035
▁faster	-11.004
▁oldest	-11.004
▁thoái	-11.0042
nie	-11.0043
▁trừng	-11.0048
▁sàn	-11.005
▁worried	-11.0052
Mo	-11.0054
▁chúc	-11.0055
▁hero	-11.0061
▁pair	-11.0061
▁Radio	-11.0063
▁rare	-11.0063
▁onto	-11.0064
▁broadcast	-11.0064
cause	-11.0064
▁poly	-11.0064
amp	-11.0065
▁copies	-11.0068
▁37	-11.0071
▁suffered	-11.0073
gal	-11.0073
▁definition	-11.0076
▁faith	-11.0077
▁Secretary	-11.0079
din	-11.0082
▁weird	-11.0084
▁hoãn	-11.0089
▁Chưa	-11.0089
9%	-11.0092
▁đến	-11.0094
▁pure	-11.0095
▁killer	-11.0098
eng	-11.0099
▁Lịch	-11.01
▁nút	-11.01
▁Duke	-11.0102
3)	-11.0105
▁putting	-11.0115
▁mountains	-11.0116
▁Born	-11.0118
▁hẹp	-11.012
eb	-11.0122
▁Head	-11.0124
91	-11.0126
▁intelligence	-11.0127
▁AD	-11.0127
▁progress	-11.0131
▁hotel	-11.0132
▁entirely	-11.0133
▁sốt	-11.0135
▁khiếp	-11.0135
▁application	-11.014
▁Tiếp	-11.0141
▁Vụ	-11.0143
▁fresh	-11.0146
▁Thai	-11.015
var	-11.015
▁1967	-11.0159
▁enzyme	-11.0161
100	-11.0164
▁cụm	-11.0165
▁Thủy	-11.0167
▁xuân	-11.0168
▁600	-11.0169
▁đâm	-11.0169
▁decades	-11.0172
▁capture	-11.0173
▁stone	-11.0173
▁Castle	-11.0174
▁electron	-11.0176
▁decide	-11.0177
pan	-11.0178
▁wine	-11.0181
▁bigger	-11.0181
ctor	-11.0183
▁Post	-11.0185
rn	-11.0186
ade	-11.0191
▁mono	-11.0194
form	-11.0197
▁huyền	-11.0197
▁certainly	-11.0202
▁Pop	-11.0203
42	-11.0206
▁tang	-11.0208
dar	-11.0209
▁Android	-11.0212
▁solar	-11.0214
▁willing	-11.0218
▁huynh	-11.0219
▁Sydney	-11.0226
▁cong	-11.0227
II	-11.0227
term	-11.0236
▁alternative	-11.0237
▁thế	-11.0237
▁Coast	-11.0237
ky	-11.0238
▁màng	-11.0239
▁fashion	-11.0239
▁Mom	-11.0239
▁birds	-11.024
▁Director	-11.0241
▁Perhaps	-11.0242
▁Ukraine	-11.0242
▁instance	-11.0242
▁lợn	-11.0247
▁dáng	-11.0249
▁Civil	-11.0252
▁Hỏa	-11.0253
▁đụng	-11.0253
Do	-11.0258
54	-11.0261
star	-11.0262
▁Bridge	-11.0264
▁combined	-11.0273
▁19,	-11.0273
▁chart	-11.0278
Be	-11.0278
▁ven	-11.028
▁Space	-11.028
dis	-11.028
▁investigation	-11.0285
▁properties	-11.0285
Chúng	-11.0285
▁Arts	-11.0286
Tr	-11.0288
oon	-11.0292
ska	-11.0293
▁slightly	-11.0296
▁nearby	-11.0303
▁1942	-11.0304
▁phấn	-11.0306
He	-11.0309
01	-11.0312
▁Station	-11.0317
▁rủi	-11.0318
▁thùng	-11.0318
▁script	-11.0319
▁Say	-11.0319
▁MTV	-11.0324
-10	-11.0326
▁mobile	-11.0328
▁evil	-11.0328
▁experiment	-11.033
▁ruột	-11.0333
▁Hành	-11.0333
▁Service	-11.0334
▁Power	-11.0334
▁Americans	-11.0335
▁sports	-11.0336
▁dear	-11.0337
▁nhượng	-11.0338
pre	-11.0344
bb	-11.0347
▁Bal	-11.0347
▁Portuguese	-11.0349
▁revolution	-11.0354
▁conversation	-11.0355
▁daily	-11.0356
▁matters	-11.0357
▁owned	-11.0359
▁severe	-11.0366
α	-11.0366
}}	-11.0367
▁chợ	-11.0368
▁Sar	-11.037
kov	-11.0375
56	-11.0375
▁observed	-11.0379
▁Khmer	-11.038
5%	-11.0384
▁organized	-11.0385
▁devices	-11.0386
ical	-11.0389
▁Quảng	-11.0397
▁1956	-11.0399
▁khôi	-11.0399
▁dày	-11.0403
▁Key	-11.0404
▁Il	-11.0405
▁Bruce	-11.0409
mit	-11.0412
og	-11.0412
▁Cam	-11.0414
▁existence	-11.0416
▁vú	-11.0417
▁clubs	-11.0419
▁Marshall	-11.0421
▁Ber	-11.0421
▁pieces	-11.0424
▁arrested	-11.0427
▁béo	-11.0427
▁Ad	-11.0429
ks	-11.0429
▁functions	-11.0429
▁Del	-11.043
▁speaking	-11.0432
▁na	-11.0432
ớ	-11.0433
▁1944,	-11.0436
▁versions	-11.0449
▁apart	-11.0453
▁armed	-11.0455
▁atmosphere	-11.0468
med	-11.0468
1,	-11.047
bus	-11.047
▁snow	-11.0474
istic	-11.0475
▁Cám	-11.0475
pin	-11.0476
▁returning	-11.0476
ö	-11.0479
▁Tam	-11.048
▁ngực	-11.048
▁Mother	-11.0486
▁Quản	-11.0486
▁cash	-11.049
▁architecture	-11.049
Anh	-11.0491
▁zone	-11.0495
mat	-11.0497
▁refer	-11.0498
ual	-11.0503
top	-11.0508
▁taste	-11.0508
▁Bulgaria	-11.0509
▁Bre	-11.0511
▁municipality	-11.0512
▁Đôn	-11.0515
▁Book	-11.0516
▁Philadelphia	-11.0517
▁Tim	-11.0517
▁opposite	-11.0517
▁Phân	-11.0517
▁Sarah	-11.0517
▁semi	-11.0518
ction	-11.0519
▁Sen	-11.0521
▁degrees	-11.0524
▁tóm	-11.0528
▁Trump	-11.0529
▁thịnh	-11.0535
▁investment	-11.0537
▁lab	-11.0541
▁Ram	-11.0543
▁ending	-11.0547
▁Mon	-11.0548
cin	-11.0548
▁Tai	-11.0552
▁cự	-11.0555
▁solve	-11.0556
tain	-11.0556
gh	-11.0556
▁mòn	-11.0557
Bo	-11.0558
▁tools	-11.056
-18	-11.056
▁ngợi	-11.0561
▁trans	-11.0562
▁Tar	-11.0563
▁literature	-11.0566
400	-11.0572
▁silver	-11.0577
Không	-11.058
▁Between	-11.0583
▁gay	-11.0586
ổ	-11.0586
▁helping	-11.0586
▁chìa	-11.0587
ue	-11.0588
▁chẽ	-11.0589
oma	-11.059
▁dying	-11.0594
▁selected	-11.0598
uma	-11.0605
ball	-11.0609
▁label	-11.061
▁tro	-11.061
▁Part	-11.0611
▁terrible	-11.0616
▁Brian	-11.0616
▁display	-11.0618
▁nor	-11.0619
▁Alaska	-11.0622
▁nấm	-11.0622
pha	-11.0625
▁temple	-11.0626
▁Bueno	-11.0627
▁distinct	-11.063
▁arrest	-11.0631
▁processes	-11.0634
▁fields	-11.0634
▁youth	-11.0636
04	-11.064
ếm	-11.0643
▁Development	-11.0644
▁contrast	-11.0644
▁alongside	-11.0645
Al	-11.0645
▁Rico	-11.0649
del	-11.0657
eh	-11.0659
▁Oregon	-11.066
83	-11.0666
▁khỉ	-11.0666
▁affected	-11.0666
▁teaching	-11.0668
jin	-11.0668
Sa	-11.0673
▁Cal	-11.0678
▁ruled	-11.0679
▁Stalin	-11.068
▁religion	-11.0682
▁1980,	-11.0684
▁Mau	-11.0686
▁1934	-11.0688
▁serving	-11.069
▁officials	-11.069
▁Linux	-11.0692
▁Aires	-11.0695
được	-11.0696
▁Allen	-11.0697
▁credit	-11.0697
pping	-11.0698
▁pictures	-11.0699
▁captain	-11.0699
▁Model	-11.0701
TV	-11.0702
▁factor	-11.0703
▁Ty	-11.0707
▁Doctor	-11.0708
▁adult	-11.071
▁yellow	-11.0714
▁kinds	-11.0719
sex	-11.072
▁cóc	-11.0723
200	-11.0723
▁sides	-11.0724
▁invited	-11.0727
▁correct	-11.0727
▁context	-11.0727
▁Đảo	-11.0727
▁Sweden	-11.0727
▁buried	-11.0733
▁require	-11.0738
▁edition	-11.0738
▁dũng	-11.0739
▁Cực	-11.074
▁Tương	-11.074
▁Team	-11.0741
nk	-11.0746
▁closely	-11.075
▁Biển	-11.075
▁values	-11.0759
▁Joey	-11.0759
▁đáo	-11.076
▁email	-11.0761
▁tend	-11.0763
63	-11.0764
▁w	-11.0764
▁executive	-11.0766
▁Ren	-11.0767
▁Nước	-11.0767
▁grand	-11.0769
▁defense	-11.0771
▁Phim	-11.0772
▁proud	-11.0773
▁Lễ	-11.0773
▁UN	-11.0776
▁sand	-11.0777
▁walking	-11.078
hay	-11.0782
▁Liệu	-11.0784
▁houses	-11.0785
tia	-11.0785
▁Trang	-11.0786
▁65	-11.0786
▁po	-11.0788
▁Caesar	-11.0789
▁fool	-11.0789
82	-11.0794
Le	-11.0798
▁pe	-11.0799
▁Bel	-11.08
▁politician	-11.0801
▁Project	-11.0802
▁Karl	-11.0803
▁refused	-11.0804
▁determine	-11.0812
▁Everyone	-11.0813
OS	-11.0816
▁Harvard	-11.0817
▁rào	-11.0818
par	-11.0821
▁lạm	-11.0822
▁Pope	-11.0832
-6	-11.0833
ig	-11.0835
ele	-11.0835
▁determined	-11.0839
▁thanks	-11.0844
hr	-11.0845
▁Vài	-11.0845
▁Sch	-11.0849
▁achieved	-11.0849
-15	-11.0851
▁et	-11.0853
▁tough	-11.0853
▁obtained	-11.0856
▁carrier	-11.0858
▁lõi	-11.0862
▁rẻ	-11.0868
▁copy	-11.0868
▁800	-11.0869
▁mũ	-11.0873
▁Euro	-11.0876
▁refers	-11.0877
▁headed	-11.088
▁victims	-11.0881
▁Special	-11.0882
▁starts	-11.0888
mun	-11.0889
▁engineering	-11.0892
▁vang	-11.0892
aw	-11.0896
▁volume	-11.0897
▁surprise	-11.0897
▁;	-11.0899
▁treated	-11.0901
▁cát	-11.0902
ona	-11.0903
hiếp	-11.0904
72	-11.0905
▁miếng	-11.0908
▁solid	-11.091
▁lawyer	-11.091
stone	-11.0911
▁tháo	-11.0913
▁Eric	-11.0914
▁leadership	-11.0914
▁statement	-11.0914
ious	-11.0917
▁đạp	-11.0919
▁1988	-11.0924
▁pen	-11.0925
▁phẳng	-11.0925
▁Quần	-11.0925
▁History	-11.0925
▁1933	-11.0926
93	-11.0927
06	-11.0927
▁physics	-11.0929
▁si	-11.0931
▁responsibility	-11.0936
▁actor	-11.0938
▁Java	-11.0938
▁Zo	-11.0938
▁magic	-11.0942
▁xưởng	-11.0942
▁recording	-11.0942
▁Chart	-11.0944
▁Hòa	-11.0948
▁danger	-11.0949
▁cài	-11.0955
▁rồng	-11.0956
To	-11.0961
▁Syrian	-11.0963
▁(16	-11.0964
▁upper	-11.0964
▁vay	-11.0967
ä	-11.0974
▁allowing	-11.0974
▁Dưới	-11.0977
▁nát	-11.0977
▁mỹ	-11.0982
▁ấy	-11.0983
▁trôi	-11.0988
▁Mas	-11.0988
US	-11.0994
now	-11.0995
▁đếm	-11.0995
▁Sunday	-11.0996
▁symbol	-11.0999
▁bọc	-11.1002
town	-11.1002
▁phú	-11.1003
▁ethnic	-11.1004
ple	-11.1007
▁120	-11.1012
▁structures	-11.1013
▁firm	-11.1015
▁mistake	-11.1016
▁meters	-11.1018
ela	-11.1018
▁Andrew	-11.1028
▁hoà	-11.1028
▁driving	-11.1028
▁Caribbean	-11.1029
▁1954	-11.103
▁Never	-11.1031
▁inch	-11.1034
▁marked	-11.1034
▁kiên	-11.1037
▁Dar	-11.1038
▁lake	-11.104
▁vĩnh	-11.1041
▁Wars	-11.1043
af	-11.1045
pur	-11.1045
03	-11.1048
lis	-11.1048
▁desert	-11.1049
▁Robin	-11.1051
iya	-11.1052
▁Abu	-11.1056
▁Stephen	-11.1057
▁bông	-11.1058
▁weak	-11.1059
aceae	-11.1061
▁tradition	-11.1062
▁1952	-11.1065
▁thô	-11.107
▁1966	-11.1072
▁2019	-11.1076
▁bồi	-11.1078
▁derived	-11.108
▁elections	-11.1082
▁thỉnh	-11.1086
you	-11.1093
▁gain	-11.1096
Ho	-11.1097
▁Tài	-11.1097
▁formal	-11.1098
73	-11.1099
▁1997,	-11.1099
ika	-11.1101
ag	-11.1103
yu	-11.1105
▁concerned	-11.111
row	-11.1117
89	-11.1119
▁sites	-11.112
▁Netherlands	-11.112
rich	-11.1122
▁1,000	-11.1122
lar	-11.1123
600	-11.1124
▁lệch	-11.1125
▁farm	-11.1128
mic	-11.1131
▁sin	-11.1133
ira	-11.1133
▁clearly	-11.1134
▁Roma	-11.1144
▁focused	-11.1146
▁Public	-11.115
▁Đáng	-11.1151
"?	-11.1153
▁basically	-11.1162
▁Sin	-11.1162
▁Someone	-11.1165
▁Holy	-11.1165
▁bringing	-11.1165
▁đẻ	-11.1167
▁producer	-11.1169
▁khát	-11.117
▁abandoned	-11.1171
▁newspaper	-11.1172
ù	-11.1173
▁prominent	-11.1173
▁kiệm	-11.1173
▁scored	-11.1176
▁Network	-11.1179
▁queen	-11.118
ED	-11.1181
▁granted	-11.1184
▁về	-11.1185
▁Kan	-11.1186
▁maintain	-11.1191
▁39	-11.1195
nan	-11.1197
▁Golden	-11.1201
▁inspired	-11.1201
▁cars	-11.1203
▁resulted	-11.1203
▁loan	-11.1204
▁skills	-11.1209
▁mixed	-11.1219
▁palace	-11.122
▁desire	-11.1222
▁gọn	-11.1226
▁bio	-11.1226
▁kịp	-11.1226
▁hearing	-11.1229
▁thổi	-11.123
2.	-11.1234
▁10%	-11.1234
▁promised	-11.1237
▁chẩn	-11.1238
▁communication	-11.1239
▁factors	-11.1245
▁chai	-11.1247
▁bill	-11.1249
▁requires	-11.1249
air	-11.1252
rat	-11.1254
ị	-11.1255
▁Channel	-11.1255
▁thép	-11.1255
▁prize	-11.126
▁exact	-11.1264
▁Has	-11.1265
▁logic	-11.1266
như	-11.1266
▁Ak	-11.127
▁55	-11.1272
▁Taiwan	-11.1275
▁Thanks	-11.1277
▁Final	-11.1279
▁overall	-11.1279
▁Beach	-11.128
▁license	-11.128
▁spoke	-11.1284
▁tươi	-11.1286
hy	-11.1289
nam	-11.129
▁Mông	-11.1291
gin	-11.1293
▁chose	-11.1293
▁guitar	-11.1293
▁fat	-11.1295
▁Las	-11.1299
81	-11.1304
▁Fort	-11.1304
▁spin	-11.1307
▁Until	-11.1308
▁Sáng	-11.131
▁Cross	-11.131
▁Age	-11.1311
▁Thậm	-11.1314
▁manage	-11.1314
▁resistance	-11.1314
▁Dark	-11.1316
▁seemed	-11.1323
gue	-11.1325
▁bo	-11.1327
▁push	-11.1328
▁Jacob	-11.1333
▁eating	-11.1334
▁Com	-11.1334
▁1942,	-11.1335
cal	-11.1337
▁positions	-11.1337
tta	-11.1339
ré	-11.1341
▁damaged	-11.1341
▁proper	-11.1342
▁Social	-11.1343
▁Tàu	-11.1344
▁José	-11.1344
▁importance	-11.1344
▁Remember	-11.1344
▁Báo	-11.1345
▁truly	-11.1345
▁Saudi	-11.1347
-17	-11.1349
▁muốn	-11.135
▁Mediterranean	-11.1356
▁naval	-11.1356
▁approved	-11.136
nal	-11.1363
▁titled	-11.1374
▁suppose	-11.1375
▁1921	-11.1375
▁suggest	-11.1376
▁ổ	-11.1379
Li	-11.1381
▁testing	-11.1386
▁discovery	-11.139
▁goods	-11.1391
▁nộp	-11.1392
▁keeping	-11.1393
▁prince	-11.1395
board	-11.1396
▁Au	-11.1398
▁museum	-11.1399
▁provinces	-11.1407
▁Olympics	-11.1408
dor	-11.141
▁250	-11.1415
▁shooting	-11.1417
▁fixed	-11.1419
▁Bá	-11.1419
▁Jersey	-11.1421
▁protected	-11.1426
▁Bro	-11.1426
▁hằng	-11.1428
sp	-11.1431
ato	-11.1433
▁Tiền	-11.1434
▁Byzantine	-11.1435
▁bacteria	-11.1437
▁dress	-11.1438
▁Okinawa	-11.1439
▁describe	-11.1444
▁z	-11.1444
▁Para	-11.1447
300	-11.1449
▁claims	-11.1453
ect	-11.1455
▁computers	-11.1456
Qu	-11.1456
▁Nghĩa	-11.146
ome	-11.1465
▁letters	-11.1467
▁Jews	-11.1467
▁renamed	-11.147
▁SS	-11.1472
▁→	-11.1472
▁Due	-11.1477
met	-11.1477
▁controlled	-11.1478
▁causing	-11.1481
▁00	-11.1486
▁institutions	-11.1487
▁mờ	-11.1487
▁lắp	-11.1487
▁frequently	-11.149
▁qu	-11.1491
▁cup	-11.1493
▁Turkey	-11.1494
▁sự	-11.1494
▁Victor	-11.1495
▁blind	-11.1496
▁Whatever	-11.1496
▁Commission	-11.1497
ins	-11.15
Pa	-11.151
▁judge	-11.1511
▁concert	-11.1512
ora	-11.1513
52	-11.1515
▁Norman	-11.1518
▁Education	-11.1518
▁pi	-11.1519
▁promotion	-11.1519
▁1977	-11.152
▁gods	-11.152
yama	-11.1524
▁element	-11.1526
▁lying	-11.1526
▁expansion	-11.153
ー	-11.153
▁Should	-11.1532
burg	-11.1535
▁easier	-11.1536
▁xích	-11.1537
lum	-11.1539
−	-11.1541
ants	-11.1542
▁sum	-11.1542
▁graduated	-11.1543
▁Batman	-11.1543
▁giant	-11.1545
▁Kha	-11.1548
▁sequence	-11.1549
▁Mel	-11.155
▁nét	-11.1552
▁expanded	-11.1553
▁Congo	-11.1555
▁bird	-11.1557
▁expression	-11.1558
▁feelings	-11.1562
▁khoan	-11.1565
▁trained	-11.1565
▁flat	-11.1568
▁ends	-11.1568
▁justice	-11.157
▁symptoms	-11.1571
▁Cầu	-11.1574
▁yesterday	-11.1578
▁Oxford	-11.1578
▁Stop	-11.1578
▁escort	-11.1579
▁Global	-11.1582
▁hasn	-11.1584
▁sing	-11.1584
▁winner	-11.1584
lam	-11.1586
▁Ste	-11.1587
CO	-11.1588
▁hall	-11.1592
▁0.	-11.1594
▁achieve	-11.1598
▁sơn	-11.16
SA	-11.1602
▁limit	-11.1602
▁Palace	-11.1603
▁details	-11.161
oid	-11.1611
▁peak	-11.1614
▁nghiện	-11.1615
▁governor	-11.1616
und	-11.1616
▁Lanka	-11.1619
▁guard	-11.1621
▁Jerusalem	-11.1621
▁Win	-11.1621
▁Vol	-11.1623
▁steal	-11.1623
▁streets	-11.1625
▁earned	-11.1626
▁nhựa	-11.1633
▁spirit	-11.1634
▁Campuchia	-11.1639
▁Square	-11.1645
▁CIA	-11.1647
▁shop	-11.1651
▁Keep	-11.1652
▁unable	-11.1653
▁Ngôi	-11.1654
▁des	-11.1655
▁jobs	-11.1657
▁Latinh	-11.1659
also	-11.1666
▁ghé	-11.1666
▁Sky	-11.1667
▁joint	-11.167
▁Monica	-11.1677
▁Giá	-11.1678
▁Several	-11.1683
▁chăn	-11.1686
So	-11.1688
▁formula	-11.169
▁xỉ	-11.1691
▁Cy	-11.1691
▁compound	-11.1693
▁shift	-11.1694
▁Gor	-11.1694
▁2003.	-11.1699
▁Cá	-11.17
▁milk	-11.1701
vers	-11.1701
ensis	-11.1703
ần	-11.1704
▁rapidly	-11.1705
▁reference	-11.1707
–18	-11.171
▁prefer	-11.172
▁Dragon	-11.172
▁setting	-11.1723
▁đáy	-11.1727
▁chair	-11.1728
▁Ham	-11.1729
▁bớt	-11.1732
▁1987	-11.1732
une	-11.1734
▁reform	-11.1739
▁Five	-11.1739
▁1957	-11.1743
▁ngừa	-11.1745
▁welcome	-11.1746
aria	-11.1748
▁dogs	-11.1749
51	-11.175
hl	-11.1755
▁opposition	-11.1756
▁Ur	-11.1757
▁End	-11.1761
▁Tới	-11.1763
▁Cap	-11.1764
▁Davis	-11.1772
ably	-11.1774
▁arts	-11.1776
An	-11.1776
▁struggle	-11.1777
uff	-11.1781
▁Democratic	-11.1781
▁Carlos	-11.1782
▁honey	-11.1782
▁poll	-11.1784
▁definitely	-11.1787
и	-11.179
▁Lai	-11.1793
▁Treaty	-11.1794
▁2000.	-11.1795
▁leads	-11.1798
ration	-11.1798
▁×	-11.1801
▁giãn	-11.1802
▁rates	-11.1804
▁Though	-11.1812
▁hydrogen	-11.1814
▁Einstein	-11.1815
▁Security	-11.1818
▁dynasty	-11.1818
▁suicide	-11.1819
▁absolutely	-11.1821
▁Alan	-11.1824
▁advice	-11.1825
▁đớn	-11.1831
ew	-11.1839
▁stable	-11.184
-7	-11.1841
▁Way	-11.1842
▁Tor	-11.1845
▁Heart	-11.1848
▁traffic	-11.185
ste	-11.1853
sur	-11.1856
▁Vị	-11.1857
▁1929	-11.1858
eta	-11.186
▁emergency	-11.1862
▁sugar	-11.1863
▁wing	-11.1872
▁1970,	-11.1876
▁Trans	-11.1877
▁Ag	-11.1879
▁Thus	-11.188
▁dịp	-11.1881
▁Loại	-11.1883
▁rã	-11.1885
▁note	-11.1887
▁Next	-11.1894
▁Norfolk	-11.19
▁expensive	-11.19
74	-11.1902
▁criminal	-11.1905
ons	-11.1909
ions	-11.193
▁ngoan	-11.1938
▁lots	-11.1938
▁suddenly	-11.1941
▁relative	-11.1941
ấn	-11.1944
▁feels	-11.1947
▁gà	-11.195
▁salt	-11.1951
▁jump	-11.1952
▁bag	-11.1954
▁Vẫn	-11.1957
▁roof	-11.1957
tar	-11.1958
▁request	-11.1958
▁Camp	-11.1959
▁1976	-11.196
▁20,	-11.1962
▁dắt	-11.1963
▁1996,	-11.1964
▁acquired	-11.1966
mm	-11.1967
▁brief	-11.1971
▁replace	-11.1971
▁cop	-11.1973
▁seriously	-11.1973
▁imp	-11.1974
▁nồng	-11.1976
not	-11.1976
ado	-11.1976
▁1939	-11.198
▁buýt	-11.1982
▁1931	-11.1983
▁lọt	-11.1984
▁settlement	-11.1984
▁mad	-11.1987
▁10,000	-11.199
▁trinh	-11.1991
▁everywhere	-11.1995
▁infection	-11.1997
ova	-11.1999
▁1941	-11.2003
rum	-11.2006
▁providing	-11.2007
pen	-11.2008
▁Swedish	-11.2012
▁1927	-11.2015
eu	-11.2016
▁labor	-11.2016
▁ensure	-11.2019
▁Point	-11.2019
▁CEO	-11.2022
▁sector	-11.2023
▁cousin	-11.2026
▁Nh	-11.2027
▁waters	-11.2031
–2	-11.2032
▁Six	-11.2035
▁Oscar	-11.2039
▁engaged	-11.204
known	-11.2043
▁aware	-11.2043
▁Girl	-11.2048
▁Nobody	-11.2053
▁18,	-11.2055
▁administrative	-11.2055
▁tool	-11.2058
▁mò	-11.206
nin	-11.2064
▁sỹ	-11.2065
▁empire	-11.2067
▁constant	-11.2073
▁Portugal	-11.2077
▁Miami	-11.2078
▁tọa	-11.2084
▁fruit	-11.2085
▁(7	-11.2086
▁Admiral	-11.2086
▁ceremony	-11.209
od	-11.21
elle	-11.2101
▁1946	-11.2102
▁Instead	-11.2106
▁Palestine	-11.2109
▁maximum	-11.2109
▁surgery	-11.211
ên	-11.2112
▁dedicated	-11.2117
De	-11.2119
▁Jamaica	-11.212
▁bin	-11.2121
▁literally	-11.2121
▁complicated	-11.2122
▁coronavirus	-11.2122
▁app	-11.2123
▁(15	-11.2125
▁Giáng	-11.2126
▁territories	-11.2129
▁gấu	-11.2129
▁listed	-11.213
SE	-11.213
▁frame	-11.2138
▁successor	-11.214
▁suit	-11.2144
▁Professor	-11.2149
▁decisions	-11.215
aki	-11.2153
▁Cúp	-11.2154
▁Twitter	-11.2154
▁nướng	-11.2155
▁pa	-11.2158
▁evolution	-11.216
▁50%	-11.2169
▁Brazilian	-11.2172
▁cạn	-11.2172
▁sailed	-11.2173
▁Walt	-11.2177
▁tomb	-11.2179
▁Đệ	-11.2181
▁busy	-11.2183
▁Christ	-11.2184
▁cưng	-11.219
▁familiar	-11.219
▁Greece	-11.2193
▁examples	-11.2194
amine	-11.2197
▁1994,	-11.2202
84	-11.2202
▁constructed	-11.2203
▁Mont	-11.2206
▁Trò	-11.2207
▁Milan	-11.2208
lor	-11.2212
▁specifically	-11.2214
▁deliver	-11.2215
▁separated	-11.2216
tation	-11.2218
▁improved	-11.2219
▁Rõ	-11.222
▁Villa	-11.2222
▁existing	-11.2223
▁counter	-11.2223
ο	-11.2226
▁Nepal	-11.2226
▁jail	-11.2226
▁orbit	-11.2227
▁Kai	-11.223
▁Ted	-11.2231
▁promote	-11.2231
▁settled	-11.2232
▁legs	-11.2237
▁Iron	-11.2239
▁PlayStation	-11.2239
▁Sáu	-11.2239
▁Thuật	-11.2239
▁rose	-11.224
▁harm	-11.2243
▁bột	-11.2247
▁Phu	-11.2249
▁containing	-11.225
▁council	-11.2251
▁chốt	-11.2252
▁Business	-11.2258
▁rạp	-11.2258
▁Dave	-11.226
ôn	-11.2264
▁titles	-11.2266
cent	-11.2267
▁trương	-11.2271
▁fired	-11.2272
▁thinks	-11.2275
ule	-11.2275
kai	-11.2277
▁sắm	-11.2278
▁soft	-11.2283
▁Command	-11.2285
▁flu	-11.2288
ell	-11.2291
▁Thằng	-11.2291
▁machines	-11.2291
ological	-11.2291
▁Gal	-11.2292
▁occupied	-11.2293
▁Tan	-11.2293
▁significantly	-11.2303
▁Constitution	-11.2305
▁bê	-11.2306
▁laser	-11.2307
▁USA	-11.2307
▁pleasure	-11.231
▁glad	-11.2312
▁format	-11.2313
▁edge	-11.2316
-8	-11.232
▁influenced	-11.2321
▁THE	-11.2325
▁uncle	-11.2326
▁pattern	-11.2329
▁#273;	-11.233
▁Stadium	-11.233
▁củng	-11.2331
▁Hoàn	-11.2332
▁Ford	-11.2333
▁1995,	-11.2335
ole	-11.2339
▁ideal	-11.2342
▁benefit	-11.2343
▁Web	-11.2347
▁vắc	-11.235
▁lỡ	-11.235
nu	-11.235
▁residents	-11.2351
book	-11.2352
Me	-11.2355
▁towns	-11.2355
▁incident	-11.2356
▁differences	-11.2361
▁kem	-11.2363
run	-11.2364
▁1924	-11.2365
▁deaths	-11.2366
more	-11.2369
▁Yi	-11.237
▁founder	-11.2371
▁concern	-11.2372
▁bright	-11.2372
▁dải	-11.2377
▁secondary	-11.2377
ture	-11.2378
▁para	-11.2381
▁Ukraina	-11.2383
▁survey	-11.2383
▁bunch	-11.2384
▁mồ	-11.2385
▁Qua	-11.2385
▁techniques	-11.2386
▁Kitô	-11.2389
▁ngơi	-11.239
ath	-11.2391
rie	-11.2393
Ro	-11.2395
▁twenty	-11.2396
▁notable	-11.24
▁otherwise	-11.2404
▁lùng	-11.2405
▁Wow	-11.2405
▁el	-11.2407
▁strike	-11.2407
▁county	-11.2411
▁Định	-11.2416
▁extensive	-11.2418
▁Bon	-11.242
▁Hor	-11.2423
▁Third	-11.2423
▁rồ	-11.2426
▁mess	-11.2426
▁sets	-11.2427
▁Kẻ	-11.2428
▁liquid	-11.2429
▁attempted	-11.2429
AN	-11.243
▁ong	-11.243
zar	-11.2443
▁Bad	-11.2443
▁suffering	-11.2443
hen	-11.2444
▁moral	-11.2445
▁Kepler	-11.2449
▁mathematics	-11.2449
▁decade	-11.245
▁Vice	-11.2451
▁Tro	-11.2454
▁dĩ	-11.2456
▁Pen	-11.2457
▁1926	-11.2464
▁poet	-11.2468
▁missed	-11.2468
▁rank	-11.2471
▁sad	-11.2473
▁flowers	-11.2474
▁Thêm	-11.2475
▁Houston	-11.2475
ila	-11.2478
▁covers	-11.2478
aba	-11.248
▁dạ	-11.2481
▁Vườn	-11.2483
cia	-11.2485
▁quát	-11.2488
▁Tướng	-11.2489
▁pp	-11.2493
▁Den	-11.2493
▁experienced	-11.2503
▁opposed	-11.2504
▁roles	-11.2508
uda	-11.2508
š	-11.2509
▁recognition	-11.2509
▁discuss	-11.251
các	-11.2511
▁mọc	-11.2516
▁óc	-11.2517
▁Gra	-11.2518
▁inhabitants	-11.2529
▁mental	-11.2529
American	-11.253
▁millions	-11.2531
▁theme	-11.2532
▁Tìm	-11.2535
▁stayed	-11.2535
▁Lewis	-11.2536
▁1928	-11.2537
▁Hóa	-11.2542
▁continues	-11.2545
ăng	-11.2545
▁succeeded	-11.2554
▁Napoleon	-11.2554
▁Vịnh	-11.2556
▁tower	-11.2562
▁Pennsylvania	-11.2562
sin	-11.2565
▁survived	-11.2566
▁tests	-11.2568
▁Serbia	-11.2569
▁pilot	-11.2571
▁bound	-11.2573
▁Eu	-11.2575
▁Chan	-11.2575
▁Mexican	-11.2576
sưu	-11.2578
▁platform	-11.2578
▁Anti	-11.258
▁row	-11.258
▁reaching	-11.2581
▁tail	-11.2583
▁vehicle	-11.2585
▁obviously	-11.2586
▁Wikipedia	-11.2589
▁facilities	-11.2589
▁App	-11.2592
och	-11.2593
▁heads	-11.2594
▁depending	-11.2595
▁afternoon	-11.2596
▁Solomon	-11.2596
with	-11.2597
▁stations	-11.2598
▁opinion	-11.2598
▁Sơn	-11.26
▁medium	-11.2603
▁Tower	-11.2604
tum	-11.2604
▁Order	-11.2606
▁Howard	-11.2608
pop	-11.2608
down	-11.2609
▁1992,	-11.261
▁honest	-11.2612
▁Leo	-11.2614
▁acts	-11.2614
▁normally	-11.2614
▁cốc	-11.2617
▁kiss	-11.2617
▁Stark	-11.2618
▁Chelsea	-11.2623
▁empty	-11.2623
▁46	-11.2624
▁Var	-11.2625
▁manufacturing	-11.263
▁Sudan	-11.263
▁vượng	-11.263
▁(8	-11.2631
▁Press	-11.2631
sar	-11.2636
▁ultimately	-11.2638
▁follows	-11.264
▁carrying	-11.264
EC	-11.2641
▁Morgan	-11.2645
▁ngưng	-11.2648
hand	-11.2652
ay	-11.2654
▁link	-11.2655
▁neo	-11.2655
▁Dong	-11.2656
▁extreme	-11.2659
▁nghịch	-11.2663
act	-11.2663
az	-11.2664
▁tuệ	-11.2664
▁Commander	-11.2666
▁advance	-11.2667
▁Tha	-11.2667
▁VII	-11.2668
Cause	-11.267
art	-11.2677
▁debt	-11.2677
▁review	-11.2679
▁1984	-11.2681
▁typical	-11.2683
▁principal	-11.2686
▁singing	-11.2688
▁Danny	-11.2692
▁Arizona	-11.2697
▁newly	-11.2701
▁Âm	-11.2702
▁filled	-11.2705
▁Sang	-11.2706
▁43	-11.2708
▁Kon	-11.2709
oli	-11.2712
▁Cố	-11.2713
▁hunting	-11.2713
▁admit	-11.2717
▁thấy	-11.2718
▁rẽ	-11.2718
▁Pedro	-11.2718
▁satellite	-11.2722
▁Enterprise	-11.2725
▁Tỉnh	-11.2725
▁Động	-11.2729
▁Zi	-11.273
▁score	-11.2731
▁library	-11.2731
▁vast	-11.2735
▁technologies	-11.2738
▁Airlines	-11.2739
▁Emily	-11.274
▁designated	-11.274
▁Supreme	-11.2745
▁Miller	-11.2746
▁1923	-11.2747
▁guest	-11.275
▁rural	-11.2752
▁factory	-11.2761
▁13,	-11.2761
▁permanent	-11.2761
▁marketing	-11.2763
▁Dis	-11.2768
▁secure	-11.2769
rid	-11.277
kha	-11.2771
▁neither	-11.2773
▁Muốn	-11.2774
▁holds	-11.2774
▁proved	-11.2775
▁studying	-11.2777
▁policies	-11.2779
▁Studios	-11.2783
▁healthy	-11.2783
▁Bush	-11.2784
▁mỏi	-11.2785
▁Gordon	-11.2787
NG	-11.2788
olo	-11.279
▁52	-11.2792
▁Ye	-11.2793
▁quãng	-11.2793
▁neighborhood	-11.2793
lle	-11.2793
hoặc	-11.2795
▁lăng	-11.2796
Na	-11.2799
some	-11.2802
IS	-11.2802
ền	-11.2813
ST	-11.2813
▁biological	-11.2814
rry	-11.2815
▁balance	-11.2815
▁victim	-11.2819
▁Champions	-11.2819
▁bẩn	-11.2821
▁bốc	-11.2821
▁establishment	-11.2822
▁careful	-11.2826
onia	-11.2826
▁Peace	-11.2828
▁Among	-11.2829
▁Sur	-11.2829
▁(10	-11.2835
▁Ghana	-11.2835
▁Centre	-11.284
▁1971	-11.2841
â	-11.2845
▁pan	-11.2847
▁điêu	-11.2854
▁Thể	-11.2855
▁markets	-11.2856
▁nose	-11.2857
▁Corps	-11.2858
▁1982	-11.286
▁kỵ	-11.2862
▁roughly	-11.2865
▁(12	-11.2865
Oh	-11.2869
▁đắt	-11.2869
phi	-11.2875
▁Military	-11.2876
▁Bao	-11.2878
▁Sử	-11.2878
▁Muslim	-11.2878
▁grade	-11.2879
▁remove	-11.2879
nik	-11.2881
▁Guatemala	-11.2882
▁Truyền	-11.2883
▁Santiago	-11.289
▁portion	-11.289
▁headquarters	-11.2897
ami	-11.2898
▁khoáng	-11.2899
▁signs	-11.2901
▁Chandler	-11.2904
▁Trông	-11.2904
▁childhood	-11.2904
▁sons	-11.2908
-12	-11.291
▁teeth	-11.2911
▁Dịch	-11.2912
▁Still	-11.2914
▁nha	-11.2916
adi	-11.2918
▁cống	-11.2919
ốt	-11.2919
▁Xa	-11.2919
▁rescue	-11.2921
▁relationships	-11.2922
▁equivalent	-11.2922
Man	-11.2924
▁weekend	-11.2925
▁Ara	-11.293
▁customers	-11.293
▁ngoái	-11.2932
▁Lin	-11.2935
▁vice	-11.2937
▁visible	-11.2938
▁HMS	-11.294
▁mode	-11.2941
▁te	-11.2944
▁forests	-11.2945
▁perspective	-11.2945
▁rid	-11.2948
▁regime	-11.2952
una	-11.2952
tle	-11.2954
gun	-11.2955
▁bù	-11.2959
▁USS	-11.296
800	-11.2962
▁turning	-11.2962
ợ	-11.2963
▁shortly	-11.2963
▁waves	-11.2966
▁increasingly	-11.2966
▁sói	-11.2967
▁quarter	-11.2967
*	-11.2967
▁Cung	-11.2967
▁Kevin	-11.2967
▁diệu	-11.2974
which	-11.2975
▁Ol	-11.2975
lip	-11.2975
▁lord	-11.2978
▁Lao	-11.2979
▁blog	-11.2982
▁Modern	-11.2983
▁net	-11.2986
▁Ng	-11.2986
▁quiet	-11.299
▁Croatia	-11.2991
▁tip	-11.2993
▁Archived	-11.2993
▁bó	-11.2996
▁technical	-11.3
ob	-11.3006
▁Naval	-11.3006
▁ka	-11.3008
▁Quỹ	-11.3008
▁Cambridge	-11.3008
▁Franklin	-11.3011
▁transition	-11.3012
▁Bou	-11.3012
▁squad	-11.3015
▁listening	-11.3015
▁Hospital	-11.3015
ER	-11.3016
▁owner	-11.3021
▁bẫy	-11.3023
▁Such	-11.3023
▁retired	-11.3025
▁Foreign	-11.3029
▁stood	-11.303
▁cuộn	-11.303
▁Jon	-11.303
ương	-11.3033
chu	-11.3035
̉	-11.3035
▁Liverpool	-11.3037
▁angry	-11.3037
▁Nào	-11.3037
▁1962	-11.3042
▁Catherine	-11.3044
▁academic	-11.3044
ý	-11.305
▁ranked	-11.3052
eg	-11.3052
▁1919	-11.3053
PS	-11.3053
win	-11.3055
▁Early	-11.3055
▁(9	-11.3056
▁Iceland	-11.3057
mbo	-11.3058
▁slowly	-11.3059
▁47	-11.3061
▁motor	-11.3065
▁girlfriend	-11.3065
▁Ball	-11.3066
ui	-11.3067
▁Ac	-11.3069
dal	-11.3072
wing	-11.3075
▁Ron	-11.3077
▁CH	-11.3077
▁temperatures	-11.3077
▁1964	-11.3077
IC	-11.3078
▁vaccine	-11.308
hn	-11.3085
sco	-11.3086
▁2002.	-11.3087
▁dốc	-11.3094
▁Cảng	-11.3099
▁landing	-11.31
▁fill	-11.3104
AS	-11.3111
▁Senate	-11.3116
ao	-11.3117
▁tired	-11.3118
▁EP	-11.3119
stein	-11.3121
▁EU	-11.3121
▁vắng	-11.3121
▁Thiếu	-11.3122
nay	-11.3124
▁exists	-11.3124
▁44	-11.3126
▁Police	-11.3129
0%	-11.313
▁standards	-11.313
▁cỗ	-11.3131
▁proof	-11.3134
▁swear	-11.3136
▁41	-11.3137
▁delivered	-11.3137
▁stadium	-11.3143
▁Type	-11.3144
▁fundamental	-11.3145
▁arrival	-11.315
AC	-11.3151
▁introduce	-11.3154
▁khen	-11.3154
▁load	-11.3154
▁burn	-11.3155
ei	-11.3155
▁Lawrence	-11.3157
▁Switzerland	-11.3157
die	-11.3158
cur	-11.316
▁committed	-11.3164
▁narrow	-11.3164
▁par	-11.3165
▁tiny	-11.3167
▁Ecuador	-11.317
ux	-11.317
▁understood	-11.3171
▁điều	-11.3175
▁crash	-11.3175
▁smoke	-11.3178
hara	-11.3178
▁measures	-11.318
▁tons	-11.3181
▁Billy	-11.3183
gra	-11.3183
▁DC	-11.3183
sol	-11.3184
▁Pha	-11.3185
▁khử	-11.3186
▁1940,	-11.3189
▁Kara	-11.3191
▁successfully	-11.3192
▁parent	-11.3192
▁Darwin	-11.3193
▁appreciate	-11.3196
most	-11.3197
âu	-11.3197
chan	-11.3198
▁nhi	-11.3202
những	-11.3202
▁expressed	-11.3206
▁1983	-11.3207
ii	-11.3211
pped	-11.3211
ế	-11.3213
ming	-11.3214
▁Barcelona	-11.3214
▁lunch	-11.3215
▁organic	-11.3218
Ka	-11.3218
▁figures	-11.3219
▁hole	-11.3222
▁ill	-11.3222
▁client	-11.3224
Co	-11.3225
▁affect	-11.3225
▁Rica	-11.3229
▁rice	-11.3229
▁Thương	-11.3229
▁Hal	-11.3235
▁Sony	-11.3238
▁subsequent	-11.3238
dra	-11.3239
▁Hand	-11.324
▁xóm	-11.3242
▁occupation	-11.3243
▁Ổng	-11.3243
▁Gil	-11.3243
▁17,	-11.3244
AT	-11.3248
▁México	-11.325
cus	-11.3251
▁situated	-11.3257
▁committee	-11.3257
tôi	-11.3259
▁Williams	-11.326
bro	-11.3261
▁purchase	-11.3261
ã	-11.3262
RE	-11.3262
▁Phổ	-11.3265
▁51	-11.3265
▁lường	-11.3265
▁accounts	-11.3266
▁Dream	-11.3269
▁j	-11.3272
–20	-11.3275
▁Nar	-11.3277
▁rapid	-11.3278
▁Bolivia	-11.3279
▁1936	-11.3285
▁possibility	-11.3286
▁Lời	-11.3287
▁calm	-11.3288
▁distributed	-11.3289
▁1969	-11.3289
▁lặn	-11.3291
е	-11.3292
lov	-11.3292
▁compete	-11.3293
▁gác	-11.3295
▁surrounded	-11.3295
ien	-11.3296
▁employees	-11.3296
life	-11.3299
lie	-11.3302
▁bond	-11.3304
eau	-11.3308
▁1918	-11.3308
▁murdered	-11.3308
▁nề	-11.3309
▁agents	-11.3309
▁Dean	-11.3309
▁illegal	-11.331
SS	-11.3312
press	-11.3314
▁plastic	-11.3314
▁steps	-11.3314
▁Field	-11.3316
▁Monte	-11.3321
▁Galaxy	-11.3322
▁lưỡng	-11.3322
▁dreams	-11.3322
ges	-11.3325
▁côn	-11.3327
▁Matthew	-11.3329
▁Sho	-11.3332
▁debate	-11.3334
cle	-11.3334
ace	-11.3336
are	-11.3339
▁manner	-11.3342
rist	-11.3342
▁honour	-11.3344
▁cưỡng	-11.3344
▁Ce	-11.3351
▁bút	-11.3353
▁wa	-11.3356
▁governments	-11.3358
▁Sultan	-11.336
▁afford	-11.3363
▁Ethiopia	-11.3364
▁depth	-11.3366
▁Cro	-11.3366
CH	-11.3367
▁joke	-11.3371
▁Haiti	-11.3377
zan	-11.3378
▁lưỡi	-11.338
▁Kal	-11.3382
ties	-11.339
▁participate	-11.3392
▁establish	-11.3396
▁Federal	-11.3397
▁tò	-11.3398
▁Standard	-11.3402
▁1910	-11.3403
▁nêu	-11.3404
▁mark	-11.3405
▁Đa	-11.3408
▁Clark	-11.341
▁mập	-11.3418
▁planets	-11.3419
MA	-11.3421
▁Federation	-11.3424
▁seek	-11.3426
she	-11.3428
pos	-11.3429
át	-11.3429
▁candidate	-11.3429
▁producing	-11.3431
▁entry	-11.3432
▁garden	-11.3444
▁1922	-11.3445
▁Governor	-11.3446
▁editor	-11.3447
▁ả	-11.3453
▁Manhattan	-11.3453
▁Dynasty	-11.3453
tine	-11.3454
▁crowd	-11.3456
▁treaty	-11.3457
▁1941,	-11.346
ich	-11.3473
..."	-11.3475
▁Front	-11.3475
▁OS	-11.3478
▁Snow	-11.3479
▁belong	-11.348
ū	-11.3481
rit	-11.3481
▁wood	-11.3482
lat	-11.3483
▁Lấy	-11.3484
▁ال	-11.3487
pri	-11.3489
▁1974	-11.3494
▁Soon	-11.3495
▁Grant	-11.3499
onic	-11.3501
▁sat	-11.3503
▁1948	-11.3509
▁moves	-11.3509
▁Girls	-11.3517
▁alcohol	-11.3518
▁kiệt	-11.352
▁uy	-11.352
▁Chà	-11.3522
▁dì	-11.3529
▁connect	-11.353
▁restaurant	-11.3533
▁electricity	-11.3535
Ra	-11.3537
▁heavily	-11.3542
Ph	-11.3543
▁Trừ	-11.3545
▁Beijing	-11.3549
ough	-11.3551
NS	-11.3552
▁grave	-11.3552
mes	-11.3557
▁Biết	-11.3558
tting	-11.3561
aya	-11.3561
▁laid	-11.3562
▁Sierra	-11.3564
▁Colorado	-11.3564
▁Lưu	-11.3565
uro	-11.3567
lio	-11.3568
Bức	-11.3569
▁Vienna	-11.3572
▁nè	-11.3573
▁fate	-11.3574
▁sought	-11.3577
bert	-11.3579
▁purposes	-11.3584
▁pal	-11.3586
▁radiation	-11.3586
lf	-11.3587
▁thọ	-11.3589
▁Jong	-11.359
DP	-11.3593
▁rivers	-11.3593
▁Bangladesh	-11.3594
▁móng	-11.3595
bao	-11.3597
▁Wayne	-11.3598
pho	-11.3598
▁Amy	-11.3602
century	-11.3606
▁files	-11.3608
oni	-11.3609
▁Vegas	-11.3609
▁Gun	-11.3609
▁múa	-11.3609
▁Region	-11.361
hờ	-11.3613
▁agency	-11.3616
▁Athens	-11.3616
▁Hướng	-11.3617
▁fighter	-11.3618
Ca	-11.3619
▁knowing	-11.3619
▁lát	-11.3621
worth	-11.3624
▁Alfred	-11.3626
▁nho	-11.3626
ever	-11.3629
▁discover	-11.3631
▁shore	-11.3633
hal	-11.364
én	-11.3641
▁singles	-11.3645
▁Technology	-11.3646
▁dollar	-11.3648
work	-11.3649
▁700	-11.365
▁remind	-11.365
▁tape	-11.3651
▁Official	-11.3654
▁Douglas	-11.3654
rib	-11.3656
level	-11.3657
-9	-11.3659
▁tùng	-11.3661
▁Operation	-11.3661
▁thuẫn	-11.3662
▁fans	-11.3668
▁contemporary	-11.3669
▁khói	-11.367
▁AS	-11.3672
ái	-11.3676
water	-11.3678
ben	-11.3679
▁Baltic	-11.368
ress	-11.368
▁Jung	-11.3682
02	-11.3683
ency	-11.3684
▁figured	-11.3685
▁doctors	-11.3686
▁Set	-11.3688
▁boyfriend	-11.3688
▁gãy	-11.3689
▁earliest	-11.3691
-16	-11.3692
room	-11.3695
▁coat	-11.3697
MS	-11.3697
▁đắn	-11.3703
▁beach	-11.3709
▁xá	-11.3709
▁ni	-11.3709
▁Forest	-11.371
ense	-11.371
▁hiding	-11.371
▁Sông	-11.3712
▁regarded	-11.3712
▁Cuốn	-11.3712
▁budget	-11.3729
▁Mountains	-11.3732
▁1958	-11.3732
ID	-11.3734
▁converted	-11.3735
▁Junior	-11.3736
aku	-11.3739
▁cards	-11.3741
▁hoping	-11.3743
▁breaking	-11.3745
▁principle	-11.3745
▁documents	-11.3745
ów	-11.3748
▁philosophy	-11.3751
▁der	-11.3754
▁Phục	-11.3757
▁exercise	-11.3761
▁apply	-11.3762
▁£	-11.3762
▁foundation	-11.3763
ses	-11.3764
vert	-11.3766
▁supplies	-11.3766
▁Điểm	-11.3766
CC	-11.3767
4)	-11.3769
▁Colonel	-11.3774
▁agricultural	-11.3774
▁circle	-11.3776
▁broad	-11.3781
▁Guadalcanal	-11.3782
▁Mười	-11.3782
▁Isn	-11.3782
▁Wood	-11.3783
▁villages	-11.3784
▁Sub	-11.3784
cher	-11.3785
▁offering	-11.3786
▁mảng	-11.3789
▁populations	-11.3789
▁medal	-11.3791
▁sale	-11.3792
▁14,	-11.3793
▁decline	-11.3794
▁owe	-11.3795
fin	-11.3796
▁UNESCO	-11.3799
▁Roy	-11.3799
▁attempts	-11.3801
▁bone	-11.3806
▁Austria	-11.3806
AP	-11.3811
▁cởi	-11.3812
▁Children	-11.3812
▁awards	-11.3817
▁Sound	-11.3818
rov	-11.3818
ans	-11.3819
vy	-11.3819
▁constitution	-11.382
▁1961	-11.382
▁Marcus	-11.3823
ING	-11.3824
▁72	-11.3825
▁vậy	-11.3827
▁cops	-11.3828
▁represents	-11.3829
▁rep	-11.3832
▁Wolf	-11.3841
▁Boeing	-11.3843
ld	-11.3846
▁1973	-11.385
▁Everybody	-11.385
▁Auto	-11.3851
▁Chung	-11.3857
▁heaven	-11.3858
iko	-11.3861
▁Roger	-11.3861
▁parallel	-11.3865
▁alliance	-11.3865
▁chục	-11.3866
▁linked	-11.3866
sau	-11.3873
▁Mat	-11.3874
via	-11.3875
▁spending	-11.3883
lly	-11.3884
log	-11.3884
▁Romania	-11.3885
uch	-11.3885
ngày	-11.3888
bol	-11.3892
▁threatened	-11.3892
thi	-11.3893
▁surprised	-11.3895
▁Organization	-11.3896
mel	-11.3897
▁Vật	-11.3897
ix	-11.3898
▁Unlike	-11.3904
▁1947	-11.3906
iz	-11.3907
ates	-11.3908
▁notes	-11.3909
▁thèm	-11.3911
▁interests	-11.3912
▁profile	-11.3918
▁coastal	-11.3921
eth	-11.3922
▁Đồ	-11.3922
▁99	-11.3922
▁Hán	-11.3924
▁Pearl	-11.3927
▁María	-11.3927
▁electric	-11.3928
rian	-11.3929
▁khôn	-11.393
▁ái	-11.3934
▁Persian	-11.3934
▁cấy	-11.3935
▁Justice	-11.3936
▁prisoners	-11.3948
umi	-11.3948
▁fu	-11.3948
▁mar	-11.3949
▁Phil	-11.3949
▁ốc	-11.3949
▁Arsenal	-11.395
bs	-11.3951
▁Grace	-11.3952
▁liver	-11.3953
chy	-11.3953
DS	-11.3956
hol	-11.396
▁Op	-11.3962
▁nervous	-11.3965
▁Hol	-11.3967
▁pool	-11.397
▁1911	-11.3972
▁Anyway	-11.3974
▁Mun	-11.3975
hai	-11.3979
hắc	-11.3979
▁diseases	-11.398
▁viếng	-11.3981
▁Lâu	-11.3982
▁Sở	-11.3985
▁Ryan	-11.3987
▁Bangkok	-11.3989
▁Irish	-11.399
Mar	-11.3991
▁operate	-11.3991
oh	-11.3993
khiêu	-11.3993
▁Ohio	-11.3995
▁incredible	-11.3996
▁Norway	-11.3997
▁vector	-11.4004
▁SA	-11.4005
▁(13	-11.4006
▁hired	-11.401
▁plot	-11.4012
▁khớp	-11.4012
▁performing	-11.4012
▁existed	-11.4013
▁1968	-11.4014
▁solutions	-11.4022
▁dealing	-11.4023
ức	-11.4023
▁1990.	-11.403
▁Bla	-11.4032
oi	-11.4033
▁presidential	-11.4036
5,000	-11.4037
▁bám	-11.4039
mb	-11.4043
▁Journal	-11.4043
▁category	-11.4043
▁pregnant	-11.4043
ỏ	-11.4044
▁prepare	-11.4048
▁mộng	-11.4051
tti	-11.4053
nus	-11.4054
▁Giao	-11.4056
ema	-11.4057
ăn	-11.4063
▁borders	-11.4065
▁mathematical	-11.4066
cz	-11.4071
▁vehicles	-11.4071
▁components	-11.4073
▁tested	-11.4074
▁Jay	-11.4074
▁Knight	-11.4075
▁vành	-11.4077
▁20%	-11.4077
▁walked	-11.4078
▁đứt	-11.4082
▁noticed	-11.4084
▁Tử	-11.4084
gia	-11.4084
▁1915	-11.4086
▁hét	-11.4089
▁gũi	-11.409
▁Mô	-11.409
▁locations	-11.409
IN	-11.4093
non	-11.4097
▁Kor	-11.4097
▁dời	-11.4098
▁Tuần	-11.4098
▁1913	-11.4099
part	-11.4101
▁breath	-11.4105
▁Death	-11.4107
ọ	-11.4107
▁Yoshi	-11.4108
▁58	-11.4109
▁Kỹ	-11.4114
▁Harbor	-11.4124
▁expedition	-11.4126
▁benefits	-11.4129
▁option	-11.4131
▁sc	-11.4131
▁collect	-11.4133
▁galaxy	-11.4137
▁estate	-11.4138
▁Cole	-11.4139
▁tank	-11.4139
▁beta	-11.414
▁Germans	-11.414
▁Donald	-11.4145
▁explained	-11.4147
▁ân	-11.4147
▁Mill	-11.4148
scale	-11.4151
▁guide	-11.4151
ites	-11.4152
▁taxi	-11.4153
ía	-11.4153
▁gánh	-11.4154
▁Tommy	-11.4154
LA	-11.4157
▁Hãn	-11.4162
ory	-11.4162
▁Arm	-11.4163
mor	-11.4163
▁seasons	-11.4164
-0	-11.4166
▁disaster	-11.4168
tur	-11.4169
▁90%	-11.4172
▁Bị	-11.4175
▁Pol	-11.4176
▁serves	-11.4176
▁document	-11.4177
▁uniform	-11.4177
▁stronger	-11.4186
tsu	-11.4187
▁ri	-11.4189
▁facility	-11.4192
▁innocent	-11.4192
Fi	-11.4194
▁sheep	-11.4194
box	-11.4198
including	-11.42
▁imperial	-11.42
▁mirror	-11.42
▁Fri	-11.4201
▁evolved	-11.4206
ạ	-11.4207
▁collected	-11.4207
state	-11.4208
huyến	-11.4209
▁respond	-11.421
▁Nova	-11.421
point	-11.4211
set	-11.4216
av	-11.4216
▁nở	-11.4217
▁registered	-11.4224
▁plain	-11.4224
▁rũ	-11.4232
▁mau	-11.4236
▁valley	-11.4239
▁nắng	-11.4239
▁Digital	-11.4243
▁engines	-11.4244
▁Ward	-11.4245
▁Quyền	-11.4248
▁Forces	-11.4251
▁finds	-11.4252
▁1999.	-11.4253
▁Xe	-11.4255
▁cloud	-11.4258
▁dạo	-11.4262
âm	-11.4263
▁tiệm	-11.4264
▁gentlemen	-11.4264
▁root	-11.4264
▁Mos	-11.4264
▁Plan	-11.4264
▁Giả	-11.4266
▁2001.	-11.4268
▁Anderson	-11.4268
▁vải	-11.4268
▁Marine	-11.4268
▁Turkish	-11.4269
ي	-11.4273
▁1905	-11.4274
▁reserve	-11.4276
▁pho	-11.428
▁Sai	-11.4282
▁Mag	-11.4287
▁items	-11.4289
▁Main	-11.4293
▁sườn	-11.4297
▁Lại	-11.4298
▁ván	-11.4299
▁emotional	-11.4301
quin	-11.4303
▁excited	-11.4303
▁Charlotte	-11.4303
▁lưng	-11.4304
▁Mari	-11.4306
▁Idlib	-11.4311
▁vờ	-11.4313
▁Sol	-11.4314
ava	-11.4316
▁Paulo	-11.4318
bon	-11.4318
▁(11	-11.4319
▁1978	-11.4319
▁Vincent	-11.4319
▁railway	-11.4327
▁manh	-11.4331
▁shoes	-11.4334
▁dẹp	-11.4335
▁permission	-11.4336
▁Đang	-11.4337
▁Alpha	-11.4337
▁districts	-11.4337
▁Had	-11.4339
▁Ảnh	-11.4339
▁mắn	-11.434
▁layer	-11.4344
▁ghê	-11.4344
▁departed	-11.4345
▁Vô	-11.4349
▁receiving	-11.4351
bor	-11.4353
▁Opera	-11.4356
ments	-11.4358
▁1945.	-11.4358
▁thâm	-11.436
▁Mus	-11.4363
shire	-11.4363
▁etc	-11.4365
▁liked	-11.4365
▁storage	-11.4367
▁Đơn	-11.4367
▁trật	-11.4368
▁stands	-11.4369
uz	-11.4372
▁sake	-11.4373
Se	-11.4374
▁cậu	-11.4375
▁Michigan	-11.4375
▁Xbox	-11.4376
osis	-11.4383
zen	-11.4384
▁indeed	-11.4384
▁Allied	-11.4392
▁Dòng	-11.4393
▁Seung	-11.4393
chin	-11.4395
▁Shu	-11.4395
▁Metro	-11.4396
▁drinking	-11.4402
▁Series	-11.4404
▁Quy	-11.4405
▁sixth	-11.4406
CA	-11.4407
▁pulled	-11.4407
▁hidden	-11.4408
▁larvae	-11.4408
▁Very	-11.441
▁Andy	-11.4412
Si	-11.4413
▁RNA	-11.4413
▁pounds	-11.4414
▁nâu	-11.4417
▁1959	-11.4418
▁Hindu	-11.4418
▁Cần	-11.442
▁noise	-11.4422
such	-11.4425
gus	-11.4428
▁Israeli	-11.443
а	-11.4439
▁composition	-11.444
▁translation	-11.444
And	-11.4446
▁Wu	-11.4446
iki	-11.4446
▁sending	-11.4447
▁21,	-11.4447
▁Venice	-11.4448
▁lands	-11.4449
_{	-11.445
▁HD	-11.445
▁Ivan	-11.4451
phy	-11.4453
▁Kraków	-11.4456
fish	-11.4457
▁executed	-11.4459
▁Les	-11.4463
▁Newton	-11.4463
▁nảy	-11.4464
từ	-11.4465
▁1963	-11.4466
called	-11.4466
▁Nazi	-11.447
▁Lucas	-11.4472
ving	-11.4472
▁Kennedy	-11.4472
▁enemies	-11.4472
▁Jason	-11.4475
unt	-11.4476
▁Story	-11.4477
▁Macedonia	-11.4478
ters	-11.448
▁legend	-11.448
nar	-11.448
▁cuồng	-11.4481
▁Kiểu	-11.4481
▁Albania	-11.4486
▁80%	-11.4487
▁Chang	-11.4488
ín	-11.4488
▁1932	-11.4488
▁agriculture	-11.4489
▁Swiss	-11.4489
▁Dance	-11.4494
til	-11.4496
▁Căn	-11.4496
▁Zimbabwe	-11.4497
▁forgive	-11.4497
▁Florence	-11.4497
▁Johnny	-11.4501
▁Seven	-11.4505
pon	-11.4509
▁drawn	-11.451
▁businesses	-11.4511
▁Quả	-11.4512
far	-11.4513
▁customer	-11.4518
▁eo	-11.4519
isation	-11.4521
▁Ger	-11.4522
▁Leon	-11.4523
ians	-11.4524
▁obvious	-11.4525
▁output	-11.4526
▁contained	-11.4526
▁grandfather	-11.4527
▁Hotel	-11.4528
▁chip	-11.4528
▁Besides	-11.4529
▁hận	-11.453
▁ob	-11.453
▁appropriate	-11.4532
▁Bốn	-11.4532
▁Lang	-11.4534
▁pet	-11.4536
▁Az	-11.4537
▁journalist	-11.4539
▁Without	-11.454
▁16,	-11.4542
▁Ros	-11.4545
hor	-11.4545
▁Saturday	-11.4546
▁Ấu	-11.4546
hold	-11.4547
chen	-11.4548
TA	-11.4548
▁Char	-11.4549
▁Hans	-11.4549
▁infections	-11.4552
▁funds	-11.4552
▁suffer	-11.4553
▁disappear	-11.4554
▁Tre	-11.4557
▁Hold	-11.456
▁bra	-11.4561
▁Ltd	-11.4563
▁Manila	-11.4563
▁TO	-11.4564
vu	-11.4564
▁Cher	-11.4565
▁hip	-11.4565
▁nạ	-11.4568
rah	-11.4572
▁therapy	-11.4573
▁saving	-11.4574
▁crown	-11.4575
▁Pierre	-11.4575
▁Ngôn	-11.4579
▁phế	-11.458
ago	-11.4582
ement	-11.4583
▁essentially	-11.4583
▁Walker	-11.4584
▁papers	-11.4585
▁Gre	-11.4586
▁landscape	-11.4587
late	-11.4591
▁cap	-11.4595
▁falling	-11.4597
▁nạp	-11.4598
▁electronic	-11.46
▁depends	-11.4601
AL	-11.4602
wo	-11.4603
▁Conference	-11.4604
▁wounded	-11.4609
▁northeast	-11.4612
lit	-11.4613
▁depression	-11.462
cept	-11.4624
▁banks	-11.4627
▁Thường	-11.4628
▁console	-11.4628
▁organ	-11.4629
nica	-11.4631
gger	-11.4632
▁outbreak	-11.4632
▁supporting	-11.4635
gged	-11.4637
mma	-11.464
▁Pin	-11.464
▁identify	-11.4643
iva	-11.4644
▁Belgium	-11.4645
▁interface	-11.4645
▁mỏng	-11.4646
▁1950,	-11.4647
mont	-11.4649
style	-11.465
▁democracy	-11.4653
▁Friday	-11.4653
▁1949	-11.4656
▁fluid	-11.4656
▁Luke	-11.4657
▁soldier	-11.4658
put	-11.4658
▁NATO	-11.4658
osa	-11.4661
▁widespread	-11.4661
▁Apollo	-11.4661
▁resolution	-11.4661
▁express	-11.4663
lim	-11.4664
ệ	-11.4664
ر	-11.4666
lli	-11.4666
▁greatly	-11.4667
▁Đêm	-11.4669
▁thấu	-11.467
▁unusual	-11.4673
▁circumstances	-11.4674
▁theater	-11.4675
▁điền	-11.4676
▁quit	-11.4687
▁Cruz	-11.4689
▁coal	-11.4692
ids	-11.4693
▁staying	-11.4695
▁technique	-11.4699
▁bread	-11.4702
▁regarding	-11.4703
▁châm	-11.4703
shu	-11.4704
My	-11.4705
▁Studio	-11.4707
▁49	-11.471
▁electrical	-11.471
▁mâu	-11.4713
▁engineer	-11.4716
▁witness	-11.4717
▁Missouri	-11.4719
▁patterns	-11.472
Well	-11.4721
▁Arabia	-11.4723
ille	-11.4726
▁Des	-11.4727
▁1900	-11.4727
▁upset	-11.4727
▁chòm	-11.4728
▁hãm	-11.4728
▁wealth	-11.473
Di	-11.4732
▁1965	-11.4733
tive	-11.4737
▁Winter	-11.4739
▁suggests	-11.4743
▁ratio	-11.4744
RA	-11.4745
This	-11.4751
▁mến	-11.4755
▁prices	-11.4756
ầm	-11.4757
Mi	-11.4759
▁eggs	-11.4759
▁concerns	-11.4761
ois	-11.4767
▁Trắng	-11.4769
ox	-11.4771
lation	-11.4771
▁Carter	-11.4772
▁adapt	-11.4774
▁union	-11.4777
▁dating	-11.4777
▁Thuyền	-11.4778
▁flash	-11.4778
▁appearances	-11.4783
còn	-11.4784
▁false	-11.4786
▁molecules	-11.4794
▁external	-11.4794
▁1916	-11.4795
▁react	-11.48
▁gotten	-11.48
▁Mah	-11.4801
▁debuted	-11.4802
▁tẩy	-11.4803
▁vẹn	-11.4803
▁nhục	-11.4803
▁stream	-11.4804
aga	-11.4804
▁Tunisia	-11.4804
▁bet	-11.4807
ging	-11.4808
▁sacrifice	-11.4809
▁artificial	-11.4811
▁steel	-11.4811
▁drunk	-11.4811
▁trá	-11.4814
kar	-11.4816
▁vé	-11.4819
▁charges	-11.4819
▁Antonio	-11.482
▁lấp	-11.482
▁essential	-11.482
▁xăng	-11.4821
aries	-11.4828
▁landed	-11.4828
EN	-11.483
▁blame	-11.4834
▁Trinidad	-11.4837
▁cent	-11.4837
▁stores	-11.4845
▁Nicholas	-11.4845
▁guilty	-11.4847
▁ngụ	-11.4852
▁kilometers	-11.4853
▁modified	-11.4854
▁hước	-11.4854
▁attend	-11.4856
▁gradually	-11.4863
▁formally	-11.4864
▁marine	-11.4864
3,	-11.4864
▁paying	-11.4865
▁missions	-11.4866
▁hố	-11.4866
▁tủ	-11.4867
▁seats	-11.4868
▁Samuel	-11.4871
▁suspect	-11.4878
▁strategic	-11.4879
▁Control	-11.4879
▁experiences	-11.4879
hun	-11.4881
▁Want	-11.4885
east	-11.4885
àn	-11.4887
▁bother	-11.4888
▁description	-11.4888
▁fled	-11.4889
sie	-11.4894
▁việc	-11.4896
▁Nan	-11.4904
▁introduction	-11.4904
free	-11.491
▁Bảy	-11.4914
▁maintained	-11.4915
ttle	-11.4916
▁concentration	-11.492
How	-11.492
▁frequency	-11.4926
heim	-11.4929
▁indigenous	-11.493
▁lasted	-11.493
▁defend	-11.4934
▁popularity	-11.4934
▁northwest	-11.4939
▁covering	-11.4939
▁wondering	-11.494
▁sọ	-11.4944
▁Slav	-11.4944
▁Ước	-11.4947
▁chuyện	-11.4947
eri	-11.4947
▁Rosa	-11.495
▁rejected	-11.495
▁employed	-11.4955
▁extension	-11.4955
▁hosted	-11.4956
▁detail	-11.4957
ito	-11.4959
▁insurance	-11.4964
▁adults	-11.4964
▁Coi	-11.4965
▁somehow	-11.4966
▁download	-11.4967
tern	-11.4969
▁Kazakhstan	-11.4972
▁dội	-11.4973
▁Nathan	-11.4973
▁oh	-11.4976
▁equation	-11.498
▁aspects	-11.4981
▁Lào	-11.4981
▁increases	-11.4983
▁gender	-11.4983
▁movies	-11.4988
▁driver	-11.4988
▁cắm	-11.4989
▁reputation	-11.4989
▁grant	-11.499
▁hey	-11.499
▁Agent	-11.499
▁nominated	-11.4991
rim	-11.4994
▁bắp	-11.4998
▁surrender	-11.4999
▁Islamic	-11.4999
▁Universe	-11.5007
▁formerly	-11.5009
▁Arabic	-11.5011
elli	-11.5011
▁print	-11.5012
sum	-11.5013
▁Down	-11.5015
▁xướng	-11.5015
▁cla	-11.5017
▁trading	-11.502
▁Taka	-11.5021
▁tông	-11.5023
▁featuring	-11.5024
▁giật	-11.5024
▁mini	-11.5025
▁Cur	-11.5025
ử	-11.5026
uring	-11.5029
-11	-11.5031
▁Roosevelt	-11.5032
▁gang	-11.5035
▁comp	-11.5036
▁creative	-11.5041
▁dâu	-11.5042
sey	-11.5042
cing	-11.5043
▁Fo	-11.5043
▁Jr	-11.5044
▁Wal	-11.5045
▁1925	-11.5046
▁Yang	-11.5046
▁inner	-11.5046
zh	-11.5048
▁destroyer	-11.5048
▁humanity	-11.505
▁particles	-11.5053
▁1935	-11.5053
human	-11.5056
▁Salvador	-11.5058
ali	-11.5058
▁56	-11.506
▁mate	-11.5068
▁Czech	-11.5071
▁Secret	-11.5071
▁offers	-11.5074
ET	-11.5075
▁AI	-11.5078
▁rung	-11.5079
▁cook	-11.508
▁ear	-11.5081
▁destruction	-11.5084
▁khuyết	-11.5084
▁tambon	-11.5084
▁hadn	-11.5087
▁Perry	-11.5087
▁Peninsula	-11.5093
▁thắt	-11.5093
▁yield	-11.5093
▁Libya	-11.5093
▁Kyoto	-11.5093
▁heo	-11.5098
▁joining	-11.5099
▁Jun	-11.5101
▁smile	-11.5102
▁thỏ	-11.5103
700	-11.5104
▁apparently	-11.5105
▁22,	-11.5106
RS	-11.511
▁effectively	-11.511
ean	-11.5111
▁Khả	-11.5116
▁views	-11.5117
▁mainland	-11.5117
▁1998.	-11.5117
▁predict	-11.5118
▁warning	-11.5118
▁Affairs	-11.5119
▁xoáy	-11.512
▁isolated	-11.5121
▁Delta	-11.5122
▁civilization	-11.5128
ets	-11.5129
AF	-11.5129
▁faces	-11.5132
nate	-11.5132
▁faced	-11.5134
▁chemistry	-11.5135
▁Lebanon	-11.5136
▁Vợ	-11.5138
ular	-11.5143
▁Management	-11.5145
▁extent	-11.5145
oka	-11.5146
▁consisting	-11.5149
▁15,	-11.515
bil	-11.5151
▁Belarus	-11.5151
▁Madagascar	-11.5153
▁cắn	-11.5153
▁southeast	-11.5154
inch	-11.5155
▁amounts	-11.5156
▁thiêu	-11.5157
bia	-11.5159
▁violent	-11.5162
▁contest	-11.5162
ập	-11.5163
▁profit	-11.5164
ition	-11.5169
▁Bun	-11.517
▁tissue	-11.5172
▁Bond	-11.5175
▁liberal	-11.518
▁Nice	-11.518
▁roll	-11.5181
▁begun	-11.5183
▁Khá	-11.5183
▁Cooper	-11.5184
ander	-11.5186
rt	-11.5187
▁romantic	-11.5188
▁component	-11.519
▁cultures	-11.5196
iti	-11.5196
▁Zu	-11.5196
▁Cairo	-11.5198
▁ấu	-11.52
▁Tay	-11.5204
▁Didn	-11.5205
.”	-11.5205
ax	-11.5209
oe	-11.5213
▁Convention	-11.5214
▁burned	-11.5224
▁belief	-11.5225
▁Titan	-11.5225
tas	-11.5227
▁competed	-11.5227
shin	-11.5227
▁toà	-11.5228
read	-11.523
▁championship	-11.5232
▁personnel	-11.5241
uc	-11.5243
list	-11.5243
▁kẹt	-11.525
▁Thấy	-11.525
▁programming	-11.525
▁lung	-11.5251
▁hoài	-11.5252
▁xé	-11.5255
▁cream	-11.5264
cr	-11.5264
▁explosion	-11.5267
▁Trăng	-11.5267
mark	-11.527
▁organisms	-11.5272
▁IBM	-11.5276
▁appointment	-11.5277
▁convoy	-11.5278
▁1890	-11.528
▁hyper	-11.5282
▁fishing	-11.5284
▁Tụi	-11.5285
▁funeral	-11.5285
▁colour	-11.5285
bat	-11.5285
▁representative	-11.5288
▁lifetime	-11.5289
SC	-11.5291
▁dỡ	-11.5294
▁súc	-11.5294
▁cry	-11.5294
▁disc	-11.5295
▁proteins	-11.5295
▁compounds	-11.5295
▁researchers	-11.5298
▁Ny	-11.5298
▁Virgin	-11.53
▁Cambodia	-11.5301
و	-11.5302
▁Through	-11.5302
▁Đỏ	-11.5303
▁database	-11.5304
yang	-11.5305
▁Malay	-11.5308
Có	-11.531
▁whereas	-11.5311
▁fund	-11.5315
mura	-11.5315
▁Cameron	-11.532
▁Wang	-11.532
khoảnh	-11.5327
▁Won	-11.5329
▁keeps	-11.5331
▁muscle	-11.5332
▁tribes	-11.5333
▁Philippine	-11.5335
▁Sy	-11.5337
▁poverty	-11.5338
▁nhạt	-11.5338
ography	-11.5339
▁episodes	-11.534
▁tanks	-11.5342
▁experiments	-11.5345
▁duties	-11.5348
▁belongs	-11.5349
ا	-11.5349
frac	-11.5351
▁30%	-11.5353
▁answers	-11.5354
▁Islam	-11.5354
new	-11.5355
▁Nguồn	-11.5356
▁chuông	-11.5356
▁Susan	-11.5357
▁remote	-11.536
anda	-11.5361
▁Hunter	-11.5361
gna	-11.5361
▁innovation	-11.5364
▁Too	-11.5368
▁1997.	-11.5369
Người	-11.537
▁Wei	-11.537
▁Margaret	-11.5373
▁idiot	-11.5374
▁Kin	-11.5374
num	-11.5374
sự	-11.5374
▁hiếp	-11.5377
▁Kho	-11.538
For	-11.538
▁conclusion	-11.5382
▁attached	-11.5384
▁wire	-11.5394
▁friendly	-11.5395
▁(14	-11.5395
▁concluded	-11.5396
▁Dead	-11.5397
nov	-11.5399
mate	-11.5403
▁sport	-11.5403
stan	-11.5406
pes	-11.5406
vent	-11.5407
▁arriving	-11.5409
▁thói	-11.5409
▁sét	-11.5409
▁lights	-11.541
▁sample	-11.5413
▁Things	-11.5413
▁MP	-11.5416
▁DS	-11.5417
▁disappeared	-11.5417
▁explanation	-11.5418
yi	-11.5418
▁Finally	-11.5425
▁Design	-11.5428
▁ngai	-11.5429
▁Cuban	-11.5432
aj	-11.5434
▁Illinois	-11.5436
▁Yemen	-11.5436
▁nhì	-11.5437
▁somewhat	-11.5438
▁stem	-11.544
▁beer	-11.5444
▁videos	-11.5445
▁Rob	-11.5446
▁Board	-11.5447
gate	-11.5449
mir	-11.5449
▁thứ	-11.5453
▁collaboration	-11.5454
▁southwest	-11.5454
▁cheese	-11.5455
▁proceed	-11.5455
▁invented	-11.5457
▁lùn	-11.546
▁Clo	-11.546
▁meta	-11.546
▁Harold	-11.5464
uli	-11.5469
▁talent	-11.5469
▁1939,	-11.5471
▁Eddie	-11.5472
▁rising	-11.5472
▁Kang	-11.5472
ugh	-11.5474
▁Ann	-11.5475
▁coup	-11.5478
▁paint	-11.5479
lay	-11.5479
▁Cameroon	-11.5481
▁communicate	-11.5481
▁Trust	-11.5485
SO	-11.5486
PC	-11.5487
shima	-11.5489
▁Munich	-11.549
▁ôm	-11.549
▁Run	-11.5494
▁protest	-11.5494
▁53	-11.5498
Don	-11.5498
▁Atlanta	-11.5499
▁burning	-11.5502
▁Pho	-11.5505
▁ồn	-11.5507
▁Muhammad	-11.5508
▁vội	-11.5508
▁chọc	-11.5517
that	-11.5519
▁crossed	-11.552
▁sharing	-11.5523
là	-11.5525
▁survival	-11.5526
▁Qatar	-11.5528
▁Wil	-11.5531
▁cave	-11.5534
▁dioxide	-11.5536
▁Dam	-11.5541
▁Code	-11.5541
▁fiction	-11.5541
▁lụt	-11.5544
▁Therefore	-11.5544
▁flew	-11.5544
▁brown	-11.5544
Hi	-11.5544
▁partnership	-11.5544
▁Vòng	-11.5545
play	-11.5545
Vi	-11.5546
▁quyến	-11.5546
▁falls	-11.5549
▁Dĩ	-11.5549
▁bottle	-11.555
ising	-11.555
nos	-11.5551
▁Tsu	-11.5552
▁Augustus	-11.5552
▁excuse	-11.5553
ically	-11.5555
iga	-11.5557
▁personally	-11.5558
▁Shah	-11.5558
▁Within	-11.5559
▁Bernard	-11.5561
#243;	-11.5562
-21	-11.5563
▁genes	-11.5566
rac	-11.5566
▁Area	-11.5567
▁networks	-11.557
▁universities	-11.5571
▁rưỡi	-11.5571
với	-11.5572
▁comfortable	-11.5572
▁95	-11.5572
▁teachers	-11.5573
▁trùm	-11.5577
▁finance	-11.5579
▁Meanwhile	-11.558
▁Nhiệm	-11.558
▁speakers	-11.5587
▁Clinton	-11.5589
▁champion	-11.5595
▁festival	-11.5595
▁celebrate	-11.5597
▁ordinary	-11.5598
▁hill	-11.5599
▁seal	-11.56
▁lit	-11.56
▁dare	-11.5603
▁từ	-11.5606
inus	-11.5606
▁brings	-11.5606
mina	-11.5607
▁Tanzania	-11.5607
▁Dai	-11.5607
▁bổng	-11.5608
▁measured	-11.5608
hood	-11.5609
▁Sản	-11.5612
ear	-11.5614
▁carriers	-11.5614
▁principles	-11.5615
cell	-11.5616
▁poetry	-11.5617
nder	-11.5619
▁Av	-11.5621
▁patrol	-11.5622
▁Shan	-11.5624
lk	-11.5627
ique	-11.5631
▁54	-11.5634
▁constellation	-11.5634
▁entrance	-11.5634
▁reward	-11.5639
▁Es	-11.5641
▁forming	-11.5642
▁Tham	-11.5643
▁partners	-11.5643
▁Mississippi	-11.5644
▁Sarawak	-11.5644
▁đúc	-11.5644
ido	-11.5647
gram	-11.5647
SP	-11.565
pu	-11.5651
▁parliament	-11.5652
▁Toronto	-11.5653
▁tỏa	-11.5657
ashi	-11.5658
▁phenomenon	-11.5662
▁injured	-11.5662
▁affairs	-11.5669
▁Cleopatra	-11.5671
▁đuối	-11.5671
sti	-11.5672
cra	-11.5672
▁Sports	-11.5676
▁infected	-11.5677
tana	-11.5677
▁bullet	-11.5679
▁Estonia	-11.568
▁Chuẩn	-11.568
▁Emma	-11.5681
▁scheduled	-11.5681
▁succeed	-11.5682
▁usual	-11.5682
▁hat	-11.5684
▁random	-11.5685
ook	-11.5685
▁Mid	-11.5686
▁emerged	-11.5687
▁decrease	-11.5689
▁mayor	-11.5689
▁happiness	-11.5689
▁Ay	-11.5691
bur	-11.5693
▁Malta	-11.5693
▁Henri	-11.5694
▁clo	-11.5696
▁Governorate	-11.5699
wer	-11.5701
▁historic	-11.5701
▁Prior	-11.5703
▁1917	-11.5705
▁ruler	-11.5707
▁valuable	-11.5708
oy	-11.5709
▁pH	-11.571
▁visitors	-11.571
lves	-11.5713
▁1908	-11.5716
▁rau	-11.5717
▁xoắn	-11.5717
▁confused	-11.5717
▁gu	-11.5718
▁convert	-11.5718
▁hunt	-11.572
▁ru	-11.5721
▁Defense	-11.5722
▁strongly	-11.5722
▁SC	-11.5723
▁Leyte	-11.5726
gor	-11.5727
▁Chen	-11.5729
▁articles	-11.5732
▁forgot	-11.5732
▁MiG	-11.5734
ras	-11.5735
▁Family	-11.5735
▁Christopher	-11.5737
▁nữa	-11.5737
If	-11.5738
▁programme	-11.5741
▁clinical	-11.5743
▁graduate	-11.5744
▁sentence	-11.5744
▁Dylan	-11.5745
▁lãi	-11.5745
▁1914	-11.5745
▁armies	-11.5746
▁personality	-11.5749
▁Ô	-11.5752
▁collapse	-11.5753
▁Agency	-11.5754
▁Honey	-11.5755
▁Daily	-11.5759
omi	-11.576
rio	-11.5762
▁Luis	-11.5763
▁Theatre	-11.5763
Buổi	-11.5764
▁Scottish	-11.5764
▁nốt	-11.5764
▁auto	-11.5765
▁Cook	-11.5766
dri	-11.5766
▁Baby	-11.5769
uta	-11.5771
ulf	-11.5772
▁rỗng	-11.5772
▁Wilhelm	-11.5772
▁xám	-11.5773
▁rarely	-11.5773
ứ	-11.5773
▁fail	-11.5773
▁Gabriel	-11.5775
tile	-11.5775
▁movements	-11.5775
▁contributed	-11.5782
▁Rằng	-11.5783
▁1907	-11.5784
▁tê	-11.5785
▁retain	-11.5786
Br	-11.5788
▁Warner	-11.579
▁sleeping	-11.5792
▁Mali	-11.5792
amide	-11.5793
▁xà	-11.5796
▁Trade	-11.5796
Những	-11.5799
▁Guy	-11.5801
▁Chất	-11.5801
▁subjects	-11.5803
▁1988,	-11.5803
▁ham	-11.5804
▁100,000	-11.5805
▁báu	-11.5808
▁bọ	-11.5808
▁involves	-11.5808
▁hits	-11.5809
▁Sel	-11.5813
▁grab	-11.5814
▁earthquake	-11.5818
▁dust	-11.5821
▁2,000	-11.5822
▁Uruguay	-11.5826
▁infrastructure	-11.5828
rr	-11.583
▁Dia	-11.5833
▁Cây	-11.5833
▁characteristics	-11.5834
▁Mang	-11.5834
▁entertainment	-11.5838
lot	-11.5838
▁admitted	-11.5838
▁cacbon	-11.5839
ét	-11.584
▁Dec	-11.5841
▁incorporated	-11.5842
▁escaped	-11.5844
mail	-11.5844
avi	-11.5846
▁Gri	-11.5846
▁Madonna	-11.5847
▁Thầy	-11.5847
power	-11.5855
▁divide	-11.5855
▁trials	-11.5857
tên	-11.5857
▁Pri	-11.5858
▁founding	-11.5861
▁helps	-11.5863
▁deserve	-11.5864
▁khoẻ	-11.5866
▁trap	-11.5866
▁Linh	-11.5866
ận	-11.5868
▁Temple	-11.5871
▁engage	-11.5871
ết	-11.5872
▁nu	-11.5873
▁flows	-11.5873
▁Denmark	-11.5875
▁latest	-11.5877
ôi	-11.5878
▁Southeast	-11.5879
▁scar	-11.588
rine	-11.5881
▁Mobile	-11.5882
▁hormone	-11.5884
▁Myanmar	-11.5885
▁Marcel	-11.5885
▁phiêu	-11.5886
▁Babylon	-11.5891
Lo	-11.5893
▁anniversary	-11.5893
▁twelve	-11.5893
▁regret	-11.5893
▁reduction	-11.5895
▁obtain	-11.5895
oo	-11.5895
▁spell	-11.5896
▁Ukrainian	-11.5898
▁Alexandria	-11.5899
▁tráng	-11.5899
ug	-11.5901
▁entitled	-11.5903
▁Raymond	-11.5903
ute	-11.5908
eon	-11.591
▁1906	-11.5911
▁scenes	-11.5911
▁convinced	-11.5912
▁targets	-11.5916
▁choices	-11.5917
ces	-11.5917
▁ju	-11.5917
▁plasma	-11.5922
▁ladies	-11.5922
▁finger	-11.5926
usa	-11.5928
▁Melbourne	-11.5931
▁Thor	-11.5933
▁Yet	-11.5935
▁purchased	-11.5935
▁adaptation	-11.5936
▁ya	-11.5941
▁column	-11.5942
▁Bỏ	-11.5944
▁chăng	-11.5945
▁ướt	-11.5947
Upon	-11.5948
uấn	-11.5949
▁Poly	-11.595
▁Caroline	-11.5951
▁princess	-11.5954
▁Child	-11.5956
▁conduct	-11.5957
▁Fuji	-11.5958
▁Ker	-11.5958
fall	-11.5959
▁1909	-11.5962
▁generate	-11.5964
won	-11.5967
▁Swift	-11.5969
▁Bru	-11.5969
;/	-11.5969
▁ngột	-11.597
awa	-11.5973
▁Harrison	-11.5973
▁Moskva	-11.5978
▁Qui	-11.5978
▁bu	-11.5982
gli	-11.5985
▁extinct	-11.5986
▁schedule	-11.5986
▁Ever	-11.5987
▁vary	-11.5987
▁Rain	-11.5989
BA	-11.5989
▁Bat	-11.5991
gel	-11.5993
▁angle	-11.5996
yr	-11.5996
▁Hiệu	-11.5998
▁Republican	-11.6
▁nano	-11.6
org	-11.6
▁hạch	-11.6002
▁SO	-11.6006
▁vạch	-11.6007
▁Than	-11.6007
▁nhị	-11.6007
▁scientist	-11.6008
▁Economic	-11.6008
▁Angel	-11.6011
▁reactions	-11.6015
▁Masa	-11.6016
▁2020	-11.6016
▁mechanism	-11.6018
ỉ	-11.6019
▁85	-11.6021
▁nghiêng	-11.6022
▁thiêng	-11.6025
▁1.5	-11.6025
▁Finland	-11.6026
▁exception	-11.6028
▁Ap	-11.603
▁Fra	-11.603
▁immediate	-11.603
ON	-11.6031
▁sha	-11.6035
▁Giới	-11.6035
▁regard	-11.6047
▁bách	-11.6047
vel	-11.6047
ode	-11.605
▁loud	-11.605
▁communist	-11.6051
mine	-11.6051
▁100%	-11.6052
▁drawing	-11.6053
vor	-11.6053
TS	-11.6055
▁ne	-11.6057
▁processing	-11.6061
▁Sk	-11.6062
▁representing	-11.6063
▁indicate	-11.6065
▁pageant	-11.6066
▁exhibition	-11.6067
▁sôi	-11.6068
▁kings	-11.607
▁entering	-11.6074
ios	-11.6075
▁cure	-11.6075
▁monster	-11.6076
▁currency	-11.6076
▁strip	-11.6077
ă	-11.6078
▁pump	-11.6083
▁Guam	-11.6084
▁cúp	-11.6089
▁Shō	-11.6089
▁breeding	-11.6091
▁Sciences	-11.6091
▁pound	-11.6091
▁Lou	-11.6094
▁Nor	-11.6095
OH	-11.6099
▁Magic	-11.6099
type	-11.61
▁chest	-11.6102
▁jazz	-11.6102
▁arch	-11.6103
▁24,	-11.6105
pet	-11.6105
llo	-11.6106
▁10.000	-11.6106
▁proton	-11.6106
▁harder	-11.6108
▁Sil	-11.611
▁brave	-11.6111
▁involving	-11.6111
▁phiến	-11.6113
hiro	-11.6113
▁duệ	-11.6114
▁Stay	-11.6114
▁Baker	-11.6116
▁Fair	-11.6117
ữ	-11.6117
▁Dun	-11.6118
rang	-11.612
▁Namibia	-11.6121
▁Jeff	-11.6122
▁underground	-11.6122
▁options	-11.6124
▁1996.	-11.6124
▁Tuyến	-11.6124
ati	-11.6126
AM	-11.6127
mas	-11.613
▁journal	-11.613
▁designs	-11.6131
▁Nhất	-11.6131
▁Sure	-11.6132
phon	-11.6132
cor	-11.6132
▁clip	-11.6133
▁loves	-11.6134
▁button	-11.6134
▁tie	-11.6134
ủ	-11.6135
▁sudden	-11.6135
matic	-11.6136
▁traveled	-11.6136
uga	-11.6136
▁57	-11.6137
▁ngắm	-11.614
▁Tiêu	-11.6141
▁bếp	-11.6141
▁bả	-11.6142
▁nerve	-11.6143
▁Blu	-11.6144
▁Around	-11.6144
horn	-11.6146
▁nghiệt	-11.615
▁adding	-11.6151
▁Tạng	-11.6151
▁}	-11.6151
▁dragon	-11.6153
▁Gro	-11.6154
FA	-11.6156
▁Hope	-11.6157
▁MA	-11.6157
▁argued	-11.6159
▁Đoàn	-11.6159
▁Russell	-11.6159
-14	-11.616
▁Try	-11.6161
MP	-11.6163
load	-11.6164
▁Fine	-11.6165
▁memories	-11.6169
▁Sim	-11.6169
▁Borneo	-11.6169
▁heir	-11.617
▁tight	-11.617
▁tím	-11.6172
▁prototype	-11.6172
▁nén	-11.6173
▁mix	-11.6176
oph	-11.6176
▁63	-11.6178
mis	-11.6187
#225;	-11.6188
▁nàn	-11.6191
▁á	-11.6193
▁Hard	-11.6194
▁Anthony	-11.6198
ác	-11.62
▁theories	-11.6201
4,	-11.6201
lé	-11.6202
▁describes	-11.6204
hem	-11.6205
▁heading	-11.6207
▁Sand	-11.6207
▁2:	-11.621
▁tựu	-11.6211
▁proposal	-11.6211
▁Ry	-11.6214
▁lovely	-11.6215
▁shame	-11.6215
mie	-11.6219
▁colors	-11.6223
Một	-11.6228
▁Cla	-11.6229
▁Mis	-11.6242
ware	-11.6245
▁Azerbaijan	-11.6246
▁minimum	-11.6246
▁theatre	-11.6248
▁Hat	-11.6248
▁Qa	-11.6249
▁exposed	-11.625
kes	-11.6252
ốc	-11.6255
)}	-11.6255
▁Tokugawa	-11.6256
ES	-11.6256
▁Burn	-11.6257
▁selection	-11.6257
tron	-11.6258
itis	-11.6261
▁farmers	-11.6262
▁α	-11.6264
sson	-11.6267
▁lam	-11.6267
dian	-11.6269
▁briefly	-11.6273
vol	-11.6275
▁Tiger	-11.6279
▁airline	-11.6281
xem	-11.6282
▁scan	-11.6284
cap	-11.6284
dio	-11.6285
ics	-11.6285
▁extraordinary	-11.6285
▁Quý	-11.6285
▁Gary	-11.6286
▁nguyền	-11.6286
▁Giang	-11.6288
▁produces	-11.6288
▁stole	-11.6289
▁Chờ	-11.6289
ston	-11.6291
▁lũy	-11.6291
PO	-11.6292
▁đc	-11.6294
▁Nixon	-11.6295
▁grandmother	-11.6295
▁Mak	-11.6295
▁abuse	-11.6296
py	-11.63
khi	-11.6302
▁Marc	-11.6302
▁Crown	-11.6303
▁periods	-11.6303
▁lê	-11.6305
▁minus	-11.631
▁Maya	-11.6312
▁Fan	-11.6312
▁installed	-11.6313
▁literary	-11.6314
▁Universal	-11.6314
▁Grammy	-11.6315
▁Band	-11.6315
▁Manuel	-11.6315
fla	-11.6317
▁hưng	-11.6317
▁cameras	-11.6319
ề	-11.632
▁vần	-11.6321
▁protecting	-11.6322
ught	-11.6324
▁$2	-11.6324
▁giờ	-11.6325
▁perfectly	-11.6328
▁consisted	-11.6328
pic	-11.633
▁Wild	-11.633
▁Canal	-11.6331
▁Thung	-11.6332
▁flower	-11.6333
▁Lily	-11.6333
▁chairman	-11.6334
▁pretend	-11.6334
▁1904	-11.6338
▁1994.	-11.6338
▁Jake	-11.6341
▁Yan	-11.6341
▁AIDS	-11.6342
bed	-11.6344
▁Delhi	-11.6344
▁trigger	-11.6347
▁1:	-11.6348
PD	-11.6349
gam	-11.635
▁Years	-11.6351
vir	-11.6352
▁miện	-11.6352
▁roads	-11.6353
▁Kuwait	-11.6353
▁đấy	-11.6354
▁residence	-11.6354
▁kẹo	-11.6354
▁180	-11.6357
▁input	-11.6358
▁Non	-11.6359
AD	-11.636
▁colonial	-11.636
▁breast	-11.6363
▁babies	-11.6364
▁gap	-11.6366
las	-11.6366
▁stages	-11.6366
ật	-11.6366
▁bìa	-11.6367
table	-11.6369
rch	-11.637
dale	-11.6371
els	-11.6374
▁chua	-11.6375
▁Stein	-11.6375
▁gối	-11.6375
Music	-11.6375
▁replacement	-11.6375
▁1987,	-11.6377
▁generated	-11.6392
▁Silver	-11.6393
▁shopping	-11.6393
▁bid	-11.6394
▁Solar	-11.6394
▁Vai	-11.6396
mber	-11.6398
▁paintings	-11.6398
rom	-11.64
▁injury	-11.6403
▁gate	-11.6403
▁Seattle	-11.6403
▁28,	-11.6404
▁Kate	-11.6404
▁Giữa	-11.6407
ấy	-11.6408
▁bỏng	-11.6411
▁facing	-11.6411
▁Explorer	-11.6413
▁destination	-11.6413
IA	-11.6414
▁pot	-11.6416
kawa	-11.6417
▁males	-11.6418
▁Sc	-11.6419
▁vòm	-11.6425
▁fake	-11.6426
moto	-11.6429
▁Magazine	-11.6432
▁Aaron	-11.6432
▁mìn	-11.6433
▁vỗ	-11.6434
▁Năng	-11.6435
▁domain	-11.6437
▁hệt	-11.644
▁consumption	-11.6442
▁Nhớ	-11.6442
int	-11.6446
▁Short	-11.6448
▁Slovakia	-11.6449
▁Stan	-11.6449
▁Tur	-11.645
▁representation	-11.645
▁McC	-11.6451
ign	-11.6451
▁khốn	-11.6451
▁rỉ	-11.6453
▁Food	-11.6454
▁cattle	-11.6454
▁Dor	-11.6458
▁translated	-11.6459
▁1901	-11.6462
▁Natural	-11.6462
▁commission	-11.6466
▁arranged	-11.6467
cast	-11.6468
▁Bri	-11.6472
▁photos	-11.6473
▁spa	-11.6476
Cha	-11.6481
▁bull	-11.6482
▁cược	-11.6482
▁Bureau	-11.6483
▁Lẽ	-11.6483
yer	-11.6484
▁considerable	-11.6484
▁Bio	-11.6484
aka	-11.6486
▁1992.	-11.6488
▁diplomatic	-11.6488
▁demo	-11.6488
▁Len	-11.6489
▁110	-11.6491
▁Thuốc	-11.6492
▁accused	-11.6494
▁vâng	-11.6498
▁interaction	-11.6501
ides	-11.6502
▁detect	-11.6504
▁Edo	-11.6504
▁charged	-11.6505
ope	-11.6506
Ti	-11.6508
▁publication	-11.6508
link	-11.6511
▁Benjamin	-11.6512
▁vitamin	-11.6512
▁Angola	-11.6512
ington	-11.6513
▁magnetic	-11.6513
spor	-11.6515
▁fossil	-11.6519
▁republic	-11.6519
▁Julia	-11.6522
▁Report	-11.6524
▁sisters	-11.6529
▁hôi	-11.653
▁bones	-11.6532
present	-11.6532
spe	-11.6537
▁tumor	-11.6537
▁priest	-11.654
▁1980.	-11.654
pol	-11.6541
▁đầm	-11.6542
▁Reserve	-11.6544
gua	-11.6545
▁jet	-11.6548
▁argument	-11.655
ulation	-11.655
▁rec	-11.655
▁flights	-11.6556
▁tam	-11.6556
eva	-11.656
▁retail	-11.656
▁Library	-11.6562
▁Really	-11.6567
▁habitat	-11.6567
▁Lev	-11.6568
▁divisions	-11.6569
▁absence	-11.6572
▁lúa	-11.6572
▁adventure	-11.6572
cut	-11.6573
▁exit	-11.6573
Po	-11.6576
▁26,	-11.6576
St	-11.6576
о	-11.6576
cc	-11.6577
▁practical	-11.6577
▁chì	-11.6578
▁dates	-11.6578
tō	-11.658
▁Bahrain	-11.6582
▁Rwanda	-11.6582
▁notably	-11.6582
▁requirements	-11.6584
▁export	-11.6584
▁designer	-11.6586
▁Movie	-11.6586
▁youngest	-11.6586
▁cur	-11.6586
-23	-11.6587
▁Est	-11.6587
▁tứ	-11.6592
▁Mercury	-11.6592
young	-11.6592
cat	-11.6593
▁1912	-11.6593
Ga	-11.6596
ố	-11.6596
▁Mir	-11.6597
▁cow	-11.6599
▁Stra	-11.66
▁Thử	-11.6602
▁Viên	-11.6604
mos	-11.6604
▁Garden	-11.6605
tech	-11.6605
▁pages	-11.6607
▁Wii	-11.6607
cio	-11.6609
▁taxes	-11.661
▁Kane	-11.661
thy	-11.6613
▁expand	-11.6615
▁Vin	-11.6615
▁25,	-11.6617
Pro	-11.6617
▁1.000	-11.6621
▁explore	-11.6622
▁immune	-11.6622
▁mail	-11.6624
▁occasionally	-11.6624
▁Kelly	-11.6625
▁homes	-11.6626
▁101	-11.6627
sei	-11.6627
Bu	-11.6629
sty	-11.663
▁Bengal	-11.6632
▁Lieutenant	-11.6632
▁exposure	-11.6632
face	-11.6632
▁seed	-11.6633
▁1995.	-11.6633
▁toilet	-11.6634
duct	-11.6635
▁planes	-11.6637
▁challenges	-11.6638
▁intention	-11.6641
▁Santo	-11.6641
▁delivery	-11.6642
▁bathroom	-11.6642
khoảng	-11.6645
▁Low	-11.6649
RP	-11.665
▁Dog	-11.6651
▁barely	-11.6652
even	-11.6653
▁visa	-11.6655
place	-11.6656
▁1930,	-11.6657
nese	-11.6657
▁cake	-11.6658
▁bể	-11.6658
RI	-11.6662
▁Detective	-11.6662
▁nụ	-11.6663
▁hàn	-11.6664
▁draft	-11.6665
▁twin	-11.6667
▁apparent	-11.6668
▁Shanghai	-11.6672
▁designation	-11.6673
▁Algeria	-11.6675
▁Mega	-11.6679
▁ngộ	-11.6682
▁sh	-11.6682
▁Beatles	-11.6683
▁mầm	-11.6684
▁guards	-11.6685
▁crimes	-11.6686
odo	-11.6687
▁Ob	-11.6687
▁Mur	-11.6688
▁altitude	-11.6689
▁Bhutan	-11.6693
▁Jupiter	-11.6693
▁execution	-11.6693
▁phrase	-11.6693
▁nôn	-11.6694
▁Rh	-11.6696
▁Wo	-11.6697
phan	-11.6697
▁vessels	-11.6701
take	-11.6701
aro	-11.6702
ister	-11.6705
▁comic	-11.6707
sign	-11.6709
▁Zero	-11.671
▁protocol	-11.6713
▁nhũng	-11.6713
made	-11.6715
▁interior	-11.6723
▁nhiễu	-11.6723
trợ	-11.6727
▁Voivodeship	-11.6733
▁funding	-11.6736
▁40%	-11.6736
▁alien	-11.6737
PDF	-11.6738
▁consequences	-11.6739
▁Carr	-11.6743
▁xưng	-11.6744
▁Phía	-11.6744
▁Queensland	-11.6744
bul	-11.675
▁linear	-11.6751
ũ	-11.6751
arch	-11.6752
ett	-11.6753
▁bơm	-11.6754
▁râu	-11.6755
owski	-11.6755
▁aired	-11.6756
▁Pictures	-11.6757
▁laugh	-11.6757
▁nowhere	-11.676
iana	-11.676
pot	-11.676
▁Tennessee	-11.6764
▁rất	-11.6764
▁error	-11.6764
▁crossing	-11.6764
▁longest	-11.6766
▁bến	-11.6768
who	-11.6768
▁Mountain	-11.677
▁den	-11.6771
▁rooms	-11.6774
dé	-11.6774
▁Hamilton	-11.6774
▁magnitude	-11.6774
▁treasure	-11.6774
▁transmission	-11.6774
▁composer	-11.6777
▁repair	-11.6777
fra	-11.6783
▁convince	-11.6784
▁intellectual	-11.6784
▁settle	-11.6785
ote	-11.6785
▁sừng	-11.6785
▁consumer	-11.6789
woo	-11.6789
▁earn	-11.6791
▁adapted	-11.6794
▁restored	-11.6794
▁temporary	-11.6795
▁bướm	-11.6795
▁Rad	-11.6795
▁Mao	-11.6801
▁Huy	-11.6803
▁đính	-11.6805
ck	-11.6806
▁Wright	-11.6807
▁27,	-11.6807
▁secretary	-11.6807
▁possession	-11.6808
▁bệ	-11.681
▁illness	-11.6813
▁Doug	-11.6814
ech	-11.6814
▁hardware	-11.6816
xa	-11.6821
▁Stu	-11.6822
▁coin	-11.6822
ña	-11.6824
▁smooth	-11.6825
▁đòn	-11.6827
col	-11.6827
▁Bird	-11.6832
▁outer	-11.6833
▁1880	-11.684
▁1870	-11.6841
eno	-11.6844
▁Nelson	-11.6846
▁neutron	-11.6846
▁mốc	-11.6848
▁battles	-11.6852
▁Hung	-11.6855
▁Comp	-11.6856
▁fortune	-11.6857
▁nhát	-11.6859
▁Vệ	-11.6859
▁bath	-11.6862
▁breakfast	-11.6867
▁Hiro	-11.6867
xe	-11.6868
Go	-11.687
▁Eun	-11.687
hard	-11.6872
▁Jam	-11.6872
▁albums	-11.6873
DA	-11.6874
▁Tang	-11.6875
▁campus	-11.6875
▁Officer	-11.6877
▁Pokémon	-11.6877
▁Janeiro	-11.6877
▁institution	-11.6879
oku	-11.688
dimensional	-11.6881
▁3:	-11.6882
▁naturally	-11.6883
▁freak	-11.6888
▁Osaka	-11.6888
▁Blood	-11.6888
gio	-11.6893
▁Palm	-11.6894
▁96	-11.6895
lian	-11.6896
▁cáp	-11.6898
▁letting	-11.6899
▁Rus	-11.69
▁limits	-11.6901
▁Ghi	-11.6903
▁Find	-11.6903
▁fa	-11.6906
▁density	-11.6908
▁dancing	-11.6909
▁Bobby	-11.691
▁ought	-11.691
▁Welcome	-11.6912
from	-11.6913
Wa	-11.6913
▁curve	-11.6914
▁losses	-11.6917
▁comedy	-11.6918
▁centers	-11.692
▁Xi	-11.6921
▁1903	-11.6923
▁depend	-11.6923
▁convention	-11.6924
▁Isaac	-11.6929
▁Lower	-11.6929
▁wars	-11.693
▁Unless	-11.693
▁noble	-11.6932
sit	-11.6937
▁1860	-11.6938
▁stomach	-11.6939
▁cần	-11.694
▁accompanied	-11.6943
any	-11.6943
hwa	-11.6945
▁branches	-11.6945
▁Cold	-11.6947
bou	-11.6948
▁votes	-11.6949
verse	-11.6949
▁Potter	-11.6952
▁arrive	-11.6952
dus	-11.6955
▁comment	-11.6955
nda	-11.6956
▁tied	-11.6957
mmer	-11.6957
▁plenty	-11.696
▁attitude	-11.696
▁Spring	-11.6962
▁pyramid	-11.6963
cen	-11.6964
ải	-11.6964
▁Mario	-11.6964
▁Ran	-11.6967
ller	-11.6967
▁23,	-11.6968
▁rộn	-11.6969
▁Hank	-11.6969
▁exciting	-11.697
▁iPhone	-11.697
▁quật	-11.6971
▁matrix	-11.6971
PP	-11.6972
▁alpha	-11.6975
▁Carol	-11.6978
▁dâng	-11.6978
▁Bảng	-11.6979
▁1974,	-11.6981
▁contribute	-11.6982
▁77	-11.6982
▁transportation	-11.6983
▁dirty	-11.6984
▁belt	-11.6985
dium	-11.699
▁Tinh	-11.6997
▁sharp	-11.6997
▁diet	-11.6998
▁Pink	-11.7001
▁colleagues	-11.7001
▁kit	-11.7002
▁Phoebe	-11.7002
▁dominant	-11.7002
▁scheme	-11.7002
▁Plant	-11.7002
▁ruling	-11.7002
ude	-11.7003
▁váy	-11.7004
▁dish	-11.7006
▁Carey	-11.7007
▁voted	-11.7008
▁Gru	-11.7008
▁70%	-11.7009
▁crap	-11.7009
▁Gọi	-11.7012
▁Nicaragua	-11.7012
▁YOU	-11.7012
▁Justin	-11.7013
▁Nancy	-11.7014
IM	-11.7015
try	-11.7021
▁Store	-11.7021
ify	-11.7022
▁signals	-11.7022
▁relation	-11.7023
FF	-11.7024
nor	-11.7024
▁Viết	-11.7024
▁beating	-11.7027
▁returns	-11.703
▁Horse	-11.7033
ống	-11.7033
▁transform	-11.7033
▁Commonwealth	-11.7033
▁variant	-11.7036
▁screw	-11.7036
▁đấm	-11.7038
▁bow	-11.7043
▁Chó	-11.7045
▁venture	-11.7046
▁Mul	-11.7048
▁phím	-11.7049
hab	-11.7049
▁recovered	-11.7051
▁Bosnia	-11.7055
▁confirm	-11.7056
▁originated	-11.7058
▁Luc	-11.7059
▁Place	-11.7061
▁Buddhist	-11.7065
▁Constantinople	-11.7065
▁Together	-11.7065
▁enormous	-11.7065
▁68	-11.7066
▁Paraguay	-11.7075
▁Number	-11.7076
▁Again	-11.7076
úc	-11.7076
phe	-11.7079
▁missile	-11.708
NA	-11.7083
▁offices	-11.7086
▁Jerry	-11.7087
▁atoms	-11.7087
▁Khách	-11.7089
▁critics	-11.7095
▁triệt	-11.7097
▁boundary	-11.7097
▁01	-11.7101
▁slave	-11.7101
▁Khí	-11.7103
▁comfort	-11.7106
view	-11.7106
▁gởi	-11.7107
▁hụt	-11.7107
▁abroad	-11.7107
▁Pur	-11.7113
jan	-11.7115
▁TH	-11.7116
Sha	-11.7117
▁deputy	-11.7118
▁necessarily	-11.7118
▁Chỗ	-11.7118
rium	-11.7118
▁Thân	-11.7118
▁xấp	-11.7118
ologist	-11.7119
▁Die	-11.7121
▁argue	-11.7122
▁Fall	-11.7127
▁Helen	-11.7127
▁nãy	-11.7132
▁delay	-11.7135
▁talks	-11.7137
▁Maha	-11.7138
▁identical	-11.7139
▁hu	-11.7139
▁gai	-11.714
▁Hungarian	-11.7141
▁Guardian	-11.7141
ffer	-11.7143
▁duyên	-11.7143
▁experimental	-11.7144
▁Harris	-11.7146
ằm	-11.7147
▁Zone	-11.7152
▁Mori	-11.7153
▁colony	-11.7153
▁Rights	-11.7155
▁Looks	-11.7156
▁Brand	-11.7157
▁loyal	-11.716
ن	-11.7164
▁recommended	-11.7165
League	-11.7166
▁360	-11.7169
▁1902	-11.7176
▁cable	-11.7178
▁Talk	-11.718
ée	-11.7183
shan	-11.7185
▁Kam	-11.7186
New	-11.7186
▁fairly	-11.7191
▁Mộc	-11.7194
▁celebrated	-11.7194
▁merged	-11.7196
▁Adams	-11.7196
▁plate	-11.7196
etic	-11.7198
▁soái	-11.7202
LE	-11.7202
▁đầu	-11.7203
▁Venus	-11.7204
▁Cle	-11.7205
▁Grande	-11.7206
▁custom	-11.7207
▁females	-11.7208
▁Binh	-11.7208
▁exercises	-11.7211
▁joy	-11.7211
▁strikes	-11.7213
▁apologize	-11.7213
▁gravity	-11.7214
TO	-11.7214
ete	-11.7216
▁nhàng	-11.7216
▁Franco	-11.7218
▁Chúc	-11.7219
▁Sean	-11.722
▁Bol	-11.7224
▁huỷ	-11.7224
▁pursue	-11.7224
▁Bóng	-11.7225
▁ngục	-11.7229
▁Naga	-11.723
▁hanging	-11.7234
EA	-11.724
Nếu	-11.7241
▁signing	-11.7244
▁mg	-11.7245
▁Minnesota	-11.7245
▁Monday	-11.7246
▁Kro	-11.7249
▁percentage	-11.7249
▁1983,	-11.725
▁continuous	-11.7252
rak	-11.7253
▁Championships	-11.7253
▁Kings	-11.7254
ấp	-11.7254
▁Mach	-11.7254
▁charts	-11.7255
▁lyrics	-11.7256
▁intense	-11.7257
▁Barbara	-11.7257
related	-11.7257
▁đoan	-11.7257
▁Data	-11.7258
▁engagement	-11.7259
▁fee	-11.7263
▁logo	-11.7264
▁rough	-11.7264
▁thin	-11.7265
▁nhiều	-11.7267
▁writers	-11.7267
▁Hậu	-11.7267
▁buying	-11.7269
hour	-11.7272
̃	-11.7274
▁negotiations	-11.7276
▁encourage	-11.7277
▁tribe	-11.7278
▁Seo	-11.7281
▁adopt	-11.7281
▁Linda	-11.7282
pat	-11.7283
▁survivors	-11.7286
enberg	-11.7288
#7871;	-11.7288
▁Lau	-11.729
▁destroyers	-11.7292
Ne	-11.7294
▁Information	-11.7294
▁apple	-11.7294
▁attracted	-11.7295
▁dê	-11.7295
▁Tele	-11.7296
▁bồn	-11.7296
▁absolute	-11.7298
▁knife	-11.7299
▁mỡ	-11.73
▁bloody	-11.7301
õ	-11.7307
PL	-11.7308
▁Woman	-11.7308
▁140	-11.7309
▁Nevada	-11.731
▁conservation	-11.731
▁slide	-11.731
▁PS	-11.7312
ầu	-11.7313
▁Page	-11.7313
ất	-11.7314
Gi	-11.7317
▁instrument	-11.7319
▁Nguyễn	-11.7321
▁Tưởng	-11.7322
▁starred	-11.7323
▁strain	-11.7325
▁epi	-11.7326
ấu	-11.7326
▁lowest	-11.7326
▁golf	-11.7327
SD	-11.7327
▁đà	-11.7327
▁revenue	-11.7328
▁Hills	-11.7333
▁LA	-11.7335
▁aim	-11.7336
▁repeat	-11.7338
illo	-11.7341
▁Vatican	-11.7342
▁shelter	-11.7343
▁kép	-11.7343
▁Trân	-11.7343
▁UFO	-11.7344
▁Voice	-11.7345
▁brains	-11.7346
▁Spi	-11.7351
▁civilian	-11.7352
▁martial	-11.7353
▁Orleans	-11.7353
▁Argentine	-11.7354
▁kề	-11.7354
▁Kiến	-11.7357
▁Johann	-11.7358
▁Fred	-11.7361
Bạn	-11.7361
▁Cr	-11.7363
▁daughters	-11.7366
tric	-11.7367
Su	-11.7368
▁accurate	-11.737
▁prisoner	-11.7374
▁Electric	-11.7375
▁thầu	-11.7375
▁relief	-11.7376
▁cabinet	-11.7376
▁vợt	-11.7377
uka	-11.7378
▁offensive	-11.738
▁thính	-11.738
▁mechanical	-11.7383
▁Sicily	-11.7386
▁Legend	-11.7386
▁biology	-11.7387
lier	-11.7389
▁PA	-11.7389
▁clothing	-11.7391
▁láng	-11.7392
▁Guard	-11.7394
▁1982,	-11.7399
ovich	-11.7399
▁transit	-11.7399
▁Chí	-11.7402
▁superior	-11.7407
▁Abraham	-11.7408
▁tiễn	-11.7408
▁khiết	-11.7408
▁Latvia	-11.7409
ending	-11.7409
▁Pete	-11.741
pl	-11.7413
▁ears	-11.7415
▁pig	-11.7418
▁privilege	-11.7419
▁lift	-11.7419
▁channels	-11.7421
";	-11.7421
▁geo	-11.7421
▁raid	-11.7423
▁highway	-11.7425
▁Youth	-11.7425
rma	-11.7427
▁130	-11.7429
▁Kansas	-11.7429
▁Str	-11.7432
▁enjoyed	-11.7435
ẻ	-11.7435
ể	-11.7436
▁1949,	-11.7436
▁Anything	-11.7441
▁sta	-11.7441
▁quantum	-11.7443
uni	-11.7444
▁steam	-11.7444
▁Flight	-11.7444
▁1991.	-11.7445
▁Siberia	-11.7445
▁Py	-11.7448
▁Bin	-11.7448
▁Lip	-11.745
▁jurisdiction	-11.7451
▁kiềm	-11.7451
▁virtual	-11.7458
▁Pet	-11.7459
▁cụt	-11.7459
▁Otto	-11.7462
▁euro	-11.7464
▁phones	-11.7464
iba	-11.7465
▁Box	-11.7466
▁Mở	-11.7467
▁driven	-11.7469
▁Liga	-11.7469
▁thự	-11.7471
▁Belgian	-11.7473
▁Mĩ	-11.7474
▁bấy	-11.7474
ển	-11.7482
ước	-11.7483
▁influential	-11.7484
▁surviving	-11.7484
▁Viễn	-11.7484
▁tongue	-11.7485
▁neuro	-11.7485
▁Italia	-11.7485
▁loose	-11.7486
sel	-11.7492
▁torpedo	-11.7492
▁statue	-11.7493
west	-11.7495
▁anger	-11.7495
▁forgotten	-11.7496
▁sensitive	-11.7496
▁Vel	-11.7496
▁Neu	-11.7496
▁lăn	-11.7504
▁Ul	-11.7505
▁objective	-11.7506
That	-11.7506
▁Express	-11.7506
▁Hannah	-11.7507
▁Siêu	-11.7507
▁Nico	-11.7508
gawa	-11.7508
{	-11.7508
mara	-11.7509
▁Sức	-11.7511
▁pit	-11.7512
▁cute	-11.7515
▁connections	-11.7515
▁scholars	-11.7516
▁incredibly	-11.7517
▁Julius	-11.7517
ern	-11.7517
▁cutting	-11.7521
▁Count	-11.7522
ific	-11.7523
▁samples	-11.7523
▁efficient	-11.7524
SL	-11.7526
▁operational	-11.7526
▁Phản	-11.7528
▁elevation	-11.7528
▁intervention	-11.7528
▁Television	-11.7528
▁reducing	-11.7529
▁breeds	-11.7529
OR	-11.7532
▁1944.	-11.7539
▁Trần	-11.754
▁span	-11.7541
▁Gã	-11.7542
▁mổ	-11.7542
lea	-11.7544
uto	-11.7544
1)	-11.7549
▁awful	-11.7553
ẽ	-11.7555
sten	-11.7557
▁3,000	-11.7558
▁holiday	-11.756
▁Language	-11.7561
▁opportunities	-11.7561
▁Lâm	-11.7563
ened	-11.7564
▁tall	-11.7567
RO	-11.7568
▁Sister	-11.7569
uy	-11.7569
▁thoughts	-11.757
▁Liban	-11.757
zon	-11.7571
▁Program	-11.7572
▁cưỡi	-11.7573
▁fever	-11.7573
bble	-11.7573
▁mining	-11.7574
▁Market	-11.7575
▁MI	-11.7577
▁dịu	-11.7577
▁stake	-11.7577
rg	-11.7577
foot	-11.7581
enti	-11.7581
▁ranking	-11.7582
▁Senator	-11.7585
▁Found	-11.7586
▁1973,	-11.7587
▁differently	-11.7588
▁properly	-11.7592
▁Administration	-11.7595
▁comparison	-11.7595
▁spacecraft	-11.7595
▁Somebody	-11.7595
etti	-11.7596
▁Marvel	-11.7596
ễ	-11.7597
▁1965,	-11.7598
▁1967,	-11.7604
▁ghost	-11.7605
▁Alliance	-11.7606
hop	-11.7606
▁Uncle	-11.7607
▁approval	-11.7617
Hu	-11.7617
▁submarine	-11.7618
▁practices	-11.7618
▁Por	-11.7621
▁1968,	-11.7623
▁Quang	-11.7627
▁pizza	-11.7628
▁Petersburg	-11.7628
▁shirt	-11.7634
×	-11.7636
▁Shaw	-11.7638
▁cavalry	-11.7639
▁Somalia	-11.7642
▁deeply	-11.7646
▁Hen	-11.7646
▁alter	-11.7647
▁eaten	-11.7648
▁tetra	-11.7649
5.000	-11.765
▁Heritage	-11.765
▁rebellion	-11.765
▁experts	-11.7651
▁afterwards	-11.7651
▁đạc	-11.7651
▁Nature	-11.7653
rel	-11.7655
▁rear	-11.7656
icus	-11.7659
hae	-11.7659
▁expert	-11.7661
▁diversity	-11.7662
út	-11.7662
▁khoang	-11.7665
▁winds	-11.7665
▁VIII	-11.7667
gn	-11.7668
▁Deep	-11.7669
ĩ	-11.767
▁1896	-11.7676
▁Much	-11.7678
▁proportion	-11.7678
▁stolen	-11.7681
▁Romans	-11.7681
)"	-11.7682
pers	-11.7682
▁Reg	-11.7682
▁rival	-11.7683
▁Đĩa	-11.7684
▁naked	-11.7684
▁gạo	-11.7684
▁Grey	-11.7685
▁Bus	-11.7685
▁discussion	-11.7685
▁Georg	-11.7685
CD	-11.7686
▁define	-11.7686
▁Pascal	-11.7687
ić	-11.7687
▁patent	-11.7688
▁Tuyên	-11.7689
ame	-11.7689
ega	-11.7691
▁refugees	-11.7692
▁tourist	-11.7694
▁làn	-11.7694
▁Biên	-11.7698
▁molecular	-11.7699
▁Pot	-11.7703
▁ATP	-11.7703
▁behalf	-11.7703
▁scenario	-11.7706
▁guarantee	-11.7707
▁59	-11.7708
▁Malaya	-11.7711
▁recovery	-11.7712
▁Ari	-11.7715
▁dozen	-11.7715
▁Harvey	-11.7718
▁spiritual	-11.7718
▁favour	-11.772
▁66	-11.7721
▁Ancient	-11.7721
▁đệm	-11.7722
▁recognised	-11.7722
▁fer	-11.7723
flu	-11.7723
kra	-11.7724
▁Medical	-11.7725
plo	-11.7727
▁ritual	-11.7729
▁Fantasy	-11.7729
▁Trưởng	-11.7729
▁suối	-11.7729
▁Along	-11.773
lands	-11.7731
▁Greenland	-11.7732
▁Gregory	-11.7734
coming	-11.7734
NH	-11.7734
▁29,	-11.7734
▁unlike	-11.7739
▁Gaul	-11.7739
▁rely	-11.774
cla	-11.774
▁Nokia	-11.774
▁criticism	-11.774
▁regularly	-11.7741
▁Word	-11.7743
▁ver	-11.7744
▁Note	-11.7745
▁transformation	-11.7745
▁Mia	-11.7746
▁Séc	-11.7746
▁craft	-11.7748
▁Cer	-11.775
▁industries	-11.7751
▁initiative	-11.7751
▁đậm	-11.7751
▁elsewhere	-11.7752
▁Arctic	-11.7753
▁chổi	-11.7754
▁Soul	-11.7754
▁appeal	-11.7756
▁Kid	-11.7758
▁Brooklyn	-11.7763
▁Reagan	-11.7763
▁procedure	-11.7763
▁cluster	-11.7763
▁Chamber	-11.7764
▁hardly	-11.7765
▁amino	-11.7766
▁neighbour	-11.7774
▁Small	-11.7774
▁grain	-11.7774
▁declined	-11.7778
▁Kur	-11.7782
▁performances	-11.7782
▁celebration	-11.7785
▁excellent	-11.7785
▁syndrome	-11.7785
▁1969,	-11.7785
▁chéo	-11.7785
▁Murray	-11.7786
grad	-11.7787
▁printing	-11.7787
▁tear	-11.7788
▁competitive	-11.7788
bot	-11.7791
▁Ky	-11.7791
▁physician	-11.7797
▁Chun	-11.7798
▁1984,	-11.7798
▁lót	-11.7798
nis	-11.7803
▁creatures	-11.7807
▁actors	-11.7807
▁societies	-11.7808
▁Daddy	-11.7809
▁tạ	-11.7812
▁2019,	-11.7813
▁chứ	-11.7816
BS	-11.7817
▁Giai	-11.7817
clo	-11.7819
▁Núi	-11.7819
▁controversial	-11.7819
▁dies	-11.7821
▁Additionally	-11.7821
▁61	-11.7823
▁Article	-11.7824
▁monitor	-11.7825
–4	-11.7825
▁circuit	-11.7831
▁Diễn	-11.7831
▁Bí	-11.7831
▁nurse	-11.7831
▁Lisa	-11.7833
▁Timor	-11.7834
▁robots	-11.7835
▁Moore	-11.7835
▁62	-11.7836
world	-11.7838
đã	-11.7841
▁calendar	-11.7842
▁battery	-11.7842
▁closing	-11.7842
▁Except	-11.7842
▁Julian	-11.7842
▁ST	-11.7843
▁Jose	-11.7843
▁session	-11.7844
▁arc	-11.7844
▁distinguish	-11.7844
▁1993.	-11.7846
▁retreat	-11.7847
ering	-11.7847
▁Nông	-11.7848
▁fewer	-11.785
▁portal	-11.7851
▁generations	-11.7853
ddy	-11.7853
▁defence	-11.7853
▁distant	-11.7853
▁Computer	-11.7853
IF	-11.7854
▁alarm	-11.7855
FC	-11.7857
▁borrow	-11.7857
das	-11.786
▁Neo	-11.7861
DF	-11.7862
hei	-11.7864
▁animation	-11.7865
▁eleven	-11.7865
▁indicated	-11.7866
▁Tạp	-11.7867
▁1946,	-11.7868
▁guests	-11.7869
▁finishing	-11.7871
%	-11.7872
▁bư	-11.7874
ời	-11.7876
▁Ontario	-11.7876
▁vứt	-11.7876
▁Đấy	-11.7879
▁Mariana	-11.7883
▁Brad	-11.7884
ddle	-11.7884
▁constantly	-11.7884
atus	-11.7885
▁lesson	-11.7885
▁encouraged	-11.7887
its	-11.7887
▁Excuse	-11.7888
▁boundaries	-11.7888
▁Tỷ	-11.7889
▁Norwegian	-11.789
char	-11.7893
ầy	-11.7894
▁radical	-11.7895
methyl	-11.7896
Why	-11.7899
▁rằng	-11.7899
▁Brunei	-11.7899
▁cooperation	-11.7899
▁mask	-11.79
▁substance	-11.7901
▁chamber	-11.7902
▁folks	-11.7904
▁Maryland	-11.7904
▁Kre	-11.7907
▁AT	-11.7907
▁Steven	-11.7909
▁900	-11.791
▁Capital	-11.7911
▁continent	-11.7911
▁Hoạt	-11.7911
▁Parker	-11.7912
▁Upper	-11.7912
morph	-11.7913
▁exile	-11.7913
▁vessel	-11.7913
▁usage	-11.7915
▁),	-11.7915
▁Spa	-11.7918
▁Fre	-11.7922
▁1898	-11.7924
▁conservative	-11.7925
▁traveling	-11.7926
cca	-11.7927
▁Village	-11.7927
▁poison	-11.7927
wal	-11.793
▁viewed	-11.7931
▁5%	-11.7932
▁Thập	-11.7934
lai	-11.7935
▁trail	-11.7935
gui	-11.7936
ost	-11.7937
▁Ang	-11.7937
▁confidence	-11.7938
▁Brothers	-11.7941
nel	-11.7942
▁tele	-11.7943
burn	-11.7944
▁exhibit	-11.7945
▁interact	-11.7949
▁pray	-11.7952
tail	-11.7953
▁Micro	-11.7954
#	-11.7955
▁Must	-11.7955
▁meal	-11.7956
▁Naples	-11.7957
▁Nhiệt	-11.7957
Các	-11.7957
▁messages	-11.7958
▁Artist	-11.796
▁allies	-11.7964
ồn	-11.7967
▁Deputy	-11.7968
▁Hang	-11.7969
ators	-11.7971
▁Sách	-11.7971
▁seventh	-11.7972
self	-11.7973
▁meetings	-11.7975
ore	-11.7979
▁swim	-11.7979
cô	-11.7979
▁hít	-11.798
▁Limited	-11.7981
▁Marco	-11.7983
ói	-11.7984
action	-11.7986
BC	-11.7989
roy	-11.799
▁len	-11.7991
▁corporate	-11.7991
▁sandwich	-11.7991
▁punch	-11.7992
▁dressed	-11.7994
▁educational	-11.7995
▁candidates	-11.7995
range	-11.7995
ivity	-11.7998
▁160	-11.7998
band	-11.8
▁peaceful	-11.8002
▁kilômét	-11.8003
▁suýt	-11.8003
▁stability	-11.8003
▁bombing	-11.8004
▁stating	-11.8004
ony	-11.8004
▁dam	-11.8007
▁op	-11.8008
▁universal	-11.801
▁Jessica	-11.8014
▁siege	-11.8014
tens	-11.8015
tian	-11.8018
▁instruments	-11.8019
▁summit	-11.8026
organ	-11.8027
▁quyên	-11.8028
etto	-11.8029
OC	-11.8029
▁Tâm	-11.8029
Ar	-11.8031
▁Kir	-11.8034
▁Sid	-11.8035
gri	-11.8036
boat	-11.8037
ked	-11.8037
nny	-11.8037
▁skull	-11.8037
▁Squadron	-11.8038
▁cruise	-11.804
▁emotions	-11.8041
▁Turner	-11.8044
▁Half	-11.8044
▁Kei	-11.8046
▁qui	-11.8048
▁prey	-11.8049
▁chớ	-11.805
tai	-11.8051
▁UTC	-11.8051
▁novels	-11.8052
▁notion	-11.8053
▁variation	-11.8053
▁buồng	-11.8054
▁cruiser	-11.8056
▁Sul	-11.8057
▁desk	-11.8058
▁breathe	-11.8058
▁relevant	-11.8061
▁Zambia	-11.8061
▁reverse	-11.8064
lies	-11.8067
▁None	-11.8067
iff	-11.8068
▁1942.	-11.8075
lop	-11.8083
▁60%	-11.8083
▁searching	-11.8083
▁Community	-11.8084
▁Tomorrow	-11.8084
▁Country	-11.8085
▁diverse	-11.8087
nit	-11.8088
zz	-11.8088
▁sn	-11.8092
▁wound	-11.8093
▁nọ	-11.8094
▁rifle	-11.8096
▁drew	-11.8096
▁30,	-11.8098
▁architect	-11.81
▁citizen	-11.81
▁predecessor	-11.8107
▁Ngược	-11.8107
▁Movement	-11.8108
gas	-11.8108
▁hungry	-11.811
▁sê	-11.8113
ines	-11.8113
oko	-11.8115
▁gather	-11.8117
▁Marshal	-11.8117
▁Fer	-11.8117
م	-11.8118
▁consecutive	-11.8119
▁sequel	-11.8119
▁withdrew	-11.8119
ồi	-11.812
▁und	-11.812
▁Were	-11.8122
▁Indo	-11.8122
▁bóp	-11.8123
▁1920,	-11.8123
▁fingers	-11.8124
▁clients	-11.8126
thường	-11.8127
▁XX	-11.8128
▁keys	-11.8129
▁SM	-11.8129
▁communications	-11.8131
▁ki	-11.8132
▁invite	-11.8133
▁frequent	-11.8133
▁artistic	-11.8134
▁Bán	-11.8134
▁rent	-11.8135
▁variable	-11.8136
Da	-11.8137
▁Mil	-11.8139
▁bombs	-11.8139
▁AFC	-11.8139
▁Hebrew	-11.814
▁Late	-11.814
sai	-11.814
▁Cl	-11.8142
▁Total	-11.8142
▁Friedrich	-11.8142
order	-11.8145
▁DJ	-11.8146
oke	-11.8148
▁inspiration	-11.8149
ison	-11.8149
▁banned	-11.8149
▁everyday	-11.815
▁Aki	-11.8153
▁gói	-11.8155
▁Khối	-11.8155
▁Tyler	-11.8155
▁pole	-11.8158
ل	-11.8158
▁khoai	-11.816
▁khao	-11.8167
▁graph	-11.8167
▁Hanoi	-11.8167
▁1971,	-11.8168
▁dán	-11.8169
▁Larry	-11.817
▁Imagine	-11.8171
Em	-11.8173
▁math	-11.8174
▁que	-11.8177
▁Lá	-11.8177
▁closest	-11.8177
▁agencies	-11.8178
▁1800	-11.8179
▁cooking	-11.8179
▁secrets	-11.8182
Ki	-11.8182
▁activist	-11.8183
▁pur	-11.8184
ello	-11.8185
▁Nahiyah	-11.819
phone	-11.819
▁cinema	-11.8191
▁1962,	-11.8192
▁sees	-11.8193
ij	-11.8194
▁tiger	-11.8195
▁lánh	-11.8196
▁odd	-11.8197
▁Off	-11.8199
▁housing	-11.8201
▁hurry	-11.8201
▁roots	-11.8202
▁Brother	-11.8206
mbi	-11.8207
▁Kiev	-11.8209
▁fallen	-11.8209
▁Rey	-11.821
▁Chase	-11.821
logy	-11.8211
▁Sung	-11.8213
▁divorce	-11.8214
hee	-11.8221
▁resource	-11.8221
▁rail	-11.8222
ách	-11.8224
▁LGBT	-11.8225
▁qualified	-11.8225
German	-11.8225
▁88	-11.8226
▁darkness	-11.8227
▁Laura	-11.823
▁Gan	-11.8235
▁Nhanh	-11.8235
▁brilliant	-11.8237
▁ongoing	-11.8237
▁fed	-11.8238
▁restricted	-11.824
▁Earl	-11.8242
▁marks	-11.8242
key	-11.8243
▁Sei	-11.8243
▁Tel	-11.8243
▁detailed	-11.8248
▁swimming	-11.8249
▁curious	-11.8249
▁kidney	-11.825
▁Mind	-11.8252
Te	-11.8252
▁lầy	-11.8252
duction	-11.8252
▁MIT	-11.8255
CR	-11.8256
▁IT	-11.8256
▁minds	-11.8257
▁throat	-11.826
▁Edition	-11.8261
▁Bé	-11.8262
▁wings	-11.8262
Jo	-11.8265
▁Building	-11.8266
▁Kent	-11.8266
arm	-11.8267
▁kills	-11.8267
▁sole	-11.8268
El	-11.8268
▁carefully	-11.8269
▁mood	-11.8271
rot	-11.8271
▁badly	-11.8272
Ng	-11.8272
▁perception	-11.8272
Hãy	-11.8272
SI	-11.8273
lee	-11.8273
▁Martha	-11.8274
▁Sto	-11.8276
poli	-11.8278
▁amongst	-11.8283
▁repairs	-11.8284
plane	-11.8284
▁pollution	-11.8284
IP	-11.8284
▁Louisiana	-11.8285
▁rải	-11.8285
▁Planet	-11.8286
sub	-11.8286
core	-11.8289
▁Đề	-11.829
▁1960.	-11.8292
▁Xê	-11.8293
lid	-11.8295
▁lận	-11.8297
▁dại	-11.8297
▁log	-11.8298
▁Flash	-11.8298
▁Austrian	-11.8298
making	-11.8301
CP	-11.8302
▁medication	-11.8303
sil	-11.8306
hydr	-11.8306
▁giềng	-11.8308
▁photograph	-11.831
cis	-11.831
▁audio	-11.8313
▁25%	-11.8314
▁tơ	-11.8315
▁tản	-11.8317
▁Wonder	-11.8318
▁Palmer	-11.8319
▁diameter	-11.832
ło	-11.8321
▁Ngựa	-11.8321
▁rational	-11.8323
game	-11.8327
▁folk	-11.8327
hra	-11.8328
then	-11.8329
person	-11.833
iyah	-11.833
▁creates	-11.833
▁belonged	-11.8332
▁Nàng	-11.8333
▁Having	-11.8334
▁điếm	-11.8334
▁Anglo	-11.8335
▁Fund	-11.8336
▁abandon	-11.8336
▁Rama	-11.8337
▁Might	-11.8337
▁hook	-11.8339
gic	-11.8339
900	-11.834
oxy	-11.8342
▁dump	-11.8342
fan	-11.8342
▁Mama	-11.8342
▁mixture	-11.8344
▁vital	-11.8346
▁inches	-11.8346
▁devil	-11.8348
▁monarch	-11.835
▁seeking	-11.835
cos	-11.8354
RT	-11.8354
▁wins	-11.8355
▁Boys	-11.8356
▁painted	-11.8356
amo	-11.8357
▁grid	-11.8358
▁Yêu	-11.8358
▁extend	-11.8358
▁commissioned	-11.8359
▁select	-11.8359
▁bug	-11.8362
▁1976,	-11.8367
▁grounds	-11.8368
▁flesh	-11.8368
▁nhở	-11.8369
▁crying	-11.8369
▁Ladies	-11.8369
▁Staff	-11.8371
gle	-11.8373
▁Gran	-11.8375
▁disorder	-11.8376
▁Marty	-11.8376
▁poem	-11.8378
▁crowned	-11.8379
▁mysterious	-11.838
▁silence	-11.838
▁Stanford	-11.838
▁1978,	-11.8381
▁nhã	-11.8382
iel	-11.8386
▁fo	-11.8387
CE	-11.8391
▁ranks	-11.8391
▁suspended	-11.8394
▁deployed	-11.8395
▁routes	-11.8395
▁lô	-11.8396
▁khe	-11.8399
▁routine	-11.8404
▁signature	-11.8404
▁dynamic	-11.8405
▁5,000	-11.8406
▁authors	-11.8406
▁demands	-11.8406
с	-11.8408
▁khuất	-11.8408
▁Engineering	-11.8408
▁camps	-11.8408
ME	-11.8412
ush	-11.8414
ø	-11.8415
▁Vancouver	-11.8416
▁denied	-11.8416
▁buddy	-11.8416
▁Đánh	-11.8417
▁partly	-11.8418
▁tries	-11.8418
apa	-11.8419
▁Lie	-11.842
meter	-11.8423
▁sodium	-11.8424
òng	-11.8425
TT	-11.8426
▁medieval	-11.8428
ồng	-11.8429
▁fur	-11.8429
▁Review	-11.8429
▁Rhine	-11.8429
▁Europa	-11.8429
ỗ	-11.843
▁Wat	-11.843
ume	-11.8431
▁relax	-11.8432
▁terminal	-11.8434
pal	-11.8435
▁André	-11.8436
trop	-11.8438
▁moments	-11.8438
▁phơi	-11.844
▁chuyền	-11.844
▁Trẻ	-11.844
▁observations	-11.844
▁thầm	-11.8441
▁tennis	-11.8441
▁golden	-11.8441
elo	-11.8441
▁friendship	-11.8444
tone	-11.8445
tháng	-11.8445
▁equipped	-11.8447
▁shadow	-11.8447
ced	-11.8448
▁whenever	-11.8449
dit	-11.8449
cious	-11.845
▁Sahara	-11.8451
▁Mạng	-11.8452
▁subspecies	-11.8452
fire	-11.8454
bla	-11.8459
▁AC	-11.8463
▁reflect	-11.8464
▁Stefan	-11.8464
▁remarkable	-11.8465
All	-11.8465
▁Ms	-11.8466
▁shower	-11.8467
▁Base	-11.8471
▁Leone	-11.8471
▁detected	-11.8474
ario	-11.8476
jō	-11.8476
ibility	-11.8477
▁Freedom	-11.8477
▁suitable	-11.8478
▁Eve	-11.848
▁serial	-11.8483
On	-11.8483
▁1,5	-11.8487
cul	-11.8488
igo	-11.8488
▁laboratory	-11.8489
▁toxic	-11.8489
▁chloride	-11.8489
▁sương	-11.8489
▁breathing	-11.8492
▁Wan	-11.8493
▁mon	-11.8493
▁asteroid	-11.8495
▁Dựa	-11.8499
▁Màu	-11.8499
▁Probably	-11.8501
▁telephone	-11.8501
▁permit	-11.8502
virus	-11.8503
▁dở	-11.8503
▁1956,	-11.8503
▁gathered	-11.8509
▁Tech	-11.851
▁bàng	-11.8511
▁Edinburgh	-11.8513
▁visiting	-11.8513
itz	-11.8514
▁ABC	-11.8516
▁Tru	-11.8518
▁Plus	-11.8518
▁abilities	-11.8519
hin	-11.852
▁Bee	-11.8522
▁continuing	-11.8525
▁harvest	-11.8525
She	-11.8526
▁Karen	-11.8527
▁tourism	-11.8528
▁rub	-11.8529
lines	-11.8531
aire	-11.8534
▁democratic	-11.8535
cid	-11.8536
▁worship	-11.8537
▁đắm	-11.8537
▁dập	-11.8539
ệ	-11.8539
▁Mara	-11.8543
▁1850	-11.8545
▁Indonesian	-11.8546
▁Churchill	-11.8549
▁Culture	-11.8549
▁charity	-11.855
▁Fat	-11.8553
▁painter	-11.8554
▁hoped	-11.8557
▁substantial	-11.8557
pus	-11.8559
▁attract	-11.8559
▁fighters	-11.8562
▁Stewart	-11.8562
▁Studies	-11.8562
▁mẻ	-11.8563
▁Weekly	-11.8565
▁theorem	-11.8565
ogen	-11.8567
▁prop	-11.8571
than	-11.8573
▁Ptolemy	-11.8574
▁reforms	-11.8575
sted	-11.8575
▁Danish	-11.8576
▁CS	-11.8576
▁1970.	-11.8579
▁000	-11.8579
para	-11.858
▁Strait	-11.8581
master	-11.8583
qa	-11.8583
ự	-11.8583
▁Hart	-11.8584
▁tunnel	-11.8584
fully	-11.8587
▁newspapers	-11.8588
▁Tae	-11.859
▁situations	-11.859
▁Lão	-11.859
▁ties	-11.8591
▁conversion	-11.8594
▁clouds	-11.8594
nhưng	-11.8595
▁Kit	-11.8599
▁Watson	-11.8599
▁Help	-11.8602
▁structural	-11.8602
▁distinction	-11.8603
▁coins	-11.8604
▁reviews	-11.8605
▁undergo	-11.8605
▁Ei	-11.8605
▁ok	-11.8607
▁derivative	-11.8609
▁skill	-11.8609
▁couples	-11.8612
▁Energy	-11.8612
rina	-11.8614
▁dated	-11.8616
iết	-11.8617
▁trừu	-11.8621
▁fra	-11.8621
▁Bishop	-11.8623
▁Trọng	-11.8623
▁mystery	-11.8623
▁dominated	-11.8623
▁Constantine	-11.8624
▁Work	-11.8624
▁acted	-11.8624
▁Geneva	-11.8625
mid	-11.8625
▁pushed	-11.8626
NO	-11.8633
▁educated	-11.8634
▁adjacent	-11.8635
▁shield	-11.8635
▁Bring	-11.8638
PR	-11.8639
▁Phố	-11.8642
▁membrane	-11.8648
▁estimate	-11.8648
▁basin	-11.8649
▁Deb	-11.8649
▁Same	-11.865
cco	-11.8652
▁remembered	-11.8653
eria	-11.8655
ico	-11.8656
▁eliminated	-11.8656
▁bồ	-11.8659
▁Luxembourg	-11.866
▁clue	-11.866
▁Intel	-11.8661
▁descent	-11.8661
▁invention	-11.8662
▁dỗ	-11.8662
▁trapped	-11.8663
cũng	-11.8664
▁Wol	-11.8665
▁polar	-11.8668
▁ja	-11.8669
▁Majesty	-11.8672
▁beneath	-11.8672
▁substitute	-11.8672
▁march	-11.8673
▁xen	-11.8673
▁orange	-11.8673
where	-11.8674
▁trend	-11.8676
▁aged	-11.8677
▁Pala	-11.8677
▁organize	-11.8681
▁Mare	-11.8683
▁Senior	-11.8685
▁warfare	-11.8685
▁Territory	-11.8685
▁Calvin	-11.8685
▁py	-11.8685
▁Niger	-11.8686
▁discussed	-11.8686
▁sphere	-11.8687
▁Bạch	-11.8687
▁Wing	-11.8689
away	-11.869
stor	-11.869
▁Bart	-11.8691
LL	-11.8691
▁functional	-11.8691
▁Us	-11.8692
▁Spears	-11.8692
▁Gene	-11.8694
▁ngẩn	-11.8697
▁rìa	-11.8697
▁1889	-11.8697
▁Broadway	-11.8697
▁bite	-11.87
▁CPU	-11.8701
▁Know	-11.8701
▁Lei	-11.8702
▁Gang	-11.8703
▁riding	-11.8703
ện	-11.8703
▁vocal	-11.8705
osaurus	-11.8705
▁seeds	-11.8706
▁cheap	-11.8707
▁observation	-11.8709
▁helicopter	-11.8709
▁hypothesis	-11.871
▁miracle	-11.871
▁mụ	-11.871
▁Leave	-11.871
▁framework	-11.871
▁2019.	-11.8711
▁pl	-11.8713
áng	-11.8714
#236;	-11.8722
▁bell	-11.8722
▁economics	-11.8723
TH	-11.8723
▁bro	-11.8724
ars	-11.8733
▁stored	-11.8734
sho	-11.8734
▁collective	-11.8737
▁escorted	-11.8737
DR	-11.8739
▁synthesis	-11.874
▁vả	-11.874
wen	-11.874
▁Ferr	-11.8744
▁Der	-11.8744
▁Ou	-11.8744
grade	-11.8746
kel	-11.8746
▁aspect	-11.8748
rge	-11.8749
▁Busan	-11.875
▁woods	-11.875
▁shares	-11.8754
▁wise	-11.8754
▁Nile	-11.8754
▁links	-11.8754
▁cán	-11.8755
▁Bờ	-11.8757
yne	-11.8758
▁Kō	-11.8758
▁giọt	-11.8759
▁conventional	-11.8767
▁algorithm	-11.877
▁Unit	-11.877
▁vầy	-11.8771
▁Kiểm	-11.8772
▁Unfortunately	-11.8772
▁revolt	-11.8772
▁rễ	-11.8772
̣	-11.8774
gging	-11.8777
▁xôi	-11.8779
▁Tôn	-11.8779
▁premiered	-11.8781
▁Lot	-11.8784
▁Alabama	-11.8784
▁nhất	-11.8784
▁Tuyệt	-11.8785
▁mouse	-11.8786
mini	-11.879
▁aimed	-11.879
▁q	-11.8791
▁expecting	-11.8792
▁wash	-11.8792
Ja	-11.8795
dol	-11.8795
uf	-11.8796
т	-11.8797
▁pandemic	-11.8797
▁reaches	-11.8798
▁impression	-11.8798
▁tasks	-11.8799
▁Terry	-11.88
dam	-11.8801
Mu	-11.8801
▁molecule	-11.8803
▁Mission	-11.8807
OP	-11.8808
▁documentary	-11.881
▁fi	-11.8812
yon	-11.8813
▁champions	-11.8813
▁Mk	-11.8814
stru	-11.8816
▁Hudson	-11.8822
▁overseas	-11.8822
tam	-11.8822
ota	-11.8826
ante	-11.8833
▁Istanbul	-11.8834
▁Tháp	-11.8835
▁detective	-11.8835
▁84	-11.8835
▁Miến	-11.8836
▁remainder	-11.8836
▁string	-11.8836
OL	-11.8836
inae	-11.8839
▁bóc	-11.8841
▁doors	-11.8847
▁Holmes	-11.8847
▁Obama	-11.8847
▁sufficient	-11.8848
▁Sit	-11.885
▁Wor	-11.885
▁invaded	-11.8853
▁MO	-11.8853
▁CE	-11.8853
▁printed	-11.8858
▁advertising	-11.886
▁amateur	-11.886
trans	-11.886
▁Graham	-11.886
lau	-11.8861
▁1947,	-11.8861
▁1895	-11.8864
eto	-11.8865
▁Gaga	-11.8866
▁ôn	-11.8866
▁1963,	-11.8866
had	-11.8867
▁Being	-11.8867
▁MS	-11.8867
▁TB	-11.8868
▁retained	-11.887
TP	-11.8871
▁photon	-11.8871
▁Metropolitan	-11.8872
▁Newfoundland	-11.8872
▁preserve	-11.8874
nen	-11.8876
eller	-11.8877
▁Anton	-11.8879
mori	-11.8882
Or	-11.8884
▁Finch	-11.8884
#7843;	-11.8885
▁nơ	-11.8885
▁Abe	-11.8885
▁hoạ	-11.8886
▁creature	-11.8886
rite	-11.8887
▁Task	-11.8888
chúng	-11.8889
▁publishing	-11.889
▁Season	-11.8891
CT	-11.8892
▁Uni	-11.8892
▁2.0	-11.8895
▁traditionally	-11.8896
▁Aleppo	-11.8898
▁Miguel	-11.8898
▁threw	-11.8898
▁recover	-11.89
▁interpretation	-11.8901
▁Storm	-11.8901
▁involve	-11.8901
▁1899	-11.8902
bound	-11.8902
▁Pas	-11.8903
ord	-11.8905
Và	-11.8908
▁1958,	-11.8909
▁nòng	-11.8911
General	-11.8913
CI	-11.8917
▁dude	-11.8919
▁É	-11.8919
eli	-11.8922
▁revenge	-11.8923
▁khuynh	-11.8923
▁Sơ	-11.8924
▁strict	-11.8925
ừng	-11.8926
hon	-11.8927
▁AM	-11.8927
▁Kill	-11.8928
▁thật	-11.893
▁climb	-11.8931
▁Lam	-11.8932
▁household	-11.8932
▁clinic	-11.8933
▁Phoenix	-11.8936
▁tới	-11.8937
▁69	-11.8938
▁Kos	-11.894
ente	-11.8942
▁trace	-11.8943
bach	-11.8944
▁ngô	-11.8945
▁approaches	-11.8945
▁khiếu	-11.8946
▁Works	-11.8947
▁Barb	-11.8948
yō	-11.8948
▁Card	-11.8948
▁1940.	-11.8948
▁Amsterdam	-11.8948
▁mathematician	-11.8948
▁replacing	-11.8948
▁Ghost	-11.8949
▁iOS	-11.895
▁historian	-11.8951
▁sống	-11.8951
▁Gla	-11.8951
rol	-11.8951
▁Honor	-11.8954
▁ID	-11.8954
▁trán	-11.8955
▁Môi	-11.8956
▁ski	-11.8958
▁Lucy	-11.896
▁punishment	-11.8962
▁trọn	-11.8966
eur	-11.8969
tica	-11.897
▁Bible	-11.897
▁Greg	-11.8971
▁bong	-11.8973
▁Kirk	-11.8974
▁gạt	-11.8974
▁Luzon	-11.8975
issa	-11.898
▁Fla	-11.8981
▁Woo	-11.8982
lib	-11.8983
▁pipe	-11.8986
▁annually	-11.8986
▁Memorial	-11.8986
▁Adolf	-11.8987
▁Bern	-11.8987
imi	-11.8991
after	-11.8993
ash	-11.8994
▁manufactured	-11.8995
▁presentation	-11.8997
▁đắp	-11.8999
▁colonies	-11.9
▁Ultra	-11.9
▁đàng	-11.9
IT	-11.9001
▁affair	-11.9002
▁67	-11.9002
▁Nền	-11.9003
▁Ian	-11.9005
▁contributions	-11.9006
▁outcome	-11.9007
▁Math	-11.9007
▁4:	-11.9007
▁Liu	-11.901
▁believes	-11.901
▁constitutional	-11.9011
▁Dae	-11.9011
hua	-11.9012
▁Greater	-11.9012
get	-11.9019
nya	-11.902
▁Mei	-11.9023
▁1977,	-11.9023
Tu	-11.9024
▁vertical	-11.9025
▁Barney	-11.9026
▁merely	-11.9026
▁rap	-11.9027
▁thy	-11.9028
ancy	-11.903
▁attraction	-11.903
▁Pont	-11.9031
▁đinh	-11.9032
alis	-11.9035
▁historians	-11.9035
ional	-11.9035
▁Bryan	-11.9037
rō	-11.9037
▁egg	-11.9038
vit	-11.9039
▁minority	-11.904
▁Pun	-11.9041
RC	-11.9042
▁lists	-11.9046
▁IX	-11.9047
▁Joan	-11.9049
▁1948,	-11.9049
#7845;	-11.905
▁Tak	-11.9051
rated	-11.9057
▁lied	-11.9058
▁distinguished	-11.9059
iên	-11.9059
▁Raj	-11.906
ith	-11.9061
▁powder	-11.9063
năm	-11.9066
iri	-11.9066
enko	-11.9067
▁Holland	-11.9068
position	-11.907
▁organs	-11.9072
▁demonstrated	-11.9072
sim	-11.9073
▁categories	-11.9076
▁ancestors	-11.9076
▁natri	-11.9078
▁commitment	-11.9079
▁dive	-11.9083
▁Bow	-11.9086
▁hèn	-11.9086
▁Jesse	-11.9087
▁100.000	-11.9087
fil	-11.9088
isha	-11.9088
▁balls	-11.9089
▁luân	-11.909
▁rổ	-11.909
▁ghen	-11.909
▁Chester	-11.9091
▁Castro	-11.9092
▁publicly	-11.9093
▁corresponding	-11.9094
▁participants	-11.9094
▁cồn	-11.9096
suke	-11.9096
AA	-11.9096
▁boats	-11.9099
▁electro	-11.9099
▁efficiency	-11.9102
▁Jonathan	-11.9102
▁simultaneously	-11.9103
▁dense	-11.9107
▁credited	-11.9107
▁Gates	-11.9109
▁Need	-11.9111
▁(1)	-11.9111
▁Ninh	-11.9114
▁Morocco	-11.9115
▁Aren	-11.9116
▁bùn	-11.9117
▁Pla	-11.9118
▁campaigns	-11.912
▁Dy	-11.9122
▁slaves	-11.9123
▁1500	-11.9125
▁controls	-11.9126
▁táng	-11.9131
Sp	-11.9133
▁Gram	-11.9135
▁xả	-11.9139
▁hoạn	-11.914
▁diễu	-11.9141
▁sculpture	-11.9141
▁estimates	-11.9142
▁1897	-11.9144
▁Online	-11.9145
Japanese	-11.9145
▁courage	-11.9148
▁Hawk	-11.9151
▁Nord	-11.9151
▁Whit	-11.9152
▁Nine	-11.9153
▁reserves	-11.9155
50,000	-11.9156
alia	-11.9162
▁Face	-11.9163
▁xít	-11.9166
▁Thompson	-11.917
▁integrated	-11.9171
UN	-11.9172
▁persons	-11.9172
▁intend	-11.9174
▁Kom	-11.9178
▁Services	-11.9178
▁Thursday	-11.918
▁laptop	-11.918
▁luồng	-11.918
▁neutral	-11.9184
ộ	-11.9184
rag	-11.9185
▁deeper	-11.9185
▁ISO	-11.9185
▁characteristic	-11.9186
▁Ice	-11.9186
jer	-11.9187
–0	-11.9188
▁Bran	-11.9188
▁AU	-11.9189
▁commanded	-11.9192
-200	-11.9192
▁Shakespeare	-11.9193
▁Doesn	-11.9193
▁ngọc	-11.9193
▁retirement	-11.9193
▁350	-11.9194
▁chày	-11.9197
▁Turn	-11.92
oud	-11.9201
▁hypo	-11.9205
▁shots	-11.9205
▁Animal	-11.9206
▁precious	-11.9206
▁Malawi	-11.9207
▁dramatic	-11.9207
▁Mẫu	-11.9207
hir	-11.921
▁resigned	-11.921
▁beings	-11.9211
▁Yuri	-11.9214
ờ	-11.9216
name	-11.9216
▁Carthage	-11.9219
▁ngặt	-11.9219
▁Lennon	-11.9219
▁nuốt	-11.9219
isa	-11.9219
▁Local	-11.922
-29	-11.922
▁1%	-11.922
▁Def	-11.9222
▁Hunt	-11.9224
▁Papa	-11.9225
mme	-11.9226
▁Yale	-11.9227
▁volumes	-11.9228
▁gathering	-11.923
TE	-11.9231
▁fantastic	-11.9232
▁chocolate	-11.9232
▁Pad	-11.9233
▁Doc	-11.9234
▁horn	-11.9235
NT	-11.9236
▁construct	-11.9238
▁Minor	-11.9242
▁xi	-11.9242
▁preserved	-11.9243
▁reactor	-11.9244
▁Executive	-11.9245
▁Mong	-11.9245
▁Map	-11.9246
mia	-11.9248
▁photographs	-11.925
▁corn	-11.9251
▁rush	-11.9252
▁Br	-11.9252
▁Mou	-11.9252
eus	-11.9253
▁engineers	-11.9256
▁Budapest	-11.9258
▁genius	-11.926
eti	-11.926
▁implementation	-11.9261
▁traditions	-11.9263
▁clorua	-11.9264
▁mistakes	-11.9265
▁concentrated	-11.9265
▁employ	-11.9267
feld	-11.9269
▁hospitals	-11.9271
▁Creek	-11.9272
▁Spirit	-11.9273
▁Start	-11.9274
pra	-11.9274
▁Yama	-11.9275
cate	-11.9278
zel	-11.9279
▁1966,	-11.9279
▁Vàng	-11.928
▁indicates	-11.9281
MT	-11.9283
▁gear	-11.9286
▁Medicine	-11.9287
▁disk	-11.9288
▁considering	-11.9288
▁operates	-11.9291
▁environments	-11.9292
▁Wisconsin	-11.9298
▁Pablo	-11.9298
▁Change	-11.9299
▁potentially	-11.9304
▁Beat	-11.9305
▁heal	-11.9309
▁gamma	-11.9311
▁labour	-11.9312
▁Fab	-11.9313
▁Originally	-11.9314
chon	-11.9316
▁wheel	-11.9318
▁Fighter	-11.932
▁Wind	-11.932
▁uranium	-11.9324
▁infantry	-11.9325
▁ruin	-11.9326
▁informed	-11.9328
asi	-11.9328
▁bleeding	-11.9329
▁administered	-11.933
▁voyage	-11.9337
▁Ain	-11.9341
▁Ama	-11.9342
ực	-11.9345
Nó	-11.9346
▁1959,	-11.9346
̀	-11.9346
3,000	-11.9347
▁defect	-11.9347
▁elder	-11.9347
rup	-11.9348
rc	-11.9349
▁Bear	-11.935
▁Underwood	-11.9351
nut	-11.9352
▁đỗ	-11.9352
^{	-11.9355
count	-11.9356
shot	-11.9358
Fe	-11.9359
▁Gin	-11.936
▁consciousness	-11.9364
▁Mae	-11.9364
gie	-11.9369
▁AR	-11.9373
ơi	-11.9374
▁filming	-11.9375
▁surveillance	-11.9377
▁asleep	-11.9377
▁differ	-11.9377
ục	-11.9377
▁Forbes	-11.9377
▁Sếp	-11.9379
▁varies	-11.938
▁Bir	-11.938
inter	-11.9382
▁moderate	-11.9383
▁conquered	-11.9383
wn	-11.9386
▁spectrum	-11.939
sley	-11.9391
▁grows	-11.9392
bis	-11.9393
▁thiếp	-11.9393
▁đãi	-11.9395
▁dialect	-11.9398
dine	-11.9399
rad	-11.94
▁Chim	-11.94
▁lakes	-11.9401
▁Use	-11.9402
▁regulations	-11.9406
blo	-11.9406
▁Medal	-11.9409
TC	-11.9416
▁silent	-11.9417
▁soup	-11.9418
▁thoả	-11.942
uba	-11.9423
vid	-11.9425
▁wealthy	-11.9427
▁Lega	-11.9428
▁20,000	-11.943
▁involvement	-11.9431
▁Chairman	-11.9432
▁criticized	-11.9433
▁Lima	-11.9433
ches	-11.9434
▁Dallas	-11.9434
▁1868	-11.9434
rous	-11.9436
▁Ring	-11.9438
▁statistics	-11.944
▁dependent	-11.9442
▁thơm	-11.9443
▁maintenance	-11.9443
▁Systems	-11.9444
▁Rum	-11.9444
gr	-11.9444
▁withdraw	-11.9447
▁Cấu	-11.9447
▁Sche	-11.9447
▁particle	-11.9448
▁khoái	-11.9448
▁phô	-11.9449
▁Step	-11.9451
▁Đám	-11.9452
▁spare	-11.9452
▁maps	-11.9454
under	-11.9456
▁1964,	-11.9456
▁Biểu	-11.9457
▁Hau	-11.9458
▁audition	-11.9458
▁Mol	-11.9459
Love	-11.9459
▁glucose	-11.9463
▁Ada	-11.9465
▁chiêu	-11.9465
▁inform	-11.9466
▁Cast	-11.9466
dai	-11.9468
▁NA	-11.9469
▁publisher	-11.947
▁upstairs	-11.947
▁Visual	-11.947
▁Mini	-11.9471
▁chằm	-11.9471
iro	-11.9472
kers	-11.9472
▁drove	-11.9472
▁1871	-11.9474
▁Hmm	-11.9474
▁1885	-11.9475
▁Jae	-11.9475
▁cyclone	-11.9476
▁resist	-11.9476
▁shoulder	-11.9477
▁Jacques	-11.9478
▁gross	-11.9482
oun	-11.9482
▁Vir	-11.9483
GS	-11.9485
DC	-11.9485
▁nương	-11.9486
▁3000	-11.9487
vie	-11.9487
▁raising	-11.9487
▁1888	-11.9487
▁flood	-11.9489
source	-11.9489
▁spy	-11.9489
▁Industrial	-11.9493
▁1943.	-11.9494
▁Direct	-11.9497
▁Damascus	-11.9497
▁genome	-11.9498
▁tourists	-11.9498
▁myth	-11.9499
▁sacred	-11.9499
DD	-11.9499
▁1989.	-11.9502
▁Nè	-11.9502
▁implemented	-11.9503
▁Kat	-11.9504
leg	-11.951
▁completion	-11.951
selling	-11.9511
▁2020.	-11.9511
▁mod	-11.9511
mond	-11.9513
▁Fiji	-11.9513
▁intelligent	-11.9514
▁producers	-11.9515
sym	-11.9519
▁meets	-11.9519
▁lessons	-11.9523
▁Ferdinand	-11.9524
▁Honduras	-11.9524
▁Huân	-11.9525
▁bực	-11.9527
▁winners	-11.9529
▁recall	-11.9531
▁dig	-11.9531
▁rò	-11.9532
▁Russians	-11.9534
ake	-11.9536
ít	-11.9537
▁Oklahoma	-11.9537
eni	-11.9541
▁Helena	-11.9546
ới	-11.9547
ndi	-11.9547
▁Tế	-11.9547
▁instructions	-11.9551
▁partially	-11.9555
hur	-11.9555
rone	-11.9556
-13	-11.9564
▁Heaven	-11.9564
▁casualties	-11.9564
▁payment	-11.9566
▁filter	-11.9567
▁beast	-11.9567
▁Naka	-11.9569
▁corruption	-11.9569
III	-11.9569
▁170	-11.9574
kon	-11.9574
just	-11.9574
▁Anime	-11.9574
▁ADN	-11.9575
н	-11.9576
▁Side	-11.9576
▁Mayor	-11.9577
▁landings	-11.9577
}}}	-11.9578
▁loyalty	-11.9579
▁Tonight	-11.9579
▁Boris	-11.9581
tim	-11.9581
zawa	-11.9581
▁Better	-11.9581
▁propose	-11.9582
Ex	-11.9582
▁lọ	-11.9584
▁praised	-11.9585
tier	-11.9585
▁Oman	-11.9589
▁Hun	-11.9591
▁Danube	-11.9592
▁shake	-11.9592
▁xí	-11.9595
▁Ark	-11.9596
idine	-11.9597
bie	-11.9598
Russian	-11.9599
▁tệp	-11.9605
▁commune	-11.9605
▁psychological	-11.9605
▁weigh	-11.9605
▁nhường	-11.9605
vil	-11.9606
▁ah	-11.9606
▁valid	-11.9606
▁cats	-11.9611
▁hop	-11.9612
tty	-11.9613
▁CN	-11.9614
▁Tal	-11.9618
phen	-11.9618
▁Austin	-11.9619
bury	-11.9621
▁Palau	-11.9628
▁difficulty	-11.9628
nne	-11.9629
▁bases	-11.9629
▁Bet	-11.9629
▁immigrants	-11.9632
▁Galileo	-11.9632
▁companion	-11.9632
▁đố	-11.9633
▁preferred	-11.9633
▁restrictions	-11.9635
miya	-11.9637
▁arrangement	-11.9643
▁possess	-11.9645
▁Birmingham	-11.9646
▁Collins	-11.9646
▁Stuart	-11.9646
▁Saturn	-11.9646
▁Chân	-11.9647
▁atomic	-11.9648
NC	-11.9648
ult	-11.9648
ridge	-11.9651
▁Walk	-11.9654
▁mile	-11.9656
kka	-11.9657
tory	-11.966
▁Ages	-11.966
▁firing	-11.966
▁NO	-11.9661
As	-11.9663
yeon	-11.9671
other	-11.9672
▁Belle	-11.9673
ales	-11.9673
▁giặt	-11.9673
▁announcement	-11.9675
▁Samoa	-11.9676
▁Lane	-11.9682
▁behave	-11.9682
ằng	-11.9683
Đó	-11.9684
▁spelled	-11.9684
hm	-11.9685
▁thirty	-11.9687
▁vulnerable	-11.9687
▁Uzbekistan	-11.9687
▁municipalities	-11.9687
▁trói	-11.9687
▁Lyon	-11.9687
▁chiết	-11.969
▁register	-11.9693
▁81	-11.9693
▁Indiana	-11.9694
trước	-11.9695
▁98	-11.9696
▁Break	-11.9697
5)	-11.9697
▁commit	-11.9698
▁politicians	-11.9699
▁Said	-11.9699
▁sen	-11.97
▁Nacional	-11.9701
▁artillery	-11.9701
▁attractive	-11.9701
▁Lion	-11.9703
▁Mới	-11.9703
▁asks	-11.9703
fen	-11.9704
ride	-11.9705
▁Michel	-11.9706
▁spaces	-11.9706
▁rescued	-11.9708
▁hosts	-11.9708
▁preparation	-11.9712
▁blast	-11.9712
▁Comm	-11.9713
▁participation	-11.9714
▁probability	-11.9714
▁chuộc	-11.9714
▁trội	-11.9714
▁tăm	-11.9715
Fa	-11.9715
Can	-11.9717
night	-11.9717
▁Seth	-11.9721
▁Sport	-11.9721
ality	-11.9725
▁Cou	-11.9727
▁Độc	-11.9728
▁Kay	-11.9729
▁Đợi	-11.973
▁attributed	-11.9731
1,000	-11.9732
▁franchise	-11.9733
▁lơ	-11.9733
lag	-11.9733
LS	-11.9734
▁(0	-11.9734
ánh	-11.9736
▁restore	-11.9738
▁worker	-11.9739
▁chiên	-11.974
▁Lớn	-11.9742
▁Slovenia	-11.9742
▁stroke	-11.9743
▁copper	-11.9743
▁Lập	-11.9744
▁combine	-11.9747
▁cult	-11.9747
▁1952,	-11.9752
▁conquest	-11.9752
▁bát	-11.9752
▁Kol	-11.9754
▁Mikhail	-11.9756
▁fifteen	-11.9756
▁occurring	-11.9757
▁Highway	-11.9758
▁trơn	-11.9758
anti	-11.976
▁Marx	-11.9762
tics	-11.9762
tec	-11.9762
–1	-11.9763
▁Mono	-11.9767
▁khan	-11.9768
▁Khó	-11.9769
▁crucial	-11.9769
hang	-11.977
Car	-11.9772
tical	-11.9773
xo	-11.9775
▁protests	-11.9775
▁Hood	-11.9777
▁lau	-11.9778
▁Beth	-11.978
▁ranges	-11.978
▁Action	-11.9781
▁Pic	-11.9783
▁Chuyển	-11.9783
▁fame	-11.9784
▁Hamburg	-11.9784
▁cạo	-11.9784
▁GPS	-11.9789
▁Shortly	-11.979
▁Rod	-11.979
▁31,	-11.979
fir	-11.9792
▁pilots	-11.9793
ẳng	-11.9793
▁1954,	-11.9795
▁relegated	-11.9797
▁Franz	-11.9798
▁gmina	-11.9798
▁Bolshevik	-11.98
▁characterized	-11.98
cl	-11.9802
ike	-11.9803
▁Julie	-11.9804
▁occasion	-11.9805
▁Hel	-11.9806
▁consistent	-11.9807
▁Chin	-11.9808
▁vươn	-11.9808
▁Eventually	-11.9811
▁resort	-11.9811
▁index	-11.9813
▁repeated	-11.9816
▁chóc	-11.9817
▁Litva	-11.9818
▁scare	-11.9819
▁alert	-11.9819
▁crops	-11.982
▁Ulithi	-11.9825
▁horrible	-11.9825
▁Chữ	-11.9825
▁ngớ	-11.9825
▁1893	-11.9828
dos	-11.9828
dro	-11.9829
▁Yak	-11.983
▁methyl	-11.983
▁armor	-11.9831
lig	-11.9832
▁leak	-11.9833
▁ports	-11.9833
▁Common	-11.9833
zzi	-11.9834
▁representatives	-11.9835
▁risks	-11.9836
▁73	-11.9836
inger	-11.9837
ologists	-11.9837
▁cuisine	-11.9839
▁physicist	-11.9839
▁pregnancy	-11.9839
▁Capitol	-11.9839
▁Montgomery	-11.9839
▁Jang	-11.984
this	-11.9844
pit	-11.9845
▁employment	-11.9846
▁genre	-11.9847
▁Days	-11.9847
ăm	-11.9847
▁triple	-11.9848
cit	-11.9849
▁1950.	-11.985
▁disp	-11.9852
▁Sab	-11.9857
text	-11.986
▁rabbit	-11.9861
polis	-11.9864
wind	-11.9865
▁Út	-11.9867
▁Utah	-11.9867
▁pride	-11.9867
oa	-11.9867
▁lều	-11.9869
▁Portland	-11.987
▁Bước	-11.987
ril	-11.9871
▁aunt	-11.9871
▁Fish	-11.9872
▁genera	-11.9874
▁Socialist	-11.9874
▁Mina	-11.9875
boy	-11.9877
-25	-11.9878
▁Bros	-11.988
▁Aristotle	-11.988
▁narrative	-11.988
▁Ragnar	-11.988
▁Garcia	-11.9881
▁footage	-11.9882
▁dose	-11.9882
▁Maine	-11.9882
▁Orange	-11.9883
iano	-11.9883
ain	-11.9885
bank	-11.9887
–15	-11.9889
nius	-11.989
boo	-11.9894
▁Amanda	-11.9895
▁Abdul	-11.9895
–5	-11.9896
▁FDA	-11.9897
▁xế	-11.9898
▁belonging	-11.9899
▁resumed	-11.99
▁Swa	-11.9902
zin	-11.9904
к	-11.9905
ppy	-11.9905
▁Homs	-11.991
▁Armenian	-11.9911
▁Phúc	-11.9911
▁tube	-11.9914
cil	-11.9915
▁Hua	-11.9917
dding	-11.9917
▁relatives	-11.9919
▁Prix	-11.9926
▁compare	-11.9926
▁Mall	-11.9927
MC	-11.993
▁Mala	-11.993
French	-11.9931
▁1830	-11.9931
▁wi	-11.9932
odi	-11.9934
▁accounting	-11.9935
▁imagination	-11.9936
▁segment	-11.9936
▁Campbell	-11.9936
▁smartphone	-11.9937
▁chước	-11.9937
▁Đâu	-11.9937
▁emissions	-11.9938
▁Gotham	-11.9938
Cô	-11.9938
▁Met	-11.9945
▁2.5	-11.9945
▁loop	-11.9948
▁Hil	-11.9948
kal	-11.995
▁clever	-11.995
▁Software	-11.995
▁giáng	-11.9951
▁jo	-11.9954
▁interactions	-11.9954
▁Giữ	-11.9958
lab	-11.996
▁Lombard	-11.9964
▁ridiculous	-11.9964
▁ownership	-11.9965
▁gục	-11.9965
▁Hạt	-11.9966
▁raw	-11.9967
▁Bella	-11.9971
▁cor	-11.9972
▁tre	-11.9973
▁specialized	-11.9974
▁Pay	-11.9975
evich	-11.9978
▁cleared	-11.9978
hole	-11.9981
▁dishes	-11.9982
fur	-11.9985
▁Tree	-11.9987
Á	-11.9987
rif	-11.9988
▁Steel	-11.9989
6,000	-11.9993
▁Berkeley	-11.9993
▁controversy	-11.9993
▁tởm	-11.9993
▁decay	-11.9993
▁trước	-11.9993
▁coalition	-11.9993
city	-11.9993
▁Lagos	-11.9995
▁Merc	-11.9995
▁Muslims	-11.9995
ego	-11.9996
real	-11.9996
▁Nation	-11.9997
▁Gy	-11.9997
▁concepts	-12.0004
ssel	-12.0005
ime	-12.0005
▁IP	-12.0005
▁invisible	-12.0007
▁Panzer	-12.0008
▁ranging	-12.0008
▁Mất	-12.001
▁Sor	-12.001
▁teen	-12.001
anna	-12.001
▁internationally	-12.0011
▁perceived	-12.0011
▁complexity	-12.0012
▁Net	-12.0014
▁đè	-12.0014
▁nest	-12.0018
▁Robinson	-12.0023
▁Motor	-12.0024
▁sal	-12.0026
tie	-12.0026
lex	-12.0032
eda	-12.0033
▁Ramesses	-12.0035
▁dệt	-12.0035
▁Furthermore	-12.0035
▁slip	-12.0036
▁1863	-12.0038
▁oxide	-12.0039
▁dispute	-12.004
zone	-12.0043
ici	-12.0044
▁pronunciation	-12.0049
▁Throughout	-12.005
MO	-12.0054
SM	-12.0054
▁neighbors	-12.0055
bri	-12.0061
▁eu	-12.0062
▁tens	-12.0062
▁responded	-12.0063
▁attorney	-12.0063
▁Khal	-12.0064
▁lén	-12.0067
▁FM	-12.0067
▁Eli	-12.0069
▁herd	-12.0069
▁Rou	-12.0071
▁pu	-12.0073
▁86	-12.0074
▁Oz	-12.0076
▁Hus	-12.0077
▁sections	-12.008
▁Syn	-12.0083
▁Sz	-12.0085
▁missiles	-12.0087
▁beliefs	-12.0089
esi	-12.0089
▁Que	-12.0092
▁Cultural	-12.0092
▁peer	-12.0092
ça	-12.0093
▁lấn	-12.0094
▁Angela	-12.0094
▁Wy	-12.01
▁reporting	-12.0102
group	-12.0103
▁Gross	-12.0103
card	-12.0104
▁PM	-12.0106
▁galaxies	-12.0106
There	-12.0107
ault	-12.0107
ili	-12.0107
▁ngào	-12.0108
▁acids	-12.0109
▁Owen	-12.0111
▁khánh	-12.0113
Am	-12.0117
▁tủy	-12.0117
▁Et	-12.0117
▁Kind	-12.0117
LC	-12.0118
ert	-12.0119
▁Luôn	-12.0119
▁boom	-12.0119
▁sweat	-12.012
▁technological	-12.0121
▁insects	-12.0122
▁Whoa	-12.0123
▁Reid	-12.0123
▁container	-12.0123
▁mild	-12.0123
▁investigate	-12.0124
▁Bayern	-12.0125
-47	-12.0125
▁74	-12.0127
▁Ronald	-12.013
cum	-12.0132
▁Happy	-12.0134
▁angel	-12.0134
▁Century	-12.0135
▁judgment	-12.0135
▁Felix	-12.0136
▁Lượng	-12.0136
▁restaurants	-12.0137
▁rotation	-12.0137
▁shipping	-12.0137
▁Moses	-12.0141
▁Mine	-12.0142
▁Pil	-12.0143
8,	-12.0148
▁reveal	-12.0149
▁portrait	-12.0149
pir	-12.0149
▁animated	-12.0149
▁ugly	-12.0149
▁Chồng	-12.015
▁cơm	-12.0156
emia	-12.0157
etsu	-12.0157
▁Đàn	-12.0158
Polish	-12.0159
▁facts	-12.016
▁chains	-12.016
▁Name	-12.0162
▁forth	-12.0163
▁geometry	-12.0164
▁(25	-12.0167
ops	-12.0167
▁mines	-12.0168
▁exclusively	-12.0168
May	-12.0169
▁Nhạc	-12.0171
▁bike	-12.0172
▁Mongol	-12.0176
▁Avenue	-12.0178
▁Fernando	-12.0178
▁khùng	-12.0178
▁sorts	-12.0178
▁Gua	-12.0179
▁aside	-12.0179
▁topic	-12.0179
omer	-12.018
acy	-12.0181
▁dissolved	-12.0182
▁suggesting	-12.0187
▁BCE	-12.0187
two	-12.0189
▁predicted	-12.019
idi	-12.0191
▁Guide	-12.0191
▁vacation	-12.0192
▁fortress	-12.0192
his	-12.0193
▁ter	-12.0193
esh	-12.0193
▁Biến	-12.0195
▁đê	-12.0196
▁improvement	-12.0197
▁rhythm	-12.0198
▁invitation	-12.0198
mmy	-12.0202
▁Gustav	-12.0202
▁Cử	-12.0202
▁physically	-12.0202
▁explains	-12.0203
rap	-12.0204
▁earning	-12.0206
Ư	-12.0207
▁Renaissance	-12.0207
▁proven	-12.0207
▁bears	-12.0208
▁Dal	-12.0209
▁macro	-12.0212
▁Og	-12.0217
▁nephew	-12.0221
▁ngắt	-12.0221
▁Support	-12.0221
▁dawn	-12.0222
rai	-12.0222
▁chùa	-12.0223
▁Finn	-12.0224
▁Machine	-12.0224
▁Chad	-12.0224
CS	-12.0224
urs	-12.0225
▁bomber	-12.0226
▁Gha	-12.0226
oto	-12.0229
▁Gregor	-12.023
▁whoever	-12.0233
▁lion	-12.0235
▁transplant	-12.0236
media	-12.0238
▁mature	-12.0239
ích	-12.0245
ãi	-12.0247
▁Singh	-12.0249
▁competitions	-12.0249
#432;	-12.025
▁Quebec	-12.025
▁psychology	-12.025
▁Bag	-12.025
▁occasions	-12.0251
▁merchant	-12.0254
pid	-12.0257
▁mammals	-12.026
jun	-12.026
wed	-12.026
▁suspected	-12.0263
▁76	-12.0264
▁Malcolm	-12.0264
▁fabric	-12.0264
▁Jefferson	-12.0265
▁Railway	-12.0265
▁Gilbert	-12.0265
▁Xưởng	-12.0265
▁boring	-12.0265
▁Pr	-12.0267
▁por	-12.0268
hiện	-12.0271
▁arise	-12.0274
iza	-12.0277
dies	-12.0277
▁spec	-12.0279
▁Nevertheless	-12.0279
▁referring	-12.028
▁lầu	-12.0282
▁rope	-12.0282
▁soap	-12.0282
▁devoted	-12.0282
▁licensed	-12.0283
▁kệ	-12.0283
But	-12.0288
ưa	-12.0289
plat	-12.0289
▁Joy	-12.029
speaking	-12.029
▁burden	-12.0294
▁Stanley	-12.0294
▁polymer	-12.0295
▁plum	-12.0295
▁poster	-12.0297
▁cay	-12.0297
▁Tamil	-12.0298
▁cannon	-12.0304
▁Beau	-12.0304
▁filmed	-12.0304
comp	-12.0306
rik	-12.0306
▁jealous	-12.0308
▁Sumatra	-12.0308
▁Zen	-12.0308
▁bầy	-12.0309
▁bind	-12.031
▁Bai	-12.0311
ista	-12.0311
▁aboard	-12.0313
▁ngự	-12.0313
▁displayed	-12.0314
anga	-12.0314
▁bonds	-12.0314
▁hence	-12.0317
▁zoo	-12.032
▁Welsh	-12.032
rig	-12.0322
▁Himalaya	-12.0323
▁Mozambique	-12.0323
▁heritage	-12.0323
▁(2011)	-12.0323
2,000	-12.0323
▁Gate	-12.0324
▁Salt	-12.0325
inate	-12.0325
-30	-12.0327
▁downtown	-12.0329
iso	-12.0329
▁lờ	-12.0331
▁Ruth	-12.0336
▁exploration	-12.0337
▁sweep	-12.0337
▁bơ	-12.0338
▁feeding	-12.034
how	-12.0341
test	-12.0342
▁Nghĩ	-12.0345
cial	-12.0349
▁encounter	-12.0349
▁Yokosuka	-12.0352
▁approached	-12.0353
▁rapper	-12.0353
▁Currently	-12.0354
uh	-12.0355
▁requested	-12.0355
▁organisation	-12.0357
▁recruit	-12.0358
four	-12.036
▁zones	-12.036
▁Rat	-12.0361
wy	-12.0362
▁Springs	-12.0364
active	-12.0364
▁Beta	-12.0365
▁1918,	-12.0365
▁cọ	-12.0365
▁pink	-12.0366
▁Athletic	-12.0367
▁Caribe	-12.0367
▁legislation	-12.0367
▁awesome	-12.0367
▁endemic	-12.0367
oba	-12.0367
▁squadron	-12.0368
hou	-12.037
▁Lance	-12.0371
▁chapter	-12.0372
sized	-12.0372
▁Gì	-12.0373
▁sto	-12.0374
▁mineral	-12.0377
▁receptor	-12.0381
▁aggressive	-12.0381
▁competing	-12.0381
▁territorial	-12.0381
▁Madison	-12.0381
▁nhốt	-12.0382
▁rể	-12.0382
▁rét	-12.0383
pas	-12.0385
gil	-12.0385
▁Large	-12.0386
▁server	-12.0386
▁treating	-12.0387
▁71	-12.0387
▁Yoo	-12.0388
EL	-12.0392
One	-12.0393
▁appearing	-12.0394
▁hills	-12.0395
▁magnet	-12.0396
thing	-12.0396
▁Của	-12.0396
▁Twenty	-12.0396
▁Đứa	-12.0396
▁injuries	-12.0396
▁Jump	-12.0399
▁Rhodes	-12.0401
▁civilians	-12.0402
▁Băng	-12.0402
▁Keith	-12.0402
óc	-12.0402
▁Ask	-12.0402
rze	-12.0403
▁Masters	-12.0404
akh	-12.0405
▁smallest	-12.0405
▁Bert	-12.0408
mod	-12.0408
để	-12.0409
#7879;	-12.0411
▁Thẩm	-12.0411
lide	-12.0411
▁warrant	-12.0411
▁kiêm	-12.0411
nation	-12.0415
▁Oslo	-12.0415
▁Luna	-12.0416
▁Món	-12.0418
▁developers	-12.0422
▁Gui	-12.0422
▁xơ	-12.0425
▁hurricane	-12.0425
▁Khoan	-12.0427
▁Almost	-12.0428
▁Mm	-12.0429
▁connecting	-12.043
▁LG	-12.0431
▁Alps	-12.0431
▁Princeton	-12.0431
▁RT	-12.0435
▁Iranian	-12.0436
▁NT	-12.0436
▁McG	-12.044
▁Jennifer	-12.044
▁nếu	-12.044
▁2.000	-12.0441
SR	-12.0441
▁Mé	-12.0442
▁87	-12.0443
▁withdrawal	-12.0443
▁wishes	-12.0444
▁1975.	-12.0444
bun	-12.0446
▁mag	-12.0448
ural	-12.045
▁threats	-12.0453
▁Airways	-12.0455
▁puzzle	-12.0455
▁claiming	-12.0455
▁Chao	-12.0456
aq	-12.0456
▁difficulties	-12.0458
PM	-12.046
▁Berg	-12.0461
▁warrior	-12.0461
▁Josh	-12.0461
▁Bud	-12.0465
▁conflicts	-12.0465
sun	-12.0466
▁Clarke	-12.0468
▁demon	-12.0469
▁Buddha	-12.047
ạo	-12.047
▁xăm	-12.0471
▁Row	-12.0471
▁Carlo	-12.0472
▁Palestinian	-12.0473
bridge	-12.0476
▁Kil	-12.048
▁Prima	-12.048
▁Ven	-12.048
▁Sounds	-12.0483
▁promoting	-12.0484
▁kiếp	-12.0484
En	-12.0485
say	-12.0485
▁northwestern	-12.0485
▁ke	-12.0486
▁gentleman	-12.0486
▁extinction	-12.0487
▁chronic	-12.0487
▁torture	-12.0489
▁Production	-12.0492
▁encountered	-12.0492
▁equally	-12.0492
▁chess	-12.0493
▁Rev	-12.0494
▁nhá	-12.0494
▁defender	-12.0496
▁icon	-12.0498
▁psycho	-12.0499
cười	-12.0499
▁hybrid	-12.0499
▁Đặt	-12.0499
▁XIX	-12.05
zing	-12.05
▁permitted	-12.05
▁Adrian	-12.05
▁Sex	-12.0501
ñ	-12.0502
▁demonstrate	-12.0504
ishi	-12.0504
▁Aka	-12.0506
▁neighboring	-12.0508
ồ	-12.0509
▁exclusive	-12.051
▁pants	-12.051
iest	-12.0512
▁Vale	-12.0513
▁junior	-12.0514
▁temporarily	-12.0514
▁Leopold	-12.0514
▁(2006)	-12.0514
▁Med	-12.0515
▁Cloud	-12.0515
later	-12.0516
▁TP	-12.0517
▁Based	-12.0518
▁khoác	-12.0519
CN	-12.052
oul	-12.0521
theo	-12.0522
een	-12.0523
▁phàn	-12.0524
▁chemicals	-12.0527
▁họng	-12.0528
Lu	-12.0528
▁Tuesday	-12.0529
▁graduating	-12.0529
▁phenomena	-12.0529
▁remix	-12.053
▁Fran	-12.0531
▁1887	-12.0533
Bi	-12.0534
▁Silva	-12.0535
▁TF	-12.0535
tius	-12.0535
▁variations	-12.0539
▁consumers	-12.0543
▁sảnh	-12.0544
▁peninsula	-12.0544
▁widow	-12.0544
chỉ	-12.0544
▁AG	-12.0546
▁NBC	-12.0546
▁Papua	-12.0548
▁Pel	-12.0548
▁Barr	-12.0548
▁elite	-12.055
▁Actor	-12.055
▁Warren	-12.0552
▁consequence	-12.0554
▁1848	-12.0554
ận	-12.0554
▁parks	-12.0559
▁ruồi	-12.0559
▁nail	-12.0559
▁Đốc	-12.0559
iness	-12.056
ogo	-12.0561
ỗi	-12.0561
date	-12.0563
▁dealer	-12.0565
▁virtually	-12.0565
▁Silesian	-12.0565
Gu	-12.0567
▁Pod	-12.0567
▁François	-12.0568
▁Blo	-12.0569
▁transformed	-12.057
▁Santos	-12.057
▁Bàn	-12.0571
▁farming	-12.0571
▁Songs	-12.0572
▁franc	-12.0573
▁Morris	-12.0573
▁capabilities	-12.0574
▁Always	-12.0574
▁Either	-12.0574
của	-12.0574
▁Savage	-12.0574
lude	-12.0575
▁Independence	-12.0576
▁vòi	-12.0576
▁pointed	-12.0577
▁Singles	-12.0581
▁contribution	-12.0581
▁Full	-12.0583
lect	-12.0583
TU	-12.0583
▁nộ	-12.0585
▁abstract	-12.0586
Wi	-12.0587
▁ser	-12.0588
_	-12.0588
▁Newcastle	-12.0589
▁Desert	-12.0589
▁Tara	-12.0591
▁thà	-12.0592
▁localities	-12.0592
▁poems	-12.0594
▁Blake	-12.0599
▁kin	-12.06
▁Chilean	-12.0601
▁Ae	-12.0601
weight	-12.0603
#7853;	-12.0604
▁Construction	-12.0604
▁initiated	-12.0608
etta	-12.0608
▁origins	-12.061
▁supports	-12.0611
▁posted	-12.0612
▁parking	-12.0612
▁musician	-12.0614
VA	-12.0618
oro	-12.0619
▁acres	-12.0619
▁Aviation	-12.0619
▁Fal	-12.062
▁USSR	-12.0621
▁Cali	-12.0622
▁eighth	-12.0622
▁Neg	-12.0623
bing	-12.0624
▁Zeus	-12.0625
storm	-12.0625
ér	-12.063
▁Bull	-12.0632
▁SP	-12.0632
▁behaviour	-12.0634
▁grateful	-12.0634
▁automatically	-12.0634
▁khiêm	-12.0634
▁quantity	-12.0634
▁Ski	-12.0635
▁revolutionary	-12.0635
▁Arena	-12.0636
▁fastest	-12.0637
▁reportedly	-12.0638
uchi	-12.064
thu	-12.0641
month	-12.0641
▁pulling	-12.0641
▁chat	-12.0642
▁invest	-12.0643
lith	-12.0644
▁Lar	-12.0648
▁xô	-12.0649
#250;	-12.0649
▁concrete	-12.0649
▁destiny	-12.0649
▁hắn	-12.0649
tori	-12.0649
bir	-12.065
izer	-12.0654
▁descended	-12.0654
▁scrap	-12.0654
▁hub	-12.0654
WA	-12.0655
▁defeating	-12.0656
▁Xu	-12.0656
▁Homo	-12.0658
ạn	-12.0659
▁suggestion	-12.0662
VE	-12.0663
▁Gibraltar	-12.0664
▁Kosovo	-12.0664
▁Political	-12.0664
▁Morning	-12.0665
▁dimensions	-12.0666
▁membership	-12.0667
▁locally	-12.0668
▁consideration	-12.0668
EM	-12.0669
saki	-12.067
▁Mitsu	-12.0673
raz	-12.0673
▁ngủi	-12.0674
▁graphics	-12.0676
Chinese	-12.0677
▁Andrea	-12.0678
▁texts	-12.0679
▁Heinrich	-12.0679
▁migration	-12.0679
▁Fujiwara	-12.0679
▁sustainable	-12.068
▁Chứng	-12.0681
▁EA	-12.0681
▁ease	-12.0684
rod	-12.0687
▁Diana	-12.0688
▁lội	-12.0692
▁separation	-12.0694
▁bishop	-12.0694
FI	-12.0695
▁panel	-12.0696
▁trains	-12.0696
▁Burma	-12.0696
tino	-12.0697
▁Him	-12.0698
▁1886	-12.0699
▁margin	-12.07
tina	-12.0701
bell	-12.0703
▁employee	-12.0703
yuki	-12.0704
bos	-12.0705
pel	-12.0705
unch	-12.0705
▁XP	-12.0706
▁warned	-12.0706
▁Regional	-12.0709
▁Hannibal	-12.0709
▁defensive	-12.0709
▁Nhận	-12.071
–17	-12.0711
▁waited	-12.0712
▁sulf	-12.0712
▁Thought	-12.0712
▁Near	-12.0712
nde	-12.0713
▁shops	-12.0714
▁ages	-12.0719
▁manufacturer	-12.0721
▁Eagle	-12.0725
uyên	-12.0729
▁establishing	-12.073
▁1961,	-12.0731
▁insist	-12.0731
▁independently	-12.0732
▁thrown	-12.0733
▁Native	-12.0734
lac	-12.0736
▁Jen	-12.0737
▁Dakota	-12.074
▁breach	-12.074
▁orchestra	-12.074
▁worn	-12.074
▁impressive	-12.074
▁Saipan	-12.074
▁succession	-12.074
▁parliamentary	-12.0741
▁spreading	-12.0742
▁Cánh	-12.0745
ń	-12.075
▁Gothic	-12.0752
Spanish	-12.0753
phát	-12.0754
▁Môn	-12.0755
▁accompany	-12.0755
▁preparing	-12.0755
▁1941.	-12.0755
▁merger	-12.0758
▁Phra	-12.0758
mé	-12.0761
▁touched	-12.0761
▁tribute	-12.0762
▁lately	-12.0765
ache	-12.0765
▁hire	-12.0765
▁wider	-12.0768
World	-12.0768
▁rực	-12.0771
▁flagship	-12.0771
▁infant	-12.0771
▁awareness	-12.0772
dr	-12.0772
▁Huh	-12.0772
▁translate	-12.0775
▁Turin	-12.0776
▁1957,	-12.0777
▁extract	-12.0779
abi	-12.0781
olin	-12.0783
▁sooner	-12.0784
▁Xuất	-12.0786
▁desktop	-12.0786
▁hiếu	-12.0786
▁supporters	-12.0788
▁flip	-12.0788
lish	-12.0789
▁overcome	-12.0789
used	-12.079
▁cabin	-12.0793
▁emerge	-12.0794
▁courts	-12.0798
▁hopes	-12.0798
▁vạn	-12.0798
▁Guess	-12.0801
▁nhúng	-12.0801
▁Đà	-12.0801
▁cối	-12.0802
udi	-12.0807
oriented	-12.0809
▁vol	-12.081
▁Colombian	-12.0811
Star	-12.0811
▁Sing	-12.0811
▁Gray	-12.0811
▁precise	-12.0812
л	-12.0812
Hey	-12.0813
-24	-12.0815
pac	-12.0815
▁slept	-12.0816
▁velocity	-12.0816
Nếu	-12.0816
iden	-12.0818
▁Gay	-12.0818
▁drum	-12.0819
▁ủi	-12.082
nol	-12.0823
bad	-12.0824
▁amin	-12.0827
▁Newport	-12.0827
▁côi	-12.0827
▁Brit	-12.0828
lina	-12.083
▁khéo	-12.0832
▁Athena	-12.0832
▁consent	-12.0834
▁Using	-12.0835
▁peaked	-12.0835
▁ME	-12.0836
▁Gill	-12.0838
ối	-12.0839
ulu	-12.084
▁trusted	-12.0841
fre	-12.0843
IL	-12.0844
▁menu	-12.0844
▁Rai	-12.0846
▁participating	-12.0847
▁plague	-12.0847
▁Laurel	-12.0847
▁Authority	-12.0847
▁1894	-12.0851
▁autonomous	-12.0851
▁Montana	-12.0851
▁Fisher	-12.0856
▁Ánh	-12.0856
▁Kri	-12.0858
party	-12.0859
▁themes	-12.086
Video	-12.0861
dō	-12.0862
▁Johannesburg	-12.0862
▁fraction	-12.0862
▁nhậm	-12.0862
▁sail	-12.0863
▁Urban	-12.0863
▁Pon	-12.0865
IG	-12.0865
nna	-12.0867
▁1988.	-12.0868
▁realm	-12.087
▁stealing	-12.0871
rra	-12.0874
▁Saud	-12.0874
rew	-12.0875
▁3-	-12.0876
▁powered	-12.0876
▁rounds	-12.0876
▁improving	-12.0878
▁đắc	-12.0878
▁Kas	-12.0878
▁magical	-12.0878
▁frozen	-12.0878
▁1861	-12.0882
▁stopping	-12.0882
▁processor	-12.0884
▁1973.	-12.0884
▁82	-12.0884
▁painful	-12.0886
▁heroes	-12.0886
ür	-12.0891
▁orbital	-12.0891
À	-12.0892
▁Orthodox	-12.0893
▁Sherman	-12.0893
▁discipline	-12.0895
lene	-12.0898
▁Rolling	-12.0901
▁quote	-12.0902
▁Lũ	-12.0904
▁wore	-12.0904
▁owners	-12.0905
▁lượn	-12.0906
▁warn	-12.0908
▁Brussels	-12.0908
▁Huyện	-12.0909
▁Ligue	-12.091
tol	-12.0912
▁demanded	-12.0918
▁chay	-12.0919
▁Hero	-12.0919
▁delayed	-12.0919
ç	-12.092
ński	-12.0925
▁Percy	-12.0925
aged	-12.0931
▁breaks	-12.0932
amba	-12.0932
▁stops	-12.0933
▁Juliet	-12.0936
girl	-12.0936
MI	-12.0938
hẳng	-12.0939
▁penalty	-12.0939
mouth	-12.0939
▁bubble	-12.094
▁swing	-12.0941
cie	-12.0942
▁Dùng	-12.0943
▁NH	-12.0943
▁influences	-12.0944
▁inhibitor	-12.0947
▁coral	-12.0947
▁partial	-12.0948
▁Room	-12.0949
▁78	-12.0949
▁Bog	-12.0952
uel	-12.0953
▁Cara	-12.0954
▁relate	-12.0954
▁Connecticut	-12.0955
▁cẩu	-12.0955
▁mãnh	-12.0956
▁hở	-12.0957
▁priority	-12.0958
▁inscription	-12.0958
yle	-12.0958
4,000	-12.0959
▁IN	-12.096
▁rulers	-12.0961
▁fulfill	-12.0963
▁Quay	-12.0964
▁Friends	-12.0965
▁recommend	-12.097
▁Adelaide	-12.097
qi	-12.0973
▁Vận	-12.0973
▁ignore	-12.0976
duc	-12.0978
▁ISBN	-12.0978
▁churches	-12.0984
▁trillion	-12.0985
▁Glasgow	-12.0986
▁harsh	-12.0986
▁decree	-12.0986
▁module	-12.0986
ianus	-12.0986
▁burst	-12.0987
▁tụng	-12.0988
▁Theodore	-12.0989
azi	-12.0991
▁Bruno	-12.0991
▁BA	-12.0992
▁bore	-12.0994
ốn	-12.0996
▁styles	-12.0997
▁(24	-12.0998
▁lungs	-12.0998
yeong	-12.0999
▁Trả	-12.0999
ùng	-12.1001
▁supplement	-12.1002
▁horror	-12.1002
▁thực	-12.1002
▁lướt	-12.1002
▁sùng	-12.1002
{\	-12.1004
▁photographer	-12.1004
▁Made	-12.1004
Un	-12.1006
kor	-12.1006
▁sank	-12.1006
▁Hit	-12.1006
▁Sig	-12.1007
▁Drake	-12.1008
▁Hugo	-12.1009
▁sponsor	-12.1009
▁photography	-12.101
▁Jar	-12.1011
uan	-12.1012
▁infinite	-12.1013
▁Andes	-12.1014
glo	-12.1017
▁elevator	-12.1017
▁emphasis	-12.1017
▁Chaplin	-12.1017
▁Habsburg	-12.1017
▁CLB	-12.1018
▁tể	-12.1019
▁hân	-12.1019
▁Louise	-12.1019
▁Nigerian	-12.1026
▁releases	-12.1026
▁attempting	-12.1028
▁Player	-12.1029
▁boost	-12.1032
▁fantasy	-12.1033
Đoạn	-12.1033
ND	-12.1034
▁defending	-12.1035
FL	-12.1036
borg	-12.1036
nta	-12.1037
▁Tea	-12.1041
▁tú	-12.1045
kō	-12.1045
▁Sco	-12.1046
▁snake	-12.1046
▁Sicilia	-12.1046
▁filed	-12.1047
▁Baden	-12.1048
▁khuếch	-12.1049
ểu	-12.1049
▁Future	-12.1049
▁$3	-12.1049
▁equations	-12.105
▁1,2	-12.1052
sko	-12.1053
▁importantly	-12.1055
▁nitrogen	-12.1056
▁tears	-12.1058
itu	-12.1058
▁divorced	-12.1063
▁volcanic	-12.1064
▁wisdom	-12.1064
▁Prefecture	-12.1064
▁rainfall	-12.1065
▁shorter	-12.1066
▁Iowa	-12.1066
chủ	-12.1066
▁wolf	-12.1068
ạt	-12.1068
▁Male	-12.1069
▁USB	-12.1072
▁beam	-12.1073
ucci	-12.1075
ỳ	-12.1076
▁Sophia	-12.108
▁(2007)	-12.108
Ông	-12.1081
▁Normandy	-12.1081
▁Commons	-12.1081
[...]
