<unk>	0
<s>	0
</s>	0
<pad>	0
.	-3.13515
,	-3.31786
▁the	-4.03435
s	-4.59102
▁of	-4.6276
'	-4.69154
▁to	-4.7245
▁and	-4.83155
▁a	-4.90732
▁là	-4.92849
▁của	-4.92973
▁và	-4.95115
▁in	-4.97261
▁I	-5.16401
▁một	-5.17067
▁có	-5.17457
?	-5.2635
▁được	-5.30729
▁	-5.38128
▁không	-5.38753
▁you	-5.40263
▁is	-5.51736
▁đã	-5.53261
▁trong	-5.59686
▁tôi	-5.60552
▁các	-5.61778
▁that	-5.64942
-	-5.65761
▁(	-5.72091
▁người	-5.73928
▁cho	-5.76242
▁với	-5.78159
▁was	-5.79205
t	-5.79637
▁năm	-5.86586
▁for	-5.88351
▁it	-5.92334
▁ở	-5.92954
▁"	-5.93776
▁đó	-5.94197
▁ta	-5.94748
▁này	-5.9623
▁-	-5.96585
▁The	-5.9791
▁thể	-6.00538
▁những	-6.04997
▁on	-6.05973
)	-6.10182
▁with	-6.10335
▁vào	-6.14053
▁sẽ	-6.17271
▁anh	-6.19836
▁ra	-6.21259
▁chúng	-6.23051
...	-6.23294
▁as	-6.23575
▁đến	-6.25163
▁để	-6.2758
▁khi	-6.28827
▁làm	-6.28866
▁như	-6.34775
▁be	-6.38388
▁this	-6.39599
▁sự	-6.39951
▁từ	-6.40894
▁are	-6.41743
▁by	-6.43269
▁have	-6.43803
▁phải	-6.43883
▁về	-6.46113
▁nó	-6.47038
▁thành	-6.47163
▁Tôi	-6.49614
:	-6.50547
▁đầu	-6.50853
▁we	-6.51275
▁from	-6.51675
▁do	-6.5389
▁at	-6.56641
▁ông	-6.59788
m	-6.60009
▁con	-6.61731
re	-6.62082
"	-6.62781
▁gì	-6.64062
▁tại	-6.64757
▁tháng	-6.64849
▁lại	-6.65114
▁thế	-6.65292
▁not	-6.66098
▁nói	-6.6615
▁bị	-6.6658
▁cô	-6.68169
▁an	-6.69094
▁đi	-6.70809
▁biết	-6.71051
▁You	-6.71215
▁can	-6.71402
▁mà	-6.71747
▁cũng	-6.71987
▁me	-6.72457
!	-6.72818
▁he	-6.7319
▁việc	-6.73827
▁ngày	-6.76146
▁trên	-6.76709
▁số	-6.77149
▁It	-6.79968
▁họ	-6.80296
▁công	-6.80622
▁nhà	-6.82704
▁cả	-6.84846
▁Anh	-6.85515
▁hơn	-6.85582
▁chỉ	-6.87168
▁đây	-6.87873
▁khác	-6.87962
▁học	-6.88232
▁nhất	-6.884
▁điều	-6.90477
▁đang	-6.90917
▁bạn	-6.91426
▁chính	-6.91586
▁your	-6.92275
▁or	-6.93739
▁his	-6.94623
▁were	-6.95291
▁And	-6.95425
▁In	-6.95703
▁nhiều	-6.96061
▁1	-6.97759
▁my	-6.97922
▁gia	-6.9802
▁thấy	-6.98121
▁sau	-6.98486
▁one	-6.99303
d	-7.00324
▁they	-7.01127
▁all	-7.01439
▁thứ	-7.02424
▁động	-7.03265
▁but	-7.03349
▁rằng	-7.04482
▁cách	-7.05359
▁mình	-7.0542
▁what	-7.05957
▁about	-7.06308
▁quan	-7.07018
▁muốn	-7.07197
▁know	-7.07247
▁hiện	-7.08483
▁ấy	-7.08719
▁nào	-7.09133
▁her	-7.09704
ing	-7.11275
▁nhưng	-7.12266
▁còn	-7.13869
▁vì	-7.15778
▁em	-7.17117
▁has	-7.18282
▁A	-7.18468
▁phát	-7.19713
▁so	-7.19841
▁rồi	-7.20667
▁had	-7.20785
▁sao	-7.20926
▁dụng	-7.21236
▁cái	-7.21305
▁He	-7.2189
▁cùng	-7.22125
▁thời	-7.22417
▁which	-7.23544
▁hai	-7.23683
▁nhân	-7.24215
▁Và	-7.24592
▁theo	-7.24691
▁out	-7.24978
▁rất	-7.25815
▁thực	-7.26139
▁cuộc	-7.26192
▁there	-7.26465
▁thì	-7.27143
▁like	-7.27241
▁We	-7.28143
▁just	-7.29432
;	-7.29478
▁định	-7.29864
▁nghĩ	-7.29911
▁sử	-7.30481
▁hành	-7.30725
▁trước	-7.31565
▁she	-7.31841
▁bởi	-7.32122
▁Chúng	-7.33432
▁bộ	-7.34066
▁tới	-7.34601
▁hình	-7.34988
▁been	-7.35862
▁nhận	-7.36277
▁bản	-7.3637
▁bằng	-7.37216
▁giờ	-7.37572
▁giới	-7.38759
▁who	-7.38924
ll	-7.39174
▁bao	-7.39238
▁up	-7.39476
▁don	-7.39499
▁chuyện	-7.39642
▁2	-7.39725
i	-7.40036
n	-7.41136
▁hợp	-7.41494
ed	-7.41604
▁time	-7.41894
▁tự	-7.41971
▁nước	-7.41985
a	-7.42288
▁their	-7.42534
▁will	-7.42896
▁cậu	-7.42908
▁first	-7.43018
▁vậy	-7.43099
▁cần	-7.43359
ve	-7.43441
▁qua	-7.4404
▁bắt	-7.44585
▁lớn	-7.44739
▁sinh	-7.44808
▁viên	-7.45229
▁xuất	-7.45359
▁trở	-7.45793
▁So	-7.46108
▁also	-7.46571
▁lên	-7.47148
▁more	-7.4727
▁nên	-7.47418
▁him	-7.47431
▁kết	-7.47489
▁here	-7.47959
▁chiến	-7.48637
▁if	-7.49262
▁tiên	-7.49765
▁phần	-7.50769
).	-7.51049
▁would	-7.51544
▁quốc	-7.52216
▁tên	-7.52387
▁đồng	-7.52776
▁when	-7.52985
▁tìm	-7.53027
y	-7.53173
▁3	-7.53504
▁tiếp	-7.54042
▁hoặc	-7.54208
▁This	-7.5504
▁Các	-7.55235
▁sống	-7.55475
▁get	-7.55763
▁hàng	-7.55964
▁cơ	-7.56121
▁lý	-7.56215
▁mới	-7.57215
▁trình	-7.57294
▁trường	-7.58496
▁thường	-7.59001
▁gọi	-7.59532
▁giải	-7.59604
▁them	-7.59719
▁tin	-7.59789
▁other	-7.59998
▁people	-7.60064
▁Nhưng	-7.60582
▁tế	-7.60921
▁But	-7.61019
▁vị	-7.61064
),	-7.61097
▁Nó	-7.61856
▁đề	-7.62236
▁nữa	-7.62437
▁tạo	-7.62581
▁think	-7.62771
▁no	-7.63046
▁tính	-7.63099
▁two	-7.63586
▁hay	-7.6365
▁Một	-7.63942
e	-7.64499
▁lần	-7.65267
▁Không	-7.65998
▁Có	-7.66161
▁thống	-7.66367
▁Trong	-7.6689
▁lập	-7.67081
▁đối	-7.67221
▁lượng	-7.67463
▁thông	-7.67588
▁quân	-7.68035
▁vật	-7.6814
▁vụ	-7.68392
▁nhau	-7.68949
▁gian	-7.69725
▁đại	-7.69737
▁into	-7.69885
▁right	-7.70507
▁ý	-7.71274
▁độ	-7.71674
▁want	-7.71884
▁dân	-7.72331
▁hội	-7.72844
▁some	-7.72856
▁She	-7.72971
▁nhiên	-7.73006
▁than	-7.73023
▁now	-7.73668
▁hệ	-7.7369
▁tiếng	-7.74114
▁only	-7.74227
."	-7.75053
▁mọi	-7.75146
▁toàn	-7.75795
▁năng	-7.76082
▁đâu	-7.76229
▁nơi	-7.76318
▁máy	-7.77402
▁mặt	-7.77419
▁over	-7.77589
o	-7.77646
▁nếu	-7.77715
▁Ông	-7.78056
▁bà	-7.78445
▁our	-7.7906
▁cao	-7.79174
▁sản	-7.7961
▁đổi	-7.79955
▁us	-7.80733
▁its	-7.80819
▁đường	-7.81166
▁trị	-7.81923
▁Cô	-7.82022
▁vẫn	-7.82126
▁10	-7.82211
▁phía	-7.82229
▁They	-7.82343
▁quá	-7.82496
▁loại	-7.83102
▁bảo	-7.83129
▁liên	-7.83152
▁chủ	-7.83589
▁thay	-7.83676
▁see	-7.83778
▁diễn	-7.83793
▁tất	-7.84442
▁could	-7.85138
▁4	-7.85324
▁tốt	-7.85328
▁khu	-7.85684
▁ai	-7.85702
▁5	-7.86216
▁lực	-7.86533
▁after	-7.86866
▁these	-7.87824
▁go	-7.87892
▁thức	-7.88083
th	-7.88135
▁đội	-7.88228
▁tâm	-7.88262
▁chức	-7.88841
▁then	-7.88842
▁cầu	-7.89081
▁where	-7.89175
▁tác	-7.89301
▁thích	-7.89467
▁điểm	-7.89695
▁years	-7.898
▁chuyển	-7.90128
▁thật	-7.90147
▁trung	-7.90217
▁hóa	-7.90246
▁going	-7.90297
▁got	-7.91018
▁That	-7.91026
ly	-7.91968
▁cảm	-7.92698
▁quyền	-7.93022
▁chưa	-7.9352
▁gồm	-7.93812
▁how	-7.93955
".	-7.94211
▁trọng	-7.94336
▁bất	-7.94709
▁cứu	-7.94727
▁What	-7.94823
▁Quốc	-7.95121
▁thiết	-7.97122
▁sĩ	-7.97332
▁đưa	-7.97422
▁biệt	-7.97539
▁ảnh	-7.97886
▁cấp	-7.98756
▁tranh	-7.9901
▁cuối	-7.99123
▁đấy	-7.99444
▁nay	-8.00212
▁Nếu	-8.00359
▁most	-8.01097
▁phố	-8.01418
▁--	-8.01523
▁tập	-8.01568
▁chết	-8.01821
er	-8.01842
▁phân	-8.02616
▁way	-8.03117
▁need	-8.03464
▁bay	-8.03629
▁vực	-8.03788
▁nghĩa	-8.03811
▁giữa	-8.0387
▁6	-8.04162
▁bỏ	-8.04319
▁ba	-8.04461
▁bố	-8.04858
▁yêu	-8.05143
▁hoạt	-8.05214
in	-8.05309
▁chơi	-8.05449
▁báo	-8.0546
▁make	-8.05609
▁very	-8.05705
▁ăn	-8.05859
▁khoảng	-8.05971
▁giáo	-8.06013
▁câu	-8.06036
▁triển	-8.06356
▁phim	-8.06362
▁because	-8.06915
▁tình	-8.06928
▁bên	-8.07571
▁đều	-8.08183
▁lúc	-8.08188
▁ngoài	-8.08203
▁giúp	-8.08642
▁used	-8.0881
▁nghiệp	-8.09227
▁chất	-8.09681
▁hiệu	-8.09752
▁hết	-8.10042
▁did	-8.10234
▁No	-8.10256
▁tiền	-8.10519
▁tay	-8.10626
▁kế	-8.10814
▁If	-8.10909
▁địa	-8.10914
▁tương	-8.10916
▁take	-8.11045
▁phòng	-8.11488
▁pháp	-8.11499
▁biến	-8.11859
▁Do	-8.11948
▁gần	-8.11985
▁There	-8.11987
▁phương	-8.12188
▁new	-8.12196
▁đánh	-8.12263
▁thuật	-8.12453
▁sáng	-8.13131
▁7	-8.13295
▁kinh	-8.13306
▁vấn	-8.13529
▁nữ	-8.13621
▁world	-8.13775
▁hắn	-8.13973
▁New	-8.1405
▁nhìn	-8.14254
▁Sau	-8.14436
▁từng	-8.1467
▁Trung	-8.15144
▁said	-8.15207
▁tham	-8.15293
▁truyền	-8.15598
▁sát	-8.16061
▁xem	-8.16094
c	-8.16128
▁giống	-8.16234
▁giá	-8.16476
▁nhỏ	-8.16581
S	-8.16627
▁đất	-8.16666
▁kỳ	-8.16726
▁thị	-8.16764
▁thôi	-8.16817
▁đặc	-8.16886
▁mất	-8.16954
▁de	-8.17628
▁really	-8.17648
▁khỏi	-8.18113
▁may	-8.18249
▁hoàn	-8.18401
▁gặp	-8.18445
▁12	-8.18534
▁Well	-8.18626
▁liệu	-8.18673
▁phụ	-8.1898
▁điện	-8.19004
▁thuộc	-8.19038
▁trí	-8.19154
▁many	-8.19458
▁tàu	-8.19715
▁quả	-8.19987
▁Năm	-8.20009
▁8	-8.20037
▁Mỹ	-8.20112
▁bệnh	-8.20156
▁dịch	-8.20312
▁dưới	-8.20421
▁dùng	-8.20627
▁Đây	-8.20814
▁any	-8.2088
▁such	-8.21064
▁nghe	-8.2114
▁Em	-8.21258
▁something	-8.21333
▁well	-8.21933
▁đơn	-8.22087
▁Đó	-8.22135
▁work	-8.22604
▁mẹ	-8.22809
▁tử	-8.22921
▁xác	-8.23314
▁before	-8.23427
▁say	-8.23995
▁between	-8.24077
ng	-8.24089
▁tăng	-8.24123
▁good	-8.24282
▁sách	-8.24544
▁Những	-8.24557
▁S	-8.24597
▁dẫn	-8.24698
▁Hoa	-8.24787
▁đấu	-8.2504
▁lời	-8.25366
▁chế	-8.25505
▁bình	-8.25564
▁chứ	-8.25893
▁made	-8.25912
▁tưởng	-8.25916
▁văn	-8.2606
▁ứng	-8.26061
▁down	-8.26114
▁life	-8.264
▁thủ	-8.26722
▁đặt	-8.26847
▁C	-8.26933
▁Ta	-8.27011
▁vài	-8.27145
▁chiếc	-8.27673
▁gonna	-8.27688
▁vùng	-8.27769
▁much	-8.2783
▁B	-8.27892
▁9	-8.27907
▁three	-8.28307
▁man	-8.28367
▁đạo	-8.28465
▁thương	-8.28784
▁Nam	-8.29402
▁di	-8.29514
▁bài	-8.29519
▁nhạc	-8.29873
▁dù	-8.30129
▁thu	-8.30349
▁dự	-8.30601
▁cố	-8.30615
▁tổ	-8.31356
▁tiêu	-8.3137
▁ngay	-8.31477
▁tài	-8.31601
▁vô	-8.31741
▁through	-8.31746
▁quyết	-8.32037
▁cứ	-8.32231
▁20	-8.32258
▁phẩm	-8.32273
▁ban	-8.32414
▁xe	-8.32488
▁Họ	-8.32491
▁trẻ	-8.32714
g	-8.32725
▁Khi	-8.32865
▁being	-8.33731
C	-8.33987
▁chứng	-8.34252
▁even	-8.34619
▁viết	-8.34682
▁Vào	-8.34687
▁loài	-8.34719
▁hỏi	-8.34918
▁Con	-8.35006
u	-8.35248
▁should	-8.35281
▁tư	-8.35758
▁15	-8.35864
▁come	-8.36097
▁xảy	-8.36328
▁Vậy	-8.36373
▁–	-8.36532
▁little	-8.36532
▁never	-8.36618
▁kể	-8.36743
▁part	-8.37163
▁11	-8.3737
▁same	-8.37373
▁hiểu	-8.37529
▁tiến	-8.37563
▁gái	-8.37624
▁Kỳ	-8.37654
▁minh	-8.37911
▁mang	-8.38106
▁đúng	-8.38109
▁nhóm	-8.38418
▁day	-8.38466
▁lấy	-8.38505
▁tục	-8.3895
▁nhiệm	-8.39503
▁tell	-8.39569
▁giữ	-8.39613
▁tuổi	-8.39621
▁On	-8.39773
▁nguyên	-8.39858
▁bán	-8.40594
▁phép	-8.40612
2	-8.40632
▁âm	-8.4087
▁around	-8.40902
▁nổi	-8.40926
▁those	-8.40951
I	-8.41013
r	-8.41276
▁giết	-8.4128
▁phục	-8.41288
▁cảnh	-8.4149
▁use	-8.42633
▁thân	-8.42938
▁phủ	-8.42997
▁trò	-8.43017
▁T	-8.43023
▁kỷ	-8.43265
▁đảo	-8.43437
▁name	-8.43479
▁đời	-8.43522
al	-8.43598
▁nằm	-8.43677
▁đáng	-8.43686
es	-8.44037
▁still	-8.44048
▁U	-8.44064
▁mô	-8.44087
▁mạnh	-8.44183
▁thing	-8.44365
A	-8.44528
▁off	-8.44542
▁khí	-8.44561
▁Đại	-8.44833
▁known	-8.44891
▁tích	-8.44975
▁during	-8.45071
▁dài	-8.45275
▁found	-8.45308
▁United	-8.45844
▁nghiên	-8.46326
▁vệ	-8.4634
▁long	-8.46478
▁mở	-8.46683
▁Ba	-8.46725
▁trưởng	-8.47227
▁danh	-8.48006
▁called	-8.48022
▁nghệ	-8.48208
▁thêm	-8.4847
▁đình	-8.49017
▁thần	-8.49053
▁Now	-8.49142
▁ty	-8.49147
▁tượng	-8.49323
▁gây	-8.49521
▁trang	-8.49808
▁year	-8.49898
▁tinh	-8.49915
▁trai	-8.5005
▁luôn	-8.50174
▁mỗi	-8.50308
▁Cậu	-8.50325
",	-8.50981
▁under	-8.50989
▁Tây	-8.51082
▁ít	-8.51107
▁didn	-8.51477
▁cá	-8.51679
▁too	-8.5203
▁M	-8.5208
▁đồ	-8.52361
▁chọn	-8.53006
▁As	-8.53337
▁nghiệm	-8.53411
▁vi	-8.53487
▁D	-8.5373
▁find	-8.53735
▁Người	-8.5392
▁trả	-8.54215
▁à	-8.54263
▁last	-8.54565
▁giao	-8.54663
▁nhập	-8.54673
▁cung	-8.54676
▁things	-8.54764
▁viện	-8.5505
▁place	-8.55148
▁cộng	-8.55186
▁duy	-8.55283
▁yếu	-8.55348
▁bóng	-8.55386
▁ngữ	-8.55393
▁biển	-8.55577
▁hạn	-8.55607
▁sở	-8.5618
▁...	-8.56268
▁number	-8.56405
▁biểu	-8.56483
▁triệu	-8.56513
▁dựng	-8.57036
▁chương	-8.57151
▁'	-8.57222
▁rộng	-8.57338
▁chi	-8.57409
▁xuống	-8.57651
▁mục	-8.57716
▁look	-8.58203
▁khả	-8.58396
▁trận	-8.58498
l	-8.5854
▁bé	-8.58638
▁án	-8.58656
▁hướng	-8.58839
▁both	-8.59062
▁Nhật	-8.59196
▁diện	-8.59403
▁while	-8.59408
▁16	-8.59582
▁phá	-8.596
▁xây	-8.59682
▁tối	-8.59922
▁later	-8.59983
▁Vì	-8.6003
▁tổng	-8.60394
h	-8.6042
▁đóng	-8.60798
▁lịch	-8.60941
▁phản	-8.61215
▁Đức	-8.61368
▁thi	-8.61443
▁châu	-8.61826
▁until	-8.62143
▁lẽ	-8.62147
▁own	-8.62514
D	-8.62824
▁giảm	-8.62834
▁Công	-8.63459
▁lạc	-8.63556
▁P	-8.63713
▁let	-8.6388
▁city	-8.64279
▁luật	-8.64294
▁chí	-8.64723
▁đủ	-8.64748
▁mùa	-8.64861
▁thuyết	-8.6492
▁Điều	-8.65217
▁nguồn	-8.65241
▁cha	-8.65432
▁La	-8.65489
b	-8.65598
▁Oh	-8.65664
▁chắc	-8.65688
▁đoàn	-8.65861
▁why	-8.65935
▁Pháp	-8.66099
▁trợ	-8.662
▁Tuy	-8.6629
▁When	-8.66325
▁How	-8.66615
▁thought	-8.66681
▁became	-8.66893
▁won	-8.67127
▁All	-8.67144
p	-8.67216
▁Liên	-8.67449
▁cổ	-8.67531
▁help	-8.67664
▁hưởng	-8.67688
▁Bản	-8.67707
▁giả	-8.67809
▁hát	-8.6781
k	-8.67899
▁nam	-8.68051
▁E	-8.68123
▁again	-8.68158
▁đông	-8.68161
▁My	-8.68234
▁tra	-8.68463
▁family	-8.68626
▁vai	-8.68743
▁lâu	-8.69192
▁kẻ	-8.69588
▁ca	-8.69643
▁second	-8.69765
▁độc	-8.69927
▁album	-8.6996
▁vận	-8.69993
▁mạng	-8.70053
▁dạng	-8.70064
▁khó	-8.70441
▁give	-8.70814
▁tuần	-8.70846
▁N	-8.70912
▁mean	-8.71058
▁chống	-8.71621
▁different	-8.71838
▁Lan	-8.7205
▁home	-8.72207
▁30	-8.72234
▁game	-8.72256
▁system	-8.72334
▁World	-8.7251
▁Thế	-8.7254
▁nhớ	-8.72728
▁chú	-8.72987
▁kiện	-8.73216
▁mắt	-8.73579
an	-8.739
▁thúc	-8.74039
▁end	-8.74039
▁hãy	-8.74119
▁rõ	-8.74223
▁Bắc	-8.74259
▁kiến	-8.74325
▁O	-8.7448
▁sức	-8.74576
▁each	-8.74586
▁F	-8.74669
▁vũ	-8.74892
▁xã	-8.74911
▁cửa	-8.74977
▁kiểm	-8.75192
▁chẳng	-8.75613
▁must	-8.75869
▁another	-8.75963
▁chung	-8.76108
▁After	-8.76193
▁ký	-8.76382
▁17	-8.76409
▁since	-8.76494
▁đô	-8.76674
▁hộ	-8.767
▁tớ	-8.7675
▁G	-8.76791
▁thư	-8.76871
B	-8.76977
▁K	-8.77015
▁khoa	-8.7724
▁đá	-8.77399
▁H	-8.77413
▁lỗi	-8.7746
▁khiến	-8.7761
▁against	-8.7781
▁cháu	-8.77946
▁14	-8.77968
▁lãnh	-8.78142
▁hòa	-8.7821
▁left	-8.78249
▁R	-8.7856
▁thuốc	-8.78598
▁ghi	-8.78601
▁every	-8.78858
▁thắng	-8.78994
▁II	-8.79204
▁ngôi	-8.79362
to	-8.79443
▁mày	-8.79608
▁For	-8.79928
▁cáo	-8.80144
▁chỗ	-8.80317
▁cây	-8.80328
▁Yeah	-8.80541
▁đoạn	-8.80632
▁father	-8.80737
▁cử	-8.81044
▁riêng	-8.81133
▁tuyệt	-8.81138
▁put	-8.81273
▁lưu	-8.81348
▁sư	-8.82541
▁xa	-8.82542
▁love	-8.82649
▁màu	-8.82702
▁mặc	-8.83297
▁cư	-8.83442
▁chịu	-8.83502
▁mức	-8.83502
▁dụ	-8.83512
▁Bà	-8.83616
▁vòng	-8.83747
▁water	-8.83792
▁thử	-8.84165
▁13	-8.84416
▁At	-8.84541
▁m	-8.84871
▁high	-8.8498
on	-8.85045
▁chút	-8.85266
▁y	-8.85341
▁chia	-8.85408
▁đàn	-8.8543
▁May	-8.85874
▁took	-8.86058
▁chuẩn	-8.86115
▁doing	-8.86139
man	-8.86168
▁Why	-8.86201
▁government	-8.86285
▁show	-8.86296
▁tiết	-8.86449
▁hoàng	-8.86547
▁lo	-8.866
▁To	-8.86751
▁million	-8.86765
▁States	-8.86876
▁quay	-8.86983
▁including	-8.8707
▁South	-8.8722
▁mua	-8.8734
▁ever	-8.87719
▁away	-8.87737
▁quản	-8.87978
▁four	-8.88028
▁đôi	-8.8804
▁Sao	-8.88057
▁lợi	-8.88209
▁bọn	-8.88327
▁better	-8.88376
▁chạy	-8.8862
▁vọng	-8.88842
▁khách	-8.89064
▁bang	-8.89201
▁always	-8.89316
▁actually	-8.89741
▁Bộ	-8.89938
us	-8.8997
▁York	-8.90043
▁kích	-8.90087
▁tồn	-8.90096
▁Ban	-8.90222
▁quanh	-8.90274
▁km	-8.90275
▁Âu	-8.90829
▁talk	-8.90905
▁hữu	-8.91192
▁lot	-8.91197
▁came	-8.91248
▁hôn	-8.91434
▁tiểu	-8.91509
▁kiếm	-8.91524
▁xin	-8.9163
▁thanh	-8.91681
▁lệ	-8.91901
▁Hãy	-8.91953
▁John	-8.92014
▁ơn	-8.92015
▁song	-8.92125
▁am	-8.9222
▁country	-8.92511
▁told	-8.9256
▁anything	-8.92593
▁kind	-8.92647
▁re	-8.92728
▁Chỉ	-8.92938
▁American	-8.92982
▁luận	-8.93117
▁best	-8.93344
T	-8.93476
▁War	-8.93506
▁dành	-8.93615
▁next	-8.93736
▁18	-8.93803
▁call	-8.93869
▁tội	-8.94123
▁might	-8.94466
▁Ý	-8.94592
▁áp	-8.94729
▁đẹp	-8.94768
▁Ngày	-8.94791
▁vừa	-8.95212
▁sân	-8.95285
▁Tại	-8.9533
▁One	-8.95353
▁đứng	-8.95421
▁Bạn	-8.95547
▁great	-8.95635
▁does	-8.95786
▁men	-8.95976
▁đứa	-8.96112
x	-8.96117
▁L	-8.96126
▁San	-8.96322
▁area	-8.96331
▁dục	-8.96446
▁group	-8.96718
▁cập	-8.97021
en	-8.97074
▁hôm	-8.97092
▁old	-8.97118
▁gốc	-8.9723
1	-8.97267
▁hậu	-8.97338
3	-8.97573
▁tả	-8.97748
▁ngoại	-8.98028
▁few	-8.98143
▁dễ	-8.98169
▁early	-8.98435
▁đạt	-8.98525
▁important	-8.98616
▁bắc	-8.9869
or	-8.98766
▁vẻ	-8.98889
▁Phi	-8.99009
▁quy	-8.99088
▁cực	-8.99397
▁bức	-8.99407
▁video	-8.99576
M	-8.99595
▁night	-8.99687
▁19	-8.9971
▁trực	-8.99934
▁kia	-9.00034
▁without	-9.00284
▁Al	-9.00357
▁An	-9.00371
▁sang	-9.00744
▁nhanh	-9.00999
▁film	-9.01016
▁Don	-9.01086
▁lắm	-9.01195
▁together	-9.01454
▁hoạch	-9.01612
▁days	-9.01918
▁nội	-9.0204
▁bào	-9.02065
▁school	-9.02069
▁sông	-9.02259
ta	-9.02659
▁Đông	-9.02772
▁Ở	-9.02829
▁phạm	-9.02957
▁state	-9.0316
▁suy	-9.03347
▁several	-9.03367
▁Theo	-9.03487
▁ngài	-9.03541
▁vui	-9.03557
▁xử	-9.03851
H	-9.03866
▁đêm	-9.03966
▁Sự	-9.04007
▁trái	-9.04058
▁war	-9.04208
▁nghị	-9.04347
▁doanh	-9.04349
▁bầu	-9.04439
▁power	-9.04532
▁bàn	-9.04562
▁thiên	-9.04727
▁Thái	-9.0478
▁hạng	-9.04796
▁coi	-9.04827
▁khai	-9.05032
▁100	-9.05133
▁nền	-9.05154
▁mối	-9.052
▁toán	-9.05569
▁live	-9.05593
▁trời	-9.0561
▁kỹ	-9.05617
▁ngôn	-9.05669
▁bây	-9.05748
▁money	-9.05772
▁tao	-9.0583
ch	-9.05843
▁ước	-9.05874
▁began	-9.06023
▁buổi	-9.06082
▁hầu	-9.06116
▁thú	-9.06262
N	-9.06394
▁These	-9.06601
▁phong	-9.06937
▁V	-9.06963
▁chị	-9.07048
▁bắn	-9.07071
▁wanted	-9.07166
▁mẫu	-9.07206
▁Để	-9.07206
▁n	-9.07215
▁released	-9.07259
F	-9.07272
▁vua	-9.07359
▁sợ	-9.0749
▁phổ	-9.07617
the	-9.07647
▁small	-9.07665
▁chiếm	-9.07959
–	-9.07984
▁death	-9.08076
▁went	-9.08373
▁chân	-9.0838
▁lòng	-9.084
▁25	-9.08444
▁Từ	-9.08574
▁today	-9.0858
▁tộc	-9.08584
▁mấy	-9.08601
▁chuyên	-9.08668
▁nhiệt	-9.08698
▁Ai	-9.08721
z	-9.08832
▁team	-9.08916
▁human	-9.08984
▁set	-9.09168
▁often	-9.09307
▁sắc	-9.09354
▁đa	-9.09531
▁species	-9.09812
▁Mr	-9.10251
▁Được	-9.1035
▁dựa	-9.1053
--	-9.10539
▁Cho	-9.11024
▁five	-9.11137
na	-9.11515
▁rời	-9.11995
▁“	-9.12066
▁Tổng	-9.12093
▁century	-9.12146
▁ngươi	-9.12365
▁thoại	-9.1246
▁However	-9.12587
▁phí	-9.12599
▁bại	-9.1265
▁chấp	-9.12736
▁single	-9.12741
▁Cha	-9.12764
▁tỉnh	-9.1298
▁June	-9.13094
▁Nhà	-9.13098
▁Nha	-9.13177
▁believe	-9.13263
▁thập	-9.13299
▁keep	-9.13526
▁series	-9.13548
▁done	-9.13566
▁March	-9.13578
▁change	-9.13601
▁sure	-9.13668
▁October	-9.13693
▁August	-9.13699
▁du	-9.13902
▁Your	-9.13988
O	-9.14011
▁giành	-9.14132
▁phiên	-9.14146
▁Nga	-9.14153
▁University	-9.14154
▁July	-9.14335
▁become	-9.14345
▁cụ	-9.14358
▁tố	-9.14664
▁la	-9.14666
▁point	-9.14774
▁niên	-9.1483
▁everything	-9.14903
▁xếp	-9.15324
▁bác	-9.1537
▁Let	-9.15383
▁thất	-9.15413
▁North	-9.15446
▁tây	-9.15527
▁cánh	-9.15571
▁J	-9.15664
▁real	-9.15751
▁mother	-9.15755
▁phút	-9.1579
▁doesn	-9.15845
▁c	-9.15953
▁started	-9.1632
▁thấp	-9.16343
▁large	-9.16482
▁trúc	-9.16549
▁đầy	-9.16552
▁January	-9.16593
ers	-9.16638
▁head	-9.16786
▁nothing	-9.16917
▁tuyên	-9.16993
▁within	-9.17028
▁cạnh	-9.17078
E	-9.17151
▁dòng	-9.17338
▁April	-9.17444
▁suốt	-9.17497
▁September	-9.17652
▁núi	-9.17746
▁son	-9.17852
▁hại	-9.17868
▁kéo	-9.17938
▁lệnh	-9.18112
▁binh	-9.18151
▁càng	-9.18174
la	-9.18226
▁Because	-9.18254
▁population	-9.1828
▁dữ	-9.1828
?"	-9.18344
▁tuyến	-9.1845
▁hiểm	-9.18458
▁children	-9.18637
▁enough	-9.18699
▁seen	-9.18842
▁soát	-9.18882
K	-9.19037
▁24	-9.19084
’	-9.19086
▁buộc	-9.19086
▁máu	-9.19188
▁miền	-9.19352
▁giác	-9.19393
▁League	-9.19443
▁sẵn	-9.19491
▁Ấn	-9.19598
▁start	-9.19654
▁play	-9.19774
▁guy	-9.19794
▁Just	-9.19995
▁Tất	-9.20031
▁French	-9.2024
▁times	-9.20253
▁dấu	-9.20315
▁women	-9.20324
▁căn	-9.20788
▁side	-9.20881
▁company	-9.21054
(	-9.21086
▁&	-9.21089
▁feel	-9.2117
▁hồi	-9.21483
▁house	-9.21607
▁đoán	-9.21786
ic	-9.21927
▁Japanese	-9.21955
▁Can	-9.21982
▁hơi	-9.22008
▁khá	-9.22055
ra	-9.22416
▁gắng	-9.22437
▁hạt	-9.22671
▁băng	-9.22734
▁cải	-9.22843
▁X	-9.23131
▁Hey	-9.23384
▁His	-9.23468
▁control	-9.23629
▁form	-9.23943
▁tòa	-9.24026
▁Độ	-9.24032
▁China	-9.24046
▁God	-9.24093
▁bước	-9.2423
▁City	-9.24252
▁body	-9.24405
▁person	-9.24444
▁sắp	-9.24505
▁da	-9.24557
no	-9.24639
▁big	-9.24675
▁leave	-9.2473
▁chuyến	-9.24737
▁21	-9.24738
▁trạng	-9.25004
▁trụ	-9.25058
▁huy	-9.25075
▁sai	-9.25131
▁Chúa	-9.25281
▁nhé	-9.25494
▁December	-9.25626
▁phi	-9.25909
▁cấu	-9.25939
▁kiểu	-9.25961
ma	-9.26021
▁along	-9.26025
▁using	-9.26062
▁National	-9.26188
▁đổ	-9.26293
▁vợ	-9.26378
▁bốn	-9.26773
▁cuốn	-9.27131
▁saw	-9.27181
▁care	-9.27191
▁biên	-9.2721
▁mật	-9.27238
▁case	-9.27256
P	-9.27265
▁tạp	-9.27266
▁tức	-9.2765
▁xét	-9.27697
▁thái	-9.2787
▁50	-9.27913
▁hạ	-9.27956
▁order	-9.27995
▁November	-9.28003
▁whole	-9.28126
▁quần	-9.28137
▁Hai	-9.28152
▁following	-9.28261
▁means	-9.28331
ia	-9.28468
G	-9.28747
▁hỗ	-9.28871
le	-9.28941
▁having	-9.28953
▁ma	-9.29117
▁môi	-9.29161
▁able	-9.29241
▁Then	-9.29291
▁idea	-9.29409
▁once	-9.29568
▁born	-9.2964
▁lễ	-9.29662
▁Hoàng	-9.29711
▁already	-9.29718
▁trying	-9.29721
▁kill	-9.30167
▁luyện	-9.30565
▁lai	-9.30633
▁tỷ	-9.30641
▁xung	-9.30656
L	-9.30696
▁top	-9.30894
4	-9.30916
▁someone	-9.31074
▁ago	-9.31153
▁music	-9.31328
▁story	-9.31378
▁Hắn	-9.31424
▁Chính	-9.31438
▁Giờ	-9.31549
▁Chiến	-9.31836
▁nguy	-9.31847
de	-9.31883
▁súng	-9.31926
▁killed	-9.31957
▁đừng	-9.32045
▁based	-9.32048
▁Đừng	-9.32088
▁named	-9.32124
▁looking	-9.32172
▁chứa	-9.32234
▁example	-9.32319
▁đau	-9.3233
▁nối	-9.32494
▁chắn	-9.32521
▁nạn	-9.32629
▁course	-9.32737
▁trao	-9.32832
▁Japan	-9.32925
▁major	-9.33006
▁co	-9.33012
▁tái	-9.33124
▁light	-9.33257
▁ràng	-9.33413
▁making	-9.3352
▁hủy	-9.33715
▁Cái	-9.33803
▁ổn	-9.33905
ton	-9.33998
▁working	-9.34009
▁late	-9.34309
▁địch	-9.34419
▁British	-9.34517
▁Na	-9.34521
▁understand	-9.34594
▁phóng	-9.34637
The	-9.34678
▁un	-9.35002
▁↑	-9.35129
▁St	-9.35137
▁ánh	-9.35345
▁đốc	-9.35378
▁Làm	-9.35612
able	-9.35713
▁thuận	-9.35766
▁trừ	-9.35815
▁ngủ	-9.35902
▁woman	-9.35909
▁giản	-9.35937
▁half	-9.35951
▁business	-9.36039
▁due	-9.36348
▁trách	-9.36675
▁far	-9.36689
▁ngắn	-9.36734
v	-9.3676
▁Dur	-9.36828
▁girl	-9.36859
▁nhiễm	-9.36915
▁ko	-9.36947
▁stop	-9.36988
▁King	-9.37034
▁countries	-9.37036
▁hồ	-9.3711
▁nghi	-9.37215
▁dung	-9.37222
▁age	-9.37236
▁tôn	-9.3726
▁Hải	-9.37271
▁niệm	-9.3743
▁hả	-9.37562
▁Cộng	-9.37619
▁less	-9.37688
▁coming	-9.37739
▁Việc	-9.37804
▁♪	-9.38065
▁sâu	-9.3807
▁lộ	-9.381
▁Tớ	-9.3812
▁gửi	-9.38212
▁mi	-9.38241
▁least	-9.38264
da	-9.3846
▁giai	-9.38614
▁xúc	-9.38745
▁uống	-9.38751
▁February	-9.38756
▁đài	-9.38873
▁cận	-9.3892
▁22	-9.38948
▁lost	-9.38987
▁Canada	-9.39052
▁run	-9.39196
▁months	-9.3943
ne	-9.39431
▁problem	-9.39522
▁bổ	-9.39597
▁car	-9.39607
▁trải	-9.39857
▁Some	-9.39859
▁German	-9.39912
Laughter	-9.39962
▁public	-9.40054
▁friend	-9.40211
▁sớm	-9.40211
▁Với	-9.40396
▁tướng	-9.40431
▁x	-9.40472
▁đọc	-9.40619
▁non	-9.4069
▁cũ	-9.40728
▁vương	-9.40882
▁vàng	-9.41152
▁Hội	-9.41314
▁Okay	-9.41459
▁hand	-9.41623
ka	-9.41638
▁line	-9.41705
▁Her	-9.4193
▁ask	-9.41941
▁period	-9.41976
▁died	-9.41977
▁Not	-9.42004
▁sóng	-9.4205
▁thưởng	-9.4206
▁season	-9.42097
▁quý	-9.42135
▁town	-9.42421
▁hard	-9.42449
▁By	-9.4266
▁De	-9.42709
—	-9.42816
▁tốc	-9.4309
▁Phải	-9.43231
▁Look	-9.43365
▁Việt	-9.43446
▁else	-9.43492
▁given	-9.43551
▁ngăn	-9.43718
▁local	-9.43741
is	-9.4378
▁đích	-9.43782
▁dead	-9.43832
▁military	-9.43919
▁dạy	-9.43921
▁six	-9.44034
▁23	-9.441
▁ngành	-9.44137
▁support	-9.44144
▁đột	-9.44242
f	-9.44267
▁thoát	-9.4428
▁open	-9.44447
▁ví	-9.44458
▁Mặc	-9.44465
▁khởi	-9.44497
▁lửa	-9.44638
▁wife	-9.44647
▁Or	-9.44695
▁sàng	-9.44916
▁bit	-9.44951
▁history	-9.44961
▁happened	-9.45028
▁giám	-9.45054
▁include	-9.4507
▁brother	-9.45144
▁guys	-9.4518
▁ngồi	-9.45184
▁English	-9.45202
▁trấn	-9.45326
▁chữ	-9.45338
▁Me	-9.45374
▁Còn	-9.45434
▁dương	-9.45436
▁chiều	-9.45568
▁room	-9.45574
▁getting	-9.45632
▁Bây	-9.45953
▁try	-9.45997
▁national	-9.46103
ri	-9.46187
▁tệ	-9.46223
▁though	-9.46264
▁đế	-9.46386
▁main	-9.46433
▁tù	-9.46492
▁face	-9.46494
▁built	-9.46657
▁não	-9.46688
-19	-9.46785
do	-9.46794
▁Á	-9.47243
▁Cup	-9.47377
▁London	-9.47414
▁khắp	-9.4743
▁book	-9.4745
▁al	-9.47545
▁fact	-9.47662
▁bí	-9.47715
▁nặng	-9.47732
▁lựa	-9.47812
▁stay	-9.47867
▁trì	-9.48019
▁held	-9.48168
▁)	-9.48178
▁Hy	-9.48186
▁located	-9.48237
▁hear	-9.48283
▁America	-9.48284
▁near	-9.48295
▁Go	-9.48305
▁Mẹ	-9.48474
▁third	-9.48517
▁mại	-9.48716
▁Man	-9.4873
▁vượt	-9.48838
▁nông	-9.4886
▁Thật	-9.48911
▁young	-9.48994
▁common	-9.49029
▁Are	-9.49045
▁air	-9.49249
▁California	-9.49298
▁40	-9.49389
co	-9.49459
▁{\	-9.49503
▁bad	-9.49576
▁food	-9.4967
▁information	-9.49722
▁move	-9.49867
▁ngựa	-9.4988
▁gave	-9.49951
▁bảng	-9.50023
▁W	-9.50066
▁d	-9.50151
el	-9.50243
▁sửa	-9.50427
▁Y	-9.5045
▁US	-9.50475
▁language	-9.50488
▁khẩu	-9.50508
▁bờ	-9.50701
▁mong	-9.50782
▁tấn	-9.50972
▁Paris	-9.5114
▁blood	-9.51165
▁hoa	-9.5121
▁France	-9.51215
▁Earth	-9.51239
▁thiện	-9.51239
▁chờ	-9.51263
▁job	-9.51342
▁lục	-9.51354
▁thờ	-9.51364
▁nửa	-9.51439
▁vời	-9.51445
▁ích	-9.51528
▁club	-9.51693
▁cười	-9.51822
R	-9.51991
▁per	-9.52048
▁close	-9.52073
▁nhằm	-9.5216
▁cắt	-9.52242
▁thậm	-9.52277
▁khủng	-9.52399
▁27	-9.52503
▁With	-9.52617
▁Giải	-9.52807
▁tim	-9.52881
▁Mọi	-9.53009
▁kịch	-9.53127
▁President	-9.53221
▁mind	-9.53234
▁đảm	-9.5337
▁isn	-9.53413
▁remember	-9.53414
▁free	-9.53932
te	-9.54025
▁Chinese	-9.54103
▁áo	-9.54181
▁nổ	-9.54196
&	-9.54265
▁wrong	-9.54354
▁26	-9.54357
▁28	-9.54469
▁thằng	-9.54631
▁okay	-9.55003
▁yourself	-9.55022
▁tín	-9.551
▁thiếu	-9.55113
▁nghỉ	-9.5516
▁thẳng	-9.55209
▁khăn	-9.55209
▁e	-9.55301
ity	-9.55329
▁kì	-9.55357
▁Xô	-9.55397
▁political	-9.55436
▁thổ	-9.55439
▁data	-9.55439
V	-9.55616
ist	-9.55745
▁hours	-9.55951
▁trông	-9.55998
▁khoản	-9.56283
▁xuyên	-9.56291
▁0	-9.56362
▁process	-9.5646
▁l	-9.56592
ro	-9.56638
ry	-9.56773
▁talking	-9.56839
▁Mã	-9.5685
▁yet	-9.56929
▁full	-9.5703
▁sơ	-9.57129
▁West	-9.57185
▁region	-9.57323
▁led	-9.57547
▁developed	-9.5761
▁word	-9.57735
▁Europe	-9.57789
▁heard	-9.57878
▁Africa	-9.57891
▁lĩnh	-9.58154
▁El	-9.58172
ko	-9.58251
▁almost	-9.58292
▁received	-9.58665
▁probably	-9.58784
▁among	-9.58824
▁loạt	-9.58854
▁thăm	-9.58891
▁knew	-9.58892
▁short	-9.58899
▁either	-9.58999
▁hy	-9.59015
▁Yes	-9.59071
▁building	-9.59076
▁role	-9.59123
▁đĩa	-9.59219
▁across	-9.59353
▁development	-9.59437
▁lá	-9.59463
▁land	-9.59482
▁matter	-9.59566
▁maybe	-9.59719
▁ủng	-9.598
▁future	-9.59964
▁possible	-9.6009
▁total	-9.60138
▁From	-9.60169
▁Thành	-9.60195
▁phối	-9.60199
▁heart	-9.60207
▁mã	-9.60432
W	-9.60448
▁daughter	-9.60485
tiếng	-9.60488
▁Kim	-9.60525
▁họa	-9.60541
▁rest	-9.60662
▁wasn	-9.60775
▁Ma	-9.60868
ation	-9.60874
▁friends	-9.60878
▁played	-9.60932
▁production	-9.60943
▁Re	-9.61047
▁Trái	-9.61208
▁George	-9.61367
▁Maybe	-9.61398
▁b	-9.61415
▁others	-9.61536
▁rối	-9.61588
▁Châu	-9.616
▁suất	-9.6169
▁khỏe	-9.61729
▁created	-9.61745
▁t	-9.61764
▁Là	-9.61783
▁level	-9.61797
▁sorry	-9.618
▁considered	-9.61825
▁thủy	-9.6204
▁phận	-9.62052
▁Xin	-9.62065
▁Như	-9.62108
▁study	-9.62211
▁rút	-9.6229
▁north	-9.62354
▁please	-9.62455
▁law	-9.62481
▁hải	-9.6252
▁James	-9.62529
▁đợi	-9.62532
▁đẩy	-9.62545
▁south	-9.62695
▁trùng	-9.62808
▁Dương	-9.62913
▁Park	-9.63118
st	-9.63214
▁saying	-9.63288
▁tịch	-9.63438
▁International	-9.63461
▁service	-9.63503
ism	-9.63636
▁nhiêu	-9.6375
▁chồng	-9.63975
▁nuôi	-9.64027
▁party	-9.64052
▁loạn	-9.64094
▁p	-9.64323
▁taking	-9.64392
▁Bởi	-9.64457
▁=	-9.64475
▁moved	-9.64502
▁space	-9.6457
▁original	-9.64633
▁Come	-9.64744
▁minutes	-9.64771
▁thí	-9.64782
▁living	-9.64807
▁members	-9.64855
▁Vương	-9.64884
▁nghiêm	-9.64929
ine	-9.64946
▁xấu	-9.65063
▁turn	-9.65112
▁Ả	-9.6521
▁rừng	-9.6525
▁tầm	-9.65263
▁taken	-9.65381
▁tiện	-9.65424
▁fire	-9.65594
▁Ngoài	-9.65745
▁ngờ	-9.65829
▁đám	-9.65887
▁soon	-9.65969
U	-9.66442
▁percent	-9.66525
▁social	-9.66566
▁largest	-9.66726
▁asked	-9.66787
▁Giáo	-9.66801
▁outside	-9.66814
▁makes	-9.66852
▁international	-9.66871
▁phức	-9.66894
▁First	-9.66921
▁present	-9.66952
▁món	-9.67039
▁đăng	-9.67276
▁East	-9.67351
▁India	-9.67442
and	-9.67608
▁European	-9.67667
ar	-9.67797
5	-9.67856
▁low	-9.67871
▁member	-9.67875
▁bánh	-9.67892
▁child	-9.67895
▁lớp	-9.6795
born	-9.67953
▁khắc	-9.68003
▁linh	-9.68003
▁dần	-9.68112
▁usually	-9.68153
▁Windows	-9.68158
▁Trước	-9.68159
▁similar	-9.68281
▁lạ	-9.68316
▁(19	-9.68316
▁giấy	-9.68318
▁lính	-9.68418
▁fight	-9.68478
▁làng	-9.68511
▁energy	-9.68762
▁worked	-9.68933
▁areas	-9.68963
▁nhỉ	-9.68982
▁2010	-9.69044
▁sent	-9.69061
▁hit	-9.69084
▁29	-9.69231
▁2011	-9.69297
▁tránh	-9.69332
il	-9.69627
▁kim	-9.69712
ian	-9.6976
▁kính	-9.70021
w	-9.7008
▁Soviet	-9.70107
▁reason	-9.70187
▁g	-9.70345
▁past	-9.70449
▁thiệu	-9.7045
▁final	-9.70563
▁wouldn	-9.70581
▁Mexico	-9.70612
▁Who	-9.70636
▁nhờ	-9.70678
▁tải	-9.70704
▁trại	-9.70746
▁thưa	-9.70789
▁result	-9.70886
▁chiếu	-9.70931
▁inside	-9.70983
▁version	-9.71077
▁research	-9.71156
up	-9.71163
▁Did	-9.71198
▁says	-9.71224
▁v	-9.71252
ca	-9.71356
▁chủng	-9.71387
▁trắng	-9.71412
▁question	-9.71475
▁Hàn	-9.71584
▁various	-9.71725
▁đỏ	-9.71783
▁myself	-9.71804
son	-9.71846
▁tầng	-9.71846
▁sometimes	-9.71945
6	-9.7197
▁góp	-9.72011
▁published	-9.72146
▁thinking	-9.72194
▁sáu	-9.72212
me	-9.72303
em	-9.72322
▁forces	-9.72512
▁mai	-9.72619
▁mời	-9.7273
▁chữa	-9.72768
▁married	-9.72873
▁dầu	-9.73032
▁established	-9.73084
▁Chi	-9.73148
▁2008	-9.73333
▁meet	-9.7335
displaystyle	-9.73351
▁bring	-9.73401
▁type	-9.73425
▁true	-9.73428
land	-9.73434
▁web	-9.73437
▁phê	-9.73454
▁special	-9.73479
▁position	-9.73523
▁uh	-9.73544
▁thảo	-9.73635
sa	-9.73693
▁former	-9.73725
▁morning	-9.73932
▁pretty	-9.73932
▁Nhiều	-9.74005
▁thừa	-9.74034
se	-9.74323
▁triều	-9.74326
▁Mặt	-9.74348
▁phù	-9.74356
▁khám	-9.74424
▁model	-9.7445
▁lives	-9.74733
▁further	-9.74899
▁returned	-9.74957
▁week	-9.74976
▁thơ	-9.74985
▁works	-9.75029
▁trăm	-9.75135
▁general	-9.75186
▁thù	-9.75203
▁office	-9.75344
▁chăm	-9.75401
▁rượu	-9.75448
▁island	-9.75569
▁himself	-9.75583
▁cơn	-9.75762
▁boy	-9.75848
▁Tên	-9.75934
go	-9.75964
▁Rập	-9.75997
▁trốn	-9.76045
▁quên	-9.7608
▁tai	-9.76099
▁bày	-9.76143
nh	-9.76265
▁chó	-9.76291
▁nhật	-9.76367
▁capital	-9.7648
▁đỡ	-9.76487
▁brought	-9.76547
▁however	-9.76553
▁rather	-9.76578
▁return	-9.76754
▁David	-9.76824
▁comes	-9.76872
▁dây	-9.76878
▁Đến	-9.76908
▁thụ	-9.76939
▁modern	-9.76948
▁Ko	-9.76966
▁đào	-9.77018
▁hope	-9.77231
▁tuyển	-9.77313
ba	-9.77324
ya	-9.77374
▁Paul	-9.7747
▁brain	-9.77531
▁TV	-9.77692
▁dậy	-9.77707
▁deal	-9.77756
at	-9.77769
▁served	-9.77785
▁hấp	-9.77811
▁Australia	-9.77835
▁Dù	-9.77912
▁River	-9.77932
▁kháng	-9.77945
▁Nói	-9.77954
li	-9.78034
▁lược	-9.7804
▁xanh	-9.78042
▁màn	-9.78107
▁rơi	-9.78299
▁lắng	-9.78314
▁Di	-9.78437
▁ô	-9.78519
▁mạch	-9.7854
▁hút	-9.78819
▁alone	-9.78899
▁anyone	-9.79012
▁chảy	-9.79042
▁design	-9.79066
▁vốn	-9.79125
ki	-9.79334
▁miễn	-9.7934
mo	-9.79342
▁force	-9.79345
▁Ha	-9.79365
▁behind	-9.79467
▁trưng	-9.79494
▁huấn	-9.79541
▁term	-9.79557
▁nóng	-9.79666
▁tách	-9.79855
▁Quân	-9.79949
▁lao	-9.7997
ni	-9.80051
▁trục	-9.80068
▁khiển	-9.80148
▁nhắc	-9.80192
▁Mày	-9.80256
▁front	-9.80257
▁siêu	-9.80276
▁Phần	-9.80324
it	-9.80347
▁met	-9.80373
▁Be	-9.80407
▁Cuộc	-9.80465
▁Charles	-9.80485
▁đảng	-9.80487
▁produced	-9.80508
▁i	-9.8056
▁Nghe	-9.80775
▁tận	-9.80783
▁ngân	-9.80907
▁Air	-9.81064
as	-9.81124
▁trữ	-9.81142
▁read	-9.81148
▁Union	-9.81149
ie	-9.81175
▁ly	-9.81215
▁announced	-9.81276
year	-9.81297
▁aircraft	-9.81297
▁°	-9.81323
▁III	-9.81341
▁Army	-9.81367
▁William	-9.81385
▁Bố	-9.81489
▁chỉnh	-9.81547
▁Is	-9.8155
▁ship	-9.81592
▁House	-9.81674
▁Lạp	-9.81961
▁School	-9.82045
▁Ho	-9.82106
▁lead	-9.82132
▁longer	-9.82213
▁tắc	-9.82244
▁sóc	-9.82261
▁career	-9.82335
J	-9.82354
▁die	-9.82363
j	-9.82379
▁mơ	-9.82387
ness	-9.82401
▁đo	-9.82425
▁hề	-9.82436
▁happen	-9.82474
one	-9.82541
▁hạnh	-9.82563
▁People	-9.82687
▁quen	-9.82858
be	-9.82912
▁king	-9.8298
▁Russian	-9.82996
▁Tao	-9.8303
▁pay	-9.83052
▁Dr	-9.83121
▁phán	-9.83191
▁Since	-9.83314
▁Ra	-9.83368
▁Where	-9.83416
▁31	-9.83487
▁Miss	-9.83529
▁moment	-9.8356
▁mộ	-9.83593
▁police	-9.83603
▁Bọn	-9.83607
▁Tháng	-9.83672
}	-9.8369
▁Israel	-9.83885
▁môn	-9.83921
▁dừng	-9.83939
▁written	-9.84021
-1	-9.84049
▁điên	-9.84139
di	-9.84143
▁cells	-9.84412
ion	-9.84455
▁Germany	-9.84523
▁phúc	-9.84728
▁ngược	-9.84894
▁nhảy	-9.85129
▁vẽ	-9.85237
▁cân	-9.85304
ty	-9.85434
▁release	-9.85482
▁General	-9.85522
ga	-9.85578
▁Đảng	-9.85832
▁2007	-9.85917
▁2006	-9.86026
▁Chủ	-9.86109
▁xâm	-9.8614
▁+	-9.86169
▁project	-9.86252
▁đuổi	-9.86386
▁2014	-9.86401
sinh	-9.86423
▁protein	-9.86601
▁200	-9.86604
▁Chắc	-9.86639
▁official	-9.86653
▁2015	-9.86685
▁army	-9.86737
▁2013	-9.87014
▁Co	-9.87031
▁joined	-9.871
/	-9.87234
▁included	-9.8732
▁available	-9.87365
▁phone	-9.87409
▁popular	-9.87585
▁60	-9.87599
men	-9.87641
▁health	-9.87654
▁exactly	-9.8771
▁Syria	-9.87743
▁technology	-9.88044
▁Korea	-9.88074
▁nỗ	-9.88076
▁chance	-9.8808
▁Nhân	-9.88093
▁hứng	-9.88152
▁sea	-9.88159
▁dàng	-9.88162
▁parents	-9.88179
▁đương	-9.88304
▁Vietnam	-9.88363
▁lạnh	-9.88395
▁Red	-9.88431
lo	-9.88447
ate	-9.88471
▁tước	-9.88507
▁chúa	-9.88612
▁Roman	-9.88627
ke	-9.88649
▁art	-9.88658
▁According	-9.88695
▁gã	-9.88713
▁quảng	-9.88799
▁record	-9.88872
▁2012	-9.88906
▁2009	-9.88977
▁systems	-9.88989
▁sẻ	-9.89014
▁Úc	-9.8903
▁games	-9.89041
▁tờ	-9.89128
▁tri	-9.8915
▁field	-9.89169
▁Minister	-9.89217
▁chàng	-9.89339
▁hands	-9.89348
▁2011,	-9.89359
")	-9.89359
▁Michael	-9.89376
▁eyes	-9.89379
▁Republic	-9.89433
▁plan	-9.89442
▁sir	-9.8946
▁couldn	-9.89463
▁săn	-9.89474
com	-9.89498
▁lái	-9.89522
▁đáp	-9.89524
▁thỏa	-9.89539
▁2010,	-9.89558
id	-9.89616
▁Washington	-9.89714
▁pháo	-9.89862
▁Internet	-9.89865
▁sót	-9.89967
um	-9.89982
X	-9.90031
▁xong	-9.90109
▁cannot	-9.90122
Y	-9.90146
▁mắc	-9.90207
▁although	-9.90252
▁Cũng	-9.90294
▁hold	-9.90307
▁đỉnh	-9.90435
▁thuyền	-9.90585
▁everyone	-9.90619
▁ẩn	-9.90706
▁range	-9.90721
▁Vâng	-9.90727
lt	-9.90899
▁Two	-9.90919
▁Most	-9.9093
▁thịt	-9.90972
▁Mary	-9.90989
▁wants	-9.91018
▁strong	-9.91033
▁bom	-9.91057
▁stuff	-9.91079
▁chối	-9.91087
▁program	-9.91157
▁parts	-9.91201
▁Đúng	-9.9124
▁instead	-9.91262
▁Although	-9.91312
▁truyện	-9.91416
▁hãng	-9.91417
▁("	-9.91463
▁mềm	-9.91502
▁create	-9.91503
▁shot	-9.91699
ce	-9.91754
▁Ka	-9.9178
▁Frank	-9.91926
▁Bảo	-9.91932
▁sa	-9.92023
▁tu	-9.92096
▁Cả	-9.92169
▁natural	-9.92183
am	-9.92226
▁market	-9.92233
▁wanna	-9.92236
▁Sa	-9.92284
▁Z	-9.92299
▁wrote	-9.92355
▁changed	-9.92417
▁described	-9.92463
▁cầm	-9.92482
▁While	-9.92486
▁village	-9.92512
▁husband	-9.92583
▁Robert	-9.92595
▁Hiệp	-9.92596
ment	-9.92636
▁decided	-9.9274
ge	-9.92761
▁cell	-9.92761
▁Lee	-9.92804
▁title	-9.92856
▁sense	-9.92894
▁hiệp	-9.92938
▁groups	-9.92997
▁Tư	-9.93047
▁tấm	-9.9308
▁mừng	-9.93116
▁Rồi	-9.9317
▁Cháu	-9.93196
▁baby	-9.93213
▁State	-9.9332
▁ready	-9.93454
▁mẽ	-9.93471
▁Này	-9.93583
▁quite	-9.93693
▁2012,	-9.93756
▁f	-9.93864
▁white	-9.93889
▁continued	-9.94059
▁list	-9.94064
▁red	-9.94092
▁Su	-9.94121
za	-9.94125
▁words	-9.94184
▁Mi	-9.94207
▁cause	-9.94264
▁Bình	-9.94413
▁gone	-9.94472
▁Thụy	-9.94603
▁Khu	-9.94629
▁weeks	-9.94779
▁quang	-9.94781
▁upon	-9.9497
▁itself	-9.94977
▁win	-9.94985
▁certain	-9.95
▁Hồi	-9.95163
▁2006,	-9.95171
▁sister	-9.9523
ha	-9.95239
un	-9.95308
▁especially	-9.95321
▁truy	-9.95373
▁Here	-9.95381
▁pre	-9.95397
▁test	-9.95411
▁ft	-9.9545
▁wait	-9.9552
▁Sea	-9.95583
▁nắm	-9.95583
▁2013,	-9.95607
▁Đất	-9.95641
▁president	-9.95656
▁ấn	-9.9566
▁bão	-9.95717
▁2015,	-9.9582
▁Like	-9.95832
▁Island	-9.95841
▁cases	-9.95861
▁Thiên	-9.9587
▁problems	-9.96062
▁Of	-9.96066
▁tường	-9.96328
▁2001	-9.96369
▁thao	-9.96374
▁economic	-9.96473
▁kids	-9.9656
▁Ngài	-9.96598
▁chim	-9.96636
▁nice	-9.96671
▁haven	-9.96758
▁2000	-9.96883
▁đem	-9.96986
▁cường	-9.96988
▁states	-9.97037
▁seven	-9.97081
▁television	-9.97152
▁Los	-9.97164
▁entire	-9.97221
Tôi	-9.97246
▁bề	-9.97278
▁hè	-9.97333
▁save	-9.97397
▁già	-9.97425
▁Bài	-9.97452
▁hứa	-9.97521
▁player	-9.97572
▁xạ	-9.9759
▁khảo	-9.97633
▁tried	-9.97698
▁Brazil	-9.97725
▁cut	-9.97728
▁ten	-9.97767
▁computer	-9.97833
ji	-9.97838
▁clear	-9.97908
▁Ben	-9.9803
ja	-9.98061
▁tán	-9.98073
▁khúc	-9.98114
▁Ca	-9.98187
▁learn	-9.98327
▁community	-9.9843
▁bữa	-9.98654
ter	-9.9875
▁mái	-9.98757
▁guess	-9.98816
▁2016	-9.98949
▁radio	-9.98959
▁happy	-9.99009
▁eight	-9.99028
▁nâng	-9.99103
▁Cập	-9.99183
▁diệt	-9.99255
▁2014,	-9.99258
▁tá	-9.99309
▁education	-9.99371
▁lẫn	-9.99423
▁nguyện	-9.99423
▁Henry	-9.99429
▁tàng	-9.99486
▁cai	-9.99544
”.	-9.99557
▁quỹ	-9.99573
▁couple	-9.99584
▁size	-9.99621
▁playing	-9.99629
▁beginning	-9.99649
▁Central	-9.99657
▁Lúc	-9.99669
▁trào	-9.99684
▁needs	-9.99707
▁Tell	-9.99735
▁Tom	-9.99742
os	-9.99744
▁r	-9.99774
▁Cơ	-9.99839
▁goes	-9.99886
▁anti	-9.99988
▁above	-10.0001
▁2007,	-10.0006
▁hài	-10.0013
▁tan	-10.0016
▁Kingdom	-10.0026
▁speak	-10.0027
▁♫	-10.0028
▁effect	-10.0028
▁northern	-10.0037
▁Ví	-10.0038
▁thuê	-10.0051
▁Le	-10.0051
▁cưới	-10.0065
▁mãi	-10.0067
▁Nên	-10.0075
▁training	-10.0076
ley	-10.0085
con	-10.0088
▁east	-10.0095
▁Sam	-10.01
▁reported	-10.0101
va	-10.0108
wa	-10.011
▁Pro	-10.0112
per	-10.0112
▁2008,	-10.0115
▁chặn	-10.0116
▁họp	-10.0119
▁tàn	-10.0119
▁Korean	-10.0134
▁sort	-10.0137
▁bạo	-10.014
▁—	-10.0142
▁tỏ	-10.0144
▁formed	-10.0151
▁rate	-10.0155
▁chụp	-10.0157
▁self	-10.0158
ling	-10.0175
▁ngừng	-10.0186
less	-10.019
▁fine	-10.0198
▁xu	-10.0199
▁Retrieved	-10.02
▁Dân	-10.0208
▁DNA	-10.0211
▁virus	-10.0211
▁battle	-10.0217
▁hàm	-10.0221
▁mười	-10.0225
▁acid	-10.0232
▁dị	-10.0239
▁dọa	-10.0242
▁eat	-10.0245
▁2009,	-10.0248
old	-10.025
▁(18	-10.0261
▁African	-10.0263
▁break	-10.0273
▁ung	-10.0277
▁sung	-10.0284
▁ground	-10.0292
▁central	-10.0295
▁Truy	-10.0301
ting	-10.0302
mi	-10.0308
▁quận	-10.031
▁sắt	-10.0314
age	-10.0315
▁action	-10.0318
▁Great	-10.0327
▁h	-10.033
▁science	-10.034
▁yên	-10.0343
▁Please	-10.035
▁nhẹ	-10.0354
▁sold	-10.0355
▁higher	-10.0358
▁ưu	-10.0359
▁football	-10.036
▁build	-10.0362
▁involved	-10.0363
▁current	-10.0366
▁southern	-10.0369
▁chạm	-10.0369
▁buồn	-10.037
▁Đế	-10.0373
▁Party	-10.0375
▁sound	-10.038
▁thước	-10.0383
ur	-10.039
▁kê	-10.0415
▁khối	-10.0419
▁addition	-10.0429
▁phiếu	-10.0434
▁1990	-10.0435
▁England	-10.0438
nd	-10.044
▁hùng	-10.0442
▁surface	-10.0443
▁xứ	-10.0443
▁Ar	-10.0446
▁Division	-10.0449
▁answer	-10.0454
▁Peter	-10.0456
▁tổn	-10.0461
▁phỏng	-10.0479
▁giỏi	-10.0482
▁đe	-10.0485
▁throughout	-10.0489
▁changes	-10.049
▁ạ	-10.0501
”	-10.0508
▁discovered	-10.0512
▁followed	-10.0522
▁feet	-10.0523
▁xương	-10.0537
▁west	-10.0539
▁chuỗi	-10.0541
▁Thực	-10.0552
▁site	-10.0557
▁value	-10.0559
▁experience	-10.0566
▁Tokyo	-10.0571
▁dọc	-10.0591
▁stand	-10.0596
▁supposed	-10.0597
▁news	-10.0601
▁bạc	-10.0608
▁cost	-10.061
▁Get	-10.0615
▁Li	-10.0615
▁tắt	-10.0621
chi	-10.0627
▁Câu	-10.0629
▁Tiên	-10.0634
▁figure	-10.0647
▁disease	-10.0648
▁nỗi	-10.0655
ary	-10.0657
▁finally	-10.0669
▁Trường	-10.0669
time	-10.0679
▁Philippines	-10.0683
▁vết	-10.0692
▁Tu	-10.0696
▁quyển	-10.0696
▁thận	-10.0704
▁2005	-10.071
▁Chuyện	-10.0726
▁Triều	-10.0727
▁vỡ	-10.0741
▁whether	-10.0747
ek	-10.0749
▁tonight	-10.0752
ner	-10.0755
▁Ngay	-10.0757
▁treatment	-10.0759
▁running	-10.0762
▁Western	-10.0768
▁sub	-10.0769
▁oil	-10.0772
▁Poland	-10.078
▁beautiful	-10.0781
▁theory	-10.0789
▁Sir	-10.0789
▁dặm	-10.0796
▁spent	-10.0798
▁Mỗi	-10.0801
▁hạm	-10.0802
▁Richard	-10.0802
▁Empire	-10.0803
▁Our	-10.082
lin	-10.0823
▁Saint	-10.0834
▁đạn	-10.0835
▁numbers	-10.0835
▁Music	-10.0843
▁gun	-10.0849
▁evidence	-10.085
▁billion	-10.0858
▁animals	-10.0861
by	-10.0866
▁Da	-10.0872
▁liệt	-10.0879
▁cờ	-10.0879
▁takes	-10.0882
▁Many	-10.0882
▁Ni	-10.0885
▁needed	-10.09
▁relationship	-10.0908
▁month	-10.0914
line	-10.0916
▁patients	-10.0921
ron	-10.0929
▁hẹn	-10.0959
▁Asia	-10.096
▁hoá	-10.096
▁Ireland	-10.0968
▁Bay	-10.0972
ul	-10.0975
▁mét	-10.0982
▁Sun	-10.0985
▁star	-10.0985
▁ống	-10.0986
▁truth	-10.0987
▁Kinh	-10.0987
▁giàu	-10.0991
▁trade	-10.0994
▁protect	-10.1
▁Cuối	-10.1016
▁hoang	-10.1024
▁cặp	-10.1026
▁2016,	-10.103
ized	-10.1044
▁À	-10.1055
▁river	-10.106
▁giây	-10.1073
▁Se	-10.1073
▁gotta	-10.1076
▁cities	-10.1081
▁themselves	-10.1096
▁related	-10.1102
▁kênh	-10.1105
▁Spanish	-10.1113
▁media	-10.1131
▁safe	-10.1139
▁Thủ	-10.1142
▁ngầm	-10.1147
▁Đã	-10.115
▁Singapore	-10.1152
10	-10.1157
▁dối	-10.116
▁mid	-10.1164
▁tỉ	-10.1166
▁simple	-10.1176
▁phái	-10.1179
▁significant	-10.1194
ti	-10.1197
▁bật	-10.1202
-2	-10.1215
▁Uh	-10.1217
▁tống	-10.1217
▁Hà	-10.1219
▁lí	-10.1228
▁Đội	-10.1242
den	-10.1248
ina	-10.1251
io	-10.1252
▁thai	-10.1254
▁signed	-10.1254
▁reached	-10.1254
▁culture	-10.1254
▁key	-10.1255
▁personal	-10.1259
▁lower	-10.126
▁lầm	-10.1265
▁góc	-10.1266
▁1980	-10.1266
▁thuế	-10.1286
▁lan	-10.1292
▁huyện	-10.1298
ir	-10.1302
▁walk	-10.1311
▁founded	-10.1314
▁gió	-10.1319
▁terms	-10.1319
▁looks	-10.1322
rd	-10.1325
ho	-10.1338
8	-10.1338
▁Group	-10.1343
▁allowed	-10.1353
▁cấm	-10.1355
▁Royal	-10.1358
▁vĩ	-10.1363
▁gen	-10.1369
▁Have	-10.1382
▁sạch	-10.1383
▁sex	-10.1386
▁quán	-10.1386
▁gắn	-10.1393
▁designed	-10.1408
▁pressure	-10.1414
▁trích	-10.1415
▁thẩm	-10.1415
▁District	-10.1415
▁share	-10.1424
▁tạm	-10.1425
rs	-10.1426
▁Edward	-10.143
▁thiệt	-10.1433
▁band	-10.1437
▁chậm	-10.1437
▁Cách	-10.1447
▁easy	-10.145
▁Louis	-10.1469
▁turned	-10.1473
▁tĩnh	-10.1474
▁Long	-10.148
▁mưa	-10.1481
▁niềm	-10.149
▁2015.	-10.1498
▁students	-10.15
▁completely	-10.1508
▁ngàn	-10.1512
▁Russia	-10.152
▁character	-10.1524
▁Latin	-10.1534
▁caused	-10.1539
▁Hi	-10.154
der	-10.1548
▁cà	-10.1549
ol	-10.155
▁planet	-10.1555
▁risk	-10.1558
▁recorded	-10.1563
▁thách	-10.1571
▁particular	-10.1583
▁chóng	-10.1584
▁thác	-10.159
▁Google	-10.159
▁trust	-10.1597
▁increase	-10.1598
ally	-10.1607
▁thăng	-10.1609
▁2017	-10.1613
▁Hay	-10.1614
▁Queen	-10.1622
ive	-10.1633
▁interest	-10.164
▁increased	-10.1654
▁2014.	-10.1662
▁bãi	-10.1666
▁difficult	-10.1666
▁giáp	-10.1666
▁fall	-10.1672
một	-10.1674
▁lived	-10.1676
▁remained	-10.168
▁seems	-10.1694
▁mm	-10.1699
▁vong	-10.1701
▁happens	-10.1702
▁trống	-10.1704
▁results	-10.1706
▁thánh	-10.1712
▁act	-10.1714
▁thải	-10.1722
▁phó	-10.1725
▁đức	-10.1737
▁events	-10.1741
▁Thượng	-10.1749
▁dưỡng	-10.175
▁tặng	-10.1755
]	-10.1756
Cười	-10.176
▁Italian	-10.1775
▁Minh	-10.1775
▁2004	-10.1777
▁Rome	-10.178
▁500	-10.1785
▁Argentina	-10.1794
30	-10.1795
▁Battle	-10.1796
▁ác	-10.1797
▁kid	-10.1799
▁highest	-10.1804
ad	-10.1806
▁Chú	-10.1811
▁security	-10.1813
▁khóa	-10.1813
▁structure	-10.1817
▁sleep	-10.1824
▁Ủ	-10.1826
▁tuy	-10.1827
▁FC	-10.1833
▁activity	-10.1835
▁một	-10.1839
é	-10.1839
▁tomorrow	-10.1845
▁k	-10.1854
▁Mark	-10.1855
▁Star	-10.1859
gi	-10.1863
▁Thứ	-10.1869
▁ngạc	-10.1871
▁generally	-10.1871
▁tiêm	-10.1873
▁nhu	-10.1874
7	-10.1875
▁Lord	-10.1889
▁average	-10.1892
▁hộp	-10.1893
▁Even	-10.1897
▁success	-10.1902
gt	-10.1904
▁cứng	-10.1904
▁post	-10.1908
▁gets	-10.1909
▁Lu	-10.1915
▁growth	-10.1919
▁hiến	-10.193
po	-10.1931
▁cháy	-10.1934
▁lối	-10.1938
▁mine	-10.1939
▁ch	-10.1942
▁meeting	-10.1943
▁bậc	-10.1944
▁girls	-10.1951
▁center	-10.1951
▁companies	-10.1955
▁bảy	-10.1959
▁eventually	-10.196
ent	-10.1961
▁services	-10.1961
▁cãi	-10.1974
▁medical	-10.198
▁nature	-10.1985
▁Đồng	-10.1986
▁Zealand	-10.1987
▁stage	-10.1989
ak	-10.2009
▁buy	-10.2011
▁appeared	-10.2022
▁wish	-10.2025
▁tóc	-10.2027
▁date	-10.2027
▁performed	-10.2032
▁moving	-10.2034
▁bò	-10.2044
▁Italy	-10.2056
▁2016.	-10.2056
▁eye	-10.206
▁Polish	-10.206
cha	-10.2073
▁giọng	-10.2076
▁Viện	-10.2079
▁Will	-10.208
▁ức	-10.2085
▁cover	-10.2086
▁Lo	-10.2091
▁amount	-10.2093
▁effects	-10.2101
▁coast	-10.2103
▁Bo	-10.2109
20	-10.2109
▁complex	-10.211
▁Take	-10.2116
▁source	-10.2117
▁ném	-10.2119
▁Microsoft	-10.2121
▁court	-10.213
▁80	-10.2137
▁normal	-10.2148
▁knows	-10.2149
▁đòi	-10.2153
▁Good	-10.2158
▁See	-10.2163
est	-10.2167
–19	-10.2173
▁foreign	-10.2173
▁fast	-10.2174
▁cancer	-10.2174
▁miệng	-10.2174
▁Am	-10.2178
▁access	-10.2185
▁gấp	-10.2186
▁Super	-10.2186
▁phẫu	-10.219
▁Martin	-10.2193
▁industry	-10.2197
▁marriage	-10.2201
▁chuột	-10.2205
▁private	-10.2209
▁ga	-10.2216
ous	-10.2217
▁cướp	-10.2226
▁Sẽ	-10.2229
ah	-10.2242
▁lưới	-10.2247
▁follow	-10.2251
▁High	-10.2253
▁lượt	-10.2254
▁lũ	-10.2261
▁tiệc	-10.2261
▁write	-10.2262
▁Chị	-10.2267
▁khuẩn	-10.2271
ated	-10.2272
▁gas	-10.2275
▁rãi	-10.2283
▁miles	-10.2284
▁rights	-10.2285
▁ơi	-10.2286
▁provide	-10.229
▁currently	-10.2294
▁1970	-10.2305
▁2013.	-10.2308
▁chấm	-10.2314
▁khổ	-10.2316
▁mũi	-10.2319
ru	-10.2323
▁2005,	-10.2326
▁trouble	-10.2326
▁Về	-10.2327
▁Mình	-10.2335
▁rule	-10.2343
▁anymore	-10.2346
▁alive	-10.2346
▁lương	-10.2359
▁door	-10.236
▁chặt	-10.2364
▁function	-10.2367
▁u	-10.2377
▁station	-10.238
▁Thomas	-10.2384
▁event	-10.2391
▁Rất	-10.2397
▁situation	-10.2405
▁Hiện	-10.2412
so	-10.2412
▁product	-10.2424
▁summer	-10.2431
▁pro	-10.2438
▁thang	-10.2445
et	-10.2446
▁Đi	-10.2449
▁nhánh	-10.2453
▁border	-10.2455
▁Du	-10.2464
▁gold	-10.2467
▁Ngươi	-10.2478
▁base	-10.2483
▁Trên	-10.2484
▁hư	-10.2485
▁Scotland	-10.2487
▁hospital	-10.2488
▁code	-10.2489
sh	-10.2492
ler	-10.2493
▁Grand	-10.2495
ten	-10.2501
▁features	-10.2505
▁leaving	-10.2506
▁choice	-10.2513
▁ways	-10.2531
▁telling	-10.2531
▁2012.	-10.2533
▁troops	-10.2536
▁2011.	-10.2539
▁listen	-10.254
▁Texas	-10.254
▁road	-10.2545
▁Hầu	-10.2546
▁towards	-10.2561
▁hi	-10.2562
▁Angeles	-10.2563
▁nàng	-10.2588
▁Car	-10.2591
ted	-10.2596
▁hiếm	-10.2599
▁vườn	-10.2604
9	-10.2607
▁active	-10.2608
▁Lần	-10.2609
▁whatever	-10.2614
▁secret	-10.262
▁Force	-10.2624
▁che	-10.2624
▁pain	-10.2625
▁female	-10.2625
▁Prince	-10.2633
▁campaign	-10.2634
▁bi	-10.2634
▁felt	-10.2638
▁studies	-10.2641
▁successful	-10.2645
▁picture	-10.2651
▁Indonesia	-10.2652
yl	-10.2663
▁introduced	-10.2667
▁performance	-10.2673
▁chào	-10.2674
▁director	-10.2676
▁Iran	-10.2678
▁khái	-10.2681
▁attention	-10.2683
▁Jo	-10.2687
▁shows	-10.2688
▁conditions	-10.27
▁viễn	-10.2705
▁peace	-10.2707
▁Thời	-10.2712
Tiếng	-10.2716
▁levels	-10.273
▁fish	-10.2733
▁likely	-10.2736
▁BC	-10.2741
ization	-10.2744
▁tùy	-10.275
bo	-10.2753
ster	-10.2753
▁movement	-10.2755
▁vinh	-10.2756
▁En	-10.2764
▁tháp	-10.2765
day	-10.2774
▁Francisco	-10.2775
▁2017.	-10.2783
▁cựu	-10.2783
we	-10.2787
Z	-10.2791
▁opened	-10.2791
▁Council	-10.2802
▁mạc	-10.2809
▁Pa	-10.2812
▁material	-10.2815
▁phạt	-10.283
▁Mar	-10.2833
▁Love	-10.2841
▁professional	-10.2844
▁poor	-10.2847
▁thả	-10.2866
▁round	-10.2868
▁drug	-10.2869
▁leading	-10.2871
ish	-10.2871
▁products	-10.2872
▁hurt	-10.2875
▁powerful	-10.2876
▁thầy	-10.2878
▁individual	-10.2882
▁huyết	-10.2886
▁sign	-10.2891
ze	-10.2891
▁machine	-10.2892
▁traditional	-10.2904
▁whose	-10.2905
▁Other	-10.2905
jo	-10.2907
á	-10.2908
▁hot	-10.291
▁2017,	-10.2912
▁Kể	-10.2916
▁bar	-10.2918
▁global	-10.2919
▁OK	-10.2921
▁đua	-10.2921
▁Văn	-10.2936
▁thua	-10.2956
▁middle	-10.2957
▁Nữ	-10.2962
▁nghề	-10.2967
▁report	-10.2968
▁reach	-10.2969
▁Hồng	-10.2974
▁Danh	-10.2978
▁send	-10.298
ran	-10.2981
▁specific	-10.2983
▁dường	-10.2984
▁giving	-10.2985
▁White	-10.2994
▁lose	-10.2996
▁trồng	-10.2997
▁hòn	-10.3003
▁2,	-10.3003
▁1991	-10.3004
▁nghèo	-10.3007
▁Thank	-10.3013
▁Ừ	-10.3021
▁allow	-10.3023
▁Đối	-10.3024
!"	-10.3027
▁believed	-10.3029
▁hương	-10.3031
▁district	-10.3041
▁books	-10.3047
▁Đài	-10.3051
▁70	-10.3054
▁Thổ	-10.3063
▁larger	-10.3063
▁arrived	-10.3071
▁ninh	-10.3072
▁Only	-10.3072
▁physical	-10.3073
▁approximately	-10.3073
▁Đầu	-10.3074
▁^	-10.3091
▁kêu	-10.3098
ber	-10.3099
▁ngọn	-10.3102
bi	-10.3114
▁Indian	-10.3115
▁đốt	-10.3119
▁particularly	-10.3124
▁Kết	-10.3126
ant	-10.3129
▁Hong	-10.3133
▁300	-10.3134
gu	-10.3137
▁writing	-10.3148
▁th	-10.315
gen	-10.3158
▁debut	-10.316
00	-10.3162
▁showed	-10.3177
▁ships	-10.3178
▁trú	-10.3186
▁Cứ	-10.3191
▁Navy	-10.3196
▁according	-10.3199
▁languages	-10.3207
▁USD	-10.3207
▁decision	-10.321
▁bè	-10.3215
▁mỏ	-10.3216
▁en	-10.3228
▁construction	-10.323
▁2018	-10.3241
+	-10.3243
▁kho	-10.3243
out	-10.3243
▁ancient	-10.3244
▁ghét	-10.3246
▁Cổ	-10.3249
▁1960	-10.3249
▁complete	-10.3253
▁Ki	-10.3255
▁society	-10.3256
▁meaning	-10.3256
▁Islands	-10.326
▁names	-10.3261
▁hair	-10.3262
tic	-10.3263
▁đới	-10.3269
▁standard	-10.327
▁Right	-10.327
▁questions	-10.3276
▁operations	-10.3277
▁ổng	-10.329
▁famous	-10.3293
▁ability	-10.3293
▁earlier	-10.3295
▁Cảm	-10.3297
▁khuôn	-10.3299
▁cảng	-10.33
▁Hệ	-10.3308
sen	-10.3314
▁produce	-10.3316
▁view	-10.332
he	-10.3322
▁piece	-10.3328
▁Greek	-10.3333
▁Cuba	-10.3346
▁hour	-10.3357
▁waiting	-10.336
▁sánh	-10.3367
▁hồn	-10.3369
▁giận	-10.3383
▁Số	-10.3383
▁carbon	-10.3385
▁Kong	-10.339
▁somebody	-10.3394
▁[	-10.3403
▁kỉ	-10.3409
▁ngang	-10.341
▁looked	-10.3414
▁dõi	-10.3414
▁Yu	-10.3421
▁90	-10.3433
▁hà	-10.3434
▁Đào	-10.3439
▁Nội	-10.3444
▁cản	-10.3447
▁hang	-10.3473
▁Giống	-10.3479
▁Tòa	-10.3487
▁tảng	-10.3487
▁added	-10.3491
▁novel	-10.3491
▁giảng	-10.3499
bu	-10.3506
▁Bồ	-10.3506
▁Maria	-10.3508
▁hoảng	-10.3508
▁fighting	-10.351
ku	-10.3514
▁afraid	-10.3519
▁Chile	-10.3519
▁khứ	-10.3519
▁lâm	-10.3524
▁includes	-10.3525
▁quái	-10.3528
▁mission	-10.3552
▁kém	-10.3554
▁người	-10.3554
▁Chẳng	-10.3554
▁liền	-10.3557
▁contact	-10.356
▁seem	-10.3565
▁thượng	-10.3567
▁Street	-10.357
cho	-10.3571
off	-10.3571
▁phe	-10.3572
▁Serie	-10.3573
▁County	-10.3579
▁ngu	-10.3585
ite	-10.3586
▁khích	-10.3589
ful	-10.3594
▁Nhìn	-10.3596
▁worry	-10.36
▁Berlin	-10.3603
▁đẳng	-10.3603
▁Pacific	-10.3604
▁hẳn	-10.361
▁(1	-10.3618
▁leader	-10.362
▁step	-10.3621
▁sổ	-10.3624
▁influence	-10.3626
▁stories	-10.3632
▁35	-10.3637
▁chu	-10.3638
▁ex	-10.3647
▁mệnh	-10.3649
▁plant	-10.3654
ci	-10.3658
▁thank	-10.3666
▁difference	-10.3675
▁dãy	-10.3677
▁Florida	-10.3684
▁va	-10.3692
▁thiểu	-10.3693
▁paper	-10.3699
▁forms	-10.3699
▁legal	-10.3704
▁2008.	-10.3705
based	-10.3706
▁website	-10.3707
▁Sinh	-10.3725
▁ghế	-10.3725
zi	-10.3727
▁2010.	-10.3737
▁tám	-10.3737
▁tụ	-10.3742
▁2009.	-10.3745
▁environment	-10.3745
▁nearly	-10.3748
vi	-10.3748
▁network	-10.3749
▁xứng	-10.3754
▁types	-10.3761
▁UK	-10.3768
▁directly	-10.3776
▁Thông	-10.3785
▁tồi	-10.3786
▁deep	-10.3791
▁$	-10.3798
▁aren	-10.38
▁mảnh	-10.3803
ov	-10.3809
▁tha	-10.3811
▁western	-10.3811
▁degree	-10.3813
▁Pan	-10.3813
▁ngốc	-10.3819
▁shall	-10.382
▁studied	-10.3834
▁Day	-10.384
▁heavy	-10.3843
▁cold	-10.3846
▁Hôm	-10.3848
▁ice	-10.3853
▁doctor	-10.3857
▁Cùng	-10.3858
▁competition	-10.3861
of	-10.3866
▁simply	-10.3866
▁ngại	-10.388
▁units	-10.3889
▁previous	-10.3899
ph	-10.3907
▁fun	-10.391
▁Đ	-10.3913
ies	-10.392
▁skin	-10.3926
▁completed	-10.3926
▁replaced	-10.3932
▁everybody	-10.3934
pa	-10.3937
▁Entertainment	-10.3942
▁smaller	-10.3946
▁rắc	-10.3948
▁kept	-10.3948
▁unit	-10.3956
▁response	-10.3957
▁axit	-10.3959
▁Emperor	-10.396
▁1950	-10.396
▁ended	-10.3963
▁hảo	-10.3967
▁dark	-10.3969
▁mê	-10.3988
▁ha	-10.3991
ase	-10.4005
▁College	-10.4012
mer	-10.4014
▁join	-10.402
▁lỗ	-10.4021
▁hào	-10.4026
▁Điển	-10.4029
▁feeling	-10.4034
▁IV	-10.4042
▁Wales	-10.4044
▁Malaysia	-10.4046
▁becoming	-10.4053
▁policy	-10.4055
▁miêu	-10.4055
▁2003	-10.4057
▁places	-10.4057
▁điệu	-10.4063
▁fear	-10.4064
▁originally	-10.4066
▁continue	-10.4076
▁Another	-10.4079
▁2004,	-10.4082
▁placed	-10.4083
▁Spain	-10.4084
▁khô	-10.409
▁Award	-10.4092
ana	-10.4095
▁Second	-10.4106
▁potential	-10.4109
▁khuyến	-10.4109
▁biện	-10.4121
▁management	-10.4123
min	-10.4124
▁separate	-10.4125
▁nine	-10.4126
▁offer	-10.4126
▁pha	-10.4143
▁thở	-10.4143
▁cm	-10.4148
▁Song	-10.4154
▁price	-10.4157
▁Christian	-10.4163
▁tròn	-10.4163
▁drive	-10.4174
▁Thánh	-10.4175
▁goal	-10.4177
▁starting	-10.418
▁minute	-10.418
▁command	-10.4184
▁location	-10.4198
▁required	-10.4203
▁huh	-10.4214
▁positive	-10.4224
▁spend	-10.4225
▁asking	-10.4228
▁More	-10.4229
▁humans	-10.4233
▁được	-10.4235
▁tiềm	-10.4235
▁Town	-10.4242
▁voice	-10.4249
▁đập	-10.425
▁damage	-10.4255
▁Ga	-10.4255
▁serious	-10.4258
▁birth	-10.4264
▁drink	-10.4272
▁nợ	-10.4273
que	-10.4281
▁remains	-10.4284
▁Khoa	-10.4284
▁loss	-10.4286
▁Iraq	-10.4287
▁worth	-10.4296
▁ảo	-10.4298
▁camera	-10.4299
▁learned	-10.4303
▁software	-10.4305
▁im	-10.4317
▁45	-10.4321
▁direct	-10.4337
▁phiền	-10.4337
▁crazy	-10.434
▁Bill	-10.4342
▁practice	-10.4347
▁khơi	-10.4352
▁Tập	-10.4358
▁park	-10.4361
▁animal	-10.4362
▁commercial	-10.4364
▁equal	-10.4365
▁shown	-10.4366
▁Vi	-10.4377
▁o	-10.4381
lan	-10.4382
▁Captain	-10.4382
tin	-10.4384
▁primary	-10.4384
▁Joseph	-10.4387
▁weight	-10.4397
▁finished	-10.4406
▁hiển	-10.441
▁dog	-10.4413
▁bed	-10.4414
▁points	-10.4415
▁interesting	-10.4418
▁Games	-10.4421
▁studio	-10.4429
▁Tổ	-10.4429
▁dứt	-10.4434
▁Địa	-10.4435
▁contract	-10.4439
▁Sân	-10.4441
▁file	-10.4444
▁giấc	-10.4446
▁appointed	-10.4448
▁sun	-10.445
▁1943	-10.4454
▁tour	-10.4468
▁hỗn	-10.4468
▁plays	-10.4476
▁via	-10.4477
▁forced	-10.4486
▁thus	-10.4486
▁Best	-10.4493
▁#	-10.4495
pe	-10.4496
▁street	-10.4497
▁cục	-10.4498
▁Egypt	-10.4501
ang	-10.4502
▁issue	-10.4505
▁dance	-10.4513
▁blue	-10.4514
▁giấu	-10.452
▁2007.	-10.4525
▁lành	-10.4534
▁Tin	-10.4537
▁economy	-10.4541
▁speed	-10.4544
ut	-10.4548
▁bối	-10.4561
▁điển	-10.4561
▁Mo	-10.4561
▁fourth	-10.4574
▁ủy	-10.4574
ó	-10.4586
▁method	-10.4586
▁greater	-10.4591
▁shoot	-10.4593
▁temperature	-10.4594
▁chinh	-10.4595
▁meant	-10.4596
▁sạn	-10.4598
▁Time	-10.4604
▁thảm	-10.4617
▁Hall	-10.4625
▁responsible	-10.4627
▁territory	-10.463
▁Trời	-10.4638
▁entered	-10.4643
▁cỡ	-10.4649
▁chép	-10.4651
▁supply	-10.4652
▁online	-10.4653
way	-10.4655
▁Harry	-10.4657
▁stars	-10.4658
▁issues	-10.466
▁subject	-10.4672
▁bank	-10.4674
▁dad	-10.4678
▁teams	-10.468
▁Center	-10.4689
▁mostly	-10.4689
ny	-10.4692
vo	-10.4693
▁Olympic	-10.4703
▁independent	-10.4704
▁grow	-10.4712
▁players	-10.472
▁căng	-10.4724
▁giam	-10.4725
▁CD	-10.4725
▁songs	-10.4731
▁2002	-10.4736
▁kg	-10.4739
▁length	-10.4742
▁hỏng	-10.4742
shi	-10.4745
▁contains	-10.4746
▁Po	-10.4749
▁Sha	-10.4752
▁Van	-10.4753
19	-10.4754
▁square	-10.4761
▁Lake	-10.4762
▁forward	-10.4763
▁Club	-10.4768
▁provided	-10.4769
▁mom	-10.4775
▁ám	-10.4778
▁Over	-10.4788
▁Han	-10.479
▁điệp	-10.4791
▁Colombia	-10.4797
ger	-10.4798
▁Si	-10.4804
▁Times	-10.4807
▁whom	-10.4808
▁đèn	-10.4808
▁flight	-10.4808
▁lông	-10.481
▁image	-10.4812
▁plants	-10.4822
▁helped	-10.4824
▁spread	-10.4827
▁robot	-10.483
▁Per	-10.4831
▁răng	-10.4831
▁limited	-10.4837
▁thám	-10.4859
▁travel	-10.4862
▁Lý	-10.4865
zo	-10.4866
▁Hình	-10.4869
▁clean	-10.4869
▁Bu	-10.487
▁mèo	-10.4874
▁cất	-10.4877
▁eastern	-10.488
▁3,	-10.4887
▁khấu	-10.4892
▁color	-10.4896
▁respect	-10.4899
Q	-10.4904
fa	-10.491
▁style	-10.4915
▁below	-10.4919
▁trộm	-10.4939
▁cross	-10.494
▁Tối	-10.494
▁Tự	-10.4941
▁Q	-10.4943
▁Their	-10.4944
▁hỏa	-10.4948
▁immediately	-10.4949
▁Học	-10.4951
ard	-10.4959
▁wide	-10.4964
▁vịnh	-10.4964
ham	-10.4966
led	-10.4972
▁Before	-10.4974
▁đền	-10.4977
tion	-10.4981
▁board	-10.4987
▁referred	-10.4993
▁launched	-10.5009
▁touch	-10.5022
▁killing	-10.5022
si	-10.5025
▁movie	-10.5031
▁lôi	-10.5034
▁nhầm	-10.5036
ship	-10.5037
▁Its	-10.5038
▁Nhĩ	-10.5042
▁mưu	-10.5045
▁4,	-10.5047
▁Mac	-10.505
40	-10.5059
▁lừa	-10.5061
▁message	-10.5061
▁thạch	-10.5061
▁Alexander	-10.5061
▁focus	-10.5066
▁organization	-10.507
▁recent	-10.5075
ius	-10.5079
▁charge	-10.5087
▁ain	-10.5087
▁Big	-10.5089
▁Prime	-10.5089
▁table	-10.5095
▁highly	-10.5095
▁stated	-10.5101
sha	-10.5104
▁vây	-10.5105
▁elected	-10.5108
▁ro	-10.5109
25	-10.5119
▁Victoria	-10.512
▁sit	-10.5121
▁nhấn	-10.5124
▁tiếc	-10.5124
▁hầm	-10.5125
▁memory	-10.5127
▁gỗ	-10.5136
▁Football	-10.5139
▁lẻ	-10.5139
▁ư	-10.5139
▁Thôi	-10.5144
▁Company	-10.5149
▁Those	-10.5158
▁chìm	-10.5166
▁Cape	-10.5166
You	-10.5169
90	-10.5177
▁lồ	-10.518
▁church	-10.5182
▁đón	-10.5182
▁enzyme	-10.5184
▁Three	-10.5189
▁đồn	-10.519
▁Seoul	-10.52
ê	-10.5203
▁lọc	-10.521
▁Lực	-10.5213
▁Ồ	-10.5215
tra	-10.5218
ance	-10.5218
▁quà	-10.5218
▁estimated	-10.5221
che	-10.5226
▁destroyed	-10.5226
▁box	-10.523
▁Every	-10.524
▁Art	-10.5242
và	-10.5242
▁ideas	-10.5243
▁Mà	-10.5245
▁activities	-10.5251
dy	-10.526
▁raised	-10.5262
▁older	-10.5263
▁forget	-10.5264
▁visit	-10.5274
ium	-10.5276
▁Cảnh	-10.5276
▁account	-10.528
▁patient	-10.5281
ating	-10.5282
▁dream	-10.5283
▁liều	-10.5283
▁wind	-10.5285
▁khổng	-10.5286
▁tree	-10.5288
▁enemy	-10.5292
▁rules	-10.5292
▁civil	-10.5299
▁!	-10.5303
▁lines	-10.5303
▁ho	-10.5308
▁imagine	-10.5309
▁Dan	-10.531
▁Đường	-10.531
▁nh	-10.5327
▁religious	-10.5333
▁nhóc	-10.5334
▁Chicago	-10.5335
▁Đô	-10.5345
▁32	-10.5349
▁Institute	-10.5355
▁status	-10.5357
▁Mùa	-10.5358
▁Both	-10.5359
▁seeing	-10.536
▁lãng	-10.5363
▁Bất	-10.5364
▁Ah	-10.5364
▁growing	-10.5366
▁dám	-10.537
▁honor	-10.5373
ex	-10.5375
▁Women	-10.5375
▁Awards	-10.5377
▁failed	-10.5378
▁nuclear	-10.5383
▁prison	-10.5385
▁Academy	-10.5386
▁yeah	-10.5389
▁mainly	-10.5395
▁grew	-10.5396
▁mát	-10.5397
▁choose	-10.5399
▁boys	-10.5399
▁distance	-10.54
▁search	-10.5401
▁hãi	-10.5409
▁gan	-10.5417
▁begin	-10.542
▁Bi	-10.5422
▁del	-10.5424
▁Jean	-10.5425
▁appear	-10.5426
▁majority	-10.5427
▁ngon	-10.5428
▁TCN	-10.5429
▁explain	-10.5431
▁sales	-10.5432
▁soldiers	-10.5435
▁election	-10.5437
▁Court	-10.5443
▁Old	-10.5444
▁tung	-10.5445
▁Thần	-10.5456
▁pop	-10.5458
lu	-10.546
▁Which	-10.5465
▁Đặc	-10.5467
▁regions	-10.5472
▁lão	-10.5474
▁yes	-10.5475
▁Peru	-10.5477
▁5,	-10.548
ize	-10.5482
▁financial	-10.5483
les	-10.5487
▁dollars	-10.5496
▁except	-10.5497
▁becomes	-10.5497
▁mùi	-10.5505
▁đựng	-10.5507
không	-10.5514
▁chả	-10.5515
su	-10.552
#244;	-10.5526
▁cam	-10.5534
▁perhaps	-10.5535
▁Ne	-10.5536
▁mouth	-10.5537
▁object	-10.5537
▁horse	-10.5545
▁Gia	-10.5557
▁Nigeria	-10.5557
▁Giám	-10.556
▁nhắn	-10.5566
▁commonly	-10.5567
han	-10.5567
▁remain	-10.5569
▁green	-10.5576
pro	-10.5578
15	-10.5583
▁vững	-10.5586
▁paid	-10.5594
▁feed	-10.5595
▁super	-10.56
▁lũng	-10.5603
▁Ch	-10.5614
ô	-10.5614
▁Gi	-10.5617
▁Phòng	-10.5617
▁Sĩ	-10.5623
▁bá	-10.5624
▁province	-10.5631
▁nô	-10.5643
▁Pi	-10.5645
▁appears	-10.5645
▁Bác	-10.5646
▁perfect	-10.5646
ker	-10.5647
ong	-10.565
▁vầ	-10.5661
▁lặp	-10.5666
0	-10.5671
om	-10.5672
▁thousands	-10.5675
▁thể	-10.5679
▁cool	-10.5686
▁gives	-10.5702
▁Hungary	-10.5709
▁elements	-10.5709
▁fell	-10.5714
▁Un	-10.572
▁Pakistan	-10.5721
▁Thưa	-10.5721
▁Britain	-10.5722
▁khán	-10.5725
▁Afghanistan	-10.5726
don	-10.5726
▁Disney	-10.5729
▁families	-10.5729
▁Show	-10.5741
▁Bar	-10.575
▁8,	-10.5755
▁presence	-10.5759
▁Today	-10.5761
Applause	-10.5763
▁knowledge	-10.5764
▁breed	-10.5766
▁Smith	-10.5768
-3	-10.577
▁tr	-10.5772
▁uses	-10.5776
▁tắm	-10.578
▁Men	-10.5781
▁train	-10.5784
▁ones	-10.5787
▁khuyên	-10.579
▁plane	-10.5809
ju	-10.5814
▁recently	-10.5814
▁opening	-10.5815
▁trứng	-10.5817
▁List	-10.5819
▁Te	-10.583
▁happening	-10.5834
▁hồng	-10.5837
▁ahead	-10.5842
▁ấm	-10.5845
▁Khoảng	-10.5847
▁dư	-10.5849
▁islands	-10.5849
▁beyond	-10.5857
▁variety	-10.5857
▁Bank	-10.5858
▁Following	-10.5858
▁dao	-10.5859
▁cột	-10.5862
▁Young	-10.5863
\	-10.5869
▁thiệp	-10.5871
▁rắn	-10.5878
▁Hơn	-10.5878
▁nation	-10.5882
▁400	-10.5887
rin	-10.5892
▁lies	-10.5896
▁van	-10.5902
gan	-10.5903
▁anime	-10.5904
▁native	-10.5906
▁student	-10.591
▁exist	-10.5917
▁interested	-10.5924
▁kìa	-10.5926
▁Warsaw	-10.593
sk	-10.593
▁weapons	-10.5935
▁Thanh	-10.594
▁Northern	-10.5941
▁purpose	-10.5947
ung	-10.595
▁đợt	-10.5953
▁additional	-10.5954
▁divided	-10.5954
fi	-10.5957
▁đen	-10.596
▁(2	-10.5961
▁đói	-10.5968
▁Ross	-10.597
▁Vua	-10.5971
▁Dubai	-10.5977
í	-10.5981
ver	-10.5983
▁climate	-10.5992
▁Once	-10.5993
▁vở	-10.5998
du	-10.6005
▁Nintendo	-10.6006
san	-10.6012
▁wall	-10.602
▁150	-10.6024
▁serve	-10.6024
▁Church	-10.6025
▁male	-10.6028
▁plans	-10.6029
▁buôn	-10.603
▁6,	-10.6034
▁Congress	-10.6038
▁Department	-10.6043
▁compared	-10.6046
▁Act	-10.6046
▁Middle	-10.6049
tes	-10.6053
▁Santa	-10.6054
▁oxy	-10.6055
▁Eastern	-10.6056
▁quê	-10.6059
▁quality	-10.6059
▁artist	-10.6059
▁nhuận	-10.606
▁operation	-10.6062
▁sụp	-10.6077
▁triết	-10.6078
▁micro	-10.6078
▁ordered	-10.6082
▁multiple	-10.6085
▁Quan	-10.6086
mon	-10.6088
▁Virginia	-10.6093
ura	-10.6093
▁giường	-10.6098
▁concept	-10.6098
▁universe	-10.6102
▁Phương	-10.6102
▁Game	-10.6107
▁typically	-10.6109
▁Apple	-10.611
▁letter	-10.6112
▁previously	-10.6115
▁solution	-10.6118
We	-10.612
▁Tiểu	-10.6128
▁store	-10.613
▁missing	-10.6136
▁expected	-10.6146
▁chín	-10.6149
▁Green	-10.6153
▁schools	-10.616
▁1999	-10.6163
▁lỏng	-10.6165
▁films	-10.6168
▁Asian	-10.6169
▁hundred	-10.617
▁Would	-10.6171
▁hate	-10.6177
▁2003,	-10.6178
▁dính	-10.6186
▁engine	-10.6186
▁túi	-10.6201
-4	-10.6207
▁approach	-10.6208
▁Ti	-10.622
▁widely	-10.6225
▁ran	-10.6235
▁officially	-10.6236
▁Tiếng	-10.6243
▁Shin	-10.6243
▁singer	-10.6246
▁1986	-10.6249
▁chôn	-10.6251
tan	-10.6252
▁Trận	-10.6253
▁thẻ	-10.626
▁dã	-10.6263
▁tốn	-10.627
▁straight	-10.6281
▁scientific	-10.6282
▁Pre	-10.6282
▁partner	-10.6299
▁dangerous	-10.6301
▁press	-10.6308
fe	-10.6312
wi	-10.6313
▁Ya	-10.6314
kin	-10.6315
▁target	-10.6318
▁1975	-10.6322
▁huge	-10.6329
▁university	-10.6334
▁officer	-10.6335
▁thợ	-10.6338
ray	-10.6338
▁Jim	-10.6339
ene	-10.6343
mar	-10.6343
▁manga	-10.6346
▁Under	-10.6347
▁closed	-10.6348
▁Top	-10.6348
▁Boy	-10.6348
▁floor	-10.6362
12	-10.6365
▁Far	-10.6365
▁Mu	-10.6367
▁Nguyên	-10.6371
▁Open	-10.6377
▁tụi	-10.6378
▁carried	-10.6384
▁heat	-10.6386
▁Cao	-10.6387
);	-10.639
▁scale	-10.6395
▁attempt	-10.6395
tu	-10.6396
▁necessary	-10.6399
▁Mike	-10.6412
▁Za	-10.6417
▁Listen	-10.6418
▁confirmed	-10.6418
▁đùa	-10.6424
▁tuyết	-10.6428
▁Thống	-10.6431
▁trạm	-10.6435
▁pH	-10.6435
▁condition	-10.644
▁Ju	-10.6442
▁Fa	-10.6443
▁calling	-10.6443
▁Arthur	-10.6446
▁division	-10.6446
▁:	-10.6449
▁Loài	-10.6453
▁race	-10.6454
▁Diego	-10.6456
▁cultural	-10.6473
ea	-10.6475
▁những	-10.6478
▁Life	-10.6482
op	-10.6483
▁(3	-10.6488
▁bận	-10.6489
▁Tri	-10.6491
▁Bob	-10.6492
▁hổ	-10.6497
ists	-10.6498
▁winter	-10.65
▁Nghiên	-10.6503
ab	-10.6517
▁bơi	-10.6531
▁Anna	-10.6532
11	-10.6533
▁broke	-10.6538
ville	-10.6542
▁promise	-10.6543
▁direction	-10.6543
▁đằng	-10.6543
▁với	-10.6547
▁learning	-10.6548
q	-10.6551
▁Tính	-10.6551
▁{	-10.6552
▁therefore	-10.6554
▁đồi	-10.6562
▁Hồ	-10.6572
▁expect	-10.6576
▁2000,	-10.6587
▁invasion	-10.6588
▁Ten	-10.6589
▁caught	-10.6591
tro	-10.6593
▁models	-10.6593
▁murder	-10.6593
▁opportunity	-10.6598
▁Luật	-10.66
▁10,	-10.6605
▁Master	-10.6605
▁Venezuela	-10.6609
▁kĩ	-10.6609
tr	-10.6609
▁Daniel	-10.6613
▁camp	-10.6613
▁Hoặc	-10.6617
▁xưa	-10.6617
▁2006.	-10.6617
▁kh	-10.6627
▁gợi	-10.6627
▁operating	-10.6631
▁sữa	-10.6638
ise	-10.6639
▁numerous	-10.6642
▁Chris	-10.6653
▁earth	-10.6666
▁reaction	-10.6667
▁shouldn	-10.667
ara	-10.6677
▁strength	-10.6677
▁resources	-10.6677
▁foot	-10.6679
▁chemical	-10.668
▁Đạo	-10.6688
▁Later	-10.6689
▁Ri	-10.6691
▁soạn	-10.6695
▁analysis	-10.6696
▁Year	-10.6698
▁tia	-10.6699
▁mountain	-10.6703
▁content	-10.6703
▁7,	-10.6706
ren	-10.6707
▁viêm	-10.6709
field	-10.6709
▁greatest	-10.6714
▁Brown	-10.6718
ping	-10.6719
▁Bệnh	-10.6722
▁rửa	-10.6723
▁fly	-10.6726
like	-10.6729
▁cẩn	-10.6738
▁đàm	-10.6739
▁đai	-10.674
▁Committee	-10.6742
▁ngũ	-10.6742
ria	-10.6742
▁worse	-10.6749
▁league	-10.6751
▁2018,	-10.6753
▁taught	-10.6754
▁Thay	-10.6759
▁Manchester	-10.6761
pi	-10.6762
ola	-10.6763
▁master	-10.6764
▁somewhere	-10.6765
▁chở	-10.6768
▁Elizabeth	-10.6772
▁impact	-10.6774
▁Nhóm	-10.6777
▁ép	-10.678
▁Columbia	-10.6785
▁twice	-10.6787
▁von	-10.6787
▁mực	-10.6791
▁realize	-10.6794
▁prevent	-10.6795
▁trăng	-10.6798
▁Tình	-10.68
▁buildings	-10.6802
▁tô	-10.6805
▁rich	-10.6815
▁sell	-10.6822
▁Moscow	-10.6824
▁sợi	-10.6825
▁develop	-10.6828
▁gián	-10.683
▁Chiếc	-10.6831
for	-10.6837
▁hô	-10.6843
side	-10.6846
▁supported	-10.685
75	-10.6854
▁Phát	-10.6865
▁Province	-10.6869
▁Bằng	-10.6873
▁Mấy	-10.6874
▁seat	-10.688
yo	-10.6885
bar	-10.6891
▁nghìn	-10.6892
▁Lady	-10.6899
▁Premier	-10.6903
ey	-10.6905
▁carry	-10.6905
ris	-10.6914
ban	-10.6914
▁Port	-10.6915
▁1998	-10.6917
▁negative	-10.6934
len	-10.6943
▁sources	-10.6945
▁Hill	-10.6946
▁directed	-10.6947
▁occur	-10.6949
▁basic	-10.6961
▁individuals	-10.6967
▁1985	-10.6969
▁acting	-10.6969
▁cừu	-10.6971
ier	-10.6976
▁port	-10.6993
▁ring	-10.6996
▁escape	-10.7
▁1930	-10.7001
▁proposed	-10.7003
net	-10.7004
▁2018.	-10.7004
▁standing	-10.7006
▁dò	-10.7008
ken	-10.7016
▁FIFA	-10.7017
▁Museum	-10.7017
▁huống	-10.7021
▁đậu	-10.7024
▁Ro	-10.7035
▁college	-10.7035
▁lặng	-10.7037
▁Pe	-10.7045
▁Album	-10.7048
▁lie	-10.7049
▁chief	-10.7056
▁Moon	-10.7056
ring	-10.7064
▁Live	-10.7069
▁agreed	-10.7078
▁reality	-10.7086
▁Billboard	-10.7086
▁remaining	-10.7087
▁Each	-10.7091
▁host	-10.7095
45	-10.7096
▁Thì	-10.7098
▁Uganda	-10.7099
▁relatively	-10.71
▁stopped	-10.7113
▁Dự	-10.7116
▁bodies	-10.7119
▁Records	-10.712
▁chấn	-10.7121
▁Ge	-10.7125
▁metal	-10.713
▁reign	-10.7134
▁primarily	-10.7141
▁dinner	-10.7144
▁anybody	-10.7144
▁chain	-10.7153
▁Ver	-10.7158
▁anyway	-10.7159
▁lui	-10.7159
▁fully	-10.7163
▁rise	-10.7167
14	-10.7169
▁muộn	-10.7171
▁characters	-10.7177
▁Government	-10.718
im	-10.7186
▁9,	-10.7191
▁Thị	-10.7194
▁guns	-10.7206
▁reasons	-10.7208
▁Sorry	-10.7221
▁behavior	-10.7221
▁bụng	-10.7225
▁vỏ	-10.7225
▁awarded	-10.7226
▁khóc	-10.7226
▁tựa	-10.7229
▁chừng	-10.7229
▁effective	-10.7232
▁quỷ	-10.7233
tri	-10.7237
▁conflict	-10.7237
▁Ngoại	-10.7241
▁Ja	-10.7244
▁túc	-10.7245
▁thoải	-10.7247
▁drugs	-10.7247
▁mãn	-10.7249
▁ở	-10.7249
▁bùng	-10.7251
▁thousand	-10.7255
▁Đôi	-10.7256
▁crew	-10.7258
ino	-10.7269
▁Ottoman	-10.7272
có	-10.7275
▁kèm	-10.7281
▁trầm	-10.7284
▁victory	-10.7284
lic	-10.7287
▁Arab	-10.729
▁scene	-10.7292
▁Ku	-10.7293
▁defeated	-10.7294
▁possibly	-10.7302
▁wear	-10.7303
▁Australian	-10.7305
▁feature	-10.7307
▁beat	-10.7308
▁pull	-10.7309
▁Chương	-10.7311
▁Chu	-10.7311
▁mươi	-10.7311
▁allows	-10.7313
▁Bên	-10.7316
°	-10.7321
▁Mục	-10.7324
▁đống	-10.7324
▁drop	-10.7327
17	-10.7327
▁treat	-10.7332
▁\	-10.7335
▁accept	-10.7335
▁appearance	-10.7337
▁Tour	-10.734
▁bia	-10.7343
▁Máy	-10.7346
▁Joe	-10.7346
▁amazing	-10.7347
▁shape	-10.7352
▁inter	-10.7355
▁Christmas	-10.7356
▁teacher	-10.736
▁bridge	-10.7361
▁dâm	-10.7363
48	-10.7374
▁Ôi	-10.7375
▁staff	-10.7379
▁defeat	-10.738
▁occurred	-10.739
▁Max	-10.7393
▁phổi	-10.7399
ski	-10.7408
▁magazine	-10.7417
▁Fu	-10.7419
2,	-10.7419
▁task	-10.742
▁Give	-10.7427
▁fan	-10.7428
uk	-10.7433
▁property	-10.7446
▁captured	-10.7449
▁Also	-10.7449
▁sếp	-10.745
▁agent	-10.7454
▁dược	-10.7454
▁Blue	-10.7457
La	-10.7458
án	-10.7458
▁Carl	-10.746
oc	-10.7464
▁Ru	-10.7466
▁ion	-10.7466
br	-10.7468
▁extra	-10.7472
▁double	-10.7473
▁basis	-10.7476
au	-10.748
▁ngọt	-10.7482
▁Nations	-10.7483
▁slow	-10.7485
▁treo	-10.7487
ita	-10.7491
▁attended	-10.7497
▁gi	-10.7506
idae	-10.7507
▁sounds	-10.7511
▁nhắm	-10.7522
▁Vấn	-10.7522
▁kilometres	-10.7526
▁shut	-10.7528
▁initial	-10.753
▁11,	-10.7539
▁Phiên	-10.7542
▁distribution	-10.7548
▁multi	-10.7552
ence	-10.7557
▁Ke	-10.7559
▁wedding	-10.7561
ac	-10.7563
▁lang	-10.7566
▁developing	-10.7567
▁boat	-10.7569
▁Alex	-10.7574
▁ourselves	-10.7574
▁Kh	-10.7576
je	-10.7576
ini	-10.7581
▁Despite	-10.7598
▁Áo	-10.7601
▁map	-10.7602
▁finish	-10.7602
▁loved	-10.7604
▁Hu	-10.7608
bằng	-10.7609
▁1979	-10.7611
▁Shi	-10.7611
ble	-10.7612
▁defined	-10.7613
▁zero	-10.7613
▁survive	-10.7618
▁Ali	-10.7619
▁mù	-10.7621
▁covered	-10.7622
▁tax	-10.7622
▁adopted	-10.7632
▁Tiến	-10.7638
▁Albert	-10.764
ial	-10.764
▁address	-10.764
▁1997	-10.7641
▁lò	-10.7646
▁reduced	-10.7647
▁leaders	-10.765
▁independence	-10.7653
▁Sal	-10.7653
▁lady	-10.7656
▁objects	-10.7658
▁bội	-10.766
ano	-10.766
▁initially	-10.7667
▁Um	-10.7681
▁crime	-10.7685
▁nhẫn	-10.77
▁planned	-10.77
bit	-10.7703
▁vuông	-10.7704
▁Th	-10.7705
#224;	-10.7708
▁Scott	-10.7708
▁worldwide	-10.7709
▁thuần	-10.7709
▁claimed	-10.7717
▁Quá	-10.7721
▁Office	-10.7724
▁Guinea	-10.7729
18	-10.7729
▁CO	-10.773
▁herself	-10.7731
berg	-10.7733
▁xóa	-10.7747
▁cast	-10.7747
▁forest	-10.7756
▁Boston	-10.7762
▁xoay	-10.7762
99	-10.7766
▁biết	-10.777
▁exchange	-10.7773
▁YouTube	-10.7774
ology	-10.7776
▁medicine	-10.7778
tz	-10.7782
▁despite	-10.7782
▁fleet	-10.7783
tus	-10.7785
gar	-10.7787
▁Oliver	-10.7787
▁Rio	-10.7789
▁Media	-10.779
▁regular	-10.7792
▁consider	-10.7793
▁Nobel	-10.7793
▁Wi	-10.7793
vin	-10.7799
▁transport	-10.7799
red	-10.78
▁cổng	-10.78
▁Alice	-10.7804
▁um	-10.7813
▁Chào	-10.7817
▁gene	-10.7819
▁Airport	-10.7828
▁formation	-10.7829
What	-10.7831
▁BBC	-10.7833
▁centre	-10.7834
▁stupid	-10.7836
▁dọn	-10.7836
▁capacity	-10.7837
▁path	-10.784
izing	-10.7841
▁Little	-10.7841
ā	-10.7846
▁vote	-10.785
▁holding	-10.7851
▁1990,	-10.7855
▁Mars	-10.7855
▁Dad	-10.7859
50	-10.7861
▁1940	-10.7866
▁sexual	-10.7867
▁avoid	-10.7867
▁workers	-10.7868
▁36	-10.7871
▁industrial	-10.7874
▁Southern	-10.7875
▁tuân	-10.7878
▁draw	-10.7881
60	-10.7882
▁declared	-10.7885
▁recognized	-10.7886
▁Francis	-10.7889
▁mạn	-10.7891
kh	-10.7893
▁airport	-10.7894
▁waste	-10.7895
all	-10.7898
tter	-10.7901
▁Hitler	-10.7903
▁1992	-10.7907
▁methods	-10.7909
▁Ocean	-10.7909
▁đoạt	-10.7915
▁connected	-10.7916
▁Video	-10.7919
▁wild	-10.7922
▁1994	-10.7926
▁Line	-10.7927
▁Atlantic	-10.793
▁device	-10.7932
▁Festival	-10.7932
▁Phó	-10.7933
▁nồng	-10.794
▁ẩm	-10.7948
▁Real	-10.7951
▁centuries	-10.7952
▁dàn	-10.7953
fer	-10.7953
▁trip	-10.7958
▁protection	-10.7959
ok	-10.7961
▁Mrs	-10.7962
▁Any	-10.7964
▁thề	-10.7973
▁arms	-10.7973
▁2001,	-10.7973
▁Society	-10.7974
▁xinh	-10.7977
▁sitting	-10.7978
ns	-10.7981
27	-10.7983
▁handle	-10.7993
▁royal	-10.7994
▁(5	-10.7998
▁bottom	-10.8001
▁bus	-10.8002
▁ghép	-10.8008
▁sweet	-10.8008
▁Fe	-10.8012
▁1920	-10.8022
▁miss	-10.8022
▁Wait	-10.8029
▁coffee	-10.8032
▁cốt	-10.8038
▁Ji	-10.8039
▁card	-10.8043
▁1972	-10.8046
sky	-10.8047
▁offered	-10.805
▁digital	-10.8056
tis	-10.8061
▁Hạ	-10.8063
▁observed	-10.8065
▁1953	-10.8067
▁About	-10.8068
16	-10.8076
▁trộn	-10.8084
▁(4	-10.8086
▁generation	-10.8091
▁orders	-10.8093
▁citizens	-10.8095
▁Covid	-10.8096
▁khung	-10.8096
▁giày	-10.81
▁teach	-10.8104
▁turns	-10.8111
38	-10.8113
▁Ed	-10.8127
▁mạo	-10.8127
▁Jewish	-10.8133
▁Loan	-10.8135
▁TED	-10.8137
ez	-10.815
55	-10.8151
▁Hiến	-10.8152
▁hoại	-10.8154
▁freedom	-10.8161
13	-10.8162
▁cú	-10.8163
▁đuôi	-10.8164
▁nấu	-10.8165
▁Hàng	-10.8169
▁Rachel	-10.8169
▁mượn	-10.8169
ão	-10.8171
▁department	-10.8175
▁hối	-10.8176
▁Tr	-10.818
war	-10.8181
▁2002,	-10.8184
▁calls	-10.8193
▁Up	-10.8195
▁mu	-10.8201
▁ương	-10.8203
▁ocean	-10.8211
▁dry	-10.8222
▁Free	-10.8229
▁1995	-10.8229
▁historical	-10.8235
▁Jordan	-10.8242
▁duyệt	-10.8242
▁Does	-10.8242
▁unique	-10.8243
▁duty	-10.8245
▁section	-10.8248
▁weren	-10.8248
ries	-10.8251
▁ngón	-10.8252
her	-10.8253
▁wonder	-10.8254
người	-10.8257
▁managed	-10.8265
▁text	-10.8266
▁thôn	-10.8274
▁Uy	-10.8275
▁mì	-10.8276
▁collection	-10.8278
▁Kenya	-10.8279
▁Gen	-10.8288
▁rác	-10.8288
▁Ít	-10.8298
▁storm	-10.83
ud	-10.83
▁era	-10.8302
▁biggest	-10.8302
▁đệ	-10.831
▁route	-10.8311
▁Bang	-10.8313
▁muối	-10.8316
▁manager	-10.8316
▁accepted	-10.8318
ped	-10.8324
▁Che	-10.833
▁pin	-10.8335
▁Yo	-10.8336
▁laws	-10.8339
44	-10.8344
▁san	-10.8344
ide	-10.8346
▁flow	-10.8352
▁destroy	-10.8358
▁fought	-10.8359
▁gỡ	-10.8359
▁represented	-10.8362
▁tí	-10.8362
No	-10.8364
▁trees	-10.8366
▁creating	-10.8368
▁combat	-10.8369
ff	-10.8385
▁NGC	-10.8385
▁agreement	-10.8395
tor	-10.8397
ou	-10.8399
king	-10.8399
▁respectively	-10.8399
▁revealed	-10.84
▁domestic	-10.8402
▁reading	-10.8403
▁enter	-10.8407
▁administration	-10.8408
nes	-10.8412
▁brand	-10.8413
▁powers	-10.8415
▁Nothing	-10.8415
▁transfer	-10.8417
▁Vietnamese	-10.8419
▁Film	-10.8419
▁winning	-10.8423
▁Val	-10.8423
▁Jan	-10.8426
▁Tốt	-10.8428
▁planning	-10.8429
▁Bell	-10.8431
▁Night	-10.8435
▁horses	-10.8439
▁till	-10.845
▁Gold	-10.8451
▁Fox	-10.8454
35	-10.8454
▁bought	-10.8455
▁chán	-10.8459
ck	-10.8459
▁arm	-10.8459
▁kí	-10.8462
▁Luân	-10.8464
▁fuel	-10.8464
▁tournament	-10.847
86	-10.8471
my	-10.8476
▁nhạy	-10.8482
▁Facebook	-10.8482
▁Valley	-10.8488
").	-10.8488
▁bạch	-10.849
▁Everything	-10.8493
▁easily	-10.8495
▁transferred	-10.8495
▁VI	-10.8501
▁causes	-10.8501
▁Hot	-10.8505
▁Min	-10.8509
▁oxygen	-10.851
▁1996	-10.8511
▁Cu	-10.8514
▁records	-10.8515
▁DVD	-10.8515
▁Quận	-10.8517
▁Nu	-10.8518
▁occurs	-10.8524
▁materials	-10.8527
▁System	-10.8529
▁challenge	-10.8532
▁Land	-10.8534
▁throw	-10.8539
▁2005.	-10.8546
▁Was	-10.855
▁seconds	-10.8552
▁screen	-10.856
"),	-10.8564
▁ng	-10.8564
kan	-10.8566
ua	-10.8573
lon	-10.8574
▁1937	-10.8576
▁Vũ	-10.8579
▁cắp	-10.858
▁38	-10.858
▁prepared	-10.858
▁Sư	-10.8585
▁voi	-10.8587
▁leaves	-10.8587
▁Last	-10.8588
▁split	-10.8588
▁genus	-10.8591
▁scientists	-10.8592
▁sáp	-10.8593
95	-10.8599
▁48	-10.86
if	-10.8602
can	-10.8604
▁saved	-10.8606
▁photo	-10.8609
▁33	-10.861
▁writer	-10.8612
▁Something	-10.8614
▁1981	-10.8624
▁identified	-10.8626
Ma	-10.8629
nia	-10.8638
▁sứ	-10.8645
▁Panama	-10.8648
▁count	-10.8648
▁Nghệ	-10.8649
▁kín	-10.8654
▁Col	-10.8655
▁broken	-10.8659
ica	-10.866
▁author	-10.8661
ised	-10.8666
▁interview	-10.8671
39	-10.8672
▁programs	-10.8674
▁Điện	-10.8678
▁Stone	-10.8682
▁Hợp	-10.8683
▁reduce	-10.8686
▁visual	-10.8693
▁boss	-10.8695
house	-10.8702
▁goals	-10.8704
▁Championship	-10.8704
▁nhịp	-10.8706
▁nobody	-10.8707
▁Khan	-10.8707
In	-10.8719
▁Prize	-10.8724
▁removed	-10.873
ula	-10.8731
▁Thailand	-10.8733
▁khẩn	-10.8737
24	-10.8737
▁màng	-10.8737
▁relations	-10.874
▁cat	-10.8743
ure	-10.8746
▁(17	-10.8747
▁dinh	-10.8749
▁brothers	-10.8755
▁Chief	-10.8756
▁li	-10.8759
▁urban	-10.8759
ella	-10.876
▁Mor	-10.876
▁extremely	-10.8763
▁castle	-10.8764
▁lãm	-10.8769
-5	-10.877
▁conducted	-10.8772
▁ranh	-10.8772
▁CA	-10.8772
tal	-10.8774
zu	-10.8775
▁1945,	-10.8779
37	-10.8785
ft	-10.8788
▁showing	-10.8788
▁Hawaii	-10.879
08	-10.879
▁Xem	-10.8794
▁Ngân	-10.8796
▁featured	-10.8798
Arabic	-10.8805
▁suggested	-10.8806
▁understanding	-10.8807
▁increasing	-10.8812
▁Mai	-10.8818
▁anywhere	-10.882
It	-10.882
▁spring	-10.8822
▁clothes	-10.8824
▁Sara	-10.8826
▁Brasil	-10.8828
▁metres	-10.883
ani	-10.8831
▁projects	-10.8833
▁ngẫu	-10.8833
▁authorities	-10.8837
▁regional	-10.8841
▁efforts	-10.8841
▁Adam	-10.8842
80	-10.8843
▁Charlie	-10.8843
▁talked	-10.8843
▁episode	-10.8845
▁Catholic	-10.8848
tel	-10.8853
ser	-10.8854
▁mây	-10.8857
▁demand	-10.8858
▁musical	-10.886
▁su	-10.8862
▁khía	-10.8865
▁receive	-10.8866
▁Make	-10.8869
▁spoken	-10.8869
▁Samsung	-10.8881
▁actress	-10.8886
▁hò	-10.8887
▁Fleet	-10.8888
▁hung	-10.8888
▁Princess	-10.8891
▁Đưa	-10.8897
▁túy	-10.8903
yan	-10.8904
▁raise	-10.8906
Re	-10.8907
▁participated	-10.8908
▁blow	-10.8908
▁Phụ	-10.8909
▁bền	-10.8912
▁window	-10.8923
28	-10.8925
▁tần	-10.8927
▁Ministry	-10.8929
▁doubt	-10.8931
▁largely	-10.8931
0.000	-10.8932
ai	-10.8933
ford	-10.8939
▁effort	-10.894
▁Wa	-10.894
era	-10.8941
dia	-10.8943
▁Could	-10.8944
▁spot	-10.8947
66	-10.8952
▁FBI	-10.8952
▁composed	-10.8953
▁artists	-10.8958
▁birthday	-10.8962
▁News	-10.8966
▁lây	-10.8967
Con	-10.897
▁gương	-10.8976
▁noted	-10.8978
▁add	-10.8987
▁Corporation	-10.8994
▁Vùng	-10.8997
▁favorite	-10.9
▁Toàn	-10.9001
▁Got	-10.9002
▁Kông	-10.9005
▁meat	-10.9008
▁equipment	-10.9008
▁nhãn	-10.9008
▁phun	-10.9009
▁Law	-10.9012
▁Put	-10.9014
▁hide	-10.9018
▁agree	-10.902
▁applied	-10.9027
▁tật	-10.9027
▁images	-10.9029
▁tells	-10.9031
▁Science	-10.9031
▁ball	-10.9033
▁intended	-10.9034
▁consists	-10.9034
▁Thiết	-10.9036
▁Carolina	-10.9036
▁PC	-10.9046
ative	-10.9048
▁12,	-10.905
▁ride	-10.905
▁ngưỡng	-10.905
▁leo	-10.9053
▁mentioned	-10.9056
▁thoảng	-10.9056
):	-10.9058
▁Gar	-10.9058
ata	-10.9061
cy	-10.9066
▁Call	-10.9066
▁safety	-10.907
▁environmental	-10.9072
▁Revolution	-10.9078
▁canh	-10.9078
▁signal	-10.9082
▁weather	-10.9082
▁promoted	-10.9085
▁trà	-10.9087
▁Juan	-10.9089
▁Đan	-10.909
▁Research	-10.9091
▁Communist	-10.9099
▁1951	-10.9103
▁piano	-10.9107
▁tân	-10.9107
▁Phong	-10.9108
▁parties	-10.9111
▁để	-10.9111
▁favor	-10.9113
▁Ray	-10.9125
▁HIV	-10.9129
ot	-10.9133
21	-10.9133
▁Har	-10.9133
▁income	-10.9134
car	-10.9136
Vỗ	-10.9136
hi	-10.9139
ps	-10.9141
▁accident	-10.9145
▁younger	-10.9149
▁annual	-10.915
▁Imperial	-10.915
▁bomb	-10.9151
▁professor	-10.9159
▁contain	-10.9159
▁Bỉ	-10.916
▁trial	-10.9163
▁mồi	-10.9164
85	-10.9166
▁lân	-10.9168
▁page	-10.9175
ik	-10.9175
▁phase	-10.918
▁communities	-10.9182
ile	-10.9185
▁Tác	-10.9185
▁úy	-10.9187
▁1955	-10.9193
ada	-10.9195
▁drama	-10.9195
▁Par	-10.9196
▁plus	-10.9197
▁improve	-10.9201
▁Philip	-10.9202
▁none	-10.9205
qui	-10.9206
▁prior	-10.9206
▁Gần	-10.9211
▁Cor	-10.9212
▁census	-10.9215
▁marry	-10.9217
▁award	-10.9225
▁actual	-10.9228
▁Tân	-10.9241
▁chosen	-10.9256
▁significantly	-10.9266
▁claim	-10.9272
▁đeo	-10.9273
▁vân	-10.9275
57	-10.9282
▁Xã	-10.9282
▁properties	-10.9287
▁costs	-10.9287
▁useful	-10.929
▁Anne	-10.9291
▁Er	-10.9292
law	-10.9293
▁flag	-10.9296
▁radar	-10.9297
▁UEFA	-10.9301
ric	-10.9303
▁Hollywood	-10.9307
ven	-10.9308
▁trúng	-10.9311
▁critical	-10.9312
▁1993	-10.9319
▁béo	-10.932
▁dày	-10.9325
▁senior	-10.933
▁flying	-10.9331
▁obtained	-10.9333
▁politics	-10.9333
▁crisis	-10.9335
ow	-10.9336
▁apartment	-10.9341
▁realized	-10.9344
▁sky	-10.9349
▁capable	-10.935
▁1000	-10.9351
mu	-10.9353
▁commander	-10.9358
▁64	-10.9361
▁degrees	-10.937
▁Georgia	-10.9374
▁failure	-10.9375
▁losing	-10.9379
Đ	-10.938
▁core	-10.9383
▁fit	-10.9388
▁−	-10.9389
▁motion	-10.9392
▁measure	-10.9393
▁fault	-10.9393
▁Nơi	-10.9393
▁stress	-10.9394
▁khẳng	-10.9398
▁funny	-10.9408
▁values	-10.9409
▁strange	-10.941
▁warm	-10.9411
▁Parliament	-10.9412
▁cậy	-10.9413
▁strategy	-10.9417
▁Home	-10.942
▁Johnson	-10.9422
▁Health	-10.9422
▁wearing	-10.9422
▁minister	-10.9425
ví	-10.9428
▁Ana	-10.9428
▁Steve	-10.9431
▁tị	-10.9435
trong	-10.9436
▁Puerto	-10.9437
1,	-10.9438
▁origin	-10.9441
▁Bắt	-10.9441
▁identity	-10.9441
▁branch	-10.9442
▁táo	-10.9443
▁vú	-10.9444
▁unknown	-10.9447
▁latter	-10.9452
▁changing	-10.9456
▁hưu	-10.9461
▁ngã	-10.9462
▁creation	-10.9466
▁internal	-10.9468
▁extended	-10.9468
ros	-10.9469
II	-10.9471
▁Four	-10.9472
▁võ	-10.9473
▁lay	-10.9474
▁federal	-10.9476
▁Nghị	-10.9477
49	-10.948
▁closer	-10.9485
▁advanced	-10.9487
▁actions	-10.9489
ney	-10.949
▁factor	-10.949
▁smart	-10.9491
87	-10.9492
▁thung	-10.9494
▁aid	-10.9494
illa	-10.9495
▁wave	-10.9499
▁unless	-10.9502
▁trần	-10.9505
▁Lãnh	-10.9506
▁bụi	-10.951
▁provides	-10.9511
▁nations	-10.9513
▁notice	-10.9515
▁resulting	-10.9518
▁begins	-10.952
▁đực	-10.952
▁daily	-10.9521
▁presented	-10.9521
59	-10.9524
▁FA	-10.9526
▁hundreds	-10.9527
▁sốt	-10.9529
▁Phật	-10.9529
▁mệt	-10.953
▁users	-10.9532
▁journey	-10.9539
▁Ph	-10.954
▁hoan	-10.9546
▁wonderful	-10.9553
ev	-10.9553
▁worst	-10.9559
sia	-10.956
▁forever	-10.9562
▁suggest	-10.9567
▁kingdom	-10.9567
▁yours	-10.9568
▁channel	-10.9569
▁trượt	-10.9574
▁issued	-10.9574
▁gained	-10.9579
▁represent	-10.958
▁Ok	-10.9583
▁prime	-10.9583
▁Ken	-10.9584
▁hydro	-10.9584
▁COVID	-10.9588
▁Wilson	-10.9589
29	-10.9589
▁ưa	-10.9591
▁user	-10.9593
wan	-10.9595
▁determined	-10.9601
▁37	-10.9603
▁Matt	-10.9604
pt	-10.9606
43	-10.9607
▁painting	-10.9607
▁toward	-10.9607
▁Amazon	-10.9608
▁internet	-10.9614
▁móc	-10.9619
term	-10.962
▁Sri	-10.962
▁Jones	-10.962
▁Barry	-10.9621
har	-10.9631
▁ngư	-10.9633
▁Inc	-10.964
▁operated	-10.9641
▁Wall	-10.9642
▁Jin	-10.9642
wood	-10.9643
▁opera	-10.9647
▁fifth	-10.9651
▁shared	-10.9654
▁prove	-10.9654
▁audience	-10.9657
val	-10.9658
▁subsequently	-10.966
▁1989	-10.9663
▁violence	-10.9665
well	-10.9665
▁Marie	-10.9666
▁treated	-10.967
▁nút	-10.9673
▁Mạch	-10.9674
▁Armenia	-10.9678
46	-10.9681
▁fix	-10.9682
▁Madrid	-10.9683
▁fresh	-10.9695
▁visited	-10.9702
▁Ab	-10.9707
▁Claire	-10.9708
ida	-10.9709
▁speech	-10.971
▁factors	-10.9712
▁officers	-10.9715
▁Lục	-10.9718
▁finding	-10.9718
▁authority	-10.9718
▁Thư	-10.972
▁2004.	-10.9721
▁walls	-10.9721
▁fellow	-10.9723
▁Summer	-10.9723
▁Human	-10.9724
▁ruột	-10.9728
▁application	-10.9742
▁Out	-10.9743
▁onto	-10.9744
▁Father	-10.975
▁75	-10.9751
▁minor	-10.9754
▁thoái	-10.9758
▁Phân	-10.9763
NG	-10.9765
gon	-10.9769
▁Costa	-10.977
let	-10.9772
▁1945	-10.9773
▁article	-10.9773
ena	-10.9774
▁soul	-10.9778
▁Jimmy	-10.9778
26	-10.978
▁totally	-10.9783
▁electron	-10.9787
▁Jesus	-10.9788
▁trưa	-10.9788
▁runs	-10.979
▁reports	-10.9801
▁footballer	-10.9801
▁bear	-10.9801
▁connection	-10.9804
▁combined	-10.9805
▁rare	-10.9806
▁lộn	-10.981
ee	-10.9812
▁conversation	-10.9813
▁applications	-10.9814
▁grown	-10.9818
head	-10.9819
▁evening	-10.982
▁chẩn	-10.9823
▁organizations	-10.9823
▁phu	-10.9824
ification	-10.9827
dong	-10.9834
▁cong	-10.9838
dan	-10.9839
▁tràn	-10.9841
▁Road	-10.9843
▁Gulf	-10.9845
▁alternative	-10.9845
▁tropical	-10.9848
▁threat	-10.9848
▁Hama	-10.9849
▁34	-10.9852
▁surrounding	-10.9855
▁Thu	-10.9856
▁clan	-10.9858
▁42	-10.9859
▁faster	-10.9861
▁poly	-10.9861
▁launch	-10.9865
▁Tony	-10.9867
▁trễ	-10.9869
▁enjoy	-10.9869
▁wake	-10.9871
▁Simon	-10.9873
▁scared	-10.9876
▁GDP	-10.9878
▁Kế	-10.9879
▁Sometimes	-10.9879
▁selling	-10.9882
▁quét	-10.9884
▁Jane	-10.9885
▁Actually	-10.9899
▁hẹp	-10.9899
▁Mal	-10.99
▁ngập	-10.9905
▁slightly	-10.9905
bal	-10.9907
▁Walter	-10.9909
fu	-10.9911
ities	-10.9913
ding	-10.9913
ap	-10.9913
ō	-10.9916
rus	-10.9918
▁coach	-10.9924
▁cám	-10.9924
▁Light	-10.9925
▁Tiếp	-10.993
▁1999,	-10.9932
▁progress	-10.9932
bel	-10.9935
▁Taylor	-10.9937
▁Canadian	-10.9937
▁affected	-10.994
▁Lincoln	-10.9941
▁lật	-10.9951
▁advantage	-10.9952
▁Pu	-10.9956
end	-10.9957
▁impossible	-10.9961
▁Mount	-10.9961
use	-10.9963
▁weapon	-10.9964
▁putting	-10.9965
yn	-10.9967
▁Foundation	-10.9971
▁Major	-10.9972
▁contrast	-10.9976
▁hâm	-10.9976
47	-10.9976
$	-10.9977
▁Pat	-10.9978
▁cụm	-10.9978
▁hoãn	-10.9981
▁dropped	-10.9981
mann	-10.9984
▁nấm	-10.9987
▁tea	-10.9991
▁cương	-10.9992
ette	-10.9992
▁Cục	-10.9993
see	-11
▁throne	-11.0002
-20	-11.0004
▁se	-11.0007
▁email	-11.0007
ach	-11.001
▁chúc	-11.0014
▁lợn	-11.0017
▁*	-11.0024
▁ngực	-11.0029
▁iron	-11.0031
▁decide	-11.0032
▁beauty	-11.0033
đ	-11.0034
▁Android	-11.0035
▁Inter	-11.0037
▁fair	-11.004
▁Radio	-11.004
xi	-11.0045
▁Mc	-11.0048
▁sight	-11.0048
▁copies	-11.0048
Cl	-11.0051
▁trừng	-11.0052
▁worried	-11.0053
▁entirely	-11.0058
▁1998,	-11.0058
Ta	-11.0065
▁suffered	-11.0067
▁huyền	-11.0072
▁willing	-11.0072
▁faith	-11.0078
▁thùng	-11.0078
▁rồi	-11.0079
▁Hạm	-11.008
▁decades	-11.0086
▁hero	-11.0086
▁oldest	-11.0087
▁functions	-11.0089
▁rủi	-11.009
▁phấn	-11.01
▁NASA	-11.01
▁sq	-11.01
▁đâm	-11.0106
▁600	-11.0107
65	-11.0117
cause	-11.0117
▁dáng	-11.0117
2%	-11.0121
▁Chưa	-11.0126
▁xuân	-11.0137
▁weird	-11.0137
▁intelligence	-11.0138
ability	-11.014
▁literature	-11.0142
▁Duke	-11.0144
▁Lịch	-11.0149
hu	-11.015
▁Secretary	-11.0152
▁mis	-11.0153
▁selected	-11.0155
▁Born	-11.0156
▁wine	-11.0157
▁Thai	-11.0161
▁(6	-11.0163
ichi	-11.0166
▁Kar	-11.0177
▁Head	-11.0178
▁Rose	-11.018
▁bigger	-11.018
▁mountains	-11.0182
▁Castle	-11.0184
▁stone	-11.0185
▁Mom	-11.0191
ose	-11.0193
▁symptoms	-11.0193
▁đến	-11.0194
▁khiếp	-11.0197
▁capture	-11.0201
▁Vụ	-11.0203
ning	-11.0209
▁hoà	-11.021
▁hotel	-11.0211
▁1938	-11.0211
▁god	-11.0215
port	-11.022
▁distinct	-11.0221
▁fashion	-11.0223
22	-11.0229
▁nor	-11.0233
▁sports	-11.0234
▁processes	-11.0245
tte	-11.0247
▁Thủy	-11.0249
▁Perhaps	-11.0252
▁Hành	-11.0252
▁Say	-11.0255
▁mobile	-11.0257
▁certainly	-11.0262
ú	-11.0263
▁đụng	-11.0268
▁devices	-11.0268
▁matters	-11.027
▁Americans	-11.0272
▁birds	-11.0272
▁huynh	-11.0282
but	-11.0282
▁infection	-11.0291
▁organized	-11.0292
▁Sydney	-11.0294
▁leg	-11.0296
▁solar	-11.0297
09	-11.0299
▁nearby	-11.0301
▁Ve	-11.0307
mm	-11.0309
▁Ukraine	-11.0311
α	-11.0312
▁chart	-11.0312
▁sites	-11.0316
ori	-11.0318
▁Fi	-11.0319
▁Civil	-11.0322
▁solo	-11.0326
fo	-11.0328
Ba	-11.0332
9%	-11.0333
▁kinds	-11.0335
▁thế	-11.0337
▁mono	-11.0337
79	-11.034
▁Arts	-11.0341
▁require	-11.0343
▁Hỏa	-11.0353
▁evil	-11.0353
▁existence	-11.0355
ư	-11.0356
▁Bridge	-11.0356
▁chẽ	-11.0358
▁khôi	-11.0359
Chúng	-11.0365
▁expression	-11.0367
▁volume	-11.0368
▁19,	-11.0373
▁Service	-11.0375
▁Space	-11.0376
▁owned	-11.038
▁tools	-11.0383
▁pure	-11.0383
▁revolution	-11.0384
▁tháo	-11.0385
▁sides	-11.0385
▁Post	-11.0387
▁tóm	-11.039
▁nhượng	-11.039
▁AD	-11.039
07	-11.0391
ward	-11.0391
▁pieces	-11.0391
▁opposite	-11.0401
▁Station	-11.0402
▁speaking	-11.0403
▁dear	-11.0408
36	-11.0411
▁MTV	-11.0413
▁Power	-11.0413
▁apart	-11.0415
▁zone	-11.0421
▁Portuguese	-11.0422
▁chợ	-11.0423
▁Play	-11.0427
▁solve	-11.0435
▁achieved	-11.0436
▁$1	-11.0436
▁versions	-11.0438
▁lab	-11.0445
▁cỏ	-11.0449
▁arrested	-11.0449
van	-11.0451
▁Quảng	-11.0453
▁clubs	-11.0454
ở	-11.0455
▁Quản	-11.0456
41	-11.0458
▁Fire	-11.046
▁refer	-11.0461
▁1944,	-11.0463
▁structures	-11.0467
▁severe	-11.0468
▁armed	-11.0477
88	-11.0477
-6	-11.0479
▁Khmer	-11.048
▁Tim	-11.048
▁ngợi	-11.0492
▁perform	-11.0492
▁mòn	-11.0493
▁returning	-11.0494
▁cash	-11.0497
-18	-11.0497
▁atmosphere	-11.0497
▁combination	-11.05
▁arrest	-11.0502
▁helping	-11.0503
▁closely	-11.0503
Th	-11.0504
▁65	-11.0505
▁el	-11.0507
32	-11.0508
▁Bruce	-11.0509
▁cóc	-11.0509
lia	-11.051
▁sàn	-11.051
▁architecture	-11.0514
▁silver	-11.0514
▁beta	-11.0516
▁Marshall	-11.052
▁trans	-11.0522
▁youth	-11.0524
53	-11.0524
▁resistance	-11.0525
▁giãn	-11.0526
33	-11.0529
▁Philadelphia	-11.053
▁Nước	-11.0531
▁Cám	-11.0532
▁thịnh	-11.0535
▁ending	-11.0536
98	-11.0537
▁investment	-11.0538
▁cài	-11.054
▁Mother	-11.0545
▁Think	-11.0558
23	-11.0565
▁miếng	-11.0568
▁Bulgaria	-11.0572
▁pictures	-11.0578
Do	-11.0578
anh	-11.058
▁Tương	-11.058
▁Sarah	-11.0583
▁Between	-11.059
▁khỉ	-11.059
▁lb	-11.059
▁cự	-11.0592
▁solid	-11.0593
▁yellow	-11.0598
68	-11.0598
Anh	-11.0599
▁chìa	-11.0599
▁context	-11.06
ator	-11.0601
▁Đôn	-11.0603
▁Thi	-11.0605
▁municipality	-11.0606
▁Bor	-11.0609
▁walking	-11.061
▁officials	-11.061
▁formal	-11.0611
▁overall	-11.0612
▁fields	-11.0613
Al	-11.0614
ors	-11.0616
▁Trump	-11.0619
xin	-11.0621
▁dying	-11.0623
ens	-11.0625
42	-11.0626
Không	-11.0626
▁Sen	-11.0626
▁đáo	-11.0628
▁terrible	-11.0628
▁Liệu	-11.0647
▁Development	-11.065
▁rain	-11.0652
▁teaching	-11.0655
7%	-11.066
▁lạm	-11.066
▁gay	-11.0662
▁upper	-11.0663
▁ph	-11.0671
▁serving	-11.0674
64	-11.0674
được	-11.0676
▁gift	-11.0676
▁alongside	-11.0677
▁derived	-11.0678
▁bông	-11.0678
-10	-11.0691
▁Model	-11.0696
jin	-11.0697
▁ruled	-11.0703
▁temple	-11.0704
▁Bueno	-11.0705
▁cát	-11.071
▁Alaska	-11.0711
▁rào	-11.0711
▁Brian	-11.0712
6%	-11.0713
▁et	-11.0715
▁Tam	-11.0722
▁Linux	-11.073
500	-11.0731
▁1934	-11.0733
▁Team	-11.0733
▁120	-11.0733
▁credit	-11.0736
sis	-11.0737
▁religion	-11.0737
▁starts	-11.0741
▁lõi	-11.0744
▁proud	-11.0744
56	-11.0744
ông	-11.0745
▁Oregon	-11.0749
CO	-11.075
sex	-11.0753
▁Doctor	-11.0757
▁bacteria	-11.0758
▁houses	-11.0758
▁rates	-11.0758
▁rồng	-11.076
▁Sweden	-11.076
▁rẻ	-11.0761
▁Joey	-11.0763
Ch	-11.0764
▁Trang	-11.0765
mus	-11.0767
▁Stalin	-11.0768
▁Aires	-11.077
▁1980,	-11.0777
▁đạp	-11.0777
▁Project	-11.0779
▁invited	-11.0781
▁grand	-11.0782
▁pair	-11.0782
los	-11.0782
▁captain	-11.0783
▁Biển	-11.0783
▁resulted	-11.0784
89	-11.0784
ky	-11.0787
▁edition	-11.0788
▁dũng	-11.0788
▁executive	-11.0789
▁statement	-11.0792
▁buried	-11.0794
ral	-11.0794
▁mũ	-11.0799
▁weak	-11.0804
▁carrier	-11.0805
▁Everyone	-11.0806
qua	-11.0809
▁Cực	-11.0811
▁Keep	-11.0813
▁Đảo	-11.0816
▁đếm	-11.0818
▁Sta	-11.0823
▁Va	-11.0824
▁thanks	-11.0825
▁surprise	-11.0829
▁Vài	-11.0831
▁Harvard	-11.0833
▁Lễ	-11.0833
▁Phim	-11.0837
à	-11.0837
▁phẳng	-11.0839
▁Ex	-11.0839
ep	-11.0839
ima	-11.0849
▁responsibility	-11.085
▁allowing	-11.085
▁soil	-11.0851
▁fat	-11.0852
▁Special	-11.0853
▁vang	-11.0854
▁gọn	-11.0855
▁cycle	-11.086
▁tươi	-11.0861
▁gain	-11.0862
▁bọc	-11.0863
▁lệch	-11.0863
▁refused	-11.0864
▁adult	-11.0866
▁politician	-11.0867
▁script	-11.0869
He	-11.0875
▁Karl	-11.0878
▁engineering	-11.088
▁skills	-11.0887
nic	-11.0888
▁smell	-11.089
▁magic	-11.0892
▁10%	-11.0893
▁victims	-11.0893
▁ven	-11.0894
▁tang	-11.0896
▁39	-11.0899
▁Ash	-11.0909
▁Mer	-11.0911
▁leadership	-11.0912
▁(16	-11.0913
▁refers	-11.0915
▁headed	-11.0918
▁maintain	-11.0921
▁focused	-11.0922
▁eating	-11.0925
uri	-11.0928
▁inch	-11.093
▁Ci	-11.0931
▁Pope	-11.0933
▁danger	-11.0935
5%	-11.0936
▁Je	-11.0941
▁Quần	-11.0945
▁trôi	-11.0945
▁mỹ	-11.0945
▁requires	-11.0951
▁recognize	-11.0955
ane	-11.0955
▁thô	-11.0955
▁recording	-11.0956
▁semi	-11.0956
▁importance	-11.0957
▁Dưới	-11.0957
▁800	-11.0962
▁lawyer	-11.0964
cu	-11.0965
▁Eric	-11.0965
2)	-11.0966
▁clearly	-11.0968
▁1988	-11.0968
▁1933	-11.0969
▁;	-11.0969
▁genetic	-11.0969
4%	-11.0972
bb	-11.0973
▁xưởng	-11.0974
▁vay	-11.0974
▁Ad	-11.0977
▁actor	-11.0983
05	-11.0984
you	-11.0986
light	-11.0986
▁Chart	-11.0988
▁Never	-11.0992
▁vĩnh	-11.0992
▁kiên	-11.0994
▁mixed	-11.0994
▁bio	-11.0995
▁concerned	-11.0996
▁History	-11.0997
▁Rico	-11.0998
ight	-11.0999
96	-11.1001
▁ngừa	-11.1003
▁physics	-11.1006
▁firm	-11.1012
▁sequence	-11.1013
▁đ	-11.1013
▁nát	-11.1014
▁meters	-11.1015
▁phú	-11.1018
2.	-11.1022
▁milk	-11.1022
PA	-11.1029
▁chai	-11.1029
▁Syrian	-11.103
▁hằng	-11.1031
ơ	-11.1032
▁Director	-11.1035
▁mistake	-11.1036
▁thỉnh	-11.1036
▁kiệm	-11.1036
êu	-11.1043
69	-11.1046
▁Hòa	-11.1048
▁sand	-11.105
▁Remember	-11.1053
▁snow	-11.1059
▁Sunday	-11.1061
▁bột	-11.1062
▁Andrew	-11.1063
▁communication	-11.1063
▁55	-11.1066
▁frequently	-11.1067
▁Coast	-11.1068
▁easier	-11.107
▁driving	-11.1071
TV	-11.1071
▁Bur	-11.1075
▁elections	-11.1076
▁describe	-11.1076
▁2019	-11.108
▁Robin	-11.108
▁vision	-11.1083
▁ấy	-11.1083
▁testing	-11.109
▁height	-11.109
▁experiment	-11.1092
zy	-11.1093
ae	-11.1094
pha	-11.1095
amp	-11.1095
▁desert	-11.1099
▁Kan	-11.1103
▁keeping	-11.1107
34	-11.1109
▁moon	-11.1109
▁lake	-11.1109
▁Caribbean	-11.1112
▁đẻ	-11.1116
ì	-11.1117
▁bringing	-11.112
▁goods	-11.1129
now	-11.1129
▁Wars	-11.113
▁bồi	-11.1131
▁Stephen	-11.1134
▁hearing	-11.1135
▁Abu	-11.1135
▁cars	-11.1136
▁ổ	-11.1137
▁proper	-11.1138
▁tend	-11.1138
▁differences	-11.1144
bin	-11.1145
▁tradition	-11.1146
▁Tài	-11.1146
tha	-11.1146
▁feelings	-11.1149
▁Gu	-11.115
70	-11.1151
▁fixed	-11.1152
rie	-11.1154
▁Đáng	-11.1158
▁sp	-11.1161
54	-11.1161
như	-11.1162
Ho	-11.1164
▁kem	-11.1166
▁bớt	-11.1174
▁basically	-11.1175
▁exact	-11.1177
▁granted	-11.1177
▁UN	-11.1178
▁1944	-11.1178
▁khát	-11.118
▁1,000	-11.1181
▁positions	-11.1181
▁abandoned	-11.1182
▁Netherlands	-11.1186
pre	-11.1187
▁logic	-11.119
▁1997,	-11.1193
▁corner	-11.1197
▁thổi	-11.1197
▁causing	-11.1198
▁truly	-11.1198
▁loan	-11.1202
▁Thậm	-11.1203
▁marked	-11.1204
▁scored	-11.1205
▁newspaper	-11.1207
▁kịp	-11.1209
▁producer	-11.1211
▁inspired	-11.1214
▁dogs	-11.1219
▁queen	-11.1222
▁controlled	-11.1223
▁Mad	-11.1225
58	-11.1228
▁Someone	-11.1229
▁Pop	-11.1232
▁Roma	-11.1233
▁Pra	-11.1235
ela	-11.1238
hay	-11.1238
▁surgery	-11.1238
▁250	-11.1244
▁stable	-11.1251
"?	-11.1252
▁Golden	-11.1255
3%	-11.1257
▁guitar	-11.1258
▁Euro	-11.1267
▁thép	-11.1267
▁seemed	-11.1271
97	-11.1274
▁Taiwan	-11.1275
▁chose	-11.1279
▁constant	-11.1281
▁về	-11.1285
▁emperor	-11.1287
▁leads	-11.1288
▁bill	-11.1288
▁sugar	-11.1291
▁compound	-11.1295
▁Thus	-11.1298
▁palace	-11.1302
▁promised	-11.1305
▁containing	-11.1306
▁z	-11.1308
▁damaged	-11.1309
▁Del	-11.1309
▁conference	-11.131
▁approved	-11.1312
▁Channel	-11.1314
▁Thanks	-11.1316
over	-11.1319
▁dress	-11.1322
▁spoke	-11.1326
▁mờ	-11.1332
▁relative	-11.1333
▁Until	-11.1338
▁Beach	-11.1339
▁institutions	-11.1342
▁Mông	-11.1343
cer	-11.1345
▁rapidly	-11.1347
▁Báo	-11.1349
▁display	-11.1352
▁ends	-11.1352
long	-11.1357
▁salt	-11.1361
▁sword	-11.1361
▁Dark	-11.1365
▁sơn	-11.1366
▁1942,	-11.1367
▁Sáng	-11.1368
▁correct	-11.1369
▁Age	-11.137
▁discovery	-11.137
rate	-11.1372
▁protected	-11.1372
▁Il	-11.1372
▁nhựa	-11.1373
▁Final	-11.1373
77	-11.1376
▁Book	-11.1376
▁lắp	-11.1379
▁Tiền	-11.1379
▁Social	-11.1383
▁Jacob	-11.1386
▁Olympics	-11.1386
▁suppose	-11.1387
▁joint	-11.1387
▁Egyptian	-11.1387
ice	-11.1388
▁determine	-11.1393
▁shooting	-11.1395
pan	-11.1395
▁medium	-11.1401
▁José	-11.1402
▁nghiện	-11.1403
▁trained	-11.1403
ag	-11.1405
ala	-11.1406
▁Fort	-11.1408
▁nộp	-11.1409
▁Saudi	-11.1409
▁setting	-11.141
▁titled	-11.1416
▁achieve	-11.1416
▁element	-11.142
ming	-11.142
200	-11.1422
▁Mediterranean	-11.1426
▁Tàu	-11.1426
▁letters	-11.1426
yu	-11.1427
▁flat	-11.1428
▁Whatever	-11.1429
▁1921	-11.143
▁Tai	-11.1432
}}	-11.1436
cal	-11.1437
▁Due	-11.144
▁hydrogen	-11.1442
▁naval	-11.1444
▁muốn	-11.145
▁Nghĩa	-11.1453
▁nét	-11.1453
▁đáy	-11.1454
ible	-11.1455
▁claims	-11.1456
▁Jews	-11.1457
dis	-11.1461
▁Bra	-11.1463
▁Jersey	-11.1468
▁emergency	-11.1468
To	-11.1469
▁provinces	-11.1469
▁computers	-11.147
▁expansion	-11.1474
▁healthy	-11.1475
▁details	-11.1475
▁reference	-11.1475
pin	-11.1479
rk	-11.1484
▁Several	-11.1486
▁na	-11.149
▁Caesar	-11.149
▁Okinawa	-11.1491
▁xích	-11.1498
▁museum	-11.1498
▁unable	-11.1503
▁concert	-11.1504
▁sum	-11.1509
▁concentration	-11.151
▁promotion	-11.1511
▁expanded	-11.1513
▁giant	-11.1515
▁Son	-11.1516
▁jobs	-11.1516
▁lying	-11.1518
del	-11.1521
▁Cat	-11.1525
▁Stop	-11.1527
▁liver	-11.1528
76	-11.1535
▁Byzantine	-11.1535
▁→	-11.1536
▁maximum	-11.1539
▁Sh	-11.1541
▁Should	-11.1542
▁chăn	-11.1543
▁renamed	-11.1546
▁pattern	-11.1547
▁50%	-11.1548
▁Commission	-11.155
ls	-11.155
ón	-11.1552
▁Congo	-11.1554
pp	-11.1555
▁formula	-11.1556
▁Ser	-11.1557
▁traffic	-11.1557
ối	-11.1559
▁instance	-11.1565
▁mg	-11.1574
ari	-11.1575
▁bird	-11.1576
▁Victor	-11.1576
▁Tar	-11.1577
▁gods	-11.1578
sưu	-11.158
▁Turkey	-11.1582
dom	-11.1582
▁graduated	-11.1587
▁honey	-11.1588
▁sự	-11.1594
▁Vo	-11.1594
▁Norman	-11.1596
▁feels	-11.1597
▁khoan	-11.16
ub	-11.1604
▁Holy	-11.1604
▁advice	-11.1612
▁cu	-11.1613
▁Has	-11.1614
▁ethnic	-11.1614
▁1942	-11.1615
▁Global	-11.1615
▁spin	-11.162
▁Allen	-11.1629
ー	-11.163
▁justice	-11.1631
▁hasn	-11.1635
▁yesterday	-11.1636
▁Cầu	-11.1637
▁sing	-11.164
▁Os	-11.1642
▁Batman	-11.1643
▁shop	-11.1645
▁earned	-11.1646
▁Though	-11.1648
▁xỉ	-11.1649
400	-11.165
▁ghé	-11.1652
▁streets	-11.1661
ii	-11.1664
▁winner	-11.1664
▁Cá	-11.1666
▁improved	-11.1666
1%	-11.1667
▁Five	-11.1667
▁cốc	-11.1667
8%	-11.1668
also	-11.1668
▁broadcast	-11.167
▁escort	-11.167
nce	-11.1677
▁Loại	-11.168
▁guard	-11.1683
▁lots	-11.1685
▁governor	-11.1685
▁Instead	-11.1687
▁Palace	-11.1691
▁Tra	-11.1696
▁Ly	-11.1706
▁Jerusalem	-11.1709
din	-11.1713
▁aware	-11.1714
▁Latinh	-11.172
▁techniques	-11.172
▁spirit	-11.1721
▁Square	-11.1721
▁bag	-11.1721
dic	-11.1724
▁Java	-11.1725
▁Campuchia	-11.1727
▁Carlos	-11.1727
78	-11.1728
▁Ngôi	-11.1738
▁definition	-11.174
-7	-11.1741
▁Tìm	-11.1742
▁CIA	-11.1748
▁Ber	-11.1748
▁definitely	-11.1758
▁Cy	-11.176
▁rose	-11.176
▁Monica	-11.1765
pur	-11.177
qu	-11.1771
▁×	-11.1774
ensis	-11.1782
ese	-11.1782
▁arts	-11.1787
▁đớn	-11.1788
star	-11.1789
▁tests	-11.1793
tia	-11.1794
▁2003.	-11.1795
ero	-11.1797
▁1987	-11.1797
▁Bá	-11.1798
▁welcome	-11.1798
▁Lai	-11.18
▁expensive	-11.1801
▁specifically	-11.1802
▁absolutely	-11.1803
▁des	-11.1804
▁rã	-11.1805
▁Next	-11.1807
▁symbol	-11.1811
▁SS	-11.1812
▁providing	-11.1813
▁Vị	-11.1813
67	-11.1814
–18	-11.1816
▁acquired	-11.1816
hiếp	-11.1816
ré	-11.1819
▁Democratic	-11.1819
▁Water	-11.1828
▁suicide	-11.1832
▁opposition	-11.1832
▁nướng	-11.1832
▁Tới	-11.1832
CH	-11.1839
aw	-11.1841
▁cống	-11.1842
▁Security	-11.1844
▁labor	-11.1846
▁replace	-11.1847
▁blind	-11.1847
▁soft	-11.185
ira	-11.1854
▁cấy	-11.1857
▁wing	-11.1858
▁thinks	-11.186
▁dịp	-11.1862
var	-11.1864
▁remove	-11.1866
▁Davis	-11.1871
▁criminal	-11.1871
▁Alan	-11.1872
▁copy	-11.1872
▁Heart	-11.1875
ả	-11.1876
▁Treaty	-11.1882
low	-11.1885
▁2000.	-11.1891
▁Cap	-11.1892
ball	-11.1893
▁1929	-11.1895
▁1970,	-11.1895
ato	-11.1898
▁Public	-11.1901
▁seriously	-11.1901
▁Einstein	-11.1902
▁dynasty	-11.1906
nan	-11.1906
▁fruit	-11.1907
▁Way	-11.191
▁Sky	-11.1911
▁0,	-11.1919
▁complicated	-11.1919
not	-11.1928
▁investigation	-11.193
▁cưng	-11.1934
▁separated	-11.1938
▁suddenly	-11.194
▁ti	-11.194
-8	-11.1941
▁jump	-11.1942
rat	-11.1943
=	-11.1949
▁Cal	-11.1949
▁ngoan	-11.195
▁promote	-11.1957
31	-11.1959
▁20,	-11.196
▁(15	-11.1962
83	-11.1968
▁settlement	-11.1968
01	-11.1972
nie	-11.1975
▁mồ	-11.1978
▁mad	-11.198
▁Camp	-11.1982
▁CEO	-11.1982
▁killer	-11.1983
▁dắt	-11.1987
▁lọt	-11.1989
▁Mon	-11.1992
▁1996,	-11.1992
▁Twitter	-11.1994
▁sector	-11.1994
▁Qu	-11.1994
ika	-11.1995
▁Norfolk	-11.2
▁Bre	-11.2
yama	-11.2002
▁prominent	-11.2002
mun	-11.2003
▁Las	-11.2005
mp	-11.2006
▁alpha	-11.2008
93	-11.2011
▁fool	-11.2013
▁review	-11.2014
▁tool	-11.2016
▁Swedish	-11.2017
▁secondary	-11.2018
▁liquid	-11.2019
▁Vẫn	-11.2019
▁dải	-11.2019
▁roof	-11.2019
▁waters	-11.202
▁examples	-11.2021
▁laser	-11.2021
▁cop	-11.2022
▁evolution	-11.2022
▁mò	-11.2027
71	-11.203
▁vắc	-11.2031
▁everywhere	-11.2032
▁ong	-11.2033
ole	-11.2033
▁10,000	-11.2034
▁decisions	-11.2041
▁engaged	-11.2056
▁trinh	-11.2059
known	-11.2061
vis	-11.2062
▁buýt	-11.2063
▁legs	-11.2063
▁18,	-11.2068
▁Para	-11.2074
▁Point	-11.2074
▁1931	-11.2075
▁1939	-11.2075
▁trương	-11.2082
▁Zo	-11.2083
▁1941	-11.2087
▁1927	-11.209
▁Girl	-11.209
▁farm	-11.2092
▁familiar	-11.2095
iv	-11.21
▁existing	-11.2102
aceae	-11.2102
▁influenced	-11.2103
62	-11.2106
-17	-11.2107
▁sỹ	-11.2107
ü	-11.2108
▁push	-11.2111
lar	-11.2113
▁ngơi	-11.2114
▁Nobody	-11.2121
iya	-11.2121
▁constructed	-11.2122
▁Oscar	-11.2127
▁listed	-11.2127
hoặc	-11.2133
▁coronavirus	-11.2133
ned	-11.2142
▁ceremony	-11.2145
▁prefer	-11.2145
▁mọc	-11.2146
▁dedicated	-11.2146
▁Mau	-11.215
▁chốt	-11.2152
▁gấu	-11.2152
▁Miami	-11.2152
▁Trò	-11.2152
▁Professor	-11.2153
▁Giáng	-11.2154
▁cạn	-11.2157
▁suit	-11.2158
▁empire	-11.216
▁limit	-11.2166
▁Portugal	-11.2166
▁busy	-11.2166
eo	-11.217
dar	-11.2173
▁le	-11.2174
▁gà	-11.2175
▁tọa	-11.2177
▁administrative	-11.2181
▁1994,	-11.2182
▁Jamaica	-11.2183
▁territories	-11.2184
▁bound	-11.2185
▁Iron	-11.2188
▁Palestine	-11.219
US	-11.2193
▁literally	-11.2195
▁biological	-11.2197
▁củng	-11.2198
▁mental	-11.22
ale	-11.2209
▁Oxford	-11.2209
94	-11.2211
▁Brazilian	-11.2213
▁deaths	-11.2224
stone	-11.2224
▁Ted	-11.2229
▁Greece	-11.2229
▁otherwise	-11.223
ska	-11.223
▁counter	-11.2232
▁successor	-11.2233
sch	-11.2233
▁quát	-11.2235
▁Sáu	-11.2235
▁Cúp	-11.224
▁machines	-11.224
nal	-11.2241
▁Ren	-11.2246
OS	-11.2249
▁Command	-11.2249
▁concern	-11.2256
▁(7	-11.2257
▁bê	-11.226
▁Thuật	-11.2261
▁taste	-11.2261
▁Đệ	-11.2261
▁note	-11.2262
▁edge	-11.2264
▁normally	-11.2264
▁depending	-11.2265
▁roles	-11.2267
ä	-11.2268
▁Rõ	-11.2268
▁1995,	-11.2268
ther	-11.2269
▁bright	-11.227
▁Phu	-11.2271
▁sailed	-11.2272
▁theme	-11.2273
▁Thêm	-11.2274
▁khử	-11.2274
▁jail	-11.2274
af	-11.2276
▁extensive	-11.2277
▁nghịch	-11.2277
py	-11.228
▁orbit	-11.2282
▁expressed	-11.2284
▁dạ	-11.2286
▁settled	-11.2292
▁bin	-11.2293
▁Milan	-11.2296
61	-11.2297
So	-11.2298
▁Business	-11.23
▁suffering	-11.23
▁titles	-11.23
▁bo	-11.2304
▁bẩn	-11.2306
▁sắm	-11.2306
ib	-11.2308
eh	-11.2316
▁signs	-11.2318
▁occupied	-11.2319
ks	-11.2325
ο	-11.2326
▁lỡ	-11.2326
Mo	-11.2326
▁Nepal	-11.2327
▁experienced	-11.2329
▁rạp	-11.2332
▁glad	-11.2334
▁sets	-11.2334
istic	-11.2334
▁Constitution	-11.2334
▁00	-11.2335
▁PlayStation	-11.2339
▁Thằng	-11.2339
▁Dave	-11.234
51	-11.2344
▁council	-11.2345
▁facilities	-11.2345
ye	-11.2345
▁incident	-11.2357
▁tough	-11.2357
▁fired	-11.2358
▁pleasure	-11.2358
▁twenty	-11.2358
▁Key	-11.2358
52	-11.2367
-12	-11.2369
▁Định	-11.2371
▁Mas	-11.2372
▁Part	-11.2373
oid	-11.2375
▁residents	-11.2375
▁flowers	-11.2376
▁Ford	-11.2383
▁cup	-11.2384
▁towns	-11.2389
▁millions	-11.2391
100	-11.2392
▁ngưng	-11.2394
▁acts	-11.2397
▁(8	-11.2397
92	-11.24
▁rapid	-11.2403
▁bunch	-11.2404
▁notable	-11.2406
▁uncle	-11.2409
▁recognition	-11.2411
▁Hoàn	-11.2414
▁Stadium	-11.2417
▁lùng	-11.2419
Be	-11.2419
▁balance	-11.2419
▁tail	-11.2421
▁Giá	-11.2422
▁Kẻ	-11.2422
▁Among	-11.2424
▁county	-11.2425
▁#273;	-11.243
▁follows	-11.2433
▁judge	-11.2433
▁opinion	-11.2434
▁(10	-11.2437
▁missed	-11.2439
▁1924	-11.2442
▁Kitô	-11.2443
pping	-11.2445
▁mỏi	-11.2446
▁sad	-11.245
▁covers	-11.2451
▁rồ	-11.2454
▁decade	-11.2455
▁óc	-11.2456
▁rank	-11.246
▁Ukraina	-11.2463
▁dĩ	-11.2464
▁typical	-11.2466
▁nha	-11.2466
▁strike	-11.2466
SA	-11.2467
gal	-11.2471
▁affect	-11.2471
mat	-11.2471
▁continues	-11.2472
▁score	-11.2473
▁relationships	-11.2473
▁attempted	-11.2474
▁vehicle	-11.2474
▁End	-11.2482
▁teeth	-11.2483
các	-11.2485
▁Third	-11.249
with	-11.2493
▁reaching	-11.2493
kai	-11.2498
▁Wow	-11.2498
▁newly	-11.2499
▁46	-11.25
▁honest	-11.25
▁platform	-11.2503
▁Vice	-11.2504
▁43	-11.2509
▁mathematics	-11.2509
▁Lewis	-11.251
ical	-11.2512
▁heads	-11.2515
91	-11.2517
▁survived	-11.2517
▁peak	-11.252
▁empty	-11.2522
▁Tướng	-11.2523
▁row	-11.2524
▁defense	-11.2526
▁RNA	-11.253
▁carrying	-11.2532
▁Hóa	-11.2535
▁opposed	-11.2537
▁Kepler	-11.2549
▁lu	-11.2549
▁obviously	-11.2552
ED	-11.2552
▁1926	-11.2554
▁Wikipedia	-11.2555
▁tuệ	-11.2556
▁manufacturing	-11.2562
▁Houston	-11.2562
hl	-11.2563
▁extreme	-11.2565
▁inhabitants	-11.2569
▁principal	-11.2572
▁filled	-11.2574
ram	-11.2574
▁Pennsylvania	-11.2575
▁agents	-11.2577
▁stayed	-11.2577
▁Lanka	-11.2578
ama	-11.2578
▁Sar	-11.2579
▁Vườn	-11.2583
▁nose	-11.2585
▁Bal	-11.2587
▁afternoon	-11.2589
▁mention	-11.259
▁succeeded	-11.2592
cin	-11.2593
▁Leo	-11.2595
81	-11.2595
▁pilot	-11.2599
▁advance	-11.2602
▁secure	-11.2606
▁Howard	-11.2606
▁Education	-11.2606
▁1992,	-11.2608
▁52	-11.2609
ora	-11.2612
▁proved	-11.2614
▁mess	-11.2614
▁tissue	-11.2615
▁studying	-11.2617
▁kỵ	-11.2622
▁Kra	-11.2623
▁vượng	-11.2629
American	-11.2631
SE	-11.2632
▁stations	-11.2635
▁neither	-11.2635
kov	-11.2637
▁permanent	-11.2641
▁Động	-11.2642
hand	-11.2643
▁tower	-11.2645
▁Sơn	-11.2646
▁careful	-11.2647
▁steal	-11.2648
▁quãng	-11.2649
▁ultimately	-11.265
▁Napoleon	-11.2654
▁bone	-11.2655
lla	-11.2656
▁Vịnh	-11.2656
▁Serbia	-11.2656
▁Mexican	-11.266
▁Order	-11.2666
▁policies	-11.2669
▁Chan	-11.2675
▁Dong	-11.2675
▁library	-11.2676
▁VII	-11.268
▁rural	-11.2681
ins	-11.2681
▁rẽ	-11.2683
▁0.	-11.2687
▁net	-11.2693
▁portion	-11.2694
▁Stark	-11.2695
▁slowly	-11.2695
▁Ghana	-11.2696
▁Tower	-11.2697
▁Six	-11.2697
▁bốc	-11.27
▁technologies	-11.2703
▁Âm	-11.2706
aria	-11.2708
▁Morgan	-11.2708
ona	-11.2709
▁nhi	-11.2709
06	-11.2709
▁label	-11.271
Man	-11.2711
▁Sudan	-11.2712
▁17,	-11.2713
▁Chelsea	-11.2716
▁perspective	-11.2716
▁Network	-11.2717
▁girlfriend	-11.2719
▁holds	-11.272
▁designated	-11.2722
▁Yi	-11.2723
uma	-11.2724
▁Qua	-11.2725
more	-11.2726
▁equivalent	-11.2727
▁ensure	-11.273
▁khoáng	-11.2731
▁singing	-11.2732
▁visible	-11.2733
и	-11.2735
▁1984	-11.2742
Tr	-11.2742
▁rice	-11.2747
▁alcohol	-11.2748
ade	-11.2749
▁Supreme	-11.275
▁Commander	-11.2751
▁therapy	-11.2754
ec	-11.2754
*	-11.2757
▁lăng	-11.2759
▁Miller	-11.2762
▁Hospital	-11.2763
▁weekend	-11.2764
Cause	-11.2765
khiêu	-11.2768
▁Sang	-11.2768
▁Arizona	-11.277
▁Military	-11.277
▁Thể	-11.277
▁childhood	-11.2771
▁Sử	-11.2773
▁qu	-11.2775
▁Dịch	-11.2778
▁reform	-11.2778
▁hunting	-11.2778
stra	-11.2778
▁Ram	-11.278
▁factory	-11.2785
▁establishment	-11.2785
Sa	-11.2786
▁Ol	-11.2787
▁Danny	-11.2791
▁Croatia	-11.2795
▁victim	-11.2799
▁subsequent	-11.2801
▁measures	-11.2803
▁Pedro	-11.2804
▁markets	-11.2805
▁organic	-11.2808
▁đắt	-11.2811
▁Tỉnh	-11.2811
▁Web	-11.2811
▁Muốn	-11.2812
▁Eu	-11.2812
▁guest	-11.2813
▁thấy	-11.2818
cent	-11.2821
▁marketing	-11.2822
▁Airlines	-11.2825
▁satellite	-11.2829
▁quiet	-11.2831
IC	-11.2832
▁bù	-11.2833
board	-11.2835
▁1923	-11.2837
ò	-11.2838
▁Emily	-11.2839
ified	-11.2842
▁manner	-11.2847
▁Type	-11.2851
▁turning	-11.2852
▁Truyền	-11.2854
▁Ze	-11.2854
hr	-11.2859
▁Gordon	-11.2859
▁Studios	-11.286
-15	-11.2869
eng	-11.2872
down	-11.2872
bra	-11.2874
▁listening	-11.2875
▁temperatures	-11.2877
ö	-11.288
▁sons	-11.288
▁Bush	-11.2882
▁Bao	-11.2884
▁waves	-11.2884
▁móng	-11.2885
▁tested	-11.2886
EC	-11.2887
▁Such	-11.2888
▁Peace	-11.289
▁Corps	-11.2891
▁increasingly	-11.2892
ig	-11.2895
▁w	-11.2895
town	-11.2896
▁Champions	-11.2901
▁vaccine	-11.2902
▁quarter	-11.2903
▁Centre	-11.2904
▁khớp	-11.2907
▁roughly	-11.2912
▁cuộn	-11.2914
300	-11.2915
▁điêu	-11.2921
è	-11.2921
▁successfully	-11.2924
▁1982	-11.2924
▁steps	-11.2924
▁rescue	-11.2925
▁Dar	-11.2928
ery	-11.293
▁motor	-11.2933
▁technical	-11.2933
▁khen	-11.2936
ân	-11.2937
▁exists	-11.2938
▁Trông	-11.2942
▁Guatemala	-11.2942
▁Villa	-11.2947
Oh	-11.2947
▁blog	-11.2948
▁possibility	-11.2948
▁Sin	-11.2954
▁Muslim	-11.2955
▁sói	-11.2955
▁13,	-11.2956
which	-11.2958
▁47	-11.2958
▁customers	-11.2958
▁Still	-11.2962
▁Santiago	-11.2962
▁Chandler	-11.2962
▁burn	-11.2965
▁tired	-11.2965
des	-11.2968
▁44	-11.2968
▁fill	-11.2969
▁academic	-11.2969
▁Cung	-11.2971
▁1993,	-11.2972
▁shortly	-11.2975
▁EP	-11.2975
▁headquarters	-11.2976
ami	-11.2979
▁forests	-11.298
▁ngoái	-11.2983
▁angry	-11.2983
▁bẫy	-11.299
▁Vol	-11.2991
▁Cross	-11.2993
▁calm	-11.2994
▁diệu	-11.2997
sin	-11.2998
▁Den	-11.3004
▁owner	-11.3015
▁plastic	-11.3016
▁USA	-11.3019
▁Modern	-11.3019
▁standards	-11.302
▁benefit	-11.3022
72	-11.3024
▁ka	-11.3024
▁41	-11.3027
air	-11.3034
▁Foreign	-11.3038
▁Kevin	-11.3039
▁HMS	-11.304
▁para	-11.3045
▁understood	-11.3045
▁dốc	-11.3046
sta	-11.3047
▁51	-11.3049
▁introduce	-11.305
▁delivered	-11.3051
▁tiny	-11.3052
▁Quỹ	-11.3052
▁Cambridge	-11.3052
▁vắng	-11.3059
▁USS	-11.306
▁(12	-11.306
Na	-11.3065
▁squad	-11.3066
▁Thiếu	-11.3073
▁Kai	-11.3075
▁brief	-11.3076
▁retired	-11.3076
▁DC	-11.3076
▁Early	-11.3077
▁côn	-11.3079
▁Nào	-11.3081
3)	-11.3083
▁fundamental	-11.3084
▁proof	-11.3085
▁Archived	-11.3086
▁stood	-11.3087
▁lưỡng	-11.3087
Ha	-11.3093
▁ranked	-11.3098
PS	-11.3098
▁hole	-11.3099
▁appreciate	-11.3099
▁Catherine	-11.3101
▁deliver	-11.3103
▁Franklin	-11.3104
▁distributed	-11.3104
▁Naval	-11.3108
▁tro	-11.3108
▁cỗ	-11.3109
▁Xa	-11.311
▁link	-11.3112
ù	-11.3121
▁lunch	-11.3123
▁Admiral	-11.3124
▁components	-11.3126
some	-11.3128
sz	-11.3128
▁prize	-11.3129
▁Iceland	-11.3129
▁Anti	-11.3131
▁employees	-11.3135
▁Liverpool	-11.3137
74	-11.3144
▁Rica	-11.3145
▁committed	-11.3151
▁1919	-11.3152
uff	-11.3153
nam	-11.3156
▁lường	-11.3158
▁Phổ	-11.3165
ụ	-11.3166
ple	-11.317
▁swear	-11.3172
▁landing	-11.3173
▁nêu	-11.3173
▁accounts	-11.3174
▁2002.	-11.3176
84	-11.3182
▁harm	-11.3184
▁purchase	-11.3184
▁arrival	-11.3186
▁Police	-11.3186
▁Cảng	-11.319
▁figures	-11.3192
▁Senate	-11.3194
▁tons	-11.3196
▁establish	-11.3197
bus	-11.3199
▁producing	-11.32
▁Lawrence	-11.32
Le	-11.3201
▁isolated	-11.3202
▁Sony	-11.3204
De	-11.3204
nu	-11.3207
▁Lưu	-11.3207
▁Billy	-11.3208
▁bút	-11.3209
▁governments	-11.3213
▁diseases	-11.3213
▁Ecuador	-11.3213
▁populations	-11.3214
▁rid	-11.3215
▁THE	-11.3217
▁apply	-11.3217
▁discuss	-11.3219
▁Switzerland	-11.3222
▁participate	-11.3226
▁profile	-11.3227
▁Barcelona	-11.3228
og	-11.3232
82	-11.3233
och	-11.3233
▁request	-11.3235
▁stadium	-11.3236
▁mo	-11.3238
AP	-11.3239
▁Thương	-11.3243
▁Sho	-11.3244
▁1983	-11.3253
những	-11.3254
▁Galaxy	-11.3257
▁plasma	-11.3257
▁gãy	-11.3258
▁Ak	-11.3259
▁Christ	-11.326
▁lặn	-11.3262
▁debate	-11.3263
600	-11.3263
▁lưỡi	-11.3264
▁Ổng	-11.3264
▁muscle	-11.3271
▁client	-11.3271
▁Đa	-11.3272
▁điều	-11.3275
▁1940,	-11.3275
▁manage	-11.3276
MA	-11.3277
▁radiation	-11.3278
▁xóm	-11.3284
▁committee	-11.3285
▁situated	-11.3293
▁Darwin	-11.3293
▁Lời	-11.3293
burg	-11.3297
а	-11.3299
▁afford	-11.3299
▁gác	-11.3301
▁Hand	-11.3303
▁illegal	-11.3303
▁Tro	-11.3303
hy	-11.3304
tôi	-11.3309
ons	-11.3311
Me	-11.3311
▁mảng	-11.3314
▁cưỡng	-11.3314
▁Press	-11.3315
▁nề	-11.3319
▁boyfriend	-11.3325
▁Pen	-11.3325
▁Williams	-11.3329
▁surrounded	-11.333
hờ	-11.3333
▁wood	-11.3336
▁knowing	-11.3337
▁ratio	-11.3337
▁lát	-11.3339
▁desire	-11.334
▁dreams	-11.334
▁(20	-11.3348
▁Mel	-11.3348
▁México	-11.335
ây	-11.3356
aba	-11.3363
MS	-11.3373
wing	-11.3373
▁mark	-11.3376
▁ái	-11.3377
▁Dean	-11.3377
▁candidate	-11.3386
▁Biết	-11.3387
oma	-11.3388
ably	-11.3389
▁Walt	-11.3394
nay	-11.3395
eg	-11.3396
sp	-11.3398
▁murdered	-11.3398
az	-11.34
▁Matthew	-11.3408
▁Lấy	-11.3409
▁OS	-11.341
▁entry	-11.3415
▁bám	-11.3416
▁Mô	-11.342
▁files	-11.3425
▁shift	-11.3426
▁Federation	-11.343
▁kiệt	-11.3437
▁technique	-11.3437
▁Ethiopia	-11.3444
▁Standard	-11.3444
▁Trừ	-11.3446
▁Haiti	-11.3447
▁Federal	-11.3453
04	-11.3458
▁ill	-11.3458
▁belong	-11.3459
▁moves	-11.3459
Pa	-11.346
▁Sultan	-11.3461
▁kiss	-11.3462
▁Front	-11.3465
▁fate	-11.3465
▁nở	-11.3467
▁planets	-11.3468
▁1960,	-11.347
▁neo	-11.3473
▁1941,	-11.3477
▁Chà	-11.3481
oon	-11.3487
▁1910	-11.3487
gue	-11.3487
▁mập	-11.3489
800	-11.3492
-9	-11.3493
▁solutions	-11.3494
▁(9	-11.3495
▁Manhattan	-11.3495
▁nervous	-11.3495
ł	-11.3498
▁measured	-11.3501
́	-11.3503
▁Governor	-11.3509
..."	-11.3511
▁restaurant	-11.3511
▁treaty	-11.3512
▁vành	-11.3518
▁laid	-11.3519
▁Pha	-11.352
ip	-11.3521
▁sought	-11.3522
▁Bad	-11.3522
gun	-11.3523
▁1946	-11.3524
▁nho	-11.3526
ture	-11.3533
▁thọ	-11.3533
73	-11.3537
▁transition	-11.3538
▁uy	-11.3538
▁po	-11.3543
▁linked	-11.3543
▁lưng	-11.3547
▁Dynasty	-11.3553
▁heavily	-11.3553
▁parallel	-11.3553
▁license	-11.3554
mal	-11.3554
ome	-11.3557
▁Soon	-11.3557
03	-11.3557
63	-11.3557
▁Ur	-11.3559
▁purposes	-11.3563
▁ال	-11.3564
▁remind	-11.3566
▁1974	-11.3567
▁Girls	-11.3567
▁dì	-11.3569
▁app	-11.3573
Ka	-11.3575
▁Beijing	-11.3575
level	-11.3576
right	-11.3578
▁tùng	-11.3579
▁Grant	-11.3579
▁Dragon	-11.3584
▁option	-11.3585
eu	-11.3586
bao	-11.3589
▁electricity	-11.3591
elle	-11.3592
▁seek	-11.3592
▁App	-11.3592
▁doctors	-11.3593
▁proteins	-11.3596
sau	-11.3596
▁cởi	-11.3598
rum	-11.36
oli	-11.3601
▁Jon	-11.3604
Bức	-11.3605
▁1948	-11.3606
▁thuẫn	-11.3613
▁Bou	-11.3615
▁collected	-11.3618
▁decline	-11.3618
▁admit	-11.3619
ado	-11.3622
▁Ty	-11.3625
▁beach	-11.3627
▁nè	-11.3629
▁prince	-11.3629
▁singles	-11.3633
ngày	-11.3633
▁khói	-11.3633
▁Bangladesh	-11.3634
▁Vienna	-11.3635
▁Hướng	-11.3635
▁72	-11.3637
▁20%	-11.3637
▁14,	-11.3639
▁EU	-11.3639
▁đắn	-11.3639
▁hall	-11.3641
▁Điểm	-11.3642
▁Sierra	-11.3642
▁parent	-11.3648
▁rivers	-11.3648
▁1989,	-11.3649
▁pregnant	-11.3649
▁Colorado	-11.3649
▁dollar	-11.3654
▁Jong	-11.3656
▁agency	-11.3657
▁tank	-11.3658
rian	-11.366
▁converted	-11.3661
▁interests	-11.3665
▁Alfred	-11.3667
▁Amy	-11.3671
Fi	-11.3676
▁clinical	-11.3677
▁Douglas	-11.3679
cing	-11.3681
DS	-11.3685
▁múa	-11.3687
▁principle	-11.369
▁Lao	-11.3692
▁Technology	-11.3694
▁earliest	-11.3694
▁nắng	-11.3694
▁Region	-11.3696
▁notes	-11.3696
▁Wayne	-11.3697
century	-11.37
▁supplies	-11.3701
ức	-11.3702
▁pool	-11.3703
▁vice	-11.3703
▁Baltic	-11.3704
▁Vegas	-11.3705
▁700	-11.3708
▁contemporary	-11.3709
ich	-11.3711
▁breaking	-11.3715
▁fighter	-11.3717
▁represents	-11.3719
die	-11.3719
▁figured	-11.372
nik	-11.372
pop	-11.3726
▁regarded	-11.3727
▁Ham	-11.3727
▁Athens	-11.3728
▁fans	-11.3729
▁Mười	-11.3731
▁1976	-11.3732
▁hiding	-11.3734
ef	-11.3735
▁Operation	-11.3742
▁Official	-11.3748
▁Roy	-11.3749
▁hoping	-11.3751
▁Jung	-11.3752
▁Children	-11.3754
▁essential	-11.3755
▁whereas	-11.3758
▁spending	-11.376
▁budget	-11.3761
▁attempts	-11.3762
▁j	-11.3762
▁foundation	-11.3763
▁documents	-11.3763
run	-11.3767
▁offering	-11.3769
▁Ng	-11.377
cur	-11.3771
▁Mountains	-11.3771
▁Sol	-11.3773
uro	-11.3774
lus	-11.378
▁Cuốn	-11.3781
our	-11.3782
▁Forest	-11.3783
art	-11.3783
▁villages	-11.3786
▁Sông	-11.3787
zer	-11.3788
▁owe	-11.379
▁Ag	-11.3791
▁cards	-11.3791
▁circle	-11.3791
▁CH	-11.3793
▁dealing	-11.3794
mit	-11.3795
▁identify	-11.3798
š	-11.3799
tain	-11.38
▁nạp	-11.38
▁philosophy	-11.3806
cia	-11.3808
▁Monte	-11.3808
▁Tan	-11.3809
▁benefits	-11.381
▁Tor	-11.3811
▁Var	-11.3812
▁sale	-11.3816
▁awards	-11.3816
▁Lin	-11.3816
▁layer	-11.3819
▁mode	-11.3822
▁electric	-11.3824
▁Phục	-11.3826
▁patterns	-11.3827
▁1973	-11.383
▁Colonel	-11.383
▁Cam	-11.3833
▁ốc	-11.3836
▁Junior	-11.3836
▁thèm	-11.3836
▁UNESCO	-11.3838
▁regime	-11.3839
▁vải	-11.384
▁suggests	-11.3847
▁vast	-11.3851
▁depression	-11.3851
▁cops	-11.3853
▁pp	-11.3857
▁sin	-11.3857
hara	-11.3862
▁items	-11.3865
▁agricultural	-11.3866
▁Austria	-11.3869
▁58	-11.3874
▁Kha	-11.3874
▁Unlike	-11.3875
LA	-11.3877
▁constitution	-11.3877
ei	-11.3879
▁Guadalcanal	-11.3882
work	-11.3884
▁alliance	-11.3889
▁plot	-11.3889
▁appropriate	-11.3891
▁Kor	-11.3892
▁performing	-11.3893
▁infections	-11.3897
olo	-11.3902
▁99	-11.3906
▁Isn	-11.3909
ế	-11.3911
▁category	-11.3912
▁Boeing	-11.3912
000	-11.3914
▁increases	-11.3914
▁Organization	-11.392
▁María	-11.392
ants	-11.3921
▁Hal	-11.3921
▁Marcus	-11.3922
▁surprised	-11.3924
▁vậy	-11.3927
▁HD	-11.3927
▁Everybody	-11.3927
▁threatened	-11.393
▁breath	-11.393
▁Romania	-11.3932
▁der	-11.3933
▁explained	-11.3934
ction	-11.3935
▁Kỹ	-11.3935
▁Ảnh	-11.3938
▁chục	-11.3943
amine	-11.3944
▁Roger	-11.3946
▁exercise	-11.3947
▁Chung	-11.3948
▁Hán	-11.3948
▁pen	-11.3948
▁stronger	-11.3949
▁receiving	-11.395
▁Vật	-11.3951
rid	-11.3952
▁khôn	-11.3954
▁shoes	-11.3955
Ra	-11.3956
ue	-11.3956
Co	-11.3957
▁TH	-11.3958
▁tủ	-11.3962
▁emotional	-11.3964
▁90%	-11.3964
lor	-11.3965
▁gũi	-11.3965
▁existed	-11.3971
▁molecules	-11.3972
▁noticed	-11.3972
▁Bangkok	-11.3973
▁composition	-11.3981
▁(13	-11.3983
▁16,	-11.3983
▁prisoners	-11.3986
▁prepare	-11.3987
▁guide	-11.3988
▁Grace	-11.399
▁Justice	-11.399
▁bó	-11.3992
AC	-11.3994
▁operate	-11.3995
NH	-11.3998
od	-11.4002
gh	-11.4003
hắc	-11.4003
▁incredible	-11.4004
▁gánh	-11.4005
▁noise	-11.4006
▁Sở	-11.4007
▁frequency	-11.4008
▁coastal	-11.4011
osis	-11.4015
▁Ohio	-11.4017
ben	-11.4018
▁Persian	-11.4018
▁storage	-11.4019
▁Norway	-11.4019
▁Arsenal	-11.4019
▁Anyway	-11.402
▁sheep	-11.4021
▁locations	-11.4027
▁1990.	-11.4028
lis	-11.4029
▁borders	-11.4031
▁Pearl	-11.4033
dra	-11.4034
tar	-11.4034
▁hét	-11.4036
ological	-11.4036
▁vờ	-11.4036
▁drinking	-11.4041
▁facility	-11.4042
▁etc	-11.4043
▁Dis	-11.4046
▁Lâu	-11.4051
▁Giao	-11.4052
▁mộng	-11.4055
▁walked	-11.4056
▁struggle	-11.4056
▁Bel	-11.4063
▁hired	-11.4063
▁nâu	-11.4066
aki	-11.4069
5,000	-11.4072
▁tẩy	-11.4073
▁đứt	-11.4073
▁viếng	-11.4073
▁Irish	-11.4073
▁Au	-11.4075
ر	-11.4075
▁vehicles	-11.4075
▁1968	-11.4076
▁dạo	-11.4078
▁thâm	-11.4081
▁Journal	-11.4082
lum	-11.4084
scale	-11.4086
ui	-11.4088
▁Ryan	-11.4089
▁serves	-11.409
▁occupation	-11.409
▁finds	-11.409
IS	-11.4093
▁presidential	-11.4097
▁hormone	-11.4098
▁contained	-11.4101
▁Germans	-11.4102
▁seasons	-11.4109
▁khoẻ	-11.4112
▁smoke	-11.4114
▁Sch	-11.4115
▁Wu	-11.4115
form	-11.4116
uda	-11.4122
ans	-11.4123
▁Ron	-11.4123
▁lung	-11.4124
▁Tử	-11.4129
une	-11.413
▁subjects	-11.413
▁Ste	-11.4142
▁galaxy	-11.4143
ct	-11.4145
е	-11.4145
▁rũ	-11.4151
▁collect	-11.4152
▁Cần	-11.4152
▁ân	-11.4158
▁Auto	-11.4163
▁narrow	-11.4163
▁mắn	-11.4164
▁Death	-11.4165
ila	-11.4166
▁Tuần	-11.4167
▁1915	-11.4168
▁genes	-11.4174
▁dời	-11.4174
▁Kal	-11.4176
book	-11.4178
▁Kara	-11.4178
▁evolved	-11.418
sur	-11.4183
including	-11.4183
▁1913	-11.4183
▁taxi	-11.4186
▁hip	-11.4187
▁connect	-11.419
▁reduction	-11.419
▁estate	-11.4191
▁Bị	-11.4192
▁Gil	-11.4197
▁survival	-11.4198
▁excited	-11.4198
she	-11.4199
▁output	-11.4208
▁Gra	-11.4209
▁registered	-11.4212
▁Donald	-11.4213
▁cousin	-11.4214
▁compete	-11.4215
ments	-11.4217
▁Harbor	-11.4219
rich	-11.4221
▁mỏng	-11.4221
▁Giả	-11.4225
ien	-11.4226
tsu	-11.4227
▁Nh	-11.4229
▁innocent	-11.4229
▁indicate	-11.4229
▁Plan	-11.4231
từ	-11.4232
▁dẹp	-11.4237
▁Tommy	-11.4238
▁sườn	-11.4238
▁thỏ	-11.4239
bro	-11.4243
▁1999.	-11.4245
▁mau	-11.4245
▁Main	-11.4252
huyến	-11.4253
4)	-11.4253
gia	-11.4255
ST	-11.426
▁Hãn	-11.4261
▁Ter	-11.4265
row	-11.4266
▁trật	-11.4268
una	-11.4269
▁tò	-11.4271
▁Ger	-11.4272
▁Forces	-11.4276
▁tông	-11.4279
set	-11.428
▁engines	-11.4281
▁Albania	-11.4283
▁Sy	-11.4284
▁imperial	-11.4284
▁tiệm	-11.4284
▁80%	-11.4285
▁1954	-11.4289
▁nảy	-11.4292
▁Quyền	-11.4292
▁stands	-11.4299
▁permission	-11.43
▁st	-11.4301
▁experiments	-11.4304
▁founder	-11.4305
▁1945.	-11.4307
▁khuyết	-11.4308
▁gentlemen	-11.4308
▁Digital	-11.4311
AS	-11.4322
▁liked	-11.4323
▁Lại	-11.4325
▁Marine	-11.4326
▁valley	-11.4326
▁obvious	-11.4328
SO	-11.4328
▁thắt	-11.4332
▁Kraków	-11.4332
▁cloud	-11.4336
▁Anderson	-11.4336
Bo	-11.4338
▁reserve	-11.4341
▁districts	-11.4341
▁essentially	-11.4343
DP	-11.4345
▁pan	-11.4346
▁depends	-11.4347
▁Dòng	-11.4348
▁(11	-11.4352
such	-11.4353
▁adults	-11.4355
tta	-11.4355
▁nạ	-11.4359
▁2001.	-11.436
▁Turkish	-11.436
▁external	-11.4363
▁thấu	-11.4364
▁par	-11.4365
An	-11.4367
▁Zi	-11.4373
▁Sound	-11.4376
▁1905	-11.4377
▁1978	-11.4377
▁Đơn	-11.4379
▁amounts	-11.438
▁Paulo	-11.4382
▁Gor	-11.4384
▁Đang	-11.4387
▁Vincent	-11.4387
▁garden	-11.4388
▁Cố	-11.4388
▁ghê	-11.4388
▁resolution	-11.4392
▁AS	-11.4394
▁Idlib	-11.4395
▁greatly	-11.4399
▁sake	-11.4399
02	-11.44
▁falling	-11.44
▁Xe	-11.4401
▁funds	-11.4401
▁respond	-11.4401
▁Charlotte	-11.4403
▁modified	-11.4403
▁railway	-11.4403
▁indeed	-11.4404
▁sending	-11.4405
ever	-11.4409
▁Vô	-11.441
▁Seven	-11.441
▁suffer	-11.4413
▁pa	-11.4414
▁mechanism	-11.4414
▁Newton	-11.4414
lov	-11.4415
▁pulled	-11.4415
▁Very	-11.4417
▁Andy	-11.4418
▁larvae	-11.442
ath	-11.4421
▁Opera	-11.4421
▁pounds	-11.4421
rah	-11.4424
▁regarding	-11.4424
▁Mari	-11.4427
phy	-11.4428
▁compounds	-11.4429
eb	-11.4432
▁electrical	-11.4434
▁drawn	-11.4436
▁departed	-11.4436
▁Chang	-11.4437
▁lands	-11.4441
▁Sub	-11.4442
▁hidden	-11.4443
dal	-11.4446
▁sixth	-11.4447
free	-11.4449
▁extent	-11.4451
▁Besides	-11.4451
▁Bon	-11.4452
▁inner	-11.4454
▁sample	-11.4455
und	-11.4456
gram	-11.4457
▁Ye	-11.4457
▁forgive	-11.4459
▁Kiểu	-11.4459
▁Allied	-11.4459
▁Seung	-11.4461
▁Series	-11.447
▁Set	-11.4471
▁Kennedy	-11.4475
▁vẹn	-11.4475
▁cậu	-11.4475
▁Michigan	-11.4475
▁Xbox	-11.4476
▁Mun	-11.4482
▁interface	-11.4484
▁maintained	-11.4484
▁concerns	-11.4488
▁Bốn	-11.4489
▁enemies	-11.4491
▁Thường	-11.4492
▁21,	-11.4492
▁chair	-11.4493
▁pho	-11.4494
▁executed	-11.4502
called	-11.4502
▁auto	-11.4505
▁Quả	-11.4507
▁component	-11.4512
▁ideal	-11.4515
▁bread	-11.4515
▁49	-11.4515
▁Johnny	-11.4519
▁Try	-11.4519
▁Israeli	-11.452
▁Solomon	-11.452
▁cultures	-11.4522
▁châm	-11.4524
▁hận	-11.4524
▁tomb	-11.4529
hai	-11.453
▁Saturday	-11.4532
▁Venice	-11.4532
▁cuồng	-11.4532
▁Ward	-11.4533
▁Without	-11.4534
▁democracy	-11.4535
−	-11.454
▁prices	-11.4541
▁Nazi	-11.4541
▁Story	-11.4544
are	-11.4544
▁chip	-11.4545
▁agriculture	-11.4548
▁crash	-11.4548
▁businesses	-11.4549
▁electronic	-11.4551
_{	-11.4551
▁translation	-11.4551
nus	-11.4552
▁unusual	-11.4553
▁saving	-11.4553
ele	-11.4557
▁Jason	-11.4557
▁supporting	-11.456
-16	-11.456
▁Lucas	-11.4561
CA	-11.4563
▁Macedonia	-11.4563
▁Swiss	-11.4565
▁circumstances	-11.4568
▁Dance	-11.4569
▁Nova	-11.4576
▁TO	-11.4577
▁format	-11.4578
ọ	-11.4578
▁customer	-11.458
▁Clark	-11.4583
▁Wolf	-11.4584
▁Walker	-11.4584
▁cream	-11.4586
▁manh	-11.4587
▁Ngôn	-11.4589
▁honour	-11.4591
▁journalist	-11.4591
▁Tha	-11.4592
Se	-11.4595
▁Zimbabwe	-11.4597
▁Florence	-11.4597
▁Control	-11.4599
▁điền	-11.46
▁15,	-11.46
▁Hotel	-11.4602
▁1932	-11.4602
▁grandfather	-11.4603
▁crown	-11.4603
cz	-11.4604
▁Conference	-11.4606
▁thói	-11.4606
▁bắp	-11.4613
▁Ltd	-11.4614
▁staying	-11.4615
▁experiences	-11.4615
ów	-11.4617
4,	-11.4618
▁stores	-11.4619
▁papers	-11.462
▁Ấu	-11.4621
▁xăng	-11.4622
ual	-11.4623
▁document	-11.4623
▁outbreak	-11.4624
3,	-11.4626
▁eggs	-11.4628
mic	-11.4628
water	-11.4628
▁banks	-11.4643
▁employed	-11.4645
▁Manila	-11.4647
▁mâu	-11.4647
▁Sp	-11.4648
▁equation	-11.4652
▁sọ	-11.4652
▁particles	-11.4653
▁pi	-11.4653
▁Pierre	-11.4659
khoảnh	-11.466
▁widespread	-11.4662
▁comfortable	-11.4663
ay	-11.4663
▁aspects	-11.4664
▁Trans	-11.4664
▁Hor	-11.4665
▁download	-11.4666
▁Les	-11.4666
▁theater	-11.4669
▁si	-11.467
isation	-11.467
▁characteristics	-11.4673
iz	-11.4676
▁Belgium	-11.4679
▁mến	-11.468
cus	-11.468
▁detail	-11.4681
▁Bolivia	-11.4684
▁cắn	-11.4687
▁false	-11.4687
▁giật	-11.4687
▁gradually	-11.4688
aga	-11.4689
chu	-11.4691
▁wounded	-11.4691
▁disc	-11.4696
ense	-11.47
▁bet	-11.4702
OH	-11.4702
▁gang	-11.4705
My	-11.4706
▁concluded	-11.4706
gin	-11.4708
Ro	-11.4708
▁dating	-11.471
log	-11.471
aya	-11.4715
▁eo	-11.4718
▁Friday	-11.472
▁paying	-11.472
▁Winter	-11.4722
ew	-11.4723
▁stream	-11.4723
This	-11.4726
▁soldier	-11.4727
▁hước	-11.4728
win	-11.4729
▁wealth	-11.4731
▁Luke	-11.4732
▁1950,	-11.4736
▁lấp	-11.4737
▁Cruz	-11.4738
▁appearances	-11.4741
▁NATO	-11.4742
▁Đêm	-11.4745
▁steel	-11.4745
zen	-11.4746
▁Tunisia	-11.4746
▁).	-11.4748
nica	-11.475
▁Win	-11.4751
▁hãm	-11.4753
▁1900	-11.4759
kha	-11.476
▁Apollo	-11.4761
ING	-11.4762
non	-11.4762
▁1949	-11.4765
▁Metro	-11.4768
▁introduction	-11.4769
▁witness	-11.477
▁gender	-11.4771
Well	-11.4773
▁toà	-11.4775
CC	-11.4777
▁ear	-11.4777
ions	-11.4779
▁gotten	-11.4782
AR	-11.4785
▁<	-11.4791
▁chòm	-11.4794
▁broad	-11.4797
▁Arabia	-11.4798
▁covering	-11.4798
còn	-11.4799
▁cook	-11.4801
▁moral	-11.4802
▁blame	-11.4802
▁1965	-11.4802
▁Missouri	-11.4803
▁1971	-11.4804
▁suspect	-11.4804
▁ả	-11.4808
▁charges	-11.4811
▁nhục	-11.4811
▁ngụ	-11.4811
▁56	-11.4812
ū	-11.4813
Qu	-11.4815
room	-11.4815
ux	-11.4818
▁poet	-11.4818
▁Studio	-11.4819
▁union	-11.4819
oni	-11.4819
▁Trắng	-11.4819
▁engineer	-11.482
met	-11.4821
▁Wood	-11.4822
▁attend	-11.4826
ell	-11.4826
▁remote	-11.4832
ếm	-11.4834
▁hố	-11.4835
▁coat	-11.4839
▁effectively	-11.4844
▁1916	-11.4844
▁northeast	-11.4849
▁Carter	-11.4854
▁poll	-11.4856
Ca	-11.4857
lio	-11.4858
▁grade	-11.4858
▁debuted	-11.4863
ular	-11.4865
▁Thuyền	-11.4869
▁Ac	-11.4871
▁sat	-11.4872
tum	-11.4875
▁creative	-11.4878
How	-11.488
▁missions	-11.4881
▁marine	-11.4881
▁1967	-11.4883
▁Nan	-11.4887
▁Snow	-11.489
▁Antonio	-11.4891
nin	-11.4892
▁landed	-11.4892
Li	-11.4896
▁guilty	-11.4896
▁lasted	-11.4899
lam	-11.4901
▁seats	-11.4902
▁dội	-11.4903
▁Bảy	-11.4904
▁rejected	-11.4906
east	-11.4909
▁1962	-11.491
bor	-11.4911
▁offers	-11.4912
adi	-11.4915
▁Trinidad	-11.492
▁kilometers	-11.492
▁sét	-11.492
-11	-11.4922
▁movies	-11.4924
.”	-11.4924
▁rau	-11.4925
▁Sur	-11.4928
▁Nicholas	-11.4928
▁ni	-11.4929
▁Alpha	-11.493
▁apparently	-11.4931
▁30%	-11.4935
gy	-11.4936
▁cắm	-11.4945
▁romantic	-11.4945
▁formally	-11.4946
▁debt	-11.4946
▁Rosa	-11.4947
▁faces	-11.495
And	-11.4951
onia	-11.4952
▁wondering	-11.4952
▁hạch	-11.4955
▁rung	-11.4959
▁Nathan	-11.4963
▁nốt	-11.4963
ấn	-11.4964
▁consisting	-11.4966
▁hey	-11.4968
▁Ước	-11.497
▁Samuel	-11.497
ious	-11.4973
▁1977	-11.4974
▁Gri	-11.4976
osa	-11.4978
▁defend	-11.4981
▁Want	-11.4981
▁reactions	-11.4982
top	-11.4984
▁insurance	-11.4987
▁dâu	-11.4988
▁somehow	-11.4989
▁popularity	-11.4991
iko	-11.4995
▁indigenous	-11.4996
▁việc	-11.4996
▁smile	-11.4996
▁amino	-11.4998
▁driver	-11.5003
▁hosted	-11.5009
ties	-11.501
▁te	-11.501
life	-11.5015
▁upset	-11.5017
▁Salvador	-11.5021
▁exposure	-11.5021
▁súc	-11.5021
▁trading	-11.5024
▁formerly	-11.5026
▁views	-11.5031
▁Cole	-11.5033
▁oh	-11.5035
▁Phil	-11.5037
▁Down	-11.5038
▁nominated	-11.504
▁Gal	-11.5044
ý	-11.5045
▁episodes	-11.5047
▁reputation	-11.5047
▁chuyện	-11.5047
▁Agent	-11.5047
▁strongly	-11.5056
▁£	-11.5057
▁bottle	-11.5058
▁1964	-11.5058
most	-11.5058
▁heo	-11.5061
▁xướng	-11.5064
via	-11.5065
▁neighborhood	-11.5066
▁Lào	-11.5066
ên	-11.507
▁warning	-11.507
▁Kazakhstan	-11.5072
▁Des	-11.5072
▁vitamin	-11.5076
▁print	-11.5077
▁1956	-11.5077
late	-11.508
RE	-11.5081
▁destruction	-11.5081
▁Gun	-11.5082
▁SA	-11.5083
▁surrender	-11.5083
far	-11.5086
▁Căn	-11.5088
▁Roosevelt	-11.5089
▁Islamic	-11.509
ớ	-11.5091
▁Yoshi	-11.5093
gg	-11.5094
▁Jr	-11.5096
▁roll	-11.5097
▁Arabic	-11.5098
▁Universe	-11.5098
▁1925	-11.51
▁Finally	-11.5103
▁Op	-11.5105
▁joining	-11.5105
lle	-11.5114
▁nhạt	-11.5115
▁keeps	-11.5116
▁appointment	-11.5116
ín	-11.5117
▁Gre	-11.5117
▁featuring	-11.5118
▁hadn	-11.5118
▁chemistry	-11.5121
box	-11.5123
▁Management	-11.5124
zar	-11.5126
kar	-11.5127
IN	-11.5127
▁Affairs	-11.5132
▁brown	-11.5132
▁Jay	-11.5134
▁Secret	-11.5137
▁faced	-11.5138
▁infected	-11.5138
▁1935	-11.5139
▁Khá	-11.5139
▁helps	-11.514
▁Therefore	-11.5141
▁Delta	-11.5142
▁organisms	-11.5142
worth	-11.5143
▁ấu	-11.5148
▁humanity	-11.5149
▁Czech	-11.5153
▁mathematical	-11.5154
eta	-11.5155
▁1998.	-11.5156
–20	-11.5158
uấn	-11.5158
▁chọc	-11.5158
▁destroyer	-11.5158
▁northwest	-11.5159
▁Kyoto	-11.5159
▁Vợ	-11.5159
ites	-11.516
▁begun	-11.5161
tti	-11.5163
▁kẹt	-11.5167
▁Mill	-11.5168
▁Hat	-11.5168
▁ván	-11.5169
▁Perry	-11.5169
▁Enterprise	-11.517
▁Lang	-11.5174
▁1969	-11.5174
▁Peninsula	-11.5175
par	-11.5177
▁xoáy	-11.5177
▁fund	-11.5179
ập	-11.5179
▁mainland	-11.5181
▁Tay	-11.5183
▁Jun	-11.5183
hen	-11.5184
▁tambon	-11.5184
▁AI	-11.5187
▁ồn	-11.5188
▁competed	-11.5194
▁Libya	-11.5194
▁database	-11.5195
ging	-11.5195
▁belief	-11.5196
▁Run	-11.5203
ến	-11.5204
▁cry	-11.5204
▁glucose	-11.5207
▁22,	-11.5209
yr	-11.5209
▁lights	-11.5211
▁somewhat	-11.5212
▁researchers	-11.5218
▁contest	-11.5218
▁Madagascar	-11.5219
▁Lebanon	-11.5221
▁lifetime	-11.5221
yang	-11.5226
▁liberal	-11.5227
▁Cameron	-11.5227
▁personnel	-11.5228
ations	-11.523
▁Bond	-11.5231
▁Ivan	-11.5234
▁Belarus	-11.5234
▁Convention	-11.5237
▁thiêu	-11.5239
▁coal	-11.5239
▁samples	-11.5241
▁schedule	-11.5244
MP	-11.5245
▁IBM	-11.5246
▁burned	-11.5252
cle	-11.5253
▁Cambodia	-11.5253
▁injury	-11.5253
▁representative	-11.5257
▁friendly	-11.5258
▁Nice	-11.5261
▁organ	-11.5262
pos	-11.5265
▁Cro	-11.527
▁hoài	-11.5272
▁answers	-11.5277
▁programming	-11.528
▁Through	-11.5282
▁sleeping	-11.5284
mor	-11.5284
▁Ball	-11.5285
rt	-11.5287
▁Chất	-11.5289
oh	-11.529
▁videos	-11.529
▁Didn	-11.529
▁Thấy	-11.5297
▁Cairo	-11.5298
▁xá	-11.53
▁Quy	-11.5302
▁Cooper	-11.5304
▁attached	-11.5307
▁53	-11.5309
▁southeast	-11.5313
▁dỡ	-11.5315
▁beer	-11.5315
▁Shu	-11.5318
rn	-11.5318
▁molecular	-11.5319
▁95	-11.5321
▁explanation	-11.5323
▁1890	-11.5327
▁disappeared	-11.5327
▁54	-11.5328
▁tanks	-11.5329
sự	-11.5332
▁chuông	-11.5332
▁nerve	-11.5337
▁sc	-11.5338
ي	-11.5338
▁explosion	-11.5341
ians	-11.5341
▁cheese	-11.5341
GA	-11.5342
▁fishing	-11.5343
ova	-11.5344
▁sport	-11.5345
▁networks	-11.5346
▁Trust	-11.5352
ory	-11.5352
▁1957	-11.5352
▁reward	-11.5355
▁interaction	-11.5356
▁belongs	-11.5357
Có	-11.5357
▁Tụi	-11.5358
▁Trăng	-11.5358
vers	-11.5362
▁diet	-11.5364
▁Luc	-11.5364
▁paint	-11.5365
mura	-11.5366
▁funeral	-11.5367
▁Đỏ	-11.5367
▁convoy	-11.5374
▁Dream	-11.5382
▁poverty	-11.5385
▁DS	-11.5386
▁Nguồn	-11.5387
▁sharing	-11.5391
chan	-11.5392
cell	-11.5392
▁idiot	-11.5394
о	-11.5395
▁mini	-11.5398
▁1997.	-11.5399
▁Sản	-11.5399
▁Virgin	-11.54
▁Eddie	-11.5403
vert	-11.5405
▁Dead	-11.5406
▁Too	-11.5407
▁phế	-11.5408
▁root	-11.5411
▁ôm	-11.5411
▁phenomenon	-11.5411
▁communicate	-11.5411
▁duties	-11.5412
▁burning	-11.5413
▁hiếp	-11.5415
▁Won	-11.542
▁Things	-11.5421
mont	-11.5422
▁trials	-11.5423
TA	-11.5423
▁Wang	-11.5423
▁tribes	-11.5423
▁Hans	-11.5425
Người	-11.5427
▁collaboration	-11.5429
▁personality	-11.5432
▁principles	-11.5443
▁options	-11.5444
▁Mang	-11.5445
▁Philippine	-11.5446
▁valuable	-11.5447
▁rising	-11.5447
ged	-11.5447
▁vector	-11.5452
▁Taka	-11.5458
▁Hunter	-11.5459
▁Within	-11.546
▁lord	-11.5466
▁invented	-11.5467
zh	-11.5467
▁medal	-11.5468
▁Margaret	-11.5473
▁dioxide	-11.5474
▁Board	-11.5475
là	-11.5476
aj	-11.5482
▁arriving	-11.5482
▁talent	-11.5483
▁usual	-11.5483
▁100%	-11.5486
▁MP	-11.5487
mail	-11.5487
ổ	-11.5488
nk	-11.5491
▁vội	-11.5491
ền	-11.5491
▁Cher	-11.5493
ids	-11.5497
▁lùn	-11.5498
▁crossed	-11.5499
▁Illinois	-11.55
▁quyến	-11.5501
▁Dĩ	-11.5501
▁nhì	-11.5502
▁falls	-11.5506
▁fled	-11.5506
▁Cuban	-11.551
that	-11.5513
ito	-11.5514
pri	-11.5515
▁Chuẩn	-11.5518
▁brings	-11.552
▁involves	-11.5521
ăng	-11.5524
▁excuse	-11.5527
stein	-11.5527
▁lãi	-11.5527
nt	-11.5528
▁Harold	-11.5528
▁ngai	-11.5529
▁frame	-11.5529
▁Pin	-11.5531
inch	-11.5531
tron	-11.5533
▁fiction	-11.5534
▁absence	-11.5536
▁immune	-11.5536
▁xoắn	-11.5536
▁Yemen	-11.5536
▁partners	-11.5536
▁Cre	-11.5538
▁ordinary	-11.5538
▁thứ	-11.5553
▁southwest	-11.5553
pu	-11.5554
▁tỏa	-11.5555
til	-11.5555
▁(14	-11.5557
▁emerged	-11.5558
▁Kang	-11.5559
▁teachers	-11.556
▁sentence	-11.5562
▁Shah	-11.5562
▁Tanzania	-11.5563
▁conduct	-11.5563
▁Vòng	-11.5563
ix	-11.5564
yi	-11.5567
▁periods	-11.5568
▁Bun	-11.5568
▁1939,	-11.5568
▁forming	-11.557
▁Munich	-11.5572
▁personally	-11.5573
▁exposed	-11.5574
▁tape	-11.5576
▁flash	-11.5578
▁ướt	-11.5578
▁rưỡi	-11.5581
▁Dai	-11.5583
▁flu	-11.5587
▁Leon	-11.5589
▁Atlanta	-11.5589
▁Muhammad	-11.5589
▁lụt	-11.5589
▁Ann	-11.559
với	-11.5591
▁Qatar	-11.5592
▁trùm	-11.5596
▁Area	-11.5598
▁articles	-11.5599
▁carriers	-11.5599
▁Hindu	-11.5602
▁sôi	-11.5602
▁speakers	-11.5605
ude	-11.5605
▁rỗng	-11.5608
▁Meanwhile	-11.5608
▁hill	-11.561
▁1958	-11.5611
▁movements	-11.5612
▁SC	-11.5615
▁cacbon	-11.5618
▁quit	-11.5621
▁proton	-11.5622
▁Dam	-11.5624
state	-11.5625
▁1961	-11.5625
▁celebrate	-11.5625
▁universities	-11.5626
▁Nhiệm	-11.5626
▁flew	-11.5626
▁hat	-11.5628
▁Cây	-11.5629
▁Prior	-11.5629
▁grave	-11.5632
lit	-11.5633
▁tê	-11.5633
▁injured	-11.5635
ET	-11.5637
▁bọ	-11.5638
▁Com	-11.5642
-21	-11.5643
▁currency	-11.5644
Hi	-11.5644
▁dare	-11.5645
▁Titan	-11.5646
▁Coi	-11.5648
stan	-11.5648
zan	-11.565
▁contributed	-11.565
▁Augustus	-11.565
▁đúc	-11.5653
▁Clinton	-11.5653
▁Had	-11.5657
▁festival	-11.5661
#243;	-11.5662
▁Toronto	-11.5662
▁finance	-11.5662
▁1.5	-11.5665
▁Ara	-11.5666
▁obtain	-11.5666
▁fail	-11.5666
▁Cur	-11.567
▁involving	-11.5671
▁Hiệu	-11.5671
▁scheduled	-11.5671
▁immediate	-11.5676
▁dust	-11.5677
▁champion	-11.5679
▁constellation	-11.568
▁bổng	-11.5686
ges	-11.5687
–3	-11.5687
▁entrance	-11.5689
▁happiness	-11.5689
▁Field	-11.569
▁poetry	-11.569
▁editor	-11.5691
▁survey	-11.5691
▁meta	-11.5693
▁hyper	-11.5695
▁rarely	-11.5697
pen	-11.5701
Don	-11.5702
▁incorporated	-11.5702
▁từ	-11.5706
▁affairs	-11.5707
▁ngột	-11.5708
▁targets	-11.571
▁Pri	-11.571
▁xám	-11.5713
▁stages	-11.5713
▁Sports	-11.5714
▁graduate	-11.5721
▁processing	-11.5722
If	-11.5722
▁patrol	-11.5724
▁Malay	-11.5725
▁Mississippi	-11.5725
▁admitted	-11.5726
▁bếp	-11.5726
▁đuối	-11.5735
▁bullet	-11.5735
▁Emma	-11.5736
▁forgot	-11.5739
mel	-11.5741
▁parliament	-11.5743
▁deserve	-11.5743
▁consumption	-11.5744
▁Sarawak	-11.5744
▁Estonia	-11.5744
▁63	-11.5746
heim	-11.5747
▁crowd	-11.5747
▁Ô	-11.5747
▁trap	-11.5747
▁hunt	-11.5748
▁engage	-11.5751
ạ	-11.5753
▁Zu	-11.5755
gate	-11.5755
▁1947	-11.5757
eri	-11.576
▁visitors	-11.5761
▁colors	-11.5761
RA	-11.5764
ema	-11.5766
▁apparent	-11.5767
▁choices	-11.5768
▁mayor	-11.577
▁angle	-11.577
▁Cleopatra	-11.5771
▁hits	-11.5773
▁adaptation	-11.5773
▁Malta	-11.5774
▁historic	-11.5774
Upon	-11.5776
▁1908	-11.5779
▁Family	-11.578
▁collapse	-11.578
▁Christopher	-11.5781
▁Governorate	-11.5781
▁Honey	-11.5781
▁Baby	-11.5782
▁mix	-11.5782
▁Guy	-11.5784
▁confused	-11.5786
lie	-11.5786
▁Uruguay	-11.5787
Buổi	-11.5788
▁vary	-11.5788
▁infrastructure	-11.5789
SP	-11.579
▁armies	-11.579
▁Daily	-11.5793
▁Defense	-11.5794
▁100,000	-11.5795
▁mate	-11.5795
▁Denmark	-11.5799
▁fluid	-11.5799
▁tím	-11.58
▁ruler	-11.58
▁1917	-11.5804
▁Char	-11.5805
▁Theatre	-11.5808
▁Rằng	-11.5809
point	-11.5811
▁1907	-11.5811
▁1952	-11.5816
▁Thử	-11.5817
▁bể	-11.582
▁depth	-11.5821
▁adding	-11.5822
▁nôn	-11.5823
▁1914	-11.5824
tên	-11.5825
▁Agency	-11.5826
ôn	-11.5826
▁Leyte	-11.5826
▁gối	-11.5827
▁Trade	-11.5827
▁MiG	-11.5831
▁hôi	-11.5832
fin	-11.5833
▁Thuốc	-11.5836
▁Scottish	-11.5836
▁nữa	-11.5836
▁Dylan	-11.5845
▁latest	-11.5845
style	-11.5846
▁Luis	-11.5846
tine	-11.5846
mir	-11.5849
▁1988,	-11.5852
ration	-11.5852
Những	-11.5854
▁Shan	-11.5855
▁Gabriel	-11.5857
phi	-11.5858
sol	-11.5858
▁85	-11.5861
uz	-11.5867
▁generated	-11.5868
▁males	-11.5869
▁Warner	-11.5869
▁smooth	-11.5872
▁Wilhelm	-11.5872
▁entertainment	-11.5873
ois	-11.5874
type	-11.5876
▁Tre	-11.5876
▁2,000	-11.5877
▁wa	-11.5879
▁báu	-11.5879
▁flows	-11.5884
▁nén	-11.5885
▁cure	-11.5889
▁nghiêng	-11.589
▁twelve	-11.5891
▁minimum	-11.5891
▁Bỏ	-11.5892
bon	-11.5896
▁artificial	-11.5897
▁),	-11.5899
gra	-11.59
ER	-11.59
▁founding	-11.59
▁selection	-11.5901
lip	-11.5902
▁tráng	-11.5905
▁scenes	-11.5906
▁regret	-11.5909
▁domain	-11.591
▁harder	-11.591
▁escaped	-11.5913
▁trigger	-11.5913
▁Hold	-11.5915
▁convinced	-11.5918
▁entitled	-11.5919
▁Temple	-11.5921
AM	-11.5922
▁Gro	-11.5924
▁vạch	-11.5928
part	-11.5928
Di	-11.5929
▁phiêu	-11.593
▁earthquake	-11.593
ợ	-11.5933
▁Thầy	-11.5937
▁loves	-11.5941
pon	-11.5943
▁imp	-11.5943
▁describes	-11.5943
▁Yet	-11.5943
▁representing	-11.5943
▁Madonna	-11.5947
▁Linh	-11.5947
BA	-11.5947
ille	-11.5951
▁2020	-11.5953
won	-11.5953
chy	-11.5954
▁chua	-11.5954
▁Swift	-11.5956
med	-11.5958
▁lũy	-11.5958
▁purchased	-11.5959
▁breeding	-11.5959
▁tam	-11.5959
▁Ukrainian	-11.596
▁chăng	-11.596
1.	-11.596
▁Stay	-11.5963
▁Mobile	-11.5963
▁strategic	-11.5965
▁anniversary	-11.5965
▁Nhớ	-11.5965
▁nhị	-11.5967
▁tight	-11.5968
▁joke	-11.5969
▁Southeast	-11.5972
▁entering	-11.5973
▁Giới	-11.5975
▁Myanmar	-11.5975
tas	-11.5987
▁Chen	-11.599
▁Child	-11.5991
▁produces	-11.5995
▁Alexandria	-11.5999
sie	-11.5999
▁delivery	-11.6001
▁Raymond	-11.6003
▁ladies	-11.6003
▁clip	-11.6004
mes	-11.601
▁1906	-11.6011
nov	-11.6011
▁AIDS	-11.602
▁Hoạt	-11.6022
▁experimental	-11.6023
▁scientist	-11.6024
▁bách	-11.6027
▁pe	-11.6029
▁Melbourne	-11.6031
eth	-11.6032
▁Caroline	-11.6032
▁Economic	-11.6034
ati	-11.6034
Si	-11.6035
▁density	-11.6035
▁random	-11.6037
▁Moskva	-11.604
gus	-11.6041
▁designs	-11.6044
▁1966	-11.6044
oka	-11.6045
▁sudden	-11.6046
▁Non	-11.6048
▁1909	-11.6048
▁abuse	-11.605
▁Finland	-11.605
▁thiêng	-11.6052
▁57	-11.6055
mine	-11.6057
nar	-11.6058
▁mỡ	-11.606
▁bond	-11.6061
▁replacement	-11.6061
▁Angel	-11.6063
▁Mont	-11.6063
▁Vai	-11.6066
▁1928	-11.6067
▁strip	-11.6067
sti	-11.607
▁sensitive	-11.6071
▁mar	-11.6071
iki	-11.6072
▁Harrison	-11.6072
▁linear	-11.608
▁kings	-11.6081
ỗ	-11.6081
▁princess	-11.6084
▁1996.	-11.6085
;/	-11.6088
▁extinct	-11.6089
▁heading	-11.6095
▁drawing	-11.61
▁monster	-11.6101
ía	-11.6104
▁kẹo	-11.6107
▁communist	-11.6113
▁installed	-11.6114
▁bỏng	-11.6116
▁Tham	-11.6117
▁Sciences	-11.6121
▁ngắm	-11.6125
▁tie	-11.6129
rist	-11.6135
▁underground	-11.6136
▁Tuyến	-11.6137
▁Stra	-11.6138
ido	-11.6142
▁Tiêu	-11.6145
▁1959	-11.6147
▁neuro	-11.6149
â	-11.6149
▁decrease	-11.6149
▁ya	-11.615
▁theories	-11.6151
▁Khả	-11.6154
▁lúa	-11.6154
▁pageant	-11.6156
▁180	-11.6156
▁Guam	-11.6158
ets	-11.616
▁10.000	-11.6163
▁stomach	-11.6163
▁nghiệt	-11.6164
▁brave	-11.6164
ử	-11.6169
wer	-11.6172
▁input	-11.6172
▁memories	-11.6173
▁Baker	-11.6174
▁duệ	-11.6174
▁profit	-11.6177
▁cúp	-11.6177
▁argued	-11.6181
▁traveled	-11.6182
▁jazz	-11.6183
▁Nhất	-11.6183
lé	-11.6183
▁Bio	-11.6184
▁consisted	-11.6186
▁prototype	-11.6187
▁Fine	-11.6188
▁gap	-11.6188
▁Russell	-11.6192
PP	-11.6193
▁exception	-11.6193
▁tựu	-11.6195
▁Magic	-11.6198
NA	-11.6199
▁chì	-11.6201
▁phiến	-11.6203
▁Ros	-11.6203
▁Around	-11.6205
cap	-11.6206
▁24,	-11.6209
▁vessels	-11.621
tur	-11.6211
▁babies	-11.6212
▁magnetic	-11.6215
▁Find	-11.6216
▁α	-11.6218
▁Anthony	-11.6221
▁Kon	-11.6224
▁proposal	-11.6225
av	-11.6226
▁Ce	-11.6227
▁facing	-11.6229
▁mầm	-11.6231
Một	-11.6233
▁Chờ	-11.6234
▁bả	-11.6234
▁ATP	-11.6234
▁Hope	-11.6234
ấy	-11.6237
▁drunk	-11.6239
▁Tạng	-11.6241
▁considerable	-11.6242
▁pal	-11.6243
▁representation	-11.6245
▁tip	-11.6249
▁rỉ	-11.625
FA	-11.625
▁vòm	-11.6252
▁fake	-11.6253
▁briefly	-11.6255
▁procedure	-11.6255
▁}	-11.6258
▁Đoàn	-11.6259
▁hệt	-11.6266
▁explore	-11.6267
▁protecting	-11.6268
▁Borneo	-11.6269
▁lovely	-11.6271
chin	-11.6273
▁requirements	-11.6278
▁seed	-11.6278
▁Explorer	-11.6278
▁transmission	-11.6279
cra	-11.6279
▁perfectly	-11.6279
mas	-11.6283
▁shame	-11.6283
âm	-11.6284
col	-11.6286
▁finger	-11.6288
#225;	-11.6288
▁flower	-11.6288
mark	-11.6295
▁vần	-11.6296
▁cave	-11.6299
shima	-11.6299
▁1994.	-11.63
hol	-11.6304
▁nguyền	-11.6308
▁Food	-11.6309
▁Kho	-11.6309
IA	-11.6312
▁Jake	-11.6314
▁repair	-11.6317
▁farmers	-11.6318
inus	-11.6319
uc	-11.6319
▁pretend	-11.6319
)}	-11.6327
▁Grammy	-11.6327
▁Azerbaijan	-11.6328
▁theatre	-11.6328
▁cake	-11.633
▁stole	-11.6331
▁minus	-11.6331
▁practical	-11.6333
▁40%	-11.6336
▁extraordinary	-11.6336
▁Tokugawa	-11.6336
org	-11.6341
▁nhàng	-11.6342
▁2:	-11.6342
tech	-11.6345
▁Mali	-11.6347
▁hưng	-11.6347
▁cattle	-11.6348
▁roads	-11.6353
▁cameras	-11.6353
▁outer	-11.6354
▁Gary	-11.6355
▁Giang	-11.6356
▁bones	-11.6359
▁challenges	-11.6362
▁Crown	-11.6363
▁110	-11.6365
▁literary	-11.6366
▁Quý	-11.6366
▁Tiger	-11.6366
▁Bro	-11.6367
▁indicated	-11.6367
▁cap	-11.6369
▁chairman	-11.6371
▁Thung	-11.6372
▁argument	-11.6372
Ph	-11.6372
cher	-11.6373
▁charged	-11.6374
▁homes	-11.6375
▁Fan	-11.6375
▁grandmother	-11.6375
▁bơm	-11.6376
▁Manuel	-11.6376
▁Dog	-11.6376
▁Tỷ	-11.6376
▁express	-11.6376
▁pages	-11.6378
▁bìa	-11.6379
▁28,	-11.6382
▁Voivodeship	-11.6385
▁shopping	-11.6385
gua	-11.6386
▁Len	-11.6388
▁đc	-11.6391
▁Nixon	-11.6395
▁Universal	-11.6395
▁PA	-11.6395
▁Bureau	-11.6396
▁Năng	-11.6397
▁Susan	-11.6401
▁Yang	-11.6403
xem	-11.6404
▁residence	-11.6405
▁Lily	-11.6405
▁Delhi	-11.6405
▁colonial	-11.6411
▁dose	-11.6412
▁Years	-11.6412
▁uniform	-11.6412
▁lê	-11.6413
related	-11.6413
▁mìn	-11.6414
bol	-11.6414
▁Seattle	-11.6415
sson	-11.6416
vu	-11.6416
▁Kate	-11.6418
▁Canal	-11.642
▁hụt	-11.6424
▁giờ	-11.6425
▁mirror	-11.6427
▁paintings	-11.6428
▁1995.	-11.6429
▁disaster	-11.6431
▁miện	-11.6432
▁pet	-11.6433
▁bathroom	-11.6434
▁coup	-11.6438
▁1904	-11.6441
▁khốn	-11.6443
▁vỗ	-11.6445
▁ad	-11.6446
▁Silver	-11.6447
▁column	-11.6447
▁Giữa	-11.6448
AL	-11.645
▁discover	-11.6451
fish	-11.6452
▁Marc	-11.6453
▁Kuwait	-11.6453
▁đấy	-11.6454
▁violent	-11.6454
▁photos	-11.6458
▁detected	-11.6458
▁pound	-11.646
wo	-11.6462
iga	-11.6462
▁1987,	-11.6462
▁nhiễu	-11.6463
▁xé	-11.6464
▁phím	-11.6466
▁accompanied	-11.6467
▁arranged	-11.6468
▁expand	-11.6469
ỏ	-11.6469
▁Solar	-11.6472
khoảng	-11.6476
ttle	-11.6481
ax	-11.6482
xa	-11.6482
▁expedition	-11.6482
▁consequences	-11.6483
amide	-11.6484
▁toilet	-11.6485
▁Natural	-11.6485
Lo	-11.6491
▁1963	-11.6492
▁magnitude	-11.6493
▁Aaron	-11.6493
▁Mag	-11.6493
▁translated	-11.6497
▁gate	-11.65
▁chest	-11.6502
▁Magazine	-11.6503
▁naturally	-11.6503
▁sisters	-11.6509
▁exit	-11.651
▁dates	-11.651
nate	-11.6515
▁loud	-11.6517
▁error	-11.652
▁syndrome	-11.6522
▁kiềm	-11.6522
▁cược	-11.6523
▁Julia	-11.6525
▁aim	-11.6526
▁diplomatic	-11.6526
▁xà	-11.6527
▁commission	-11.6531
▁identical	-11.6532
▁đệm	-11.6534
▁1901	-11.6536
át	-11.6536
▁vâng	-11.6537
▁1992.	-11.6541
▁mixture	-11.6542
▁ngộ	-11.6547
▁publication	-11.6547
▁68	-11.6547
▁Slovakia	-11.6548
ob	-11.6549
table	-11.6549
▁tứ	-11.6552
▁Angola	-11.6552
▁Bengal	-11.6553
▁Lẽ	-11.6553
▁làn	-11.6556
▁Maya	-11.6557
▁bother	-11.6558
▁Place	-11.6559
▁mổ	-11.6564
▁nụ	-11.6564
▁ham	-11.6565
▁trá	-11.6566
Mi	-11.6568
▁limits	-11.657
▁flights	-11.6571
▁Library	-11.6572
▁accused	-11.6574
▁rooms	-11.6575
PO	-11.6576
▁Report	-11.6576
▁70%	-11.6577
▁clo	-11.6577
ago	-11.6578
▁illness	-11.658
AT	-11.6581
▁Cook	-11.6581
▁Islam	-11.6582
▁albums	-11.6583
▁1930,	-11.6584
ES	-11.6589
▁fossil	-11.659
▁hàn	-11.6591
sion	-11.6591
▁divisions	-11.6591
▁phrase	-11.6592
▁planes	-11.6592
gna	-11.6595
rine	-11.6598
▁notably	-11.6599
▁designer	-11.6601
▁đầm	-11.6602
▁nhũng	-11.6602
▁Reserve	-11.6603
▁occasionally	-11.6603
▁Wal	-11.6605
gor	-11.6605
▁Store	-11.6605
▁predict	-11.6606
▁recommended	-11.6606
▁Wil	-11.6606
dimensional	-11.6609
▁Ever	-11.6609
For	-11.6609
▁1980.	-11.6611
▁Benjamin	-11.6612
▁comparison	-11.6612
SC	-11.6613
onic	-11.6614
made	-11.6614
itis	-11.6616
▁signals	-11.6616
▁laugh	-11.6618
PD	-11.662
▁matrix	-11.6622
▁Viết	-11.6623
▁barely	-11.6623
ute	-11.6623
▁jet	-11.6624
▁Movie	-11.6624
▁youngest	-11.6625
▁sừng	-11.6632
▁colour	-11.6632
▁Blood	-11.6633
▁Really	-11.6633
oo	-11.6637
ctor	-11.6638
matic	-11.6639
▁cáp	-11.6641
▁Rob	-11.6642
▁percentage	-11.6645
▁1912	-11.665
▁Mus	-11.6651
▁Viên	-11.6653
▁draft	-11.6656
▁centers	-11.666
▁101	-11.6662
̉	-11.6664
▁Santo	-11.6665
▁bồn	-11.6667
▁1.000	-11.6668
▁Cameroon	-11.6671
chen	-11.6673
▁consumer	-11.6675
▁twin	-11.6676
▁taxes	-11.6677
▁crossing	-11.6678
▁load	-11.6678
▁repeat	-11.6678
▁visa	-11.6679
young	-11.6679
▁Bahrain	-11.6682
▁Mercury	-11.6682
▁plenty	-11.6682
▁alien	-11.6683
▁temporary	-11.6684
ston	-11.6685
hor	-11.6685
▁adapted	-11.6687
▁Garden	-11.6694
▁25,	-11.6698
▁crimes	-11.6698
ule	-11.6701
▁execution	-11.6702
▁huỷ	-11.6702
▁Jeff	-11.6702
▁Wii	-11.6705
▁Design	-11.6707
▁1918	-11.6708
▁restored	-11.6709
▁đòn	-11.671
▁females	-11.6711
▁Lieutenant	-11.6712
▁breakfast	-11.6712
lation	-11.6717
ox	-11.6721
▁Kelly	-11.6724
iva	-11.6725
▁Stan	-11.6726
▁iPhone	-11.6732
▁designation	-11.6735
▁fer	-11.6737
play	-11.674
▁Shanghai	-11.6742
ava	-11.6744
▁dominant	-11.6745
▁guards	-11.6747
▁branches	-11.6747
▁Kane	-11.6749
▁Nar	-11.6749
▁interior	-11.6752
▁grab	-11.6753
▁bệ	-11.6756
Pro	-11.6756
▁settle	-11.6759
▁letting	-11.6762
▁variant	-11.6762
▁Detective	-11.6762
▁vé	-11.6763
▁convince	-11.6763
▁Fuji	-11.6765
▁earn	-11.6771
▁Zero	-11.6772
▁Jupiter	-11.6772
▁Phản	-11.6772
▁lit	-11.6773
▁aired	-11.6775
▁Algeria	-11.6776
▁26,	-11.6778
▁demonstrated	-11.678
▁pyramid	-11.6783
▁thin	-11.6783
▁đính	-11.6783
▁Beatles	-11.6783
▁dịu	-11.6785
▁nhát	-11.679
▁Tsu	-11.6792
▁Bat	-11.6793
▁râu	-11.6793
from	-11.6797
▁recovered	-11.6798
▁funding	-11.6803
▁intellectual	-11.6803
tation	-11.6805
▁nowhere	-11.6807
▁Pictures	-11.6812
▁tumor	-11.6812
▁Sand	-11.6813
▁xưng	-11.6813
▁fever	-11.6814
▁Phía	-11.6814
▁bến	-11.6816
trợ	-11.6818
▁Đồ	-11.6819
ough	-11.6819
nis	-11.6822
▁heir	-11.6823
▁mốc	-11.6824
▁wars	-11.6827
▁longest	-11.6832
▁1936	-11.6833
▁divide	-11.6834
3.	-11.6834
sar	-11.6835
▁secretary	-11.6835
▁lam	-11.6836
▁dirty	-11.6837
▁recovery	-11.6838
▁Chó	-11.684
▁sharp	-11.684
▁battles	-11.6843
▁Tennessee	-11.6844
▁treasure	-11.6844
▁bướm	-11.6844
▁Queensland	-11.6844
▁description	-11.6846
▁96	-11.6848
▁sodium	-11.6848
AN	-11.6851
▁Code	-11.6853
moto	-11.6854
▁hardware	-11.6855
▁Mountain	-11.6861
who	-11.6863
▁gai	-11.6863
▁rất	-11.6864
▁Wright	-11.6865
▁Fo	-11.6868
▁khiết	-11.687
▁institution	-11.6871
sei	-11.6872
▁plate	-11.6873
▁exciting	-11.6874
▁composer	-11.6876
▁thoughts	-11.6879
▁Bảng	-11.6883
én	-11.6883
quin	-11.6885
vol	-11.6885
lay	-11.6885
▁Unless	-11.6886
▁Pol	-11.6886
lf	-11.6889
▁continuous	-11.6891
▁Slav	-11.6892
▁bull	-11.6892
▁mechanical	-11.6893
▁necessarily	-11.6895
▁Janeiro	-11.6895
put	-11.6898
CD	-11.6899
▁Talk	-11.69
ising	-11.6902
▁fortune	-11.6905
▁cent	-11.6906
▁váy	-11.6907
▁Doug	-11.6914
▁tied	-11.6915
▁plain	-11.6916
▁rộn	-11.6918
▁Mat	-11.6918
▁1880	-11.6919
▁Poly	-11.692
▁Vệ	-11.6921
▁/	-11.6921
▁1870	-11.6921
▁Die	-11.6923
ă	-11.6925
▁Nelson	-11.6926
▁Osaka	-11.6926
▁cable	-11.6927
▁exercises	-11.6927
hood	-11.6928
▁Lower	-11.6929
▁arrive	-11.6929
mis	-11.6933
▁losses	-11.6934
▁Gọi	-11.6936
dor	-11.6938
▁beating	-11.6939
▁Welcome	-11.694
▁neutron	-11.6946
▁encourage	-11.6947
▁Palm	-11.6947
▁ought	-11.6947
woo	-11.6948
▁Cold	-11.695
shin	-11.695
▁functional	-11.6951
▁Kin	-11.6951
▁accurate	-11.6953
▁Hiro	-11.6954
human	-11.6954
▁talks	-11.6955
ID	-11.6957
▁boundary	-11.6957
uch	-11.6957
▁77	-11.696
▁argue	-11.696
▁Officer	-11.6965
▁discussed	-11.6965
hour	-11.6967
▁transform	-11.697
cept	-11.6972
▁proportion	-11.6974
▁returns	-11.6976
▁Pokémon	-11.6977
▁dancing	-11.6977
▁kép	-11.6977
ech	-11.698
▁Edo	-11.6982
▁140	-11.6987
▁ruling	-11.6988
▁Potter	-11.6988
▁Tinh	-11.699
▁27,	-11.6991
▁comedy	-11.6995
▁offices	-11.6996
▁Data	-11.6998
▁dâng	-11.7
▁Rights	-11.7001
▁1903	-11.7001
▁sacrifice	-11.7002
ulation	-11.7008
▁quật	-11.7008
▁reducing	-11.7008
▁Bobby	-11.7009
▁bu	-11.701
▁SO	-11.701
▁votes	-11.7011
▁fu	-11.7011
▁1860	-11.7015
bia	-11.7017
ios	-11.7019
shan	-11.7025
▁objective	-11.7027
▁Isaac	-11.7029
▁triệt	-11.7029
▁bow	-11.7036
▁Commonwealth	-11.7039
▁cần	-11.704
▁Again	-11.704
▁transportation	-11.7041
▁Shō	-11.7042
▁colony	-11.7043
▁colleagues	-11.7043
ography	-11.7043
▁atoms	-11.7045
▁Together	-11.705
▁hanging	-11.705
▁intense	-11.705
▁voted	-11.7052
▁khoang	-11.7053
▁1974,	-11.7053
ỉ	-11.7055
▁rough	-11.7057
▁retain	-11.7059
▁á	-11.706
▁xấp	-11.7061
▁belt	-11.7061
▁Spring	-11.7063
▁Carol	-11.7064
▁lowest	-11.7064
▁$2	-11.7064
-23	-11.7065
▁channels	-11.7065
▁Mario	-11.7065
ằm	-11.7068
▁Knight	-11.7068
uli	-11.7069
▁3:	-11.707
▁Nicaragua	-11.707
▁enormous	-11.707
▁Number	-11.7071
mie	-11.7071
▁Hank	-11.7074
▁thính	-11.7075
fra	-11.7079
▁pig	-11.7081
▁Looks	-11.7084
▁originated	-11.7084
▁đấm	-11.7085
▁Nancy	-11.7093
kes	-11.7094
▁receptor	-11.7095
Wa	-11.7095
▁venture	-11.7096
▁Horse	-11.7098
▁Phoebe	-11.7102
▁Carey	-11.7106
▁Qui	-11.7106
▁landscape	-11.7106
âu	-11.7107
▁Es	-11.7109
▁fairly	-11.7109
▁superior	-11.7112
khi	-11.7112
▁clothing	-11.7117
ận	-11.7118
▁YOU	-11.7119
bed	-11.7124
▁đoan	-11.7125
▁Helen	-11.7125
avi	-11.7126
owski	-11.7129
▁01	-11.7131
▁confidence	-11.7137
▁slave	-11.7138
▁critics	-11.7138
▁130	-11.7141
▁elevation	-11.7144
▁Tưởng	-11.7145
▁23,	-11.7146
▁bra	-11.7146
tle	-11.7148
▁Paraguay	-11.7154
▁gởi	-11.7154
▁abroad	-11.7154
▁Chỗ	-11.7155
▁Buddhist	-11.7156
▁chiết	-11.7156
▁duyên	-11.7157
ali	-11.7157
▁arch	-11.7157
▁1993.	-11.7158
▁Mở	-11.7158
▁Constantinople	-11.7165
▁deputy	-11.7165
▁pursue	-11.7166
▁360	-11.7167
▁Khách	-11.7167
▁extension	-11.7169
▁Khí	-11.717
▁efficient	-11.7171
▁writers	-11.7172
▁absolute	-11.7175
▁Thân	-11.7176
vel	-11.7177
▁nãy	-11.7178
▁synthesis	-11.718
▁missile	-11.718
▁shirt	-11.7181
▁Adams	-11.7181
vy	-11.7182
▁Harris	-11.7183
▁Nevada	-11.7186
▁chéo	-11.7186
▁Jerry	-11.7187
ا	-11.7189
▁logo	-11.719
▁Binh	-11.7192
▁Mega	-11.7195
ugh	-11.7199
▁brains	-11.72
ras	-11.7201
▁console	-11.7202
xe	-11.7202
▁Ob	-11.7202
vir	-11.7203
▁qui	-11.7203
▁Zone	-11.7205
▁charts	-11.7206
▁đà	-11.7207
▁engagement	-11.7209
yer	-11.721
▁legend	-11.7212
▁attracted	-11.7212
▁buying	-11.7212
Nếu	-11.7214
rit	-11.7215
▁loyal	-11.7217
▁apologize	-11.7218
▁slide	-11.7218
▁Voice	-11.722
▁Information	-11.722
tive	-11.7223
▁Babylon	-11.7225
▁lift	-11.7228
▁biology	-11.7229
▁Championships	-11.7231
▁strikes	-11.7231
▁Grande	-11.7233
▁survivors	-11.7233
▁joy	-11.7235
▁lyrics	-11.7239
▁celebrated	-11.7239
▁gravity	-11.7239
▁Hungarian	-11.724
▁Mộc	-11.724
tern	-11.724
New	-11.7241
▁Guardian	-11.7241
▁anger	-11.7242
▁ngục	-11.7243
ware	-11.7246
▁scan	-11.7247
▁Sure	-11.7248
NS	-11.7248
▁Sean	-11.7249
CP	-11.7249
▁Fair	-11.725
▁ears	-11.7253
▁properly	-11.7256
▁stability	-11.726
▁mouse	-11.7261
▁habitat	-11.7265
▁log	-11.7266
League	-11.7267
▁knife	-11.7271
▁Monday	-11.7271
▁signing	-11.7273
▁merged	-11.7274
▁1902	-11.7275
▁Naga	-11.7282
▁Chúc	-11.7284
▁Bernard	-11.7288
▁soái	-11.7289
▁Qa	-11.7291
▁relief	-11.7292
▁Venus	-11.7293
▁steam	-11.7297
▁bloody	-11.73
▁Lip	-11.7301
SS	-11.7301
▁decreased	-11.7302
▁Kings	-11.7302
dale	-11.7303
▁Minnesota	-11.7303
▁đầu	-11.7303
▁Bóng	-11.7304
las	-11.7305
ái	-11.7306
▁Fred	-11.7308
ign	-11.7309
-14	-11.731
hiro	-11.731
▁Woman	-11.7311
õ	-11.7312
▁Ngược	-11.7313
▁Kiến	-11.7317
▁stem	-11.7318
▁daughters	-11.732
▁tongue	-11.7324
▁cabinet	-11.7325
▁golf	-11.7328
▁transit	-11.7329
▁Page	-11.7329
▁1983,	-11.7332
▁fee	-11.7333
▁conservation	-11.7335
▁opportunities	-11.7335
▁đậm	-11.7335
▁Hậu	-11.7335
▁gạo	-11.7335
▁gói	-11.7335
▁Barbara	-11.7335
act	-11.7337
▁transformation	-11.7337
▁dê	-11.7341
Bạn	-11.7343
▁tiễn	-11.7346
▁offensive	-11.735
▁negotiations	-11.735
▁starred	-11.7353
gel	-11.7354
▁controls	-11.736
▁practices	-11.7361
nos	-11.7362
▁protest	-11.7362
▁conclusion	-11.7363
▁Linda	-11.7365
mbo	-11.7366
▁Orleans	-11.7367
▁excellent	-11.7367
▁nhiều	-11.7367
▁competitive	-11.737
▁driven	-11.737
▁bid	-11.7375
▁lăn	-11.7376
▁destroyers	-11.7377
▁Nguyễn	-11.7378
▁cluster	-11.7385
▁1:	-11.7387
▁regularly	-11.7387
▁tribe	-11.7388
#7871;	-11.7388
▁Argentine	-11.7389
▁thầu	-11.7389
▁convert	-11.7391
▁Wild	-11.7393
▁61	-11.7394
Bu	-11.7396
▁dán	-11.7397
-0	-11.7397
hwa	-11.7397
▁Bí	-11.7399
▁Vatican	-11.7399
▁Mir	-11.7399
▁enjoyed	-11.7401
▁Mak	-11.7401
▁Pete	-11.7403
▁Masa	-11.7405
▁shore	-11.7407
▁cụt	-11.7408
▁Administration	-11.741
▁shelter	-11.741
▁Anything	-11.741
llo	-11.7414
▁160	-11.7415
▁heaven	-11.7416
▁Youth	-11.7416
▁revenue	-11.7417
▁cutting	-11.7418
▁civilian	-11.7419
▁quantum	-11.7421
▁1967,	-11.7424
▁vợt	-11.7427
▁virtual	-11.7428
▁prisoner	-11.7428
▁demo	-11.7428
▁define	-11.7431
▁connections	-11.7431
▁lót	-11.7432
▁naked	-11.7432
▁láng	-11.7433
LE	-11.7433
cast	-11.7435
▁Than	-11.7438
Go	-11.7438
▁variation	-11.7439
▁differently	-11.7441
▁Bin	-11.7441
▁Trân	-11.7443
▁Siêu	-11.7443
▁UFO	-11.7443
▁nano	-11.7444
▁pot	-11.7447
▁martial	-11.7448
ug	-11.745
▁Ker	-11.7451
▁wash	-11.7453
▁Hills	-11.7454
▁bóp	-11.7456
▁buồng	-11.7456
▁Ghi	-11.7457
▁select	-11.7457
rov	-11.7464
▁đạc	-11.7465
▁phones	-11.7466
▁euro	-11.7467
▁medication	-11.7472
▁raid	-11.7473
▁Band	-11.7475
▁Neo	-11.7475
▁Sức	-11.748
▁1982,	-11.748
▁59	-11.748
▁Note	-11.7482
present	-11.7482
TS	-11.7482
▁nàn	-11.7483
▁Chí	-11.7485
▁Abraham	-11.7486
▁Sicily	-11.7486
▁Sai	-11.7491
▁Siberia	-11.7491
▁radical	-11.7493
▁nurse	-11.7493
▁Guard	-11.7495
▁fed	-11.7495
▁5%	-11.7496
▁Television	-11.7497
▁hít	-11.7497
▁react	-11.7502
▁sees	-11.7503
▁cute	-11.7503
range	-11.7506
▁Kansas	-11.7508
▁Belgian	-11.7508
rio	-11.7509
ister	-11.7511
▁66	-11.7511
▁1991.	-11.7515
▁scholars	-11.7516
▁discussion	-11.7517
▁influential	-11.7519
▁bấy	-11.7519
▁Lou	-11.7527
▁surviving	-11.7529
▁forgotten	-11.753
▁Đánh	-11.753
▁MI	-11.753
▁Mĩ	-11.7531
▁1949,	-11.7531
▁dish	-11.7534
▁1944.	-11.7536
▁meal	-11.7538
▁Otto	-11.754
";	-11.7541
▁grant	-11.7541
▁wound	-11.7543
▁Flight	-11.7543
▁operational	-11.7548
▁substance	-11.7549
▁innovation	-11.7549
▁gamma	-11.7551
That	-11.7551
▁refugees	-11.7554
▁Huy	-11.7555
ically	-11.7557
ect	-11.7558
ving	-11.756
▁thự	-11.7561
▁interact	-11.7562
▁battery	-11.7562
▁Viễn	-11.7562
▁declined	-11.7565
▁deeply	-11.7566
▁incredibly	-11.7566
▁Lev	-11.7567
▁Liga	-11.7568
▁breeds	-11.7572
▁Count	-11.7575
▁Italia	-11.7575
▁stake	-11.7576
▁Gã	-11.7576
ition	-11.7577
▁Medical	-11.758
▁expert	-11.7582
foot	-11.7583
▁Found	-11.7584
▁1960.	-11.7585
▁experts	-11.7586
▁reverse	-11.7587
▁scar	-11.759
▁mask	-11.759
ứ	-11.759
▁afterwards	-11.7593
▁statue	-11.7593
RI	-11.7595
▁diversity	-11.7595
Br	-11.7598
iana	-11.7599
cor	-11.7602
AF	-11.7604
▁emotions	-11.7605
▁messages	-11.7607
▁Hannah	-11.7607
▁Uncle	-11.7607
ải	-11.7609
▁Somalia	-11.7609
▁62	-11.7615
▁pizza	-11.7617
▁Julius	-11.7617
▁Plant	-11.7618
▁throat	-11.7621
idine	-11.7626
▁variable	-11.7627
▁Language	-11.7628
▁Trần	-11.7628
▁Somebody	-11.7629
▁3,000	-11.763
▁Biên	-11.763
ologist	-11.7634
▁constantly	-11.7635
▁AC	-11.7637
▁Deep	-11.7637
▁holiday	-11.7638
▁Murray	-11.764
▁frequent	-11.7643
RT	-11.7643
▁Ms	-11.7648
▁priest	-11.7649
▁approval	-11.765
▁cưỡi	-11.765
▁1922	-11.7651
▁Lâm	-11.7652
▁Market	-11.7656
▁portal	-11.7657
▁Bla	-11.7658
▁authors	-11.7658
▁relevant	-11.7661
▁Senator	-11.7663
▁Romans	-11.7663
▁1911	-11.7667
▁Quang	-11.7668
▁eaten	-11.7669
▁Liban	-11.767
▁fewer	-11.767
ương	-11.7671
▁Much	-11.7672
▁societies	-11.7672
link	-11.7673
▁1973,	-11.7673
▁Marvel	-11.7673
▁Additionally	-11.7674
▁mining	-11.7674
elli	-11.7675
fen	-11.768
▁concentrations	-11.7682
▁Alliance	-11.7684
▁boundaries	-11.7684
ides	-11.7685
▁guarantee	-11.7686
▁alarm	-11.7687
▁MA	-11.7688
▁Namibia	-11.7688
▁spa	-11.769
▁1965,	-11.7691
▁disorder	-11.7694
▁relation	-11.7694
▁cavalry	-11.7695
▁spacecraft	-11.7695
▁winds	-11.7698
▁1968,	-11.7705
▁Mah	-11.7705
▁ghost	-11.7705
▁2019,	-11.771
▁dam	-11.7711
▁VIII	-11.7712
sub	-11.7712
▁Small	-11.7717
▁Sil	-11.7718
▁creatures	-11.7719
hem	-11.7721
▁Shaw	-11.7722
▁stolen	-11.7724
tone	-11.7725
▁dozen	-11.7725
Music	-11.7725
▁unlike	-11.7727
▁Mil	-11.7727
▁Hang	-11.7727
▁Đĩa	-11.7728
▁distant	-11.7728
▁Brooklyn	-11.7728
▁rebellion	-11.7728
▁Trưởng	-11.7728
▁Petersburg	-11.7728
▁submarine	-11.7729
▁Nature	-11.773
▁behalf	-11.7736
▁rival	-11.7738
▁session	-11.7739
▁Heritage	-11.7739
▁criticism	-11.7739
▁Justin	-11.7741
▁Pascal	-11.7741
▁conservative	-11.7742
horn	-11.7744
▁Kid	-11.7745
phen	-11.7746
▁bàng	-11.7747
▁Georg	-11.7748
▁Mos	-11.775
▁spiritual	-11.7751
▁usage	-11.7751
sey	-11.7752
▁Tuyên	-11.7753
▁tourist	-11.7753
▁hardly	-11.7755
▁succeed	-11.7759
▁1896	-11.7761
▁Soul	-11.7761
▁binding	-11.7763
ught	-11.7764
new	-11.7766
▁dies	-11.7766
ened	-11.7769
Em	-11.7769
try	-11.7771
▁calendar	-11.7773
▁laboratory	-11.7773
▁elsewhere	-11.7773
uga	-11.7774
▁consecutive	-11.7775
gas	-11.7778
▁Giai	-11.778
▁poison	-11.7781
▁Gaul	-11.7783
▁industries	-11.7784
▁Wei	-11.7784
▁breast	-11.7784
▁1969,	-11.7784
▁Greenland	-11.7786
▁recognised	-11.7788
▁(1)	-11.779
▁performances	-11.7791
▁Short	-11.7795
burn	-11.7798
▁vứt	-11.7807
▁ju	-11.7807
▁Ancient	-11.7807
▁chloride	-11.7807
Ga	-11.7807
▁chamber	-11.7807
▁arc	-11.7808
▁60%	-11.7808
▁Fantasy	-11.7809
gle	-11.7809
▁rear	-11.7813
▁Half	-11.7815
▁fingers	-11.7817
▁Harvey	-11.7818
▁Computer	-11.7818
▁insulin	-11.7818
▁suối	-11.7818
▁controversial	-11.7819
vor	-11.782
▁educational	-11.7821
▁bath	-11.7823
▁Séc	-11.7824
▁generations	-11.7826
▁appeal	-11.7826
▁actors	-11.7828
▁printing	-11.7828
▁Bhutan	-11.7829
rim	-11.783
▁Daddy	-11.783
▁Gregory	-11.7833
▁Clo	-11.7838
▁Nokia	-11.7841
▁rely	-11.7843
▁meetings	-11.7849
▁mail	-11.785
đã	-11.7851
▁closing	-11.7851
▁Diễn	-11.7852
rak	-11.7852
▁Arctic	-11.7853
▁chổi	-11.7854
▁tall	-11.7856
RP	-11.7856
▁Chun	-11.7856
▁1946,	-11.7858
▁swim	-11.7861
▁finishing	-11.7863
▁defence	-11.7863
▁Reagan	-11.7863
▁Ul	-11.7863
▁vessel	-11.7863
cat	-11.7864
▁toxic	-11.7868
▁Mid	-11.7869
▁Gan	-11.787
▁ri	-11.7871
▁encouraged	-11.7873
▁Jose	-11.7874
▁Nhiệt	-11.7874
▁Except	-11.7874
▁phơi	-11.7874
▁1984,	-11.7879
▁undergo	-11.788
▁guests	-11.7883
▁cooking	-11.7885
▁cooperation	-11.7886
▁natri	-11.7887
▁Moore	-11.7887
tai	-11.7887
▁neutral	-11.7888
▁Tur	-11.789
▁Wo	-11.789
▁Parker	-11.7891
▁lesson	-11.7891
▁notion	-11.7892
▁depend	-11.7892
EA	-11.7893
▁Julian	-11.7894
aka	-11.7894
▁robots	-11.7894
▁kề	-11.7894
▁Low	-11.7895
Mar	-11.7896
▁candidates	-11.7896
uta	-11.7897
▁chronic	-11.7898
▁desk	-11.79
▁Article	-11.7902
▁observations	-11.7902
▁traveling	-11.7904
▁Use	-11.7904
▁Hard	-11.7908
▁dại	-11.7908
▁Lisa	-11.7909
▁ru	-11.7913
▁terminal	-11.7916
world	-11.7917
▁Bru	-11.7917
▁Núi	-11.7919
▁breathing	-11.792
▁29,	-11.7922
▁ST	-11.7927
▁dynamic	-11.7928
▁Jam	-11.7933
▁PS	-11.7934
▁Timor	-11.7934
▁Nông	-11.7935
▁900	-11.7935
▁Eun	-11.7937
mmer	-11.794
▁universal	-11.7941
▁Ontario	-11.7942
Why	-11.7943
bble	-11.7943
▁Tạp	-11.7944
▁gu	-11.7945
▁viewed	-11.7945
▁sole	-11.7947
▁Pho	-11.7949
▁trail	-11.7952
▁Deputy	-11.7953
▁animation	-11.7953
▁dressed	-11.7954
▁diverse	-11.7956
▁Maryland	-11.7957
▁None	-11.7958
0%	-11.796
▁carefully	-11.796
▁everyday	-11.796
▁folks	-11.7961
▁corporate	-11.7965
▁perception	-11.7965
▁shower	-11.7965
▁Yan	-11.7966
▁Norwegian	-11.7967
▁Capital	-11.7968
ác	-11.7971
lli	-11.7974
▁Hamilton	-11.7975
▁breathe	-11.7975
▁Nor	-11.7976
▁Excuse	-11.7976
▁pregnancy	-11.7976
▁Đấy	-11.7979
ates	-11.7982
ao	-11.7984
▁situations	-11.7985
lies	-11.7985
▁Bol	-11.7986
▁88	-11.7986
▁SM	-11.7986
▁Tang	-11.7987
mina	-11.7988
▁Community	-11.7988
▁diameter	-11.7988
▁swimming	-11.7988
▁Upper	-11.7989
ễ	-11.7989
aries	-11.799
lot	-11.7992
▁Steven	-11.7995
▁Mao	-11.7997
▁pray	-11.7998
hop	-11.7999
▁hypothesis	-11.7999
▁skull	-11.7999
▁rằng	-11.7999
▁Brunei	-11.7999
▁1920,	-11.7999
▁Khối	-11.7999
▁khoai	-11.8
▁1898	-11.8002
▁exile	-11.8002
▁Brothers	-11.8008
▁detailed	-11.8008
▁suýt	-11.8011
▁seventh	-11.8011
▁stating	-11.8013
▁instruments	-11.8015
▁allies	-11.8015
▁roots	-11.8015
▁Village	-11.8017
▁continent	-11.8017
▁molecule	-11.8018
frac	-11.802
▁Thập	-11.8022
▁Limited	-11.8023
▁restricted	-11.8024
▁Sim	-11.8024
Các	-11.8027
▁keys	-11.8027
▁cồn	-11.8029
▁conversion	-11.803
shire	-11.803
▁mood	-11.803
elo	-11.8031
▁prey	-11.8034
▁aged	-11.8035
▁quyên	-11.8035
▁tetra	-11.8037
pers	-11.8038
rina	-11.8039
Cha	-11.8039
▁1942.	-11.8042
eno	-11.8042
▁Were	-11.8047
▁Tâm	-11.8048
▁invite	-11.8048
▁pit	-11.8048
▁25%	-11.8049
▁searching	-11.8051
)"	-11.8051
ết	-11.8054
▁comfort	-11.8055
▁Total	-11.8056
▁vital	-11.8056
▁Naples	-11.8056
▁1,5	-11.8057
▁Sách	-11.8059
▁chớ	-11.806
▁civilization	-11.8061
▁Imagine	-11.8061
gawa	-11.8067
▁Ap	-11.8068
▁Wat	-11.8068
▁clients	-11.8069
num	-11.8073
▁bư	-11.8074
flu	-11.8074
▁acids	-11.8077
▁ongoing	-11.8078
lea	-11.8081
▁suitable	-11.8081
bil	-11.8081
▁000	-11.8084
▁Turner	-11.8085
▁communications	-11.8087
▁bombing	-11.8088
mos	-11.8089
▁Est	-11.809
nor	-11.8091
▁Jessica	-11.8091
▁summit	-11.8092
ote	-11.8093
▁Neu	-11.8096
▁novels	-11.8096
▁lánh	-11.8097
dine	-11.8098
▁fo	-11.81
▁Sei	-11.81
▁nọ	-11.8101
ể	-11.8102
▁kilômét	-11.8103
▁Studies	-11.8103
▁tơ	-11.8105
àn	-11.8109
sai	-11.8112
▁cruise	-11.8113
▁gather	-11.8113
▁bite	-11.8113
▁epi	-11.8114
▁Late	-11.8114
▁siege	-11.8114
▁fraction	-11.8114
▁seeking	-11.8114
▁Having	-11.8116
▁Henri	-11.8116
▁hungry	-11.8116
▁clinic	-11.8119
thường	-11.8122
▁tủy	-11.8122
verse	-11.8123
▁agencies	-11.8126
▁sequel	-11.8126
▁Kit	-11.8126
▁Squadron	-11.8126
▁Trẻ	-11.8126
▁Country	-11.8127
uka	-11.8127
▁UTC	-11.8127
NO	-11.8128
▁kills	-11.8129
oy	-11.8129
boat	-11.813
ress	-11.8131
ị	-11.8134
▁math	-11.8136
▁minds	-11.8137
▁Tomorrow	-11.8138
▁XX	-11.8138
▁marks	-11.8138
▁crap	-11.8139
▁reflect	-11.8139
▁citizen	-11.8141
▁Por	-11.8142
▁Dựa	-11.8145
▁outcome	-11.8146
▁cruiser	-11.8146
ل	-11.8147
▁DJ	-11.8149
phe	-11.8149
▁khe	-11.815
▁conventional	-11.8151
▁ki	-11.8153
▁Rain	-11.8155
pol	-11.8158
ốc	-11.816
▁Hanoi	-11.8161
▁Movement	-11.8161
German	-11.8162
bat	-11.8163
▁Zambia	-11.8164
cut	-11.8164
▁banned	-11.8165
▁1971,	-11.8166
▁tasks	-11.8166
▁Rh	-11.8167
▁creates	-11.8169
▁closest	-11.817
▁Marshal	-11.8171
▁artistic	-11.8171
▁Bán	-11.8172
▁withdrew	-11.8172
▁nhã	-11.8173
omi	-11.8174
mate	-11.8176
▁architect	-11.8176
▁activist	-11.8176
▁drew	-11.8184
CE	-11.8187
▁Pet	-11.8188
▁championship	-11.8189
▁egg	-11.8191
▁partly	-11.8192
illo	-11.8193
▁inspiration	-11.8194
▁export	-11.8194
▁rent	-11.8195
▁pollution	-11.8196
▁nhở	-11.8196
shu	-11.8198
▁odd	-11.8201
▁Thor	-11.8205
▁secrets	-11.8206
▁intention	-11.8207
▁rải	-11.8208
▁1962,	-11.8209
▁rational	-11.821
gger	-11.8211
▁bombs	-11.8211
▁khao	-11.8215
▁Reg	-11.8216
▁Friedrich	-11.8219
▁housing	-11.8219
▁Larry	-11.8221
▁badly	-11.8221
ify	-11.8221
▁Mur	-11.8222
▁qualified	-11.8222
▁resource	-11.8225
▁audio	-11.8226
▁MS	-11.823
▁Rey	-11.8231
▁remarkable	-11.8231
▁Tyler	-11.8231
▁extend	-11.8233
▁lầy	-11.8233
▁friendship	-11.8234
▁electro	-11.824
▁Hebrew	-11.824
hal	-11.8244
▁Brother	-11.8245
▁AFC	-11.8247
pl	-11.8248
▁Earl	-11.8248
▁Vin	-11.8249
LC	-11.8249
FC	-11.8251
bul	-11.8252
▁1800	-11.8253
▁crying	-11.8253
PC	-11.8254
▁Mạng	-11.8254
▁hurry	-11.8254
▁Martha	-11.8255
▁divorce	-11.8257
▁Sung	-11.8259
▁rail	-11.8259
ło	-11.8261
▁Ry	-11.8261
▁adapt	-11.8261
▁whenever	-11.8262
▁Mind	-11.8264
▁Kiểm	-11.8266
▁Chase	-11.8266
▁curious	-11.8266
▁Nahiyah	-11.8266
tana	-11.8266
bot	-11.8267
▁Yêu	-11.8267
▁Ari	-11.8268
▁Mori	-11.8268
▁trend	-11.8269
▁corresponding	-11.827
Ne	-11.8272
▁30,	-11.8276
▁signature	-11.8278
▁rễ	-11.8278
▁dependent	-11.8278
▁Kiev	-11.8279
▁darkness	-11.828
Sha	-11.8281
▁Ay	-11.8282
oku	-11.8283
▁wings	-11.8284
▁fallen	-11.8284
▁Fund	-11.8285
ữ	-11.8286
▁Nhanh	-11.8286
▁demands	-11.8289
▁giọt	-11.8289
ống	-11.829
IP	-11.8291
▁Đề	-11.8293
▁1976,	-11.8294
▁custom	-11.8294
▁membrane	-11.8295
▁grounds	-11.8295
▁estimate	-11.8298
▁amongst	-11.8299
▁Know	-11.8299
ffer	-11.8301
▁brilliant	-11.8301
▁participants	-11.8305
▁Building	-11.8306
▁hoạ	-11.8307
▁tản	-11.8308
gui	-11.8309
▁Pink	-11.831
▁orange	-11.8316
▁wins	-11.8317
▁moments	-11.8319
▁observation	-11.8319
▁Kam	-11.8325
▁LGBT	-11.8325
▁administered	-11.833
ashi	-11.8333
▁inches	-11.8334
▁Micro	-11.8336
▁hook	-11.8336
▁Nàng	-11.8338
▁sufficient	-11.8338
▁suspended	-11.8338
▁Laura	-11.8338
▁repairs	-11.8342
making	-11.8342
▁1956,	-11.8342
▁MIT	-11.8342
lat	-11.8343
▁Xi	-11.8344
▁Edition	-11.8349
ters	-11.8349
▁lận	-11.8349
Hãy	-11.835
▁Kent	-11.836
▁reviews	-11.836
▁continuing	-11.836
▁giềng	-11.8361
▁detect	-11.8361
▁poem	-11.8368
TC	-11.8368
▁substantial	-11.8369
▁Boys	-11.8369
▁adjacent	-11.8372
▁mysterious	-11.8372
▁Review	-11.8373
▁khuất	-11.8375
sco	-11.8381
▁Xê	-11.8381
▁belonged	-11.8382
▁folk	-11.8382
▁Planet	-11.8384
▁Stanford	-11.8384
▁Austrian	-11.8385
▁Louisiana	-11.8385
▁mẻ	-11.8385
▁Flash	-11.8386
▁Start	-11.839
int	-11.8392
IF	-11.8392
▁Wan	-11.8392
▁Màu	-11.8393
▁Palmer	-11.8394
▁seeds	-11.8394
▁painted	-11.8394
▁flesh	-11.8396
▁telephone	-11.8396
▁silence	-11.8396
▁routes	-11.8399
▁devil	-11.8399
▁Work	-11.8401
▁điếm	-11.8402
▁tries	-11.8403
▁organs	-11.8404
ake	-11.8404
▁derivative	-11.8406
▁sương	-11.8408
▁impression	-11.8409
▁Ladies	-11.8409
▁grid	-11.8411
ấu	-11.8415
ovich	-11.8417
▁photograph	-11.8419
thi	-11.842
▁thầm	-11.842
▁framework	-11.8421
▁Ngựa	-11.8421
▁confirm	-11.8421
▁Anglo	-11.8422
▁corn	-11.8423
LL	-11.8424
lands	-11.8425
▁lô	-11.8426
▁index	-11.8432
hee	-11.8433
▁Europa	-11.8433
▁attract	-11.8434
▁trán	-11.8436
▁ranks	-11.8437
iel	-11.8438
▁equipped	-11.8438
▁Lau	-11.844
▁bong	-11.8441
▁commissioned	-11.8445
▁gel	-11.8445
cô	-11.8445
▁shadow	-11.8446
▁Being	-11.8447
▁monarch	-11.8451
▁preparation	-11.8451
sit	-11.8455
▁ver	-11.8455
▁chuyền	-11.8456
▁Plus	-11.8456
▁aimed	-11.8457
press	-11.8458
▁Staff	-11.8458
▁1978,	-11.846
sel	-11.846
▁skill	-11.8461
ode	-11.8463
▁André	-11.8463
ốt	-11.8466
▁Leave	-11.8467
cc	-11.8468
▁buddy	-11.8468
▁instrument	-11.8468
▁Engineering	-11.8469
▁deployed	-11.847
ique	-11.8471
▁characterized	-11.8472
iba	-11.8473
▁ngô	-11.8475
▁eliminated	-11.8475
▁spell	-11.8475
▁Eve	-11.8475
▁stored	-11.8475
▁Must	-11.8476
▁crowned	-11.8477
▁camps	-11.8477
▁Dor	-11.8477
▁dỗ	-11.8481
Da	-11.8484
▁rats	-11.8486
▁abilities	-11.8486
▁noble	-11.8487
▁tunnel	-11.8487
nhưng	-11.8488
TO	-11.8488
▁reforms	-11.849
▁Trọng	-11.8492
▁powder	-11.8492
▁denied	-11.8492
▁dập	-11.8493
▁5,000	-11.8493
▁button	-11.8499
▁cheap	-11.8501
ước	-11.8502
All	-11.8503
▁medieval	-11.8504
▁subspecies	-11.8504
III	-11.8508
▁Sul	-11.8511
▁Base	-11.8513
▁IT	-11.8515
▁generate	-11.8516
▁Vancouver	-11.8516
▁rìa	-11.8516
▁Freedom	-11.8516
▁ABC	-11.8519
▁Bring	-11.852
oe	-11.8521
▁Leone	-11.8522
▁Help	-11.8523
▁đắp	-11.8528
▁tennis	-11.8529
▁golden	-11.8529
tháng	-11.8533
▁visiting	-11.8534
▁84	-11.8535
▁retained	-11.8535
ili	-11.8535
oph	-11.8536
▁retail	-11.8538
▁beneath	-11.854
▁Stefan	-11.854
▁thoả	-11.8543
▁Sahara	-11.8544
▁Pur	-11.8548
▁democratic	-11.8549
game	-11.855
core	-11.855
jō	-11.8552
▁Probably	-11.8552
▁Watson	-11.8553
▁dở	-11.8554
▁newspapers	-11.8556
▁trừu	-11.8556
▁hoped	-11.8559
▁ngẩn	-11.8564
▁Culture	-11.8564
▁1970.	-11.8566
▁campus	-11.8567
ffe	-11.8567
▁couples	-11.8568
▁Along	-11.8569
▁Rwanda	-11.8569
▁approaches	-11.8572
▁ties	-11.8573
▁involve	-11.8575
▁charity	-11.8576
▁theorem	-11.8579
▁Marcel	-11.858
▁CE	-11.858
▁strict	-11.858
▁Kos	-11.858
▁links	-11.8581
▁gathered	-11.8583
▁shield	-11.8584
▁cán	-11.8584
▁painter	-11.8587
▁Edinburgh	-11.8589
▁đắm	-11.8589
▁Obama	-11.8589
▁Program	-11.8592
▁vocal	-11.8593
▁xơ	-11.8594
̃	-11.8596
▁characteristic	-11.8598
▁tourism	-11.8603
▁potentially	-11.8604
▁interactions	-11.8606
▁acted	-11.8609
sum	-11.8609
▁indicates	-11.8611
▁Mare	-11.8611
▁Stewart	-11.8613
▁xen	-11.8616
▁distinction	-11.8617
▁programme	-11.862
▁economics	-11.8624
▁organize	-11.8624
▁pushed	-11.8624
rac	-11.8626
RO	-11.8627
▁Indonesian	-11.8627
▁efficiency	-11.8627
BC	-11.8631
▁Phố	-11.8633
▁Karen	-11.8635
▁trapped	-11.8638
She	-11.864
▁fighters	-11.8641
jan	-11.8643
▁coins	-11.8644
▁educated	-11.8647
▁1850	-11.8649
▁dominated	-11.8649
▁rap	-11.8649
▁Churchill	-11.8649
▁filter	-11.8649
bur	-11.8651
zz	-11.8651
▁Weekly	-11.8652
▁bồ	-11.8653
▁Lão	-11.8654
▁2.0	-11.8654
▁recover	-11.8655
▁xôi	-11.8655
▁AT	-11.8656
uni	-11.8656
list	-11.866
▁Grey	-11.8661
▁Luxembourg	-11.8662
▁mystery	-11.8662
▁shares	-11.8662
ø	-11.8663
▁Danish	-11.8663
lim	-11.8664
▁investigate	-11.8665
▁demonstrate	-11.8665
▁Tae	-11.8666
▁algorithm	-11.8667
%	-11.8668
ić	-11.8668
▁Ptolemy	-11.8674
▁descent	-11.8674
▁sphere	-11.8675
▁Geneva	-11.8675
▁ok	-11.8677
▁aspect	-11.8679
pic	-11.8679
▁clouds	-11.868
methyl	-11.868
▁dated	-11.8682
▁consistent	-11.8683
▁Dùng	-11.8684
ấp	-11.8685
▁Energy	-11.8687
▁Bạch	-11.8688
▁collective	-11.8689
▁ôn	-11.8691
▁Dun	-11.8692
▁Express	-11.8697
▁vả	-11.8698
▁Unfortunately	-11.8698
▁pandemic	-11.8698
▁remembered	-11.8699
▁bleeding	-11.8702
cũng	-11.8703
hab	-11.8703
▁ne	-11.8705
ces	-11.871
▁Senior	-11.8711
▁Hung	-11.8712
▁Same	-11.8712
cio	-11.8712
▁commitment	-11.8713
▁bóc	-11.8716
▁basin	-11.8716
▁clorua	-11.8716
▁reaches	-11.8721
▁freak	-11.8721
etti	-11.8722
▁đãi	-11.8722
oi	-11.8723
▁đinh	-11.8723
▁interpretation	-11.8725
▁riding	-11.8725
AD	-11.8725
▁partially	-11.8726
▁wise	-11.8726
west	-11.8727
▁Unit	-11.8727
▁seal	-11.8729
▁Constantine	-11.8731
▁Bờ	-11.8736
▁Calvin	-11.8736
▁invention	-11.8737
▁2019.	-11.8738
▁Cer	-11.8743
▁trace	-11.8745
▁creature	-11.8745
{	-11.8747
▁miracle	-11.8748
▁Niger	-11.8748
lai	-11.8749
master	-11.875
▁preserve	-11.8751
▁CPU	-11.8751
▁q	-11.8751
úc	-11.8758
▁sha	-11.8758
CT	-11.8759
▁march	-11.8759
▁diagnosis	-11.876
▁warfare	-11.876
▁1%	-11.8761
▁simultaneously	-11.8761
▁punishment	-11.8761
▁household	-11.8767
▁Majesty	-11.8772
▁Territory	-11.8772
▁1989.	-11.8773
▁Gang	-11.8773
▁injection	-11.8777
▁presentation	-11.8782
▁Lie	-11.8783
▁nuốt	-11.8785
▁involvement	-11.8785
▁documentary	-11.8785
▁0.0	-11.8787
▁span	-11.8787
▁spectrum	-11.8788
▁Spears	-11.879
ope	-11.8791
▁Met	-11.8797
▁1889	-11.8798
▁expecting	-11.88
▁Cl	-11.88
▁Broadway	-11.88
PL	-11.88
▁Indo	-11.8801
▁contribute	-11.8801
Su	-11.8802
▁Tôn	-11.8803
rr	-11.8804
▁disappear	-11.8806
▁mice	-11.8809
▁khuynh	-11.881
4.	-11.8811
char	-11.8816
▁1963,	-11.882
▁helicopter	-11.8821
mber	-11.8821
bach	-11.8821
#236;	-11.8822
▁beings	-11.8822
▁champions	-11.8823
▁67	-11.8824
▁string	-11.8824
▁Nile	-11.8825
▁extract	-11.8825
▁Az	-11.8826
▁doors	-11.8828
dus	-11.8831
pra	-11.8834
▁escorted	-11.8834
▁overseas	-11.8834
▁believes	-11.8841
▁vầy	-11.8842
▁printed	-11.8843
▁intervention	-11.8846
▁contributions	-11.8846
▁remainder	-11.8848
Vi	-11.8848
▁Busan	-11.8849
×	-11.8851
anda	-11.8851
▁Tuyệt	-11.8852
▁69	-11.8853
▁premiered	-11.8855
▁Task	-11.8856
▁Alabama	-11.8859
▁replacing	-11.8859
▁partnership	-11.8859
▁persons	-11.8865
▁1947,	-11.8865
▁suggesting	-11.8867
-29	-11.8868
hun	-11.8868
▁woods	-11.8869
gging	-11.887
▁Mk	-11.887
▁revolt	-11.8872
iro	-11.8874
▁Ultra	-11.8875
▁invaded	-11.8877
▁asleep	-11.8879
▁Mission	-11.888
▁Kei	-11.8882
▁lau	-11.8882
cit	-11.8883
meter	-11.8884
▁advertising	-11.8884
▁nhất	-11.8884
▁detective	-11.8885
atus	-11.8888
▁traditionally	-11.8891
▁dragon	-11.8891
▁lists	-11.8891
▁1977,	-11.8893
▁Ark	-11.8894
▁fur	-11.8897
▁threw	-11.8897
▁merely	-11.8898
▁Terry	-11.8899
▁Der	-11.8901
▁Istanbul	-11.8909
▁categories	-11.8909
▁amateur	-11.8909
▁Furthermore	-11.8909
DA	-11.891
▁Phoenix	-11.8911
▁thơm	-11.8913
▁coin	-11.8913
▁Season	-11.8914
▁photon	-11.8921
▁Miến	-11.8921
▁Hudson	-11.8922
▁laptop	-11.8922
▁Tháp	-11.8922
▁colonies	-11.8922
▁cats	-11.8923
▁trọn	-11.8925
▁1958,	-11.8925
chúng	-11.8928
▁distinguished	-11.8929
▁khiếu	-11.8932
▁cur	-11.8932
▁Finch	-11.8932
▁xả	-11.8934
▁Lucy	-11.8935
▁nòng	-11.8935
▁Gru	-11.8936
▁170	-11.894
▁1895	-11.8942
EN	-11.8942
inae	-11.8942
▁Seo	-11.8945
▁Ian	-11.8945
▁climb	-11.8946
▁wire	-11.8946
▁Works	-11.8946
lian	-11.8947
▁affair	-11.8947
▁Newfoundland	-11.8947
▁Miguel	-11.8947
▁ngọc	-11.8947
Po	-11.8949
▁Maha	-11.8949
▁Hol	-11.8951
bert	-11.8951
▁hospitals	-11.8952
▁Holmes	-11.8954
▁Gaga	-11.8957
▁Metropolitan	-11.896
▁Underwood	-11.896
▁Turn	-11.896
▁Môi	-11.8966
▁estimates	-11.8966
▁manufactured	-11.8967
▁AM	-11.8968
▁Rad	-11.8968
▁Sơ	-11.8969
▁balls	-11.897
▁oxide	-11.8971
▁Change	-11.8972
▁ruồi	-11.8972
▁gạt	-11.8973
▁Bishop	-11.8973
▁minority	-11.8974
▁trơn	-11.8974
▁publishing	-11.8977
▁Ran	-11.8979
As	-11.8983
▁1899	-11.8983
pes	-11.8984
sil	-11.8984
#7843;	-11.8985
▁bùn	-11.8986
hua	-11.8991
▁dude	-11.8992
▁rub	-11.8992
▁mistakes	-11.8993
▁Greater	-11.8993
▁annually	-11.8995
▁Aleppo	-11.8997
▁luân	-11.8998
▁historian	-11.8998
▁iOS	-11.8999
▁Kir	-11.8999
Và	-11.9001
▁Woo	-11.9008
ĩ	-11.9009
▁Dae	-11.9009
8,	-11.9009
para	-11.901
▁revenge	-11.901
▁surveillance	-11.901
▁IX	-11.9013
▁1500	-11.9014
General	-11.9015
Á	-11.9015
▁3-	-11.9016
phan	-11.9021
▁volumes	-11.9021
name	-11.9022
▁Bern	-11.9022
▁rổ	-11.9023
fan	-11.9026
eau	-11.9026
iti	-11.9028
▁thật	-11.903
▁Republican	-11.9033
–4	-11.9033
▁Liu	-11.9037
▁Mis	-11.9037
▁tới	-11.9037
▁Nền	-11.9038
▁đàng	-11.9038
▁Bible	-11.9042
▁Greg	-11.9043
virus	-11.9044
▁1940.	-11.9045
▁Doc	-11.9048
▁LA	-11.9048
▁Amsterdam	-11.9048
▁maintenance	-11.9048
▁chocolate	-11.9048
▁Biểu	-11.9048
▁Kirk	-11.9049
▁Ghost	-11.9049
▁instructions	-11.905
▁sống	-11.905
▁loose	-11.905
▁mild	-11.9051
▁Lam	-11.9052
▁integrated	-11.9052
▁Blu	-11.9056
▁hop	-11.9057
▁campaigns	-11.9057
▁ah	-11.906
rad	-11.9062
▁deeper	-11.9063
Mu	-11.9065
▁1966,	-11.9068
▁Ninh	-11.9071
▁Mul	-11.9071
▁Luzon	-11.9075
▁Mẫu	-11.9075
▁implementation	-11.9075
Jo	-11.9076
▁Face	-11.9078
▁publicly	-11.908
▁concentrated	-11.908
▁constitutional	-11.9081
zon	-11.9083
uf	-11.9086
▁historians	-11.9086
▁Memorial	-11.9086
▁Adolf	-11.9086
▁structural	-11.9088
TH	-11.9089
▁1948,	-11.909
năm	-11.9099
ũ	-11.9099
▁dramatic	-11.91
▁Barney	-11.91
▁ghen	-11.91
▁employ	-11.9101
▁Local	-11.9101
▁shoulder	-11.9104
▁Bosnia	-11.9105
▁lied	-11.9105
▁Bryan	-11.9106
yne	-11.911
▁boats	-11.9112
pat	-11.9113
▁courage	-11.9118
▁graph	-11.9124
▁considering	-11.9124
▁Morocco	-11.9125
▁Kre	-11.9125
apa	-11.9128
▁journal	-11.9129
order	-11.9132
▁reserves	-11.9134
▁yield	-11.9134
SL	-11.9135
▁Services	-11.9136
▁bát	-11.9141
▁ancestors	-11.9145
▁Kill	-11.9145
▁1897	-11.9148
▁Need	-11.9148
#7845;	-11.915
▁genome	-11.9151
▁hu	-11.9151
▁100.000	-11.9152
pot	-11.9153
▁Cla	-11.9153
▁hèn	-11.9154
▁favour	-11.9155
▁SP	-11.9155
▁intend	-11.9156
▁environments	-11.9157
▁Honor	-11.9158
▁Whit	-11.9161
▁informed	-11.9161
▁hoạn	-11.9162
▁Chester	-11.9165
gli	-11.9167
gio	-11.9167
lly	-11.9168
▁Jesse	-11.9168
▁Py	-11.9169
▁rush	-11.917
▁slaves	-11.9171
▁min	-11.9174
▁ngặt	-11.9176
▁Jonathan	-11.9176
▁retirement	-11.9176
gie	-11.9177
▁credited	-11.9177
▁Aren	-11.9177
▁Online	-11.9177
▁Intel	-11.9179
ush	-11.9183
OP	-11.9184
▁particle	-11.9185
hei	-11.9185
▁Using	-11.9186
▁Castro	-11.9189
▁ISO	-11.919
▁luồng	-11.919
enberg	-11.919
▁Spirit	-11.919
▁350	-11.9191
▁preserved	-11.9191
▁operates	-11.9192
▁Gates	-11.9197
▁gathering	-11.9198
▁Executive	-11.9202
DD	-11.9202
▁diễu	-11.9202
oxy	-11.9205
▁rò	-11.9205
▁xít	-11.9207
▁rec	-11.9207
▁neurons	-11.9209
▁screw	-11.9214
▁Stein	-11.9214
▁Shakespeare	-11.9215
▁Thursday	-11.9215
▁labour	-11.9215
▁regard	-11.9217
▁gear	-11.9218
▁chày	-11.9219
El	-11.9221
dit	-11.9223
▁shots	-11.9224
▁táng	-11.9225
▁cạo	-11.9229
▁Vàng	-11.9229
▁Wol	-11.9229
▁exhibition	-11.9231
▁compare	-11.9232
ivity	-11.9233
Japanese	-11.9234
sley	-11.9236
rel	-11.9236
sim	-11.9238
▁Wisconsin	-11.9241
▁preferred	-11.9241
▁commanded	-11.9242
▁Medicine	-11.9243
▁Hunt	-11.9245
▁Ky	-11.9247
▁relax	-11.9247
▁Mini	-11.925
▁distinguish	-11.9251
▁disk	-11.9252
▁fantastic	-11.9254
▁precious	-11.9254
▁Kur	-11.9255
▁occurring	-11.9255
▁attractive	-11.9255
▁Cấu	-11.9257
fully	-11.9258
▁engineers	-11.9259
▁4:	-11.9261
PDF	-11.9262
▁đỗ	-11.9267
▁varies	-11.9269
▁grows	-11.9269
▁Thompson	-11.927
▁sections	-11.9271
▁Yale	-11.9272
▁implemented	-11.9272
▁photographs	-11.9272
▁statistics	-11.9274
▁phô	-11.9275
▁Map	-11.9278
▁Malawi	-11.928
▁resigned	-11.9284
▁họng	-11.9284
▁Minor	-11.9287
▁Doesn	-11.929
▁ob	-11.929
▁Bus	-11.9291
▁Ring	-11.9295
▁Mong	-11.9296
▁wheel	-11.9297
ello	-11.9297
▁Dallas	-11.9298
▁traditions	-11.9299
-25	-11.93
▁Johann	-11.93
emia	-11.9301
enko	-11.9302
▁AU	-11.9304
▁stroke	-11.9306
▁curve	-11.9306
cca	-11.9309
▁Off	-11.9313
▁Rama	-11.9314
▁maps	-11.9315
▁Yuri	-11.9316
▁Rod	-11.9318
▁Carthage	-11.9319
▁craft	-11.9319
▁Lennon	-11.9319
▁consciousness	-11.9319
▁Comp	-11.932
ett	-11.932
▁genius	-11.9321
▁cơm	-11.9322
ional	-11.9323
▁É	-11.9326
▁payment	-11.9327
ét	-11.9327
ầm	-11.9329
7,	-11.933
▁Budapest	-11.9332
▁psychological	-11.9332
▁bell	-11.9333
▁lấn	-11.9333
tting	-11.9334
▁1959,	-11.9334
̀	-11.9339
2+	-11.9343
arch	-11.9345
▁Gran	-11.9345
plo	-11.9349
▁repeated	-11.9349
▁routine	-11.9354
▁Fre	-11.9356
ars	-11.9356
▁giặt	-11.9358
▁Beat	-11.9363
▁difficulty	-11.9363
▁McC	-11.9365
▁1964,	-11.9365
▁lọ	-11.9365
▁dump	-11.9369
▁Tel	-11.937
▁Chim	-11.9371
tail	-11.9371
▁Creek	-11.9372
▁Gene	-11.9374
pel	-11.9375
▁methyl	-11.9376
▁Latvia	-11.9376
logy	-11.9379
cr	-11.9381
▁elder	-11.9382
▁Lega	-11.9382
н	-11.9386
▁copper	-11.9386
▁attributed	-11.9387
▁thiếp	-11.9387
▁Originally	-11.9387
▁Wind	-11.9387
▁risks	-11.939
▁Ain	-11.9391
UN	-11.9394
▁regulations	-11.9396
▁silent	-11.9398
▁Pablo	-11.9398
get	-11.9405
▁voyage	-11.9411
▁uranium	-11.9411
▁geo	-11.9416
rium	-11.9418
▁recall	-11.9419
▁Fighter	-11.9419
▁sh	-11.942
▁Systems	-11.942
ement	-11.942
uring	-11.9423
▁upstairs	-11.9424
▁lakes	-11.9424
▁infantry	-11.9424
▁5-	-11.9425
▁bực	-11.9426
▁polar	-11.9427
▁bro	-11.9428
▁khoái	-11.9429
▁dialect	-11.9429
▁meets	-11.943
▁filming	-11.943
▁chains	-11.9431
ủ	-11.9431
▁tệp	-11.9431
▁Franco	-11.9433
▁airline	-11.9434
▁raising	-11.9436
▁conquered	-11.9441
▁bases	-11.9443
▁1885	-11.9446
▁98	-11.9446
▁Side	-11.9447
▁chằm	-11.9451
▁Fri	-11.9451
▁Forbes	-11.9451
▁2020.	-11.9452
▁criticized	-11.9452
any	-11.9453
esh	-11.9454
▁improvement	-11.9457
▁Đám	-11.9458
▁leak	-11.9459
Or	-11.9459
▁20,000	-11.9461
place	-11.9463
▁Direct	-11.9464
▁participation	-11.9464
▁soup	-11.9465
▁Sếp	-11.9465
▁hypo	-11.9465
▁blast	-11.9466
▁corruption	-11.9468
bla	-11.9469
ij	-11.9469
▁Stu	-11.9469
trans	-11.9476
▁Visual	-11.9477
▁vulnerable	-11.9479
▁Carr	-11.948
▁polymer	-11.948
▁Lá	-11.9481
lee	-11.9483
▁wealthy	-11.9485
▁Lima	-11.9487
Ex	-11.9488
▁raw	-11.9488
▁Box	-11.9488
▁completion	-11.949
▁nhường	-11.9491
▁Chairman	-11.9492
▁container	-11.9493
▁Medal	-11.9494
eda	-11.9496
▁spare	-11.9497
▁Giữ	-11.9498
view	-11.9499
▁tube	-11.9499
nit	-11.9499
band	-11.9501
▁lessons	-11.9504
▁tăm	-11.9504
▁hosts	-11.9506
▁Bước	-11.9506
▁delay	-11.9508
▁torpedo	-11.9509
▁restore	-11.9509
▁Pla	-11.9509
▁chiêu	-11.9509
▁Mama	-11.951
rant	-11.951
▁Hun	-11.9511
▁fla	-11.9515
▁shake	-11.9516
▁probability	-11.9517
▁Đặt	-11.9517
▁spaces	-11.952
▁1943.	-11.9521
▁Hmm	-11.9521
rma	-11.9522
▁drove	-11.9523
▁producers	-11.9524
▁Jacques	-11.9524
▁resist	-11.9525
▁Seth	-11.9525
▁comment	-11.9528
Love	-11.9528
▁ADN	-11.9528
▁bơ	-11.953
kra	-11.953
▁nương	-11.9531
NC	-11.9533
▁intelligent	-11.9533
▁Nè	-11.9533
▁Storm	-11.9535
aro	-11.9536
▁1868	-11.9537
▁Dia	-11.9538
▁Aki	-11.9539
▁chiên	-11.9539
sted	-11.9539
▁Mae	-11.954
▁ranging	-11.954
▁gross	-11.954
▁Russians	-11.9543
▁Better	-11.9546
▁1952,	-11.9549
▁predicted	-11.9551
rze	-11.9552
▁behave	-11.9553
▁Capitol	-11.9557
▁sacred	-11.9557
▁amin	-11.9558
ete	-11.9559
▁lơ	-11.9566
duct	-11.9567
▁Industrial	-11.957
▁Ferdinand	-11.957
▁Honduras	-11.957
▁crucial	-11.957
ante	-11.957
▁tourists	-11.9572
▁beast	-11.9572
▁asks	-11.9573
▁1871	-11.9577
▁destination	-11.9577
م	-11.9578
▁winners	-11.9578
tō	-11.9579
this	-11.9579
ste	-11.9583
▁Oklahoma	-11.9584
▁peptide	-11.9589
▁Luôn	-11.9589
selling	-11.9589
▁segment	-11.959
▁arrangement	-11.959
▁Tech	-11.9591
▁1888	-11.9593
▁81	-11.9593
▁Yak	-11.9594
issa	-11.9595
▁Damascus	-11.9597
▁trội	-11.9597
▁Huân	-11.9597
▁Said	-11.9599
▁3000	-11.9599
▁Oz	-11.96
▁PM	-11.9603
▁soap	-11.9604
▁Ny	-11.9609
action	-11.9611
▁xí	-11.9615
с	-11.9619
▁commit	-11.9621
▁sandwich	-11.9622
▁politicians	-11.9623
ần	-11.9623
▁Fiji	-11.9625
▁Spi	-11.9626
▁ranges	-11.9627
▁praised	-11.963
mid	-11.963
▁reveal	-11.963
▁awful	-11.9634
IL	-11.9635
▁73	-11.9636
▁Heaven	-11.9637
▁casualties	-11.9637
▁loyalty	-11.9638
▁treating	-11.9639
▁2.5	-11.964
zone	-11.964
▁retreat	-11.9642
▁thy	-11.9644
▁Helena	-11.9645
▁immigrants	-11.9647
▁Mayor	-11.9647
▁Rat	-11.9648
▁triple	-11.9649
ulf	-11.965
▁thirty	-11.9651
▁companion	-11.9651
ony	-11.9653
OR	-11.9654
▁1954,	-11.9654
▁Boris	-11.9654
▁landings	-11.9655
1)	-11.9656
hole	-11.9657
▁NT	-11.9658
▁register	-11.9658
▁chứ	-11.9659
trước	-11.9659
▁tạ	-11.966
kawa	-11.9664
▁Birmingham	-11.9664
▁Austin	-11.9664
▁trói	-11.9665
ن	-11.9665
CI	-11.9666
▁mile	-11.9666
▁restrictions	-11.9667
▁atomic	-11.9671
▁Anime	-11.9671
▁worker	-11.9672
▁serial	-11.9673
Ja	-11.9676
▁firing	-11.9678
▁Oman	-11.9678
▁Tonight	-11.9679
▁Lập	-11.968
▁Common	-11.9681
▁feeding	-11.9684
ld	-11.9687
▁comic	-11.9691
▁supplement	-11.9691
▁Danube	-11.9691
▁Saturn	-11.9692
▁Chân	-11.9692
alis	-11.9693
▁fa	-11.9693
▁Pel	-11.9695
▁Palau	-11.9695
▁spelled	-11.9698
nel	-11.9699
Russian	-11.97
▁Ages	-11.9701
ked	-11.9702
▁Indiana	-11.9707
▁kit	-11.9708
▁Độc	-11.9708
▁protests	-11.971
▁đố	-11.9711
eli	-11.9714
umi	-11.9716
Gi	-11.9717
▁Fall	-11.9717
▁Stuart	-11.9719
▁Lượng	-11.9719
▁peaceful	-11.972
▁Đợi	-11.972
Ti	-11.9722
cene	-11.9725
▁employment	-11.9726
gam	-11.9727
▁inform	-11.9731
ẻ	-11.9731
face	-11.9732
▁Galileo	-11.9732
▁municipalities	-11.9732
▁announcement	-11.9734
▁rescued	-11.9737
▁Lane	-11.974
▁Michel	-11.974
▁mechanisms	-11.974
Đó	-11.9741
▁Fer	-11.9745
▁Collins	-11.9746
▁ngớ	-11.9746
▁FDA	-11.9748
▁mature	-11.9749
▁Pont	-11.9749
fire	-11.9751
-13	-11.9752
▁alter	-11.9752
night	-11.9752
▁accounting	-11.9753
-30	-11.9753
iyah	-11.9756
▁Bee	-11.9759
▁Chuyển	-11.976
▁fifteen	-11.976
▁Uzbekistan	-11.976
▁displayed	-11.976
▁Hamburg	-11.976
▁perceived	-11.9763
▁Abe	-11.9766
▁topic	-11.977
Car	-11.9771
▁concepts	-11.9772
rated	-11.9772
rous	-11.9773
▁Nacional	-11.9773
▁aggressive	-11.9773
▁Lớn	-11.9773
▁Graham	-11.9774
▁Mới	-11.9775
▁Samoa	-11.9775
▁Lion	-11.9776
ogen	-11.9783
▁NO	-11.9783
▁vươn	-11.9784
▁scare	-11.9785
▁artillery	-11.9787
▁behaviour	-11.9787
▁chuộc	-11.9787
▁adventure	-11.9788
▁Gin	-11.9789
▁dishes	-11.979
▁Beth	-11.979
▁alert	-11.9794
DC	-11.9796
imi	-11.9798
▁loop	-11.98
▁ngắt	-11.9801
▁decay	-11.9801
▁chước	-11.9801
▁ports	-11.9803
▁franchise	-11.9805
▁Action	-11.9805
Hu	-11.9808
▁(25	-11.9808
▁dig	-11.9808
▁Gy	-11.9808
▁Khó	-11.9811
▁Bé	-11.9814
▁khuếch	-11.9814
▁resort	-11.9814
▁Ragnar	-11.9814
▁ME	-11.9815
▁pride	-11.9816
▁ID	-11.9816
▁lều	-11.9817
▁partial	-11.9817
ã	-11.9817
pal	-11.9819
#	-11.9823
▁Rum	-11.9823
▁Mach	-11.9825
▁Brad	-11.9825
▁chóc	-11.9827
▁worship	-11.9828
▁Eventually	-11.9828
▁Kay	-11.9831
▁Marx	-11.9832
▁Shortly	-11.9832
▁dive	-11.9833
▁Rhine	-11.9834
▁Days	-11.9835
▁Julie	-11.9837
ario	-11.9838
▁mod	-11.9839
▁len	-11.9839
▁separation	-11.9842
▁Slovenia	-11.9842
▁Chữ	-11.9842
zin	-11.9846
▁occasion	-11.9849
▁nest	-11.9849
ches	-11.985
▁conquest	-11.985
TT	-11.9851
▁invisible	-11.9853
tile	-11.9853
▁icon	-11.9854
▁tear	-11.9855
▁Mikhail	-11.9856
▁Highway	-11.9857
▁aunt	-11.9857
▁Phúc	-11.9857
▁crops	-11.9858
▁fame	-11.9861
▁Bros	-11.9861
▁proven	-11.9863
▁representatives	-11.9864
▁responded	-11.9866
▁Aristotle	-11.9869
▁relegated	-11.9869
▁slip	-11.987
▁Robinson	-11.9871
▁pilots	-11.9871
▁Mất	-11.9871
▁belonging	-11.9871
dai	-11.9871
▁Hood	-11.9872
arn	-11.9877
▁specialized	-11.9877
▁Kō	-11.9877
▁genera	-11.988
▁armor	-11.9881
▁1950.	-11.9881
▁cuisine	-11.9883
▁narrative	-11.9883
ologists	-11.9885
▁Hạt	-11.9887
▁altitude	-11.9887
▁GPS	-11.9888
▁physically	-11.9889
▁đè	-11.9889
▁Litva	-11.989
▁Mei	-11.9891
▁Fish	-11.9894
▁genre	-11.9895
▁Franz	-11.9896
boo	-11.9896
anna	-11.9897
▁horrible	-11.9897
▁gmina	-11.9898
▁Bolshevik	-11.99
▁Rus	-11.9903
isa	-11.9904
bury	-11.9906
▁eleven	-11.9907
▁Twenty	-11.9911
▁Montgomery	-11.9911
▁imagination	-11.9911
▁Utah	-11.9911
▁Portland	-11.9913
▁31,	-11.9914
ego	-11.9914
▁Jang	-11.9915
6,000	-11.9915
▁Pas	-11.9915
▁op	-11.9917
▁Maine	-11.9922
coming	-11.9925
▁Ulithi	-11.9925
▁Software	-11.9925
▁Socialist	-11.9932
▁1893	-11.9934
ume	-11.9934
▁beliefs	-11.9934
ói	-11.9934
kel	-11.9937
Can	-11.9937
sized	-11.9938
▁gục	-11.9939
▁Based	-11.9939
–15	-11.9941
▁Orange	-11.9941
}}}	-11.9943
MO	-11.9946
▁bonds	-11.9948
▁Ask	-11.995
▁vs	-11.9952
▁clever	-11.9952
▁mineral	-11.9953
▁rotation	-11.9954
▁Homs	-11.9954
▁relatives	-11.9954
▁reporting	-11.9955
▁facts	-11.9955
▁FM	-11.9955
text	-11.9956
▁mon	-11.9957
▁resumed	-11.9958
ota	-11.9958
▁Bella	-11.9958
▁pink	-11.9961
▁Word	-11.9962
▁emissions	-11.9964
▁Ou	-11.9965
ook	-11.9966
▁technological	-11.9966
▁Út	-11.9967
▁footage	-11.9968
▁menu	-11.9971
▁ter	-11.9971
▁findings	-11.9971
Cô	-11.9979
▁controversy	-11.998
▁Garcia	-11.9981
▁ownership	-11.9981
▁lén	-11.9983
▁sorts	-11.9983
▁xế	-11.9984
els	-11.9986
hur	-11.9989
▁aside	-11.9989
▁insects	-11.9992
▁pronunciation	-11.9994
tim	-11.9995
▁Đâu	-11.9995
▁Amanda	-11.9995
▁Abdul	-11.9995
▁complexity	-11.9999
▁Name	-12.0001
▁oral	-12.0001
▁74	-12.0001
▁Marty	-12.0006
▁ridiculous	-12.0008
▁Armenian	-12.001
▁Prix	-12.0011
▁cleared	-12.0011
▁86	-12.0011
▁1830	-12.0014
▁sê	-12.0014
▁teen	-12.0014
MC	-12.0015
▁giáng	-12.0015
load	-12.0016
PR	-12.0017
▁internationally	-12.0018
ầu	-12.002
▁Bird	-12.002
nder	-12.002
▁Mala	-12.002
its	-12.0021
▁Angela	-12.0025
French	-12.0032
▁enzymes	-12.0033
▁scheme	-12.0034
▁Lagos	-12.0036
▁Campbell	-12.0036
▁Gotham	-12.0038
▁MC	-12.0038
▁Tree	-12.0044
tric	-12.0045
▁Motor	-12.0046
phon	-12.0048
▁Marco	-12.0048
▁protocol	-12.0048
▁judgment	-12.005
▁coalition	-12.0051
▁burden	-12.0051
▁measurements	-12.0051
▁mammals	-12.0052
▁Muslims	-12.0059
▁suspected	-12.006
▁huỳnh	-12.0064
▁tởm	-12.0064
▁Steel	-12.0067
▁dispute	-12.0067
two	-12.0068
▁bike	-12.0068
fall	-12.0071
ồi	-12.0072
▁Nghĩ	-12.0073
IT	-12.0075
▁Tele	-12.0076
▁Gla	-12.0078
▁injuries	-12.0079
▁Panzer	-12.0079
▁mines	-12.008
▁Wonder	-12.0081
▁dissolved	-12.0082
nen	-12.0084
▁Nation	-12.0084
ographic	-12.0087
iso	-12.0087
ề	-12.0087
▁neighbors	-12.009
▁cay	-12.0091
▁Berkeley	-12.0093
▁Cultural	-12.0093
▁vacation	-12.0093
▁trước	-12.0093
▁dệt	-12.0093
▁Chứng	-12.0094
▁kệ	-12.0095
cos	-12.0096
▁chemicals	-12.0096
yon	-12.01
eur	-12.0102
▁Def	-12.0102
▁Syn	-12.0104
▁restaurants	-12.0104
CS	-12.0106
▁Throughout	-12.0107
fil	-12.011
▁exclusively	-12.011
ẽ	-12.0111
ça	-12.0113
▁Card	-12.0114
▁Fra	-12.0118
▁galaxies	-12.0121
▁nhuộm	-12.0121
tens	-12.0121
rup	-12.0122
▁ngào	-12.0123
▁Biến	-12.0123
▁Sk	-12.0124
▁Salt	-12.0125
▁Singh	-12.0126
▁bears	-12.0127
ME	-12.0128
▁lờ	-12.0129
▁republic	-12.0131
▁Ramesses	-12.0135
▁Always	-12.0135
▁Chồng	-12.0136
▁Wy	-12.0136
▁withdrawal	-12.0137
▁shipping	-12.0137
▁MO	-12.0139
CR	-12.0142
ear	-12.0142
▁1863	-12.0145
▁Guide	-12.0146
▁explains	-12.0147
▁TP	-12.0147
▁attorney	-12.0149
hon	-12.0149
▁vòi	-12.0151
▁Moses	-12.0152
There	-12.0154
▁variations	-12.0154
▁Pot	-12.0154
▁missiles	-12.0157
osaurus	-12.0158
pir	-12.0159
▁invitation	-12.0162
▁poster	-12.0163
▁Support	-12.0164
feld	-12.0165
▁acute	-12.0165
hydroxy	-12.0169
Te	-12.0169
▁Mou	-12.0173
▁Reid	-12.0173
dos	-12.0173
▁Ronald	-12.0174
▁earning	-12.0175
ée	-12.0177
▁promoting	-12.0178
▁ugly	-12.0178
▁Fla	-12.0181
▁occasions	-12.0182
▁Dal	-12.0184
▁ja	-12.0187
ển	-12.0188
▁geometry	-12.0192
▁angel	-12.0192
▁competitions	-12.0193
▁đê	-12.0194
▁khánh	-12.0195
▁Lyon	-12.0197
▁Whoa	-12.0202
sal	-12.0204
his	-12.0206
▁velocity	-12.0206
▁Tránh	-12.0206
▁TR	-12.0208
ssel	-12.0209
oro	-12.0209
▁equally	-12.021
▁Owen	-12.021
▁Nhạc	-12.0213
▁recommend	-12.0214
▁Bri	-12.0214
▁Đàn	-12.0214
▁ages	-12.0215
▁Papa	-12.0217
Polish	-12.0218
▁Large	-12.0219
▁khùng	-12.0221
▁Nhận	-12.0221
Tu	-12.0221
▁rét	-12.0221
▁hence	-12.0222
wen	-12.0222
▁1918,	-12.0222
▁consequence	-12.0222
▁Bayern	-12.0224
▁Cử	-12.023
vie	-12.0233
▁Happy	-12.0233
▁cọ	-12.0234
▁flood	-12.0235
▁Century	-12.0235
▁animated	-12.0235
▁improving	-12.0235
▁Felix	-12.0235
▁cow	-12.024
▁Bag	-12.0243
▁whoever	-12.0246
▁Avenue	-12.0249
▁Nevertheless	-12.0249
▁nephew	-12.0249
▁pl	-12.0251
▁difficulties	-12.0251
▁nang	-12.0253
oa	-12.0257
position	-12.0257
mod	-12.0259
▁xi	-12.026
▁Finn	-12.0261
▁tone	-12.0262
▁psychology	-12.0264
▁boring	-12.0264
▁endemic	-12.0264
▁serum	-12.0264
▁warrant	-12.0265
▁lầu	-12.0266
▁87	-12.027
▁Malaya	-12.0273
▁BCE	-12.0273
then	-12.0273
▁exploration	-12.0278
▁Fernando	-12.0278
▁tràng	-12.0279
▁Machine	-12.028
▁Renaissance	-12.0281
2,000	-12.0281
dol	-12.0281
▁chat	-12.0282
▁Masters	-12.0283
▁nơ	-12.0283
thy	-12.0285
▁conflicts	-12.0289
▁zones	-12.029
để	-12.029
Bi	-12.0292
▁Mozambique	-12.0292
▁competing	-12.0292
▁fortress	-12.0292
▁referring	-12.0293
▁dawn	-12.0293
▁devoted	-12.0295
▁ease	-12.0297
▁71	-12.0298
shot	-12.0301
spor	-12.0301
grad	-12.0304
▁concrete	-12.0307
▁Chad	-12.0307
▁Railway	-12.0307
▁automatically	-12.0307
▁borrow	-12.0307
▁chùa	-12.0308
ự	-12.0309
kka	-12.031
▁encountered	-12.0313
ses	-12.0314
▁zoo	-12.0315
▁encounter	-12.0315
dé	-12.0321
rang	-12.0321
▁jealous	-12.0321
▁merchant	-12.0321
ops	-12.0325
▁supports	-12.0326
inger	-12.0329
▁transformed	-12.0329
▁lion	-12.0331
▁licensed	-12.0331
mia	-12.0332
-47	-12.0332
▁doses	-12.0333
▁cinema	-12.0334
fur	-12.0335
▁awesome	-12.0336
▁Jefferson	-12.0336
▁contribution	-12.0336
▁bầy	-12.0336
▁củ	-12.0336
lop	-12.0337
▁rapper	-12.0337
▁Tamil	-12.0339
▁Gregor	-12.034
St	-12.034
▁scrap	-12.0341
▁bomber	-12.0342
▁Bert	-12.0344
▁1.0	-12.0345
▁investigated	-12.0346
▁requested	-12.0348
boy	-12.035
#432;	-12.035
asi	-12.035
▁Quebec	-12.035
▁legislation	-12.035
▁versus	-12.035
▁Xưởng	-12.035
lag	-12.0351
▁chapter	-12.0352
rif	-12.0352
mbi	-12.0353
▁Mono	-12.0354
aku	-12.0356
▁ngự	-12.0356
But	-12.0357
▁76	-12.0358
▁approached	-12.036
bound	-12.0362
▁rope	-12.0362
▁Malcolm	-12.0364
▁migration	-12.0364
▁Gilbert	-12.0365
▁nhúng	-12.0365
▁organisation	-12.0365
▁Fab	-12.0366
vent	-12.0368
▁Joy	-12.0368
áng	-12.0369
ace	-12.0371
▁filmed	-12.0371
▁und	-12.0371
▁highway	-12.0372
▁punch	-12.0375
ăn	-12.0376
speaking	-12.0377
▁Mia	-12.0378
▁quantity	-12.0379
ddle	-12.0379
sun	-12.0379
▁Currently	-12.0381
▁appearing	-12.0386
▁smallest	-12.0386
spe	-12.0388
▁78	-12.0388
▁Sto	-12.039
▁aboard	-12.039
PM	-12.0391
▁server	-12.0393
▁heritage	-12.0394
▁Tak	-12.0394
▁nhốt	-12.0394
▁Stanley	-12.0394
SI	-12.0395
▁monitor	-12.0395
▁muscles	-12.0395
▁valid	-12.0396
leg	-12.04
▁demon	-12.0401
▁Gate	-12.0402
▁cannon	-12.0402
▁territorial	-12.0408
▁Sumatra	-12.0408
▁TF	-12.041
▁Almost	-12.041
morph	-12.0411
OC	-12.0411
ison	-12.0412
▁virtually	-12.0413
▁Gha	-12.0415
▁margin	-12.0415
▁Yoo	-12.0417
▁hills	-12.0419
▁Net	-12.042
▁Welsh	-12.042
read	-12.0421
▁painful	-12.0422
▁wishes	-12.0422
▁(2011)	-12.0423
▁connecting	-12.0423
ike	-12.0424
lib	-12.0424
▁developers	-12.0425
▁initiated	-12.0427
▁civilians	-12.0428
▁downtown	-12.0428
▁Spa	-12.0431
away	-12.0431
▁Khoan	-12.0433
▁threats	-12.0435
aq	-12.0436
▁Đứa	-12.0437
chỉ	-12.0437
▁nitrogen	-12.0437
▁Caribe	-12.0438
▁Naka	-12.0441
▁moderate	-12.0441
▁EA	-12.0441
▁Gì	-12.0441
▁pointed	-12.0443
iff	-12.0443
cen	-12.0444
▁panel	-12.0445
uy	-12.0447
▁Springs	-12.0447
amino	-12.0447
month	-12.0451
▁hybrid	-12.0452
▁Yokosuka	-12.0452
▁Madison	-12.0452
▁kiêm	-12.0452
▁Của	-12.0452
▁Mm	-12.0456
▁Băng	-12.0456
dri	-12.0457
rai	-12.0457
▁Pay	-12.0457
▁Josh	-12.0459
Fe	-12.046
ừ	-12.046
gri	-12.0462
▁Sex	-12.0462
Gu	-12.0463
specific	-12.0464
▁convention	-12.0466
▁Iranian	-12.0466
▁2.000	-12.0466
▁smoking	-12.0467
▁frozen	-12.0467
One	-12.0468
▁attitude	-12.0468
▁independently	-12.0469
ệ	-12.0472
ật	-12.0474
▁SE	-12.0474
▁pants	-12.0477
▁exclusive	-12.0478
TE	-12.0479
▁influences	-12.048
▁accompany	-12.0481
▁hurricane	-12.0481
▁lội	-12.0482
т	-12.0482
▁rể	-12.0482
▁xăm	-12.0482
▁Hart	-12.0483
▁establishing	-12.0483
▁possession	-12.0484
▁overcome	-12.0485
▁parks	-12.0487
▁sảnh	-12.0489
▁Thẩm	-12.0496
▁temporarily	-12.0496
▁Jennifer	-12.0496
▁kiếp	-12.0496
▁consumers	-12.0497
▁steroid	-12.0497
út	-12.0498
▁Jump	-12.0499
▁Soo	-12.05
▁Alps	-12.05
▁Keith	-12.05
▁Princeton	-12.0501
▁Bàn	-12.0502
▁Lance	-12.0502
▁breaks	-12.0505
roy	-12.0505
▁consideration	-12.0508
▁Sounds	-12.0508
▁regulation	-12.0508
▁Rhodes	-12.0509
▁Luna	-12.051
▁pump	-12.0511
#7879;	-12.0511
▁Mall	-12.0512
cine	-12.0513
▁Oslo	-12.0513
▁phàn	-12.0514
▁torture	-12.0516
▁elite	-12.0516
inter	-12.0517
bridge	-12.0521
▁khoác	-12.0521
EL	-12.0522
_	-12.0525
▁Tuesday	-12.0525
▁strategies	-12.0525
▁puzzle	-12.0525
▁ed	-12.0525
▁permitted	-12.0526
▁duration	-12.0527
▁extinction	-12.0527
▁warrior	-12.0528
▁Papua	-12.0529
theo	-12.0533
Ki	-12.0534
▁dimensions	-12.0534
ente	-12.0535
▁claiming	-12.0535
CN	-12.0536
▁1975.	-12.0537
qa	-12.0537
▁themes	-12.0538
▁Songs	-12.0538
esi	-12.0539
lier	-12.054
ground	-12.054
▁graduating	-12.054
▁nếu	-12.054
▁desktop	-12.054
▁khiêm	-12.054
eria	-12.0541
ński	-12.0542
▁Nord	-12.0544
qi	-12.0547
▁Electric	-12.0547
▁shorter	-12.0549
▁apple	-12.055
▁Full	-12.0553
▁82	-12.0553
▁125	-12.0554
▁Airways	-12.0555
▁bubble	-12.0555
▁Br	-12.0555
under	-12.0556
ines	-12.0557
cious	-12.0558
▁Palestinian	-12.0558
later	-12.0559
▁neighboring	-12.0562
▁foods	-12.0563
▁posted	-12.0564
▁probe	-12.0564
▁prop	-12.0564
▁Clarke	-12.0565
▁precise	-12.0566
▁abstract	-12.0567
▁invest	-12.0568
▁lungs	-12.057
▁Further	-12.057
▁capabilities	-12.057
▁Buddha	-12.057
▁pulling	-12.0571
▁Kri	-12.0571
▁Production	-12.0573
had	-12.0574
▁cult	-12.0575
rry	-12.0576
▁delayed	-12.0576
Is	-12.0578
▁spreading	-12.0579
▁wider	-12.0581
▁northwestern	-12.0584
▁widow	-12.0584
▁Either	-12.0585
vic	-12.0585
▁Cloud	-12.0586
▁gentleman	-12.0586
▁NBC	-12.0586
sign	-12.0587
▁jurisdiction	-12.0587
▁texts	-12.0588
▁locally	-12.059
▁ab	-12.0591
▁chess	-12.0592
của	-12.0592
▁Santos	-12.0592
even	-12.0593
rib	-12.0594
▁ranking	-12.0595
ishi	-12.0597
▁junior	-12.0599
▁peninsula	-12.0599
▁sustainable	-12.06
▁remix	-12.06
cười	-12.06
▁XIX	-12.06
▁Beta	-12.06
▁Comm	-12.0601
▁Prima	-12.0601
▁Dữ	-12.0602
▁(2006)	-12.0603
▁graphics	-12.0604
▁Silesian	-12.0605
ách	-12.0605
pet	-12.0605
▁poems	-12.0607
▁1957,	-12.0607
▁monitoring	-12.0608
▁origins	-12.0609
▁XP	-12.061
▁vertical	-12.0611
etto	-12.0612
▁thà	-12.0613
▁Sel	-12.0614
▁Leopold	-12.0614
▁Kosovo	-12.0614
5.000	-12.0616
lah	-12.0616
Nu	-12.0617
wn	-12.0617
▁musician	-12.0617
▁construct	-12.0618
tec	-12.0618
▁Warren	-12.0619
▁Cas	-12.0621
▁parking	-12.0626
▁screening	-12.0626
▁nộ	-12.0627
▁Silva	-12.0628
▁Desert	-12.0629
▁thuỷ	-12.0631
lith	-12.0632
▁employee	-12.0633
▁1887	-12.0633
mol	-12.0633
óc	-12.0634
▁Actor	-12.0635
▁farming	-12.0635
▁xô	-12.0637
ực	-12.0638
▁Chilean	-12.064
▁Xác	-12.0642
▁defensive	-12.0644
▁grateful	-12.0644
▁Đốc	-12.0644
▁Savage	-12.0644
▁rụng	-12.0644
hard	-12.0645
▁awareness	-12.0645
pus	-12.0646
▁fastest	-12.0646
rot	-12.0648
▁Bull	-12.0652
pid	-12.0652
▁François	-12.0653
▁PR	-12.0653
▁1848	-12.0654
▁Morris	-12.0658
▁Construction	-12.0659
▁hiếu	-12.0659
▁Ligue	-12.066
ales	-12.066
eva	-12.0661
▁localities	-12.0661
▁membership	-12.0662
nne	-12.0662
Am	-12.0662
▁revolutionary	-12.0665
▁calculated	-12.0665
▁(0	-12.0665
▁Blake	-12.0666
alia	-12.0671
▁hub	-12.0672
▁Singles	-12.0672
▁eighth	-12.0673
▁Might	-12.0674
▁Independence	-12.0674
▁Sit	-12.0675
▁consent	-12.0675
▁pairs	-12.0675
een	-12.0677
ب	-12.0679
▁swing	-12.068
▁hopes	-12.0684
▁Newcastle	-12.0689
plane	-12.0689
▁Morning	-12.0689
▁defeating	-12.0689
▁AR	-12.0691
▁USSR	-12.0691
bun	-12.0692
▁Native	-12.0696
▁courts	-12.0697
▁warned	-12.0697
▁discipline	-12.0698
▁reportedly	-12.0702
#7853;	-12.0704
▁destiny	-12.0704
▁reliable	-12.0704
▁intensity	-12.0704
▁acres	-12.0704
eni	-12.0705
▁stops	-12.0706
▁burst	-12.0706
▁descended	-12.0706
▁côi	-12.0707
▁physician	-12.0708
–5	-12.0709
▁manufacturer	-12.071
vid	-12.0711
▁styles	-12.0712
▁Khal	-12.0713
bou	-12.0717
-40	-12.0717
phone	-12.0718
▁Homo	-12.0718
▁Political	-12.0719
▁rệt	-12.0719
xo	-12.0719
▁Sing	-12.0719
▁Aviation	-12.0719
▁elevated	-12.072
▁1961,	-12.0722
▁trains	-12.0722
▁Zeus	-12.0722
▁Nine	-12.0723
▁Vel	-12.0723
▁ignore	-12.0725
▁Diana	-12.0726
▁Rai	-12.0727
▁lately	-12.0729
▁Regional	-12.0731
Chinese	-12.0733
▁Him	-12.0733
▁preparing	-12.0734
▁Eagle	-12.0734
▁Chế	-12.0735
▁Arena	-12.0736
▁ngủi	-12.0736
▁Gay	-12.0736
▁stopping	-12.0737
odo	-12.0738
▁thrown	-12.0739
Star	-12.0743
▁Carlo	-12.0744
▁Near	-12.0744
▁cối	-12.0744
suke	-12.0748
#250;	-12.0749
▁participating	-12.0749
▁significance	-12.0749
▁hắn	-12.0749
uh	-12.0749
▁rực	-12.0749
▁hở	-12.075
▁Pic	-12.0751
▁adopt	-12.0751
nda	-12.0752
▁1941.	-12.0752
▁neighbour	-12.0753
▁grain	-12.0754
▁shops	-12.0758
▁crystal	-12.0761
▁Burma	-12.0764
▁Gibraltar	-12.0764
▁circulation	-12.0764
▁Thought	-12.0764
▁axis	-12.0765
ander	-12.0767
▁Cánh	-12.0768
▁cord	-12.0768
▁waited	-12.0768
▁equations	-12.0768
GS	-12.0769
▁Kat	-12.077
▁phôi	-12.0771
▁1886	-12.0775
▁Andrea	-12.0775
–17	-12.0776
person	-12.0776
▁lượn	-12.0777
▁peaked	-12.0778
VI	-12.0778
Spanish	-12.0778
▁hire	-12.0779
▁Heinrich	-12.0779
▁Fujiwara	-12.0779
etic	-12.0779
▁impressive	-12.078
▁Ang	-12.0781
50,000	-12.0782
▁den	-12.0786
▁Test	-12.0787
phát	-12.0789
lk	-12.079
ington	-12.079
▁psycho	-12.0792
tory	-12.0794
▁worn	-12.0794
▁khéo	-12.0794
▁parliamentary	-12.0795
▁releases	-12.0798
▁autonomous	-12.0798
▁tears	-12.08
▁sooner	-12.0801
▁vạn	-12.0802
nya	-12.0802
yō	-12.0803
eus	-12.0804
ega	-12.0804
▁orbital	-12.0806
ality	-12.0807
▁touched	-12.0808
World	-12.0809
▁Hannibal	-12.0809
▁orchestra	-12.0809
ãi	-12.0811
▁succession	-12.0811
▁vách	-12.0811
yuki	-12.0813
eller	-12.0814
▁supporters	-12.0819
▁Gothic	-12.0824
-24	-12.0824
▁Xuất	-12.0825
▁Môn	-12.0825
▁flagship	-12.0825
bis	-12.0826
▁viruses	-12.0826
▁item	-12.0827
▁merger	-12.0828
▁Hit	-12.0828
▁ủi	-12.0828
▁coral	-12.083
▁(30	-12.083
▁cabin	-12.0831
▁kidney	-12.0831
▁Ánh	-12.0832
Hey	-12.0833
▁homo	-12.0834
▁trusted	-12.0835
ña	-12.0835
▁owners	-12.0836
▁Sister	-12.0836
▁emphasis	-12.084
▁Dakota	-12.084
▁Guess	-12.084
▁Saipan	-12.084
▁beam	-12.084
lau	-12.084
▁Dec	-12.0841
▁attempting	-12.0844
phal	-12.0844
▁Colombian	-12.0845
▁Huh	-12.0846
zel	-12.0846
▁tribute	-12.0847
▁Fisher	-12.0847
▁rounds	-12.0849
▁differ	-12.0849
▁quote	-12.0849
▁Đà	-12.085
tam	-12.0852
▁sn	-12.0854
▁harsh	-12.0855
▁penalty	-12.0855
▁lướt	-12.0855
NT	-12.0863
sho	-12.0864
▁improvements	-12.0865
▁Tara	-12.0866
▁Abd	-12.0866
▁Que	-12.0868
▁powered	-12.0869
▁Percy	-12.0871
LP	-12.0872
eon	-12.0872
▁Turin	-12.0873
4,000	-12.0874
tty	-12.0875
▁Urban	-12.0879
▁layers	-12.0879
▁Ras	-12.0882
oko	-12.0883
das	-12.0884
▁Vista	-12.0884
ert	-12.0884
▁Gray	-12.0884
▁slept	-12.0885
ới	-12.0886
▁priority	-12.0888
lash	-12.0888
▁excess	-12.0889
party	-12.089
▁cholesterol	-12.089
nius	-12.0891
On	-12.0892
▁realm	-12.0893
▁chay	-12.0895
▁Saud	-12.0895
▁OF	-12.0898
▁Brussels	-12.0901
▁bronze	-12.0901
▁plague	-12.0901
▁tissues	-12.0902
▁Nico	-12.0902
▁Tal	-12.0902
▁Vận	-12.0902
bas	-12.0902
mma	-12.0903
rik	-12.0904
cco	-12.0904
▁Joan	-12.0905
uru	-12.0906
dr	-12.0906
evich	-12.0906
dō	-12.0906
▁Rub	-12.0911
PI	-12.0913
▁đắc	-12.0916
Nếu	-12.0916
▁nhậm	-12.0916
▁thấm	-12.0916
▁warn	-12.0917
▁Eight	-12.0919
organ	-12.0919
▁stealing	-12.0919
▁USB	-12.0922
card	-12.0923
▁windows	-12.0924
▁Newport	-12.0924
anti	-12.0925
▁mãnh	-12.093
▁Johannesburg	-12.0931
▁Future	-12.0932
▁affects	-12.0936
▁1.2	-12.0937
▁sail	-12.0938
▁Iowa	-12.0943
▁wore	-12.0944
▁15%	-12.0945
▁1988.	-12.0945
▁gram	-12.0946
rite	-12.0946
▁Lũ	-12.0946
gur	-12.0947
▁magical	-12.0947
▁Laurel	-12.0947
Video	-12.0947
▁Authority	-12.0947
▁bedroom	-12.0947
▁filed	-12.0948
▁Bran	-12.0949
▁Montana	-12.095
▁lifestyle	-12.0951
▁(24	-12.0953
▁substitute	-12.0953
▁jo	-12.0955
uge	-12.0955
▁1894	-12.0955
tier	-12.0955
▁exam	-12.0957
▁Holland	-12.0965
▁wolf	-12.0965
▁Athena	-12.0968
ON	-12.0968
▁mụ	-12.0972
▁cleaning	-12.0972
▁chances	-12.0973
▁dense	-12.0976
▁bore	-12.0976
▁Orthodox	-12.0978
▁horror	-12.0978
▁triangle	-12.0978
▁Andes	-12.0978
▁Ethan	-12.0979
kg	-12.0981
▁lề	-12.0981
▁demanded	-12.0982
arm	-12.0982
▁Rolling	-12.0983
▁Hero	-12.0984
▁heroes	-12.0984
ilo	-12.0985
▁1861	-12.0986
▁Ice	-12.0987
oto	-12.0989
▁Bear	-12.0992
▁Huyện	-12.0993
▁Close	-12.0994
▁1,2	-12.0994
▁tể	-12.0994
▁flavor	-12.0994
▁Sherman	-12.0996
▁Juliet	-12.0999
▁1973.	-12.1
▁focusing	-12.1002
▁CS	-12.1002
▁gut	-12.1002
ánh	-12.1003
▁Quay	-12.1003
▁rulers	-12.1007
▁tụng	-12.1008
▁Adelaide	-12.1008
▁cẩu	-12.1008
▁phì	-12.1009
▁update	-12.1012
–1	-12.1013
▁Hau	-12.1015
▁trillion	-12.1016
▁Friends	-12.1018
▁API	-12.1019
▁Room	-12.102
▁Connecticut	-12.1024
▁Glasgow	-12.1024
▁decree	-12.1024
rod	-12.1024
▁Xu	-12.1026
▁Nigerian	-12.1028
Đoạn	-12.1028
▁importantly	-12.1028
ç	-12.1028
^{	-12.1029
hir	-12.1029
▁churches	-12.1034
awa	-12.1035
hẳng	-12.1039
▁elevator	-12.1039
–2	-12.1039
▁sùng	-12.104
▁Sid	-12.104
▁Belle	-12.104
▁Ahmed	-12.1041
▁chớp	-12.1042
▁boom	-12.1044
▁Hugo	-12.1044
▁Trả	-12.1045
▁infinite	-12.1045
city	-12.1045
ime	-12.1046
alo	-12.1048
iling	-12.1051
eti	-12.1051
▁circuit	-12.1052
▁dumb	-12.1054
▁defending	-12.1054
▁Rebecca	-12.1055
▁Kom	-12.1055
▁MW	-12.1055
▁regardless	-12.1055
▁Bruno	-12.1057
▁observe	-12.1059
after	-12.1061
ering	-12.1063
▁absorb	-12.1065
▁Uni	-12.1065
▁sank	-12.1068
▁photographer	-12.107
▁transplant	-12.107
▁gìn	-12.107
▁varieties	-12.107
▁đốm	-12.1071
▁Hae	-12.1071
▁CLB	-12.1072
▁Drake	-12.1072
chủ	-12.1073
oke	-12.1073
▁cúm	-12.1073
▁tạng	-12.1074
iest	-12.1074
hold	-12.1075
dio	-12.1076
▁eliminate	-12.1077
▁ISBN	-12.1078
▁heal	-12.1078
▁Move	-12.1079
▁Ama	-12.108
▁lac	-12.108
▁atom	-12.1082
▁doạ	-12.1083
▁throwing	-12.1083
:1	-12.1084
▁Phạm	-12.1086
▁fantasy	-12.1086
▁Bir	-12.1086
▁rainfall	-12.1086
isha	-12.1088
▁Theodore	-12.1089
▁impressed	-12.1089
vit	-12.1093
▁snake	-12.1094
▁sponsor	-12.1095
▁specimens	-12.1096
▁drinks	-12.1096
Ư	-12.1096
▁divorced	-12.1098
▁warming	-12.11
hill	-12.1101
▁monkey	-12.1101
▁wisdom	-12.1102
▁thực	-12.1102
▁hân	-12.1103
lig	-12.1103
En	-12.1105
▁Player	-12.1106
fla	-12.1106
▁3.0	-12.1107
SM	-12.1107
▁Louise	-12.1108
▁photography	-12.1109
rop	-12.1111
▁counting	-12.1114
▁investors	-12.1115
▁khan	-12.1116
▁Save	-12.1117
▁Chaplin	-12.1117
▁Habsburg	-12.1117
▁Nai	-12.1117
ern	-12.1119
▁Og	-12.1119
rou	-12.1123
▁handed	-12.1127
▁Ei	-12.1127
minute	-12.1136
lina	-12.1137
▁Baden	-12.1138
▁secured	-12.1139
▁bọt	-12.1139
▁Cửa	-12.114
▁âu	-12.114
fold	-12.1141
▁True	-12.1142
▁Sicilia	-12.1147
▁Kro	-12.1147
▁anxiety	-12.1149
▁volcanic	-12.1149
▁Prefecture	-12.1149
▁creator	-12.1149
wy	-12.1149
▁(2007)	-12.1149
▁xộn	-12.115
Ông	-12.1151
ñ	-12.1154
▁dual	-12.1156
lines	-12.1156
▁Fourth	-12.1161
▁Zen	-12.1161
chon	-12.1162
▁MB	-12.1164
▁Copenhagen	-12.1164
dium	-12.1165
uto	-12.1166
▁Mariana	-12.1167
SU	-12.1169
kō	-12.117
▁Commons	-12.1171
▁vớ	-12.1176
▁leaf	-12.1177
▁lột	-12.1178
▁Step	-12.1178
▁implement	-12.118
hyun	-12.118
eastern	-12.118
▁Sophia	-12.118
▁Otherwise	-12.118
▁Normandy	-12.1181
ndi	-12.1181
▁Search	-12.1181
▁50,000	-12.1182
▁Flag	-12.1183
▁terrorist	-12.1184
pho	-12.1186
▁Raj	-12.1188
▁Pod	-12.1192
▁responses	-12.1192
▁buồm	-12.1196
▁Arabian	-12.1196
▁orientation	-12.1196
▁4-	-12.1196
key	-12.1198
▁Von	-12.1198
▁Male	-12.1199
ồ	-12.1199
▁chùm	-12.12
▁tre	-12.1201
▁IP	-12.1201
▁seized	-12.1202
igo	-12.1203
▁tele	-12.1203
▁Site	-12.1205
sko	-12.1206
▁Jae	-12.1208
itz	-12.1208
▁handsome	-12.1208
▁certificate	-12.1212
▁custody	-12.1212
▁integration	-12.1212
▁má	-12.1212
▁thối	-12.1212
▁wooden	-12.1214
real	-12.1216
▁magazines	-12.1217
▁Bart	-12.1218
▁Eli	-12.1218
7)	-12.1218
▁Lithuania	-12.1218
▁advocate	-12.1218
▁Vic	-12.1219
▁92	-12.1219
▁sô	-12.122
ối	-12.1221
▁nm	-12.1221
▁cớm	-12.1224
▁Mine	-12.1225
▁municipal	-12.1226
▁Montenegro	-12.1227
▁Wednesday	-12.1227
▁epidemic	-12.1227
▁Whitney	-12.1228
▁sướng	-12.1228
▁vest	-12.1229
▁holy	-12.1229
wed	-12.1232
icus	-12.1232
▁30,000	-12.1238
▁expanding	-12.124
rol	-12.1242
▁quark	-12.1243
▁giếng	-12.1243
bell	-12.1244
▁mortality	-12.1244
▁exhibit	-12.1246
▁trauma	-12.1247
▁Christianity	-12.1247
▁%	-12.1248
▁codes	-12.125
cul	-12.1251
▁Kun	-12.1251
hin	-12.1256
lac	-12.1256
▁bẩm	-12.1259
▁eldest	-12.1259
▁rèn	-12.1259
▁Prague	-12.1259
▁immuno	-12.126
▁refuse	-12.126
▁enable	-12.1265
five	-12.1268
▁Slam	-12.1268
▁Trạm	-12.1275
▁provincial	-12.1275
▁Mauritius	-12.1275
source	-12.1275
▁Initially	-12.1276
cate	-12.1277
Đây	-12.1277
▁inherited	-12.1278
▁bug	-12.1278
dian	-12.1278
▁concerning	-12.1279
▁LG	-12.1281
pis	-12.1282
FL	-12.1282
▁controlling	-12.1283
▁scary	-12.1283
▁opponent	-12.1285
▁Banks	-12.1288
imp	-12.1289
▁uốn	-12.1289
nova	-12.129
▁Detroit	-12.1291
▁ngửi	-12.1291
▁departure	-12.1291
▁Tropical	-12.1292
▁Yuan	-12.1293
▁Sc	-12.1296
▁xông	-12.1296
▁bearing	-12.1298
3,000	-12.1299
uca	-12.1299
▁75%	-12.13
▁Sparta	-12.1301
▁comprises	-12.1301
▁ballad	-12.1303
Un	-12.1305
▁historically	-12.1305
▁Horn	-12.1306
atory	-12.1306
▁cafe	-12.1306
▁nhện	-12.1307
▁describing	-12.1307
▁Aircraft	-12.1307
EP	-12.1309
▁CBS	-12.1309
▁coverage	-12.131
▁que	-12.131
▁Flu	-12.1314
▁cargo	-12.1316
-22	-12.1316
mara	-12.1317
IM	-12.1318
▁phosphate	-12.1318
▁Ellen	-12.1318
▁Sebastian	-12.1323
▁dwarf	-12.1323
▁trân	-12.1323
hn	-12.1324
▁drives	-12.1326
▁sauce	-12.1326
▁visits	-12.1328
▁proclaimed	-12.1328
▁examined	-12.1331
tino	-12.1332
▁Baek	-12.1334
rge	-12.1336
hydro	-12.1336
ean	-12.1336
RS	-12.1337
▁Winston	-12.1337
▁vegetables	-12.1337
uchi	-12.1337
▁Sport	-12.1338
▁lover	-12.1338
▁Actress	-12.1339
▁browser	-12.134
▁disorders	-12.134
▁portrayed	-12.1342
▁Chả	-12.1345
ico	-12.1347
▁Gram	-12.1348
TP	-12.1353
▁1982.	-12.1354
▁collapsed	-12.1354
▁gốm	-12.1355
▁examination	-12.1355
▁dẻo	-12.1356
▁Mason	-12.1356
▁fitted	-12.1356
▁mồm	-12.1357
▁nu	-12.1358
▁yo	-12.1359
▁wanting	-12.1361
etsu	-12.1362
▁severely	-12.1365
take	-12.1368
Nó	-12.1368
▁2-	-12.1369
▁attending	-12.137
▁darling	-12.1371
▁fancy	-12.1372
▁lonely	-12.1372
iri	-12.1372
▁Route	-12.1375
▁approaching	-12.1375
▁Yong	-12.1377
▁bars	-12.138
▁receptors	-12.1381
mori	-12.1383
▁1891	-12.1384
▁trunk	-12.1387
▁1884	-12.139
four	-12.1394
▁procedures	-12.1394
Let	-12.1395
▁Oak	-12.1398
▁celebration	-12.1398
mà	-12.1399
▁Falls	-12.1399
▁lắc	-12.1403
what	-12.1403
▁Core	-12.1404
▁settlements	-12.1404
▁senator	-12.1404
5)	-12.1405
▁RAF	-12.1407
▁Gui	-12.1407
▁pushing	-12.1407
▁symbols	-12.1407
▁announce	-12.1408
▁Lester	-12.1408
-200	-12.141
izer	-12.1411
umb	-12.1414
▁blade	-12.1415
▁NA	-12.1415
▁Berg	-12.1417
▁Deb	-12.1418
▁Arnold	-12.1419
▁Joshua	-12.1419
▁Eva	-12.142
▁stranger	-12.1422
▁strongest	-12.1422
▁SK	-12.1423
▁Mix	-12.1425
▁Leader	-12.1425
▁sheet	-12.1426
▁Yard	-12.1428
▁advisor	-12.143
▁lipid	-12.143
ash	-12.1431
▁speaks	-12.1432
▁hoành	-12.1434
▁lamp	-12.1434
▁answered	-12.1435
▁submitted	-12.1435
▁depicted	-12.1437
▁Guys	-12.1437
▁oceans	-12.1441
▁beg	-12.1442
▁Independent	-12.1442
▁Chàng	-12.1442
▁Ming	-12.1444
▁1987.	-12.1446
▁telescope	-12.1447
▁runner	-12.1449
ục	-12.145
▁Animation	-12.1451
▁Bristol	-12.1451
▁lứa	-12.1451
▁Protestant	-12.1452
▁pie	-12.1452
▁sunk	-12.1452
MR	-12.1456
▁ă	-12.1456
▁mông	-12.1458
hoe	-12.1462
▁safely	-12.1463
▁pigs	-12.1465
▁terrain	-12.1467
▁measuring	-12.1467
▁Chết	-12.1468
ạn	-12.1469
▁Yasu	-12.1471
▁Bach	-12.1471
▁Tăng	-12.1471
▁TB	-12.1472
▁Noah	-12.1472
▁vụn	-12.1472
ằng	-12.1473
rug	-12.1476
▁curse	-12.1476
▁metric	-12.1477
▁sulfate	-12.1479
▁theoretical	-12.148
▁Hawk	-12.1481
▁1892	-12.1481
[...]
