<unk>	0
<s>	0
</s>	0
<pad>	0
.	-3.06226
,	-3.26026
▁the	-3.98648
▁of	-4.57168
▁to	-4.68165
▁and	-4.78102
▁a	-4.86744
▁của	-4.89044
▁là	-4.89979
▁và	-4.90577
▁in	-4.9189
▁một	-5.12533
s	-5.12552
▁có	-5.13846
?	-5.21905
▁được	-5.25486
▁không	-5.34242
▁I	-5.36955
▁is	-5.47227
▁you	-5.48134
▁đã	-5.50005
▁trong	-5.54473
▁tôi	-5.56787
▁các	-5.56787
▁	-5.59882
▁that	-5.66453
▁người	-5.69656
▁cho	-5.71568
▁với	-5.73237
▁was	-5.74594
▁năm	-5.82768
▁for	-5.83735
▁ở	-5.88097
▁The	-5.89451
▁ta	-5.90899
▁đó	-5.91534
▁này	-5.92886
▁thể	-5.95778
▁những	-6.00782
▁on	-6.01691
▁with	-6.04765
▁it	-6.07256
▁vào	-6.10794
▁sẽ	-6.15227
▁anh	-6.1607
▁as	-6.16999
▁ra	-6.17419
▁chúng	-6.20648
▁đến	-6.20869
...	-6.21153
▁để	-6.23417
▁khi	-6.24597
▁làm	-6.25671
▁như	-6.29861
▁be	-6.33634
▁sự	-6.34258
▁this	-6.35313
▁từ	-6.36023
▁are	-6.36427
▁by	-6.37838
▁have	-6.39728
▁phải	-6.41632
▁về	-6.41701
▁thành	-6.43226
▁Tôi	-6.43244
▁nó	-6.44128
▁from	-6.4663
▁đầu	-6.46868
:	-6.4764
▁do	-6.49299
▁at	-6.50604
▁ông	-6.56084
▁con	-6.57339
▁tháng	-6.60875
▁tại	-6.61152
▁not	-6.61283
▁thế	-6.61354
▁lại	-6.62421
▁gì	-6.62469
▁bị	-6.62921
▁an	-6.64048
▁nói	-6.64096
▁cô	-6.64158
!	-6.6695
▁đi	-6.67043
▁biết	-6.67424
▁cũng	-6.68535
▁me	-6.69107
▁mà	-6.6933
▁việc	-6.69512
▁we	-6.69761
▁trên	-6.7169
▁ngày	-6.71935
▁số	-6.72254
▁were	-6.73369
▁công	-6.76522
▁họ	-6.77512
▁nhà	-6.79701
▁Anh	-6.80695
▁hơn	-6.80938
▁cả	-6.81788
▁đây	-6.83065
▁he	-6.83725
▁chỉ	-6.83735
▁khác	-6.83814
▁học	-6.8428
▁nhất	-6.84291
▁điều	-6.84898
▁or	-6.86847
▁đang	-6.87041
▁You	-6.87673
▁chính	-6.8802
▁can	-6.88875
▁bạn	-6.89082
▁your	-6.891
▁In	-6.9064
▁his	-6.90889
▁And	-6.91828
▁nhiều	-6.91885
▁1	-6.92515
▁sau	-6.92667
▁thấy	-6.92928
▁gia	-6.93394
▁my	-6.94285
▁all	-6.97018
▁động	-6.97601
▁one	-6.97615
▁thứ	-6.98453
▁but	-6.98983
▁rằng	-7.00389
ng	-7.00712
▁quan	-7.01064
▁cách	-7.01784
▁about	-7.02212
▁its	-7.02385
▁hiện	-7.02863
▁mình	-7.03166
▁muốn	-7.03621
▁know	-7.04128
▁nhưng	-7.04879
▁ấy	-7.05205
▁her	-7.05847
n	-7.06631
▁nào	-7.07046
▁còn	-7.10266
▁what	-7.10292
▁em	-7.11024
▁A	-7.123
▁vì	-7.12822
▁has	-7.13577
▁phát	-7.14212
▁they	-7.14271
▁dụng	-7.15033
▁so	-7.15351
▁nhân	-7.16721
▁had	-7.16725
▁which	-7.17092
▁Im	-7.17132
▁rồi	-7.17164
▁sao	-7.17269
▁thời	-7.17595
▁hai	-7.18403
▁cùng	-7.18638
▁cái	-7.19033
▁It	-7.19869
▁theo	-7.20343
▁out	-7.20932
▁thực	-7.2109
ing	-7.21161
▁rất	-7.2164
;	-7.21726
▁Và	-7.21919
▁cuộc	-7.22337
▁like	-7.24573
▁định	-7.24796
▁sử	-7.25093
▁thì	-7.25136
▁just	-7.25745
i	-7.26021
▁trước	-7.2648
▁hành	-7.26874
▁bằng	-7.27049
▁bởi	-7.27529
▁nghĩ	-7.27999
▁Chúng	-7.29127
▁2	-7.30035
▁bộ	-7.30074
▁hình	-7.30478
▁sinh	-7.30724
▁been	-7.30788
▁tới	-7.31023
▁nhận	-7.32043
▁bao	-7.32715
▁bản	-7.32729
▁giờ	-7.33577
▁hợp	-7.3425
▁giới	-7.34892
▁up	-7.35572
ed	-7.35646
▁He	-7.3594
▁chuyện	-7.36061
▁dont	-7.36657
▁tự	-7.36877
▁nước	-7.37404
▁qua	-7.38024
▁their	-7.38064
▁there	-7.3832
▁who	-7.38387
▁time	-7.38491
o	-7.38933
▁first	-7.39026
▁cần	-7.39102
▁will	-7.39114
▁cậu	-7.39328
▁vậy	-7.39464
▁also	-7.39939
▁she	-7.40091
▁lớn	-7.40421
▁So	-7.40469
▁xuất	-7.40566
▁bắt	-7.40704
▁viên	-7.41208
▁kết	-7.4124
▁trở	-7.41992
▁lên	-7.42435
▁more	-7.42499
▁nên	-7.43414
▁him	-7.43907
▁chiến	-7.44791
▁3	-7.44941
▁tiên	-7.4504
▁if	-7.45047
▁phần	-7.45688
▁hoặc	-7.46455
▁here	-7.46468
▁tên	-7.47245
▁đồng	-7.4807
▁Các	-7.48168
▁when	-7.48477
▁quốc	-7.48491
▁This	-7.48605
▁tiếp	-7.49558
▁would	-7.4964
▁cơ	-7.49953
▁tìm	-7.50135
a	-7.5026
▁lý	-7.51468
▁sống	-7.51623
▁trình	-7.51806
▁thường	-7.52229
d	-7.52264
▁get	-7.52586
▁them	-7.52638
▁hàng	-7.52652
▁trường	-7.52856
▁mới	-7.53033
▁We	-7.53397
▁no	-7.53975
▁tế	-7.54183
▁giải	-7.55148
▁tính	-7.55168
▁tin	-7.55733
▁Nhưng	-7.55751
▁tiếng	-7.56317
▁gọi	-7.56403
▁But	-7.56441
▁other	-7.56561
▁hay	-7.57395
▁Một	-7.57652
▁vị	-7.57714
▁đề	-7.57869
▁tạo	-7.58069
▁Nó	-7.5828
▁nữa	-7.58808
▁Không	-7.59006
▁think	-7.59725
▁people	-7.59725
▁two	-7.60361
e	-7.6054
▁ng	-7.61008
▁lần	-7.61036
▁đối	-7.61305
▁Trong	-7.61436
▁lượng	-7.61573
▁thống	-7.61862
▁Có	-7.61886
▁thông	-7.62207
▁độ	-7.6241
▁lập	-7.6241
▁vật	-7.63261
▁nhau	-7.63778
▁quân	-7.64204
▁gian	-7.64771
▁vụ	-7.65353
▁Its	-7.65375
▁into	-7.65661
▁đại	-7.6602
▁ý	-7.67644
▁right	-7.67784
▁dân	-7.67837
▁than	-7.67852
▁now	-7.68003
▁some	-7.68337
▁hội	-7.6856
▁nhiên	-7.68695
▁want	-7.68812
▁hệ	-7.68888
▁only	-7.69689
▁năng	-7.69872
▁10	-7.704
▁đâu	-7.70507
t	-7.7129
▁nơi	-7.72112
▁toàn	-7.72152
▁mặt	-7.72637
▁mọi	-7.72907
▁cao	-7.73285
▁nếu	-7.73285
y	-7.73305
▁đổi	-7.73599
▁over	-7.73648
▁máy	-7.73869
▁trị	-7.74598
▁sản	-7.75151
▁bà	-7.75569
▁liên	-7.75803
▁đường	-7.75922
▁our	-7.76446
▁Cô	-7.76682
▁us	-7.77199
▁thay	-7.77438
▁quá	-7.77642
▁vẫn	-7.78113
▁loại	-7.78145
▁chủ	-7.78238
▁see	-7.78298
▁5	-7.78319
▁phía	-7.78517
▁4	-7.78751
▁bảo	-7.79771
▁diễn	-7.79984
▁tất	-7.80048
▁after	-7.80752
▁tốt	-7.80865
▁khu	-7.80895
▁lực	-7.81701
▁tác	-7.82197
▁ai	-7.82279
▁these	-7.82286
▁tâm	-7.82903
▁could	-7.82937
▁hóa	-7.83329
▁She	-7.83713
▁đội	-7.83767
▁cầu	-7.8377
▁thức	-7.83881
▁chức	-7.84359
▁điểm	-7.84373
▁chuyển	-7.84482
▁trung	-7.84522
▁years	-7.84527
▁go	-7.84696
▁where	-7.84811
▁thích	-7.85294
▁then	-7.85883
m	-7.8608
▁cứu	-7.86219
▁nay	-7.86223
▁thật	-7.86448
▁going	-7.8673
▁got	-7.87179
th	-7.87604
▁cảm	-7.88554
▁chưa	-7.89035
▁gồm	-7.89154
▁quyền	-7.89207
▁bất	-7.89713
▁how	-7.90234
▁trọng	-7.90268
ly	-7.90906
▁Quốc	-7.91329
▁biệt	-7.91838
▁thiết	-7.92319
▁phân	-7.92579
▁đưa	-7.92789
▁ảnh	-7.93143
▁cấp	-7.93856
▁sĩ	-7.94065
▁Nếu	-7.94451
▁cuối	-7.95088
▁tranh	-7.95107
▁đấy	-7.95955
▁most	-7.96098
▁tập	-7.97074
▁hoạt	-7.97255
▁chết	-7.9765
▁câu	-7.97996
▁phố	-7.98014
▁They	-7.9838
▁giữa	-7.98446
▁Well	-7.98896
▁khoảng	-7.99369
▁nghĩa	-7.99392
er	-7.99405
▁bay	-7.9977
▁way	-7.9987
▁No	-7.9993
▁ba	-7.99968
▁What	-7.9997
▁vực	-8.00073
▁need	-8.0014
▁6	-8.00242
▁chất	-8.00288
▁tương	-8.00379
▁k	-8.0064
▁bỏ	-8.00891
▁yêu	-8.00996
▁youre	-8.01033
▁very	-8.01128
▁triển	-8.01137
▁báo	-8.01432
▁bố	-8.01444
▁ăn	-8.01708
▁chơi	-8.0177
▁phim	-8.02288
▁giáo	-8.02468
▁make	-8.02533
▁because	-8.02784
▁tình	-8.02804
▁bên	-8.02936
▁hiệu	-8.03485
▁used	-8.03486
▁đều	-8.03487
▁Do	-8.03968
▁well	-8.04118
▁If	-8.04276
▁pháp	-8.0443
▁ngoài	-8.04898
▁phương	-8.05071
▁lúc	-8.05535
▁nghiệp	-8.05614
▁thuật	-8.05796
▁did	-8.05831
▁tiền	-8.05892
▁giúp	-8.05956
▁hết	-8.06106
▁C	-8.06153
▁12	-8.06225
▁biến	-8.06271
▁tay	-8.06683
▁bệnh	-8.06907
▁gần	-8.06998
▁kế	-8.07157
▁kinh	-8.072
▁địa	-8.07405
▁new	-8.07645
▁đánh	-8.07868
▁take	-8.07875
▁phòng	-8.08067
▁đặc	-8.08277
▁New	-8.08812
▁xem	-8.08972
▁vấn	-8.09212
▁nữ	-8.09361
▁may	-8.09437
▁7	-8.09547
▁sáng	-8.09791
▁Sau	-8.09912
▁hắn	-8.10441
▁truyền	-8.10441
▁giá	-8.109
▁Trung	-8.10978
▁tham	-8.11055
▁từng	-8.11186
▁sát	-8.11201
▁giống	-8.11459
▁said	-8.11672
▁nhìn	-8.11861
▁mất	-8.12125
▁quả	-8.1215
▁kỳ	-8.12544
▁đất	-8.12783
▁nhỏ	-8.13048
▁thôi	-8.13151
▁dịch	-8.13176
▁liệu	-8.13196
▁thị	-8.13314
▁de	-8.13316
▁such	-8.13346
▁hoàn	-8.13464
▁điện	-8.13474
▁thuộc	-8.13657
▁phụ	-8.13894
▁really	-8.14024
▁tăng	-8.14237
▁gặp	-8.14307
▁8	-8.14772
▁dưới	-8.14813
▁many	-8.15261
▁Đây	-8.15269
▁trí	-8.15283
2	-8.15355
▁khỏi	-8.15476
▁Năm	-8.16032
▁tàu	-8.16044
▁Em	-8.16141
▁chế	-8.16292
▁Mỹ	-8.16477
▁đơn	-8.16497
▁any	-8.16594
▁tử	-8.16669
▁Những	-8.1697
▁S	-8.17162
▁dùng	-8.17255
▁xác	-8.17315
▁nghe	-8.17317
▁something	-8.1766
▁ứng	-8.17916
▁20	-8.18149
▁between	-8.18242
▁Đó	-8.18332
▁work	-8.19066
▁dẫn	-8.19217
▁before	-8.1955
▁mẹ	-8.19662
▁Hoa	-8.1992
▁ban	-8.20194
▁bình	-8.20209
c	-8.20235
▁thu	-8.20694
▁say	-8.20834
▁9	-8.20912
▁made	-8.21347
▁good	-8.21353
▁lời	-8.21448
▁đấu	-8.2145
▁sách	-8.21716
▁thương	-8.21934
▁chứ	-8.22078
▁văn	-8.22094
▁world	-8.22112
▁tưởng	-8.22185
▁down	-8.22455
▁vùng	-8.2265
▁đặt	-8.2272
▁life	-8.22906
▁Ta	-8.22973
▁thủ	-8.23012
▁much	-8.23809
▁chiếc	-8.23919
▁gonna	-8.24199
▁đạo	-8.24795
▁B	-8.24808
▁Nam	-8.24904
▁vài	-8.2493
▁ngay	-8.25125
▁tư	-8.25134
▁bài	-8.2533
▁three	-8.25731
▁chứng	-8.25732
▁dù	-8.25941
▁tiêu	-8.26088
▁dự	-8.26228
▁nhạc	-8.2632
▁cố	-8.26392
▁15	-8.26597
▁Con	-8.26923
▁Khi	-8.26996
▁tổ	-8.27179
▁vô	-8.27289
▁through	-8.27432
▁phẩm	-8.27481
▁11	-8.27718
▁quyết	-8.28123
▁tài	-8.2819
▁minh	-8.28226
▁xe	-8.28349
▁r	-8.28438
▁trẻ	-8.28488
▁man	-8.28531
▁cứ	-8.28589
▁Họ	-8.29047
▁di	-8.29771
▁being	-8.29888
▁viết	-8.29967
▁kể	-8.30296
u	-8.30379
▁even	-8.30604
▁loài	-8.30634
▁cant	-8.31006
▁Vào	-8.31095
▁Vậy	-8.31786
▁n	-8.31961
▁nhóm	-8.3233
▁little	-8.32437
▁hỏi	-8.32554
▁tiến	-8.32657
▁mang	-8.3274
▁s	-8.32861
▁never	-8.3289
▁nguyên	-8.32949
▁xảy	-8.33001
▁hiểu	-8.33504
▁should	-8.33761
▁tuổi	-8.33908
▁On	-8.33943
▁part	-8.34009
▁Kỳ	-8.34127
▁lấy	-8.34382
▁tục	-8.34982
▁come	-8.35008
▁gái	-8.35412
▁nhiệm	-8.35608
▁giữ	-8.35649
▁those	-8.3603
▁âm	-8.36045
▁đúng	-8.36163
▁day	-8.36243
▁tell	-8.36458
▁phép	-8.36643
▁around	-8.36819
▁bán	-8.36863
▁nổi	-8.36904
▁nghiên	-8.36949
▁m	-8.3705
▁thân	-8.3725
es	-8.37299
▁ch	-8.37331
▁mô	-8.37471
▁phục	-8.37481
▁giết	-8.37493
▁same	-8.37691
▁T	-8.3781
▁đáng	-8.37827
▁use	-8.37954
▁U	-8.38102
▁cảnh	-8.38224
S	-8.38236
in	-8.38564
▁found	-8.38651
▁tích	-8.38818
▁trò	-8.38893
▁during	-8.38943
▁vi	-8.39332
▁đảo	-8.39382
▁nằm	-8.39433
▁khí	-8.3956
▁phủ	-8.39673
▁known	-8.39838
▁đời	-8.39851
▁mạnh	-8.39884
▁Đại	-8.39985
▁still	-8.40118
▁tinh	-8.40219
▁gây	-8.4033
▁dài	-8.40612
▁cung	-8.40727
▁off	-8.41028
▁thần	-8.41095
▁United	-8.41391
▁name	-8.4183
▁thing	-8.42198
▁vệ	-8.42309
▁mở	-8.42384
▁trưởng	-8.42578
▁t	-8.42897
▁danh	-8.43224
▁As	-8.43293
▁called	-8.43465
▁nghệ	-8.44207
▁...	-8.44287
▁thêm	-8.44467
▁Now	-8.44592
▁tượng	-8.44716
▁ty	-8.4485
▁nghiệm	-8.44952
▁trai	-8.45093
▁Người	-8.45494
▁Cậu	-8.45502
▁under	-8.45576
▁trang	-8.45631
▁mỗi	-8.45787
▁chi	-8.46127
▁đình	-8.46157
▁ít	-8.46261
▁Ba	-8.4629
▁luôn	-8.46296
▁u	-8.46576
▁Tây	-8.46746
▁đồ	-8.477
r	-8.47729
▁Ill	-8.4775
▁didnt	-8.47868
▁cá	-8.4802
▁c	-8.48505
▁yếu	-8.48753
▁thats	-8.48781
▁D	-8.48787
▁too	-8.48925
▁Ive	-8.48951
▁There	-8.492
▁chọn	-8.49237
▁year	-8.49632
▁30	-8.49652
▁things	-8.49778
▁giao	-8.49964
▁long	-8.50227
▁find	-8.50509
▁nhập	-8.50583
▁last	-8.50612
▁thi	-8.50671
▁cộng	-8.5076
▁viện	-8.50799
▁duy	-8.50871
▁biểu	-8.50887
▁hạn	-8.51497
▁both	-8.51627
▁biển	-8.51631
▁ngữ	-8.51698
▁sở	-8.51712
▁16	-8.51713
▁place	-8.51778
▁M	-8.51838
▁y	-8.51873
▁Thats	-8.51915
▁trả	-8.51948
▁triệu	-8.51987
▁bóng	-8.52019
▁giảm	-8.52125
▁khả	-8.52169
al	-8.52612
▁chương	-8.5282
▁rộng	-8.5302
▁à	-8.53197
▁dựng	-8.53236
▁tổng	-8.53452
▁number	-8.53643
▁xuống	-8.53801
▁later	-8.54
▁mục	-8.54066
▁phản	-8.5414
▁hướng	-8.54169
▁la	-8.54172
▁tối	-8.54586
▁chung	-8.546
▁trận	-8.54681
▁Nhật	-8.54702
▁diện	-8.54856
▁while	-8.54931
▁án	-8.55517
▁xây	-8.55565
▁look	-8.55642
▁F	-8.55713
▁Oh	-8.55751
1	-8.55825
▁Vì	-8.56276
▁bé	-8.56383
▁phá	-8.56569
▁Đức	-8.56926
▁trợ	-8.57102
▁đóng	-8.5726
▁lịch	-8.57596
h	-8.57852
▁That	-8.5786
▁châu	-8.57989
▁until	-8.58003
▁Điều	-8.58007
▁Công	-8.58115
▁lẽ	-8.5853
▁ca	-8.58836
▁own	-8.59216
▁When	-8.59568
▁My	-8.5964
▁đông	-8.59642
▁La	-8.59772
▁lạc	-8.60284
▁nguồn	-8.60337
▁cha	-8.60389
▁luật	-8.60419
▁thuyết	-8.60443
g	-8.60542
▁All	-8.60548
▁hưởng	-8.60681
▁vai	-8.61066
▁mùa	-8.61073
▁đủ	-8.61292
▁Tuy	-8.61361
▁giả	-8.61427
▁N	-8.61745
▁chí	-8.61815
▁chắc	-8.61822
▁why	-8.62005
▁tra	-8.62155
▁Pháp	-8.62208
▁đoàn	-8.62503
▁Liên	-8.62652
▁cổ	-8.63098
▁How	-8.63132
▁thought	-8.63215
▁became	-8.63236
▁Bản	-8.63312
▁nam	-8.63537
▁H	-8.63763
▁help	-8.63987
▁độc	-8.64251
▁R	-8.64331
▁dạng	-8.64382
▁again	-8.64458
▁hát	-8.64607
▁P	-8.64647
▁vận	-8.64722
▁cư	-8.64854
▁sư	-8.64936
▁lâu	-8.65032
▁thư	-8.65191
▁Youre	-8.65251
▁chống	-8.65649
▁tuần	-8.6567
▁different	-8.65842
▁city	-8.66195
▁thuốc	-8.66301
▁14	-8.66526
▁kẻ	-8.66528
▁E	-8.67007
▁family	-8.67022
▁mạng	-8.67188
▁Thế	-8.67205
▁khó	-8.67332
▁World	-8.67346
▁give	-8.6735
▁mean	-8.67458
▁kiện	-8.6746
▁second	-8.67624
▁system	-8.68332
▁Lan	-8.68499
▁album	-8.6911
▁mắt	-8.69219
▁II	-8.69265
▁home	-8.69349
▁kiểm	-8.69373
▁G	-8.69423
▁17	-8.69718
▁kiến	-8.69722
▁sức	-8.69883
▁chú	-8.69998
▁Bắc	-8.70017
▁each	-8.70034
▁nhớ	-8.70198
▁end	-8.7021
▁vũ	-8.70506
▁13	-8.7069
▁since	-8.70693
▁cửa	-8.70961
▁thúc	-8.71019
▁xã	-8.71021
▁After	-8.71345
p	-8.71363
▁ký	-8.71531
▁K	-8.71666
▁another	-8.7195
▁game	-8.72027
▁hãy	-8.72184
▁khoa	-8.72195
▁đô	-8.72713
▁hòa	-8.72824
▁hộ	-8.72829
▁against	-8.73104
▁tớ	-8.73216
▁For	-8.7361
▁lỗi	-8.73737
▁ghi	-8.73754
▁khiến	-8.73838
▁đá	-8.7402
▁đoạn	-8.74122
▁lãnh	-8.74423
▁ngôi	-8.74439
▁Yeah	-8.74681
▁must	-8.74743
▁every	-8.74939
D	-8.75097
▁left	-8.75319
▁thắng	-8.75355
▁cáo	-8.75402
▁cháu	-8.75512
▁đa	-8.75604
▁cây	-8.75643
k	-8.75911
▁chỗ	-8.75982
▁including	-8.76108
▁lưu	-8.76123
▁mặc	-8.76414
▁May	-8.76493
▁đôi	-8.76574
▁mức	-8.76803
▁riêng	-8.7691
▁tuyệt	-8.77019
▁cử	-8.77478
▁xa	-8.77685
▁put	-8.77827
▁thử	-8.78149
▁màu	-8.78209
▁At	-8.78263
▁vòng	-8.79169
▁Why	-8.79227
▁tiết	-8.7925
▁love	-8.79411
▁mày	-8.79467
3	-8.79636
▁thanh	-8.79672
▁Bà	-8.79954
▁dụ	-8.80084
▁water	-8.80234
▁chịu	-8.80447
▁chia	-8.80798
▁To	-8.80972
▁chuẩn	-8.81166
l	-8.81407
▁lo	-8.81771
▁quản	-8.82058
▁Sao	-8.82222
▁took	-8.82418
▁kích	-8.8243
▁doing	-8.82444
▁đàn	-8.82808
▁h	-8.82881
▁States	-8.82912
▁chút	-8.82964
▁am	-8.82988
▁mua	-8.83027
▁quay	-8.83076
▁ngươi	-8.83199
▁show	-8.83399
▁lợi	-8.834
▁born	-8.8351
▁South	-8.83795
▁hoàng	-8.83808
▁million	-8.83821
us	-8.83951
▁better	-8.84173
▁away	-8.84181
▁Ban	-8.84182
▁đ	-8.84289
C	-8.84312
▁100	-8.84696
▁four	-8.84794
▁ever	-8.8489
▁Bộ	-8.85011
▁tiểu	-8.85031
▁lệ	-8.85147
▁bào	-8.85272
▁18	-8.85312
▁always	-8.85323
▁bang	-8.85331
▁Hãy	-8.85493
▁tồn	-8.85536
▁khách	-8.85721
▁chạy	-8.85954
▁actually	-8.86034
▁luận	-8.86311
▁quanh	-8.86379
▁York	-8.86386
▁high	-8.86451
▁hữu	-8.86507
▁government	-8.86518
▁vọng	-8.86569
▁km	-8.86652
▁áp	-8.86969
▁hôn	-8.87055
▁xin	-8.87098
▁bọn	-8.87383
▁Bạn	-8.87445
A	-8.87481
▁came	-8.87613
▁talk	-8.87664
▁kiếm	-8.87755
▁lot	-8.87813
an	-8.88096
▁ơn	-8.88333
▁American	-8.88401
▁One	-8.88497
▁anything	-8.89021
▁told	-8.89057
▁Chỉ	-8.89085
▁kind	-8.89459
▁Tại	-8.89509
▁25	-8.89543
on	-8.8963
▁Ngày	-8.89955
▁next	-8.8998
▁tội	-8.90196
▁song	-8.90216
▁might	-8.90396
▁dành	-8.90461
▁call	-8.90682
▁War	-8.90756
▁tả	-8.90793
▁does	-8.91039
▁ngoại	-8.91121
▁vừa	-8.91161
▁đứng	-8.9126
▁John	-8.91352
▁sân	-8.91573
▁Sự	-8.91725
▁quy	-8.91968
▁hes	-8.92045
▁dục	-8.92222
▁đứa	-8.92269
▁19	-8.9228
▁father	-8.92424
▁gốc	-8.92517
▁San	-8.92771
▁đẹp	-8.92865
▁sông	-8.92867
▁V	-8.93023
▁old	-8.93125
▁cập	-8.93135
▁hậu	-8.93167
▁dễ	-8.93235
▁great	-8.9333
▁area	-8.93442
▁hôm	-8.93479
▁important	-8.93502
▁early	-8.9367
▁cực	-8.93813
▁v	-8.93836
▁chuyên	-8.93843
▁An	-8.93888
▁few	-8.94095
▁đạt	-8.94115
▁nội	-8.94146
▁sang	-8.94413
▁without	-8.94446
▁group	-8.94451
▁days	-8.94487
▁best	-8.94874
▁bắc	-8.9494
▁trực	-8.95002
▁nhanh	-8.95347
▁co	-8.95364
▁men	-8.95441
▁bức	-8.95505
▁let	-8.95522
▁Phi	-8.95788
▁vẻ	-8.95884
▁kia	-8.95919
▁video	-8.96235
▁together	-8.97123
▁suy	-8.97204
▁theres	-8.97503
▁lắm	-8.97706
▁Đông	-8.97997
▁th	-8.98201
▁several	-8.98484
en	-8.98586
▁night	-8.98608
▁hoạch	-8.98712
▁mối	-8.98777
▁xử	-8.98947
▁These	-8.9907
▁L	-8.99221
re	-8.99278
▁phong	-8.99327
▁trái	-8.99388
▁phạm	-8.9949
▁vui	-8.99676
▁kỹ	-8.99691
▁50	-8.9977
▁tao	-8.99805
▁thiên	-8.99811
▁Theo	-8.99834
▁nền	-8.99946
▁đêm	-9.00002
man	-9.00275
▁school	-9.00354
▁doanh	-9.00606
▁bầu	-9.00674
▁coi	-9.00752
▁khai	-9.0081
▁Thái	-9.00811
▁hầu	-9.0087
▁country	-9.00907
▁ước	-9.00949
▁bây	-9.01081
b	-9.01091
▁hạng	-9.01097
▁nghị	-9.01113
▁power	-9.01196
▁bàn	-9.01312
▁war	-9.01381
▁ngôn	-9.01415
▁mẫu	-9.01527
▁Để	-9.01636
▁Were	-9.01687
▁toán	-9.01775
▁film	-9.01964
▁nhiệt	-9.0201
▁trời	-9.02025
▁money	-9.02084
▁phổ	-9.02117
▁buổi	-9.02239
▁began	-9.02395
19	-9.02555
▁ngài	-9.02632
▁small	-9.02757
▁human	-9.02785
▁b	-9.02901
▁Từ	-9.03015
▁sắc	-9.03068
▁released	-9.0307
▁vua	-9.0309
▁chân	-9.03286
▁chiếm	-9.033
▁Hes	-9.03329
▁often	-9.03341
▁bắn	-9.03358
▁state	-9.03393
▁d	-9.03459
▁sợ	-9.03548
▁wanted	-9.03565
▁thú	-9.0358
▁Mr	-9.03597
▁live	-9.0364
ers	-9.04109
B	-9.04155
▁Được	-9.04242
▁death	-9.04363
▁chị	-9.04509
▁Ai	-9.04648
▁dựa	-9.0477
▁went	-9.04788
▁tộc	-9.05012
▁mấy	-9.05059
ic	-9.05096
▁species	-9.05274
▁O	-9.05456
▁lòng	-9.05706
▁21	-9.05887
▁set	-9.06085
▁Cho	-9.06252
▁24	-9.06273
▁máu	-9.06664
▁tố	-9.06883
▁June	-9.0725
▁du	-9.07385
▁Nhà	-9.07437
▁March	-9.07547
▁Tổng	-9.07554
▁However	-9.07663
▁Your	-9.07874
▁October	-9.08171
▁rời	-9.08263
▁phiên	-9.08412
▁team	-9.08415
▁August	-9.08489
▁century	-9.08543
x	-9.08602
▁July	-9.08662
▁chấp	-9.08767
▁five	-9.08774
▁series	-9.08922
▁today	-9.08929
4	-9.08933
▁thấp	-9.09019
▁Nha	-9.09076
▁tỉnh	-9.09097
▁change	-9.09118
▁Theres	-9.09146
▁thập	-9.09223
▁bại	-9.09398
▁done	-9.09409
▁phí	-9.09586
▁cụ	-9.09673
ch	-9.09696
▁thoại	-9.09754
na	-9.09824
▁single	-9.09829
▁University	-9.09898
▁believe	-9.10016
▁sure	-9.10133
▁keep	-9.10202
▁l	-9.10309
▁thất	-9.10497
▁lai	-9.10643
▁giành	-9.10722
▁become	-9.10781
▁Nga	-9.10784
▁point	-9.10868
▁niên	-9.10898
▁January	-9.11033
▁trúc	-9.11099
▁bác	-9.11159
▁ma	-9.11229
▁everything	-9.11235
▁xếp	-9.11236
▁tây	-9.11503
▁North	-9.11548
▁within	-9.11581
▁tuyến	-9.11607
▁đầy	-9.11639
▁April	-9.12005
▁September	-9.12039
▁French	-9.12057
▁J	-9.12124
ta	-9.12143
▁Cha	-9.12153
▁phút	-9.1219
▁doesnt	-9.12196
▁cánh	-9.12224
▁dòng	-9.12325
▁times	-9.12454
▁binh	-9.12465
▁tuyên	-9.12625
▁started	-9.12628
▁head	-9.12738
▁nothing	-9.12971
▁Because	-9.13066
▁cạnh	-9.13184
▁kéo	-9.13256
▁Tất	-9.13323
to	-9.13469
▁Just	-9.13534
▁dữ	-9.13586
▁suốt	-9.13684
▁seen	-9.14134
▁population	-9.14255
▁Hey	-9.14258
▁soát	-9.14313
▁núi	-9.14323
▁lệnh	-9.14453
▁Dont	-9.14626
▁hiểm	-9.14631
▁hại	-9.14729
▁càng	-9.14823
▁miền	-9.14949
▁enough	-9.14991
▁băng	-9.15026
▁dấu	-9.151
▁theyre	-9.15109
▁hồi	-9.15161
▁buộc	-9.15377
▁Japanese	-9.15441
▁giác	-9.15461
▁đoán	-9.15488
▁League	-9.15742
▁large	-9.15821
▁form	-9.16199
▁căn	-9.1632
▁da	-9.1634
▁hạt	-9.16426
▁real	-9.17326
▁start	-9.17625
▁cải	-9.17661
▁hơi	-9.17802
▁feel	-9.17898
▁side	-9.17916
▁trạng	-9.18052
▁control	-9.18441
▁gắng	-9.18588
st	-9.18641
▁tức	-9.18645
▁using	-9.19051
▁house	-9.19211
▁khá	-9.19237
▁His	-9.19238
▁Al	-9.19306
▁bước	-9.19365
▁City	-9.19396
▁Id	-9.19414
▁son	-9.19433
▁môi	-9.19465
▁biên	-9.19488
▁phi	-9.19551
▁cấu	-9.19593
▁Độ	-9.19656
▁body	-9.19693
▁big	-9.19959
▁National	-9.19966
z	-9.19976
▁nghi	-9.2008
▁December	-9.2014
▁xét	-9.20293
▁sai	-9.20565
▁sắp	-9.20651
▁children	-9.20724
▁tòa	-9.2076
▁huy	-9.20824
▁chuyến	-9.20954
▁kiểu	-9.21006
▁along	-9.21019
▁case	-9.21066
▁Chúa	-9.21099
▁mật	-9.21595
▁leave	-9.21596
▁trụ	-9.21694
▁i	-9.21856
▁bốn	-9.22138
▁thái	-9.22295
▁November	-9.22321
▁following	-9.22374
H	-9.22388
▁vợ	-9.22522
▁đổ	-9.22622
▁mother	-9.22911
▁means	-9.22928
▁Hai	-9.23019
▁care	-9.23044
▁dung	-9.23154
▁cuốn	-9.2319
▁40	-9.23198
▁tạp	-9.23248
▁đo	-9.23389
▁saw	-9.23522
▁quần	-9.23582
▁22	-9.2361
▁g	-9.23708
▁order	-9.23719
▁whole	-9.23859
▁hỗ	-9.23876
▁play	-9.24034
▁guy	-9.24039
▁hạ	-9.24302
▁company	-9.24342
▁X	-9.24483
▁having	-9.2461
▁nhé	-9.24682
O	-9.24815
▁Đừng	-9.24859
ia	-9.25051
▁able	-9.25093
▁Then	-9.25311
▁once	-9.25427
▁Chiến	-9.25443
▁chứa	-9.25487
▁23	-9.25571
▁ví	-9.25574
ma	-9.25708
▁already	-9.25787
▁lễ	-9.25806
▁đau	-9.25924
▁Hoàng	-9.2595
▁China	-9.26026
▁trying	-9.26102
▁tái	-9.26124
▁based	-9.26146
▁idea	-9.26221
▁xung	-9.26405
▁person	-9.26589
▁top	-9.26615
▁luyện	-9.26621
▁kill	-9.26822
▁Giờ	-9.26999
▁Chính	-9.27047
▁Hắn	-9.27083
▁music	-9.27331
▁nguy	-9.27395
▁nhiễm	-9.27405
▁named	-9.27423
▁wont	-9.27463
▁trao	-9.27609
▁ổn	-9.27772
▁major	-9.27806
▁story	-9.27895
▁killed	-9.28221
▁đừng	-9.28234
▁Việc	-9.28291
▁nối	-9.2834
▁phóng	-9.28377
▁course	-9.28444
▁looking	-9.28539
▁giai	-9.28566
▁ago	-9.28594
▁Cái	-9.2872
▁chắn	-9.2878
▁example	-9.28889
▁trừ	-9.29059
▁ràng	-9.29216
▁God	-9.29293
▁making	-9.29419
▁nạn	-9.29439
▁súng	-9.29475
▁hủy	-9.29495
▁Làm	-9.29561
▁British	-9.29895
▁working	-9.30009
▁Is	-9.30255
is	-9.30455
▁late	-9.30509
▁less	-9.30634
▁ánh	-9.30759
▁understand	-9.30961
▁age	-9.31019
▁thuận	-9.31076
▁địch	-9.31203
ne	-9.31285
▁ngắn	-9.31409
K	-9.31542
▁due	-9.31554
▁German	-9.31694
▁tôn	-9.31821
▁đốc	-9.31838
▁business	-9.32145
▁light	-9.32156
▁Na	-9.32176
M	-9.32178
▁women	-9.32241
▁someone	-9.32301
▁giản	-9.32306
▁guys	-9.32475
▁uống	-9.32603
▁hồ	-9.32623
▁ko	-9.32658
▁bổ	-9.32847
▁Cộng	-9.32922
▁ngủ	-9.32944
▁St	-9.33025
▁far	-9.33124
▁niệm	-9.33223
▁sâu	-9.33244
▁February	-9.33325
▁countries	-9.33414
▁Tớ	-9.33456
▁Hải	-9.33458
▁trách	-9.33535
▁months	-9.33543
▁stop	-9.33545
▁xúc	-9.33565
▁least	-9.33615
▁tim	-9.33692
▁coming	-9.34037
▁cận	-9.34101
▁x	-9.3436
I	-9.34366
▁Y	-9.34414
▁mi	-9.34498
▁Japan	-9.34536
▁gửi	-9.34547
▁lộ	-9.34555
▁Canada	-9.34613
▁Can	-9.34633
ra	-9.3466
▁Với	-9.34711
▁lost	-9.34885
le	-9.34924
▁Me	-9.34982
▁re	-9.35011
▁sớm	-9.3515
▁Hội	-9.35255
▁Not	-9.35442
▁Okay	-9.35551
▁đài	-9.35609
▁Some	-9.35618
or	-9.3564
▁By	-9.35753
▁public	-9.35842
able	-9.35899
ton	-9.36127
▁woman	-9.36213
▁sàng	-9.36215
▁hả	-9.36258
▁Laughter	-9.36501
▁problem	-9.36512
▁trải	-9.3653
▁Look	-9.36622
▁died	-9.36661
▁tốc	-9.36689
▁tướng	-9.36699
▁period	-9.36704
▁vương	-9.36784
▁đột	-9.36966
▁cũ	-9.3714
▁given	-9.37236
▁blood	-9.37419
▁car	-9.37428
▁đọc	-9.37599
▁ngăn	-9.37922
▁sóng	-9.38018
▁half	-9.38144
▁run	-9.38276
▁não	-9.38398
▁girl	-9.38452
▁thưởng	-9.38494
▁won	-9.38534
▁ask	-9.38538
▁Or	-9.3857
N	-9.38571
▁Mặc	-9.38898
▁Việt	-9.39249
▁hard	-9.39322
▁line	-9.39381
▁dương	-9.3941
▁hand	-9.3948
▁hoa	-9.39573
▁dead	-9.39685
▁season	-9.39771
▁military	-9.39787
▁khởi	-9.39902
▁friend	-9.39955
▁Phải	-9.39988
▁support	-9.40007
▁chữ	-9.40116
▁quý	-9.40172
▁six	-9.40225
▁đích	-9.40431
▁ngành	-9.40462
▁though	-9.40478
▁Her	-9.40534
▁US	-9.40563
▁King	-9.40603
▁bit	-9.40663
▁27	-9.4068
▁history	-9.40717
▁lửa	-9.40755
▁chiều	-9.40767
▁28	-9.40816
▁W	-9.40822
▁cười	-9.40843
▁Bây	-9.40877
ka	-9.40918
▁dạy	-9.41068
▁giám	-9.41068
▁26	-9.4127
▁ngồi	-9.41344
▁Are	-9.4135
▁Hy	-9.41351
▁include	-9.41364
▁happened	-9.41505
▁thoát	-9.41527
da	-9.41533
▁nặng	-9.41571
▁trấn	-9.4168
▁town	-9.41714
▁un	-9.41715
▁national	-9.41742
▁main	-9.41819
▁p	-9.41971
▁getting	-9.41983
▁Thật	-9.42009
▁local	-9.4201
▁English	-9.4223
▁Còn	-9.42493
▁try	-9.42525
▁tệ	-9.42533
▁built	-9.42626
no	-9.42627
▁đế	-9.42629
la	-9.4264
▁London	-9.42658
▁per	-9.42757
▁room	-9.42901
f	-9.42966
▁lựa	-9.43091
▁Mẹ	-9.43279
▁vàng	-9.43302
▁e	-9.43351
▁trì	-9.43375
▁tù	-9.43392
▁else	-9.43396
▁near	-9.43405
▁open	-9.43573
▁Cup	-9.43623
▁common	-9.43687
▁fact	-9.43734
▁khắp	-9.43903
▁located	-9.43905
E	-9.44023
▁Go	-9.44059
▁Chinese	-9.4421
▁vượt	-9.44307
▁held	-9.44344
▁cắt	-9.44374
▁stay	-9.44506
▁face	-9.44524
▁book	-9.44596
▁California	-9.44734
▁information	-9.44802
▁sơ	-9.4485
▁nông	-9.44896
▁Ch	-9.44952
▁hear	-9.45068
▁ngựa	-9.45101
▁mại	-9.4527
▁bad	-9.45288
▁thiện	-9.45619
▁De	-9.45623
▁sửa	-9.45648
▁gave	-9.45794
▁wife	-9.46001
▁bí	-9.46038
▁food	-9.46088
▁air	-9.46128
▁bảng	-9.46193
▁mong	-9.46279
▁Paris	-9.46285
▁thiếu	-9.46464
▁Giải	-9.46554
▁move	-9.46598
▁With	-9.46728
▁isnt	-9.46731
▁khẩu	-9.46773
▁nhằm	-9.46796
▁nửa	-9.4683
▁bờ	-9.46876
▁tấn	-9.47143
▁third	-9.47477
▁language	-9.47493
▁chờ	-9.4753
▁lục	-9.47593
▁young	-9.47621
▁free	-9.47718
▁thờ	-9.47781
▁vời	-9.4779
▁data	-9.47803
▁close	-9.47832
▁El	-9.47872
▁ích	-9.47912
▁thậm	-9.47977
v	-9.48112
▁Yes	-9.4851
▁nhiêu	-9.48584
▁Mọi	-9.48631
▁job	-9.4864
de	-9.48824
▁others	-9.49226
▁khủng	-9.4942
▁kịch	-9.49717
▁remember	-9.49757
▁đảm	-9.49836
P	-9.49871
ll	-9.50095
▁hours	-9.50241
▁process	-9.50367
▁youve	-9.50391
▁thằng	-9.50467
▁nổ	-9.50551
▁wrong	-9.50585
▁Man	-9.50671
ro	-9.50754
▁khăn	-9.51022
▁America	-9.51041
▁okay	-9.51269
▁brother	-9.51324
▁mind	-9.51356
▁political	-9.51473
▁áo	-9.51493
▁yourself	-9.51501
▁xuyên	-9.5151
5	-9.51545
▁trông	-9.51667
▁developed	-9.51726
▁thổ	-9.51791
▁tín	-9.51793
▁Xô	-9.51831
▁khoản	-9.51954
▁either	-9.51969
ation	-9.51975
▁nghỉ	-9.52115
▁study	-9.52347
▁West	-9.52409
▁possible	-9.52431
▁lá	-9.52633
▁yet	-9.52666
▁France	-9.52781
▁friends	-9.52782
▁led	-9.52879
ry	-9.53003
▁probably	-9.53017
▁almost	-9.53066
▁kì	-9.53108
▁development	-9.53177
▁Mã	-9.53178
▁talking	-9.53244
▁Africa	-9.53573
▁Kim	-9.53607
▁Như	-9.53646
▁President	-9.53711
▁Europe	-9.53752
▁among	-9.53761
▁total	-9.53786
▁From	-9.53931
▁rối	-9.53979
▁Thành	-9.5399
ist	-9.5409
▁loạt	-9.54176
▁heard	-9.54282
▁received	-9.54351
▁Xin	-9.54562
ity	-9.54673
▁lĩnh	-9.54697
▁đĩa	-9.5476
▁wasnt	-9.54784
▁thăm	-9.54948
▁word	-9.54994
▁phối	-9.55172
▁across	-9.55213
▁hy	-9.55253
▁land	-9.55319
▁knew	-9.55334
▁trùng	-9.55366
▁production	-9.55377
▁level	-9.55469
▁29	-9.55517
▁loạn	-9.55548
G	-9.55624
▁future	-9.55673
▁mã	-9.55688
▁club	-9.55768
▁nuôi	-9.55788
▁suất	-9.55825
▁maybe	-9.55844
▁role	-9.55898
▁region	-9.55949
▁ủng	-9.5602
▁thủy	-9.56155
▁matter	-9.56284
▁played	-9.56379
▁Maybe	-9.56453
▁considered	-9.56552
▁Trái	-9.56558
T	-9.56571
▁rest	-9.56648
▁rút	-9.56674
▁heart	-9.56901
▁non	-9.57153
▁International	-9.57195
▁Châu	-9.57285
▁họa	-9.57348
▁60	-9.57349
▁va	-9.57475
▁building	-9.57495
▁0	-9.57506
▁khỏe	-9.57604
▁dư	-9.57769
▁James	-9.57838
▁mạch	-9.5786
▁created	-9.57878
▁thí	-9.5799
▁Là	-9.5806
▁whats	-9.58118
▁sorry	-9.58152
▁phận	-9.58183
▁nghiêm	-9.58286
▁đẩy	-9.58312
F	-9.58436
▁Duri	-9.58541
▁please	-9.58673
▁hải	-9.58738
el	-9.58789
▁đợi	-9.58908
▁Dương	-9.58948
▁law	-9.59211
ve	-9.59385
▁full	-9.59458
▁usually	-9.59473
▁?	-9.59599
▁saying	-9.59712
▁tai	-9.59736
▁Bởi	-9.59756
▁George	-9.59795
▁Vương	-9.59914
▁tịch	-9.59969
▁members	-9.59984
▁Come	-9.59996
▁chồng	-9.60033
▁original	-9.6008
▁taking	-9.60148
▁phức	-9.60163
▁minutes	-9.60183
ism	-9.60207
▁tầm	-9.6027
▁service	-9.60337
▁cause	-9.60445
▁living	-9.60453
▁similar	-9.60579
▁Theyre	-9.60608
▁makes	-9.60713
▁taken	-9.60714
▁xấu	-9.60718
▁moved	-9.60832
▁First	-9.60849
▁lớp	-9.61088
▁Ngoài	-9.61128
▁rừng	-9.61169
▁tiện	-9.61248
▁linh	-9.6129
▁social	-9.61311
▁kháng	-9.61447
▁turn	-9.61573
▁areas	-9.6185
▁ngờ	-9.61898
▁Giáo	-9.62129
▁soon	-9.62142
▁đám	-9.62157
▁East	-9.62206
▁percent	-9.62418
▁đăng	-9.6248
▁fire	-9.62554
▁short	-9.62652
▁international	-9.62725
▁outside	-9.62732
▁Windows	-9.62804
▁Earth	-9.62851
▁chủng	-9.62893
▁largest	-9.62928
▁cân	-9.62968
▁Trước	-9.63019
j	-9.6306
▁India	-9.63084
W	-9.63087
te	-9.63241
▁asked	-9.63269
▁trắng	-9.63426
▁dần	-9.63495
▁various	-9.63644
▁daughter	-9.63741
▁sometimes	-9.63748
▁31	-9.63776
▁energy	-9.63983
▁món	-9.63988
▁giấy	-9.64054
▁bánh	-9.6408
▁khắc	-9.64086
co	-9.64235
▁kim	-9.64594
▁party	-9.64606
ar	-9.64687
▁space	-9.6482
▁kính	-9.64928
▁Park	-9.6495
▁hit	-9.65023
▁member	-9.65096
▁worked	-9.65165
▁result	-9.65174
▁Did	-9.65221
▁sent	-9.65334
▁tránh	-9.6535
▁fight	-9.65357
▁type	-9.65592
▁thảo	-9.65617
▁2010	-9.65622
▁mai	-9.65677
▁says	-9.65678
▁chiếu	-9.65696
▁Lets	-9.65702
▁cells	-9.65883
▁Mexico	-9.65987
▁lạ	-9.66023
▁lính	-9.66046
▁thưa	-9.66092
me	-9.66095
▁hấp	-9.66134
▁research	-9.66304
▁Soviet	-9.66396
▁wouldnt	-9.66539
▁thiệu	-9.66602
▁nhờ	-9.66635
▁final	-9.66661
▁2011	-9.66673
▁phù	-9.66744
▁reason	-9.6677
▁inside	-9.66938
▁tải	-9.67096
▁published	-9.67235
os	-9.67329
▁established	-9.67396
▁tầng	-9.67666
▁child	-9.67667
▁đỏ	-9.6779
▁version	-9.67793
▁low	-9.67815
▁Hàn	-9.67825
▁góp	-9.67831
▁thụ	-9.67848
▁sáu	-9.6786
▁trại	-9.67873
ine	-9.67965
6	-9.67966
▁nhỉ	-9.6803
▁forces	-9.681
▁European	-9.68107
▁chữa	-9.68135
▁true	-9.68235
do	-9.68245
▁myself	-9.68276
▁thinking	-9.68405
▁Chi	-9.68422
▁cai	-9.68468
▁Re	-9.68498
▁past	-9.68699
▁dầu	-9.68845
▁former	-9.68968
▁works	-9.69054
▁Nhiều	-9.6906
▁Mặt	-9.69104
▁mời	-9.6918
▁shes	-9.69189
▁married	-9.69247
▁phê	-9.69264
▁web	-9.69311
um	-9.69326
▁further	-9.69362
▁special	-9.69494
▁position	-9.69512
▁miễn	-9.69565
▁general	-9.69587
▁model	-9.69641
▁pretty	-9.69738
▁uh	-9.69778
▁thừa	-9.69868
▁displaystyle	-9.69869
▁bring	-9.6991
▁bày	-9.69929
▁rượu	-9.69941
▁Co	-9.69946
▁question	-9.70107
▁met	-9.70134
R	-9.70135
▁dây	-9.7016
▁meet	-9.70179
▁khám	-9.70184
▁morning	-9.70202
▁chăm	-9.70219
ri	-9.70236
▁lives	-9.70256
se	-9.70279
▁Tên	-9.70322
▁triều	-9.70479
▁III	-9.70504
▁present	-9.70626
▁however	-9.70835
▁cơn	-9.70892
▁Tiếng	-9.70925
▁rather	-9.70939
▁Russian	-9.71052
▁south	-9.71096
▁protein	-9.71128
▁TV	-9.71183
▁chó	-9.71202
▁returned	-9.71259
L	-9.71317
▁trăm	-9.71344
▁comes	-9.71569
at	-9.71588
▁Cuộc	-9.71595
▁ly	-9.71597
▁thơ	-9.71805
▁youll	-9.71813
▁2008	-9.71822
▁David	-9.71824
▁himself	-9.71966
▁office	-9.72161
▁quên	-9.72238
▁capital	-9.72334
▁Rập	-9.7241
▁trốn	-9.7242
▁Đến	-9.72519
ko	-9.72559
▁Dr	-9.72639
▁brought	-9.72662
▁brain	-9.72669
▁làng	-9.72713
▁Paul	-9.72737
▁nhật	-9.72752
▁đào	-9.72776
▁thù	-9.72813
▁rơi	-9.72828
▁Australia	-9.72926
▁produced	-9.72937
▁return	-9.73014
▁2007	-9.73024
ge	-9.73095
▁week	-9.73101
▁xanh	-9.73226
▁trưng	-9.73338
▁Be	-9.73549
▁tuyển	-9.73561
▁lắng	-9.7365
▁Nói	-9.73761
▁tách	-9.73802
▁alone	-9.73877
▁hope	-9.73879
▁served	-9.73998
▁dậy	-9.74028
▁siêu	-9.74058
▁north	-9.74115
▁patients	-9.74124
▁chảy	-9.74229
▁lược	-9.74392
▁Dù	-9.74411
▁vốn	-9.74514
son	-9.74558
▁modern	-9.7469
▁2006	-9.74753
▁lao	-9.74771
▁games	-9.74821
▁hút	-9.74835
▁Phần	-9.74847
▁màn	-9.74905
▁Bố	-9.75042
▁deal	-9.75091
▁Quân	-9.75122
ya	-9.7514
▁Who	-9.75331
▁anyone	-9.75396
▁design	-9.75483
▁200	-9.75542
▁term	-9.75557
▁điên	-9.75695
▁Nghe	-9.75738
▁huấn	-9.75768
▁trục	-9.75859
V	-9.75866
▁behind	-9.75919
▁force	-9.7595
▁mơ	-9.75993
▁Charles	-9.76005
▁tri	-9.76126
▁Air	-9.76151
▁chỉnh	-9.76224
▁Shes	-9.76323
▁nhắc	-9.76325
▁island	-9.7641
▁khiển	-9.76423
▁2014	-9.76428
▁acid	-9.76459
▁đương	-9.76507
▁tắc	-9.76569
▁Miss	-9.76586
▁ngân	-9.76593
▁ô	-9.76614
▁boy	-9.76695
▁trữ	-9.76724
▁đảng	-9.76854
▁2012	-9.76935
di	-9.77005
▁tận	-9.77052
▁groups	-9.77105
▁House	-9.77155
▁Army	-9.77197
▁Union	-9.77215
it	-9.77458
ie	-9.77503
▁lead	-9.77555
▁School	-9.77582
▁aircraft	-9.77676
▁nóng	-9.77695
▁announced	-9.7771
▁longer	-9.77877
▁Tao	-9.77975
▁ngược	-9.77992
land	-9.77999
▁2009	-9.78021
▁o	-9.78065
▁Since	-9.78102
▁front	-9.78226
▁systems	-9.78365
ian	-9.78367
▁Red	-9.78479
▁2015	-9.7854
▁Di	-9.786
▁River	-9.78766
▁career	-9.78775
▁quen	-9.78813
▁Mày	-9.78848
▁hề	-9.78924
▁Lạp	-9.7913
▁die	-9.79152
▁William	-9.79157
▁Tháng	-9.79239
▁Israel	-9.7934
▁happen	-9.79373
▁written	-9.79502
▁Germany	-9.79527
▁Vâng	-9.79688
▁General	-9.79737
▁môn	-9.79745
▁hạnh	-9.79841
▁sóc	-9.79913
▁release	-9.79939
▁weve	-9.79949
▁Ma	-9.80028
▁dừng	-9.80039
▁mộ	-9.8018
▁Ho	-9.80241
▁phán	-9.80277
▁Chủ	-9.80319
▁80	-9.80466
ca	-9.80479
▁although	-9.80602
▁lets	-9.80982
com	-9.80986
▁phúc	-9.81183
▁Đảng	-9.81201
▁described	-9.81234
ness	-9.81235
▁pay	-9.81244
▁Bọn	-9.81298
▁xâm	-9.81348
▁2011,	-9.81373
▁2013	-9.81489
▁Chắc	-9.81744
▁available	-9.81902
▁police	-9.81932
▁nhảy	-9.82034
▁vẽ	-9.8205
▁cell	-9.82075
▁read	-9.82161
▁effect	-9.82186
▁moment	-9.82195
go	-9.82262
▁sir	-9.8228
▁2010,	-9.82368
▁quang	-9.82433
▁Nhân	-9.82706
▁đuổi	-9.82756
▁official	-9.828
▁plan	-9.82803
▁included	-9.82837
▁army	-9.82923
▁săn	-9.82967
▁đáp	-9.8297
▁health	-9.8308
▁ấn	-9.83222
▁se	-9.83252
▁nỗ	-9.83283
▁Two	-9.83318
▁cases	-9.8344
▁joined	-9.83504
▁wants	-9.83531
▁parents	-9.83548
▁Syria	-9.8356
w	-9.8361
▁popular	-9.83769
▁exactly	-9.83977
▁mắc	-9.83983
▁dàng	-9.84092
▁cua	-9.84114
▁lạnh	-9.84139
▁technology	-9.84174
▁project	-9.84305
▁range	-9.84384
▁parts	-9.84437
▁hands	-9.84454
▁eyes	-9.8456
▁hứng	-9.8457
▁According	-9.84573
▁Roman	-9.84646
▁Most	-9.84647
id	-9.84662
▁chance	-9.84721
▁sea	-9.84774
7	-9.84826
▁tước	-9.84841
ion	-9.84984
▁field	-9.85032
▁art	-9.8508
▁2001	-9.8516
▁especially	-9.85193
▁phone	-9.85204
▁Republic	-9.8533
▁tờ	-9.85404
▁2000	-9.85416
▁couldnt	-9.85425
sa	-9.85455
▁states	-9.85527
▁Although	-9.85565
▁Internet	-9.85617
▁test	-9.85658
▁Washington	-9.85667
▁strong	-9.8568
▁cannot	-9.85701
▁quảng	-9.85743
▁record	-9.85861
▁đỉnh	-9.85939
▁natural	-9.86018
men	-9.8606
▁king	-9.86161
▁thịt	-9.86174
▁thỏa	-9.86176
▁sót	-9.86314
▁pháo	-9.86335
▁chúa	-9.8636
▁sẻ	-9.86403
▁ẩn	-9.86417
▁xong	-9.86493
▁mềm	-9.86503
▁lái	-9.86535
▁Ko	-9.8654
▁thuyền	-9.86709
▁red	-9.86759
▁weeks	-9.86767
▁instead	-9.86809
▁2012,	-9.86826
▁Hiệp	-9.86949
▁bom	-9.87073
▁Cũng	-9.87139
▁Cả	-9.87151
▁truyện	-9.87242
▁chàng	-9.87253
▁chối	-9.87313
▁Bảo	-9.87314
▁kids	-9.87374
▁Đúng	-9.87414
▁2006,	-9.87456
▁stuff	-9.87489
▁tu	-9.87494
▁hold	-9.87501
▁ship	-9.87505
▁white	-9.87517
▁While	-9.87519
▁gi	-9.87561
▁Z	-9.87597
▁Này	-9.87622
▁Lee	-9.87633
▁hãng	-9.87744
▁gã	-9.87966
▁Tư	-9.88082
ate	-9.88086
ni	-9.8809
▁create	-9.8811
▁changed	-9.88156
▁nh	-9.882
▁program	-9.88226
▁virus	-9.88365
▁2013,	-9.88437
▁shot	-9.88453
▁Rồi	-9.88475
▁Like	-9.88521
▁cầm	-9.88581
▁Ca	-9.88643
▁tấm	-9.8865
li	-9.88681
▁wanna	-9.88719
▁upon	-9.88729
▁certain	-9.8873
▁khảo	-9.88738
▁Cháu	-9.88754
▁wrote	-9.88789
▁hiệp	-9.88841
▁problems	-9.88927
▁market	-9.88968
▁Of	-9.88981
▁1990	-9.89136
▁decided	-9.89158
▁words	-9.8917
▁90	-9.89203
▁Khu	-9.89286
▁Whats	-9.89289
▁sense	-9.89318
▁quite	-9.89417
▁cường	-9.89441
▁xạ	-9.89442
▁ready	-9.89471
▁Let	-9.89537
▁Bài	-9.89561
▁Thiên	-9.89581
▁treatment	-9.89585
▁mừng	-9.89617
▁2016	-9.89629
▁title	-9.89688
▁village	-9.89708
▁Thụy	-9.89723
▁Music	-9.89737
▁2015,	-9.89774
▁Where	-9.89814
▁kê	-9.89819
▁Korea	-9.8984
▁Robert	-9.89857
▁State	-9.89871
▁sa	-9.89894
▁Sea	-9.89999
▁continued	-9.90057
▁Michael	-9.90196
▁activity	-9.90196
▁list	-9.90237
▁Le	-9.90254
▁Bình	-9.90273
lo	-9.90304
▁tan	-9.90305
▁mẽ	-9.90433
▁itself	-9.90461
il	-9.90487
▁win	-9.90591
▁Hồi	-9.90646
▁chim	-9.90676
▁ft	-9.90681
▁bề	-9.90685
▁Sam	-9.90805
▁gone	-9.90927
▁rate	-9.90933
▁sung	-9.91056
▁Câu	-9.91079
▁Sa	-9.91091
▁changes	-9.91212
▁bão	-9.9123
▁Los	-9.91249
X	-9.91375
▁Đất	-9.91473
▁thao	-9.9155
▁Mary	-9.91581
18	-9.91669
▁nắm	-9.91704
▁DNA	-9.91711
▁wait	-9.91717
▁Ha	-9.91835
▁ten	-9.91844
▁seven	-9.92124
▁2007,	-9.92243
▁Korean	-9.9225
▁thận	-9.9232
▁reported	-9.92497
▁economic	-9.92498
▁truy	-9.92548
▁needs	-9.92603
▁radio	-9.92643
▁tường	-9.92648
▁2014,	-9.92721
▁Tell	-9.92902
▁bi	-9.92949
▁nice	-9.92962
▁Brazil	-9.93052
▁Island	-9.93071
▁2008,	-9.93101
▁clear	-9.93139
▁Minister	-9.93155
▁đem	-9.93241
▁thê	-9.93287
▁Frank	-9.93299
▁ones	-9.93393
▁Vietnam	-9.93397
▁tán	-9.934
▁entire	-9.93446
▁television	-9.93469
▁Cơ	-9.93541
ga	-9.93576
ment	-9.93644
▁save	-9.93664
▁hứa	-9.93763
▁70	-9.93781
▁Ngài	-9.93821
▁tried	-9.93895
▁ức	-9.9391
▁chuột	-9.93911
▁khối	-9.94063
▁Tom	-9.94075
▁above	-9.94187
▁community	-9.94261
▁già	-9.94311
▁cut	-9.94332
▁eight	-9.94339
▁everyone	-9.94351
▁havent	-9.94359
▁ung	-9.94527
▁bữa	-9.94595
▁Great	-9.94596
▁size	-9.94631
rs	-9.94631
ba	-9.94658
▁diệt	-9.94671
▁nâng	-9.94725
▁Central	-9.94726
▁baby	-9.94797
▁xương	-9.94818
▁disease	-9.94818
▁ưu	-9.94838
▁tổn	-9.94848
▁khúc	-9.94855
▁happy	-9.94874
▁action	-9.94878
▁hàm	-9.94924
▁2005	-9.95072
▁education	-9.95097
▁tá	-9.95123
▁Henry	-9.95173
▁2009,	-9.95176
▁chặn	-9.95211
▁quận	-9.95228
▁beginning	-9.95247
▁guess	-9.95267
▁nguyện	-9.95324
▁higher	-9.95425
▁Please	-9.95453
▁lẫn	-9.95472
▁Cập	-9.95606
▁playing	-9.95621
▁Spanish	-9.95795
▁trào	-9.95815
▁tàng	-9.95816
▁training	-9.95838
▁mái	-9.95839
ol	-9.95883
▁quỹ	-9.95884
▁dị	-9.9589
as	-9.95938
▁northern	-9.95941
▁xu	-9.95963
▁goes	-9.96254
▁computer	-9.96266
▁chụp	-9.96355
▁results	-9.96405
ling	-9.96429
▁Ví	-9.9645
▁formed	-9.96469
▁thuê	-9.96503
▁Nên	-9.96548
▁central	-9.96601
▁hài	-9.96617
▁Lúc	-9.96621
▁huyết	-9.96878
▁speak	-9.96953
▁2015.	-9.96985
▁addition	-9.97048
ji	-9.97096
▁cưới	-9.97097
▁ngừng	-9.97276
▁Ben	-9.97286
▁nhẹ	-9.97576
▁Dân	-9.97577
▁involved	-9.97619
▁Get	-9.97699
▁east	-9.97836
▁mười	-9.97841
▁animals	-9.97898
▁tỏ	-9.97928
▁couple	-9.97961
▁sort	-9.98007
▁sắt	-9.98013
▁tàn	-9.98047
▁thước	-9.98168
▁fine	-9.98174
▁surface	-9.98258
▁bạo	-9.98305
nd	-9.98346
▁họp	-9.98378
▁thai	-9.98438
▁Retrieved	-9.98456
mo	-9.98502
▁yên	-9.98595
▁Our	-9.98655
▁Đế	-9.98866
▁chuỗi	-9.98999
▁battle	-9.99016
▁Mi	-9.99031
▁southern	-9.99075
▁player	-9.99163
▁value	-9.99242
▁Truy	-9.99285
▁dọa	-9.99289
▁followed	-9.99317
▁Party	-9.99446
▁mãi	-9.99482
▁sold	-9.99554
▁buồn	-9.99622
▁Trường	-9.99698
▁football	-9.9971
▁science	-9.99719
▁England	-9.99737
▁Tokyo	-9.99738
▁ground	-9.99791
▁sound	-9.99839
▁Tiên	-9.99857
▁Ra	-9.99892
ki	-10.0003
ty	-10.0006
▁Thực	-10.0019
▁ống	-10.0036
▁Division	-10.0043
ke	-10.0044
▁sister	-10.0047
▁president	-10.0048
ha	-10.0055
▁phỏng	-10.0058
▁đe	-10.0068
▁xứ	-10.007
▁2014.	-10.0071
▁throughout	-10.0071
▁phiếu	-10.0076
▁vết	-10.008
▁break	-10.0081
▁kh	-10.0082
▁significant	-10.0082
ley	-10.0085
▁1980	-10.009
per	-10.0093
▁chạm	-10.0098
▁discovered	-10.0103
▁Chuyện	-10.0104
▁tạm	-10.0106
▁numbers	-10.0113
▁evidence	-10.0113
8	-10.0116
▁Ngay	-10.0117
▁learn	-10.0118
▁news	-10.0124
▁experience	-10.0124
▁hoang	-10.0127
▁feet	-10.0146
▁tắt	-10.0153
ina	-10.0155
▁Kingdom	-10.016
▁west	-10.0166
▁takes	-10.0179
▁dọc	-10.0195
▁whether	-10.0199
▁supposed	-10.0209
▁Sir	-10.0217
▁nỗi	-10.0222
▁liệt	-10.0223
▁husband	-10.0227
▁answer	-10.0229
▁Western	-10.0229
▁site	-10.0235
▁hùng	-10.024
▁Ka	-10.0253
▁Philippines	-10.0255
▁pH	-10.0258
▁quyển	-10.0259
▁vong	-10.026
▁finally	-10.0275
▁Mỗi	-10.0285
less	-10.0288
▁giỏi	-10.029
be	-10.0296
▁increased	-10.0299
▁2004	-10.0301
ce	-10.0302
▁bạc	-10.0304
▁Many	-10.0307
15	-10.0308
▁theory	-10.0311
▁related	-10.032
▁oil	-10.0328
▁figure	-10.0329
▁increase	-10.0334
▁tonight	-10.0336
▁Poland	-10.0341
▁Triều	-10.0342
▁beautiful	-10.0346
▁relationship	-10.0348
line	-10.0354
▁gun	-10.0364
za	-10.0368
▁running	-10.037
▁trade	-10.037
▁phẫu	-10.0385
10	-10.0386
▁Tu	-10.0388
▁hạm	-10.0404
▁build	-10.0408
ur	-10.0416
▁500	-10.042
▁Have	-10.0423
▁spent	-10.0434
▁dặm	-10.0438
▁eat	-10.044
▁2016.	-10.0442
▁2016,	-10.0443
▁girls	-10.0443
the	-10.0451
▁Kinh	-10.0453
▁hoá	-10.0467
▁ạ	-10.047
▁cờ	-10.0471
▁needed	-10.0485
▁thăng	-10.0487
▁Cuối	-10.0499
▁simple	-10.0508
▁cost	-10.051
▁2013.	-10.0511
ting	-10.0517
▁effects	-10.0524
▁cặp	-10.0524
▁Love	-10.0528
ti	-10.0535
▁giây	-10.0545
▁Bay	-10.0554
▁current	-10.0564
▁Ireland	-10.0572
▁tĩnh	-10.0572
▁Sun	-10.0579
▁Hay	-10.0586
wa	-10.0587
▁truth	-10.0589
▁billion	-10.0589
chi	-10.0591
▁stand	-10.0591
▁normal	-10.0593
▁tiêm	-10.0595
▁đạn	-10.0602
▁Latin	-10.0611
▁mét	-10.0639
▁Peter	-10.0644
▁kênh	-10.0645
▁giàu	-10.0645
▁safe	-10.0663
ul	-10.0666
▁Li	-10.067
▁Đã	-10.067
▁Singapore	-10.067
▁Polish	-10.0676
▁Thủ	-10.0678
▁hẹn	-10.0684
▁Se	-10.0693
▁gen	-10.0693
up	-10.0701
▁Royal	-10.0709
▁themselves	-10.071
▁Đội	-10.071
▁cities	-10.0713
▁qu	-10.0715
▁caused	-10.0718
▁chậm	-10.0722
▁gotta	-10.0727
▁khuẩn	-10.0731
▁looks	-10.0735
▁sạch	-10.0737
ant	-10.0741
▁môt	-10.0745
▁Long	-10.075
▁terms	-10.0751
▁month	-10.0758
▁Hà	-10.076
▁media	-10.0761
yl	-10.0766
▁bật	-10.0767
12	-10.0773
▁ngầm	-10.0774
▁lan	-10.0775
▁founded	-10.0778
▁personal	-10.0783
rd	-10.0787
▁Group	-10.0788
▁Asia	-10.08
▁dối	-10.0807
▁gắn	-10.0828
▁huyện	-10.083
▁tỉ	-10.0831
▁reached	-10.0831
▁lower	-10.0834
ek	-10.0834
▁35	-10.0837
▁sex	-10.084
▁Minh	-10.0856
▁góc	-10.0858
▁phái	-10.086
▁knows	-10.0874
▁thuế	-10.0876
▁tống	-10.088
▁signed	-10.0881
30	-10.0883
▁lầm	-10.0893
▁key	-10.0898
▁thẩm	-10.0905
ive	-10.0911
▁river	-10.0913
▁African	-10.0914
▁allowed	-10.0917
▁enzyme	-10.092
ir	-10.093
▁gió	-10.0938
▁cấm	-10.0944
▁designed	-10.0946
▁Cách	-10.0948
▁Star	-10.095
▁Italian	-10.0956
▁walk	-10.096
▁students	-10.0968
▁2012.	-10.0969
Y	-10.097
▁2017	-10.098
ized	-10.0982
▁al	-10.0983
▁gets	-10.0984
20	-10.0986
▁completely	-10.0994
▁2011.	-10.0995
▁easy	-10.1004
am	-10.101
▁culture	-10.1018
▁niềm	-10.1026
▁Pro	-10.1028
▁District	-10.103
▁mm	-10.1032
▁star	-10.1034
den	-10.1035
▁particular	-10.1038
▁trích	-10.1043
ous	-10.1047
lin	-10.1048
▁ho	-10.1052
▁Google	-10.1052
▁thiệt	-10.1054
▁lí	-10.1055
mi	-10.1057
▁risk	-10.1064
▁Louis	-10.1067
▁growth	-10.1067
▁quán	-10.1068
▁share	-10.1073
▁seems	-10.1076
▁chóng	-10.108
ary	-10.1081
▁turned	-10.1086
▁mưa	-10.1087
é	-10.1092
▁recorded	-10.1099
▁vĩ	-10.1102
▁ga	-10.1104
▁Take	-10.1122
ter	-10.1124
▁mid	-10.113
ja	-10.1152
▁Hi	-10.1158
▁Empire	-10.1169
▁Richard	-10.1188
▁tuy	-10.1189
▁structure	-10.1192
▁difficult	-10.1194
▁giáp	-10.1202
▁pressure	-10.1206
▁Uh	-10.1209
▁fall	-10.1209
▁Thượng	-10.121
▁interest	-10.1216
▁trust	-10.1217
▁remained	-10.1223
▁protect	-10.1225
▁1970	-10.1226
▁FC	-10.1228
▁thác	-10.1228
▁1991	-10.1229
▁vây	-10.123
▁events	-10.1234
▁thải	-10.1236
ite	-10.1238
▁nhu	-10.1245
▁thách	-10.1252
▁Kết	-10.1255
est	-10.126
▁generally	-10.1267
▁Battle	-10.1272
▁trống	-10.1275
▁2017.	-10.1283
▁Thứ	-10.1283
▁Argentina	-10.1288
▁lived	-10.1292
▁See	-10.1295
▁phó	-10.1295
▁happens	-10.1299
ner	-10.1302
▁performed	-10.1304
J	-10.1307
▁cứng	-10.1316
▁ngàn	-10.1317
▁Mark	-10.1328
▁bãi	-10.1329
▁shows	-10.1333
▁ác	-10.1339
▁average	-10.1341
▁đức	-10.1342
▁Ngươi	-10.1346
▁complex	-10.1347
▁thánh	-10.1348
▁sleep	-10.1354
▁Rome	-10.1358
nh	-10.1362
▁nature	-10.1364
▁Youve	-10.1366
▁2005,	-10.1377
▁Even	-10.1378
▁conditions	-10.1379
▁tặng	-10.1384
▁Viện	-10.1391
▁rights	-10.1394
▁medical	-10.1397
17	-10.1399
▁32	-10.14
▁security	-10.1403
▁levels	-10.1404
▁Chú	-10.1406
▁bậc	-10.1409
▁Đồng	-10.142
▁services	-10.1421
▁tomorrow	-10.1429
▁ngh	-10.1433
▁Cười	-10.1434
em	-10.1448
▁Good	-10.1455
▁appeared	-10.1463
▁Will	-10.1466
▁lối	-10.1468
▁khóa	-10.1479
▁hộp	-10.148
▁Saint	-10.148
▁success	-10.1488
▁hiến	-10.149
▁studies	-10.1493
▁Super	-10.1494
▁act	-10.1496
U	-10.1508
▁function	-10.1514
▁stage	-10.1515
▁amount	-10.1522
▁character	-10.1531
▁bò	-10.1533
▁bảy	-10.1539
▁fast	-10.1544
▁Italy	-10.1545
▁lương	-10.1548
▁High	-10.1552
▁Edward	-10.1561
▁lâm	-10.1568
▁eventually	-10.1568
▁gấp	-10.158
▁buy	-10.1582
▁45	-10.1586
▁Microsoft	-10.1586
▁Về	-10.1603
▁ngạc	-10.1603
▁companies	-10.1605
▁center	-10.1605
▁moving	-10.1606
▁thang	-10.1614
▁ships	-10.1619
▁Da	-10.1626
▁Zealand	-10.1635
▁miệng	-10.164
▁Russia	-10.1646
9	-10.1651
▁wish	-10.1657
▁Car	-10.1658
▁cháy	-10.1662
▁source	-10.1663
▁meeting	-10.1664
▁cãi	-10.1667
et	-10.1671
▁currently	-10.1678
▁pro	-10.1678
▁giọng	-10.1683
▁đòi	-10.1686
▁date	-10.1689
▁names	-10.1694
con	-10.1696
▁mạc	-10.1696
▁foreign	-10.1696
▁drug	-10.1702
▁active	-10.1711
▁răng	-10.1726
▁ways	-10.1728
▁tóc	-10.173
▁private	-10.1731
▁highest	-10.1732
▁youd	-10.1732
▁mine	-10.1741
▁coast	-10.1746
▁lưới	-10.1765
▁Ar	-10.1766
and	-10.1767
▁provide	-10.177
▁planet	-10.178
▁Rất	-10.1781
▁access	-10.1784
▁ném	-10.1791
▁eye	-10.1795
▁Trên	-10.1795
▁ngư	-10.1803
▁mũi	-10.1803
▁hang	-10.1807
▁cướp	-10.1821
▁Lo	-10.1822
▁lượt	-10.1823
▁300	-10.1824
▁industry	-10.1835
▁rãi	-10.1838
▁specific	-10.1839
▁marriage	-10.1847
▁Sẽ	-10.185
▁Hiện	-10.1854
▁Thời	-10.1882
▁chặt	-10.1882
▁chấm	-10.1885
▁base	-10.1885
▁OK	-10.1889
▁Mình	-10.1894
▁tiệc	-10.1899
▁f	-10.1906
▁event	-10.1907
▁write	-10.1915
▁gas	-10.1919
▁miles	-10.1922
▁features	-10.1925
▁khổ	-10.1925
age	-10.1927
▁Chị	-10.193
▁Thomas	-10.1935
▁hiếm	-10.1935
▁cà	-10.1938
▁ơi	-10.1939
▁gold	-10.1939
▁Ni	-10.1944
▁listen	-10.1945
▁hư	-10.1954
▁alive	-10.1968
▁Queen	-10.1972
▁rule	-10.1979
▁nhánh	-10.1985
▁hương	-10.1992
▁;	-10.1996
sh	-10.1997
▁anymore	-10.1997
▁summer	-10.2007
▁Du	-10.2008
▁studied	-10.2026
▁lam	-10.2028
▁Hầu	-10.2033
▁lũ	-10.2033
▁Prince	-10.2036
▁Weve	-10.2038
nt	-10.2044
▁Jo	-10.2045
▁situation	-10.2046
▁Scotland	-10.2057
▁pain	-10.2057
▁showed	-10.2067
va	-10.2068
▁Nữ	-10.2069
▁towards	-10.2069
▁product	-10.2072
▁Grand	-10.2075
▁Su	-10.2077
▁BC	-10.2078
▁hospital	-10.2079
▁Am	-10.2081
▁border	-10.2087
▁2008.	-10.2091
▁White	-10.2093
▁dường	-10.2098
▁choice	-10.2103
▁Thank	-10.2108
▁leaving	-10.2112
▁Texas	-10.2124
▁female	-10.2127
ron	-10.2128
▁performance	-10.2133
▁2009.	-10.214
▁successful	-10.2143
▁Lần	-10.2144
▁products	-10.2148
▁kho	-10.2149
16	-10.2149
▁sánh	-10.2166
▁Lord	-10.2168
▁telling	-10.2168
▁cover	-10.2173
▁pre	-10.2176
▁troops	-10.218
▁kid	-10.2184
▁2010.	-10.219
▁khái	-10.219
▁likely	-10.2191
▁Indonesia	-10.2194
▁People	-10.2194
▁attention	-10.2197
▁vườn	-10.2203
▁Greek	-10.2209
▁Angeles	-10.221
▁introduced	-10.2211
▁whatever	-10.2216
▁station	-10.2218
▁material	-10.2221
▁particularly	-10.2228
▁approximately	-10.2229
▁door	-10.223
▁Only	-10.2231
▁whose	-10.2234
▁fish	-10.2241
▁felt	-10.2244
▁road	-10.2246
▁tùy	-10.2248
▁Here	-10.2253
▁hot	-10.2258
▁che	-10.2271
▁picture	-10.2271
▁1960	-10.228
▁cancer	-10.228
▁Đối	-10.2283
▁peace	-10.2292
▁secret	-10.2297
▁viễn	-10.2298
ally	-10.2313
▁poor	-10.2315
▁chu	-10.2321
▁vinh	-10.2323
▁Văn	-10.2331
▁cựu	-10.2336
▁Danh	-10.2355
▁2017,	-10.2356
▁court	-10.2364
▁Iran	-10.2364
▁tháp	-10.2372
▁nàng	-10.2375
▁campaign	-10.2378
▁code	-10.2379
▁Council	-10.2382
▁traditional	-10.2384
▁leading	-10.2391
▁Francisco	-10.2402
▁according	-10.2411
▁đua	-10.2413
▁round	-10.2421
▁books	-10.2422
▁opened	-10.2424
25	-10.2425
▁report	-10.2425
ah	-10.2426
▁Force	-10.2436
▁professional	-10.2445
▁Martin	-10.2449
▁global	-10.2458
one	-10.2465
▁powerful	-10.2467
▁Kể	-10.2467
ies	-10.247
▁en	-10.2471
▁physical	-10.2475
▁Other	-10.2477
▁sign	-10.2481
▁movement	-10.2487
bo	-10.2487
cha	-10.2488
▁Đài	-10.2491
ad	-10.2496
▁thầy	-10.2497
▁Đi	-10.2498
▁director	-10.25
▁meaning	-10.2503
▁chào	-10.2506
ana	-10.2519
▁chinh	-10.2522
▁Hồng	-10.2531
▁nghề	-10.2533
▁thua	-10.2547
11	-10.2548
▁giving	-10.2557
▁axit	-10.2559
▁phạt	-10.256
▁band	-10.2561
▁hurt	-10.2562
▁Thổ	-10.2578
▁Hệ	-10.2578
▁larger	-10.2579
▁reach	-10.258
▁Đầu	-10.258
▁hòn	-10.2586
▁thả	-10.2596
▁bar	-10.2602
▁machine	-10.2603
▁trồng	-10.2603
▁carbon	-10.2612
▁Hong	-10.2615
▁believed	-10.2615
▁standard	-10.2621
▁2003	-10.2623
▁complete	-10.2626
▁Bo	-10.2626
▁allow	-10.2626
▁Cứ	-10.2629
▁ph	-10.263
▁languages	-10.2631
ho	-10.2636
▁send	-10.2637
▁ability	-10.2645
we	-10.2649
▁đốt	-10.2655
▁method	-10.2656
▁2018	-10.2661
▁lose	-10.2673
▁Right	-10.2678
▁Cảm	-10.2683
▁En	-10.269
▁district	-10.2695
▁Số	-10.2697
▁produce	-10.2698
▁arrived	-10.2707
▁middle	-10.2713
▁Indian	-10.2714
▁follow	-10.2716
▁ngọn	-10.2718
▁ninh	-10.2718
▁kêu	-10.2723
▁pha	-10.273
▁individual	-10.274
▁Pa	-10.2742
▁Islands	-10.2742
▁trouble	-10.2752
▁trú	-10.2753
▁ancient	-10.277
▁anti	-10.2772
▁operations	-10.2775
▁Va	-10.278
▁Cổ	-10.2782
▁Navy	-10.2791
▁influence	-10.2793
▁questions	-10.2795
▁response	-10.2802
▁debut	-10.2811
▁2007.	-10.2814
by	-10.2815
▁writing	-10.2827
▁Mar	-10.2829
▁Lu	-10.2833
▁construction	-10.2835
▁mỏ	-10.2837
▁view	-10.284
▁forms	-10.2843
▁earlier	-10.2845
ated	-10.2851
▁ngu	-10.2857
á	-10.2857
▁Cuba	-10.287
14	-10.2876
▁society	-10.2882
▁hair	-10.2882
▁khuôn	-10.2882
▁đới	-10.289
▁sub	-10.2902
▁famous	-10.2909
▁Best	-10.2913
▁types	-10.292
▁ngang	-10.2932
▁fun	-10.2937
▁ổng	-10.2941
▁worlds	-10.2946
▁added	-10.2962
▁USD	-10.297
▁Thông	-10.2974
▁includes	-10.2974
▁hi	-10.2974
▁thượng	-10.2976
▁seem	-10.2979
ut	-10.2984
▁Ki	-10.2992
▁waiting	-10.2995
▁UK	-10.2997
▁piece	-10.3002
▁hồn	-10.3002
▁Nội	-10.3005
▁Bồ	-10.3014
▁Kong	-10.3015
▁giận	-10.3016
▁difference	-10.3023
gi	-10.3023
ts	-10.3026
▁Tòa	-10.3026
▁Maria	-10.3032
▁Giống	-10.3037
▁kém	-10.3037
▁skin	-10.3037
▁looked	-10.3042
▁post	-10.3057
▁Đào	-10.307
▁paper	-10.3073
▁hour	-10.3074
▁Nhìn	-10.3088
▁Sinh	-10.3088
▁shown	-10.3093
▁hà	-10.3093
▁cản	-10.3103
▁western	-10.3109
▁ghét	-10.3114
▁Berlin	-10.3124
▁Street	-10.3125
▁kỉ	-10.3128
▁giảng	-10.3129
▁fighting	-10.3132
▁2004,	-10.3139
▁liền	-10.3141
▁degree	-10.3143
▁teams	-10.3144
▁khứ	-10.3147
▁contact	-10.315
▁cảng	-10.3159
▁afraid	-10.3163
▁tảng	-10.3163
▁Chile	-10.3164
▁thiểu	-10.3173
▁thank	-10.3179
▁Pacific	-10.318
▁arent	-10.3188
ze	-10.3198
ization	-10.3204
▁Serie	-10.3204
▁nearly	-10.3206
▁hoảng	-10.3212
▁directly	-10.3217
▁County	-10.3218
▁Florida	-10.3225
▁Si	-10.3229
▁sổ	-10.3241
▁tụ	-10.3243
▁worry	-10.3244
▁khích	-10.3249
▁Hôm	-10.3252
▁đươc	-10.3252
▁deep	-10.3253
▁mê	-10.3255
▁tám	-10.3266
▁dãy	-10.3266
▁IV	-10.3266
▁tha	-10.3268
▁songs	-10.327
▁quái	-10.327
▁units	-10.3272
▁mệnh	-10.3276
▁legal	-10.3277
▁stories	-10.3279
▁mảnh	-10.329
▁heavy	-10.3309
▁mission	-10.3311
▁plant	-10.3327
▁leader	-10.3333
▁ghế	-10.3333
pa	-10.3334
un	-10.3341
▁gan	-10.3351
▁xứng	-10.3352
ish	-10.3354
▁1950	-10.3358
▁previous	-10.3374
▁2002	-10.3377
▁positive	-10.3379
▁environment	-10.339
▁cam	-10.3391
▁tồi	-10.3394
▁ha	-10.3394
tic	-10.34
▁shall	-10.3408
▁places	-10.3408
▁potential	-10.3412
▁dark	-10.3425
▁decision	-10.3433
▁ice	-10.3433
▁originally	-10.344
▁management	-10.3442
▁simply	-10.3443
▁ngốc	-10.3464
▁Day	-10.3467
ster	-10.3467
▁cold	-10.3473
▁completed	-10.348
▁smaller	-10.3481
▁replaced	-10.3482
▁Another	-10.3482
▁cm	-10.3487
▁website	-10.3487
jo	-10.3496
▁thus	-10.3498
▁network	-10.3499
▁lỗ	-10.3503
▁thở	-10.3505
▁:	-10.3506
▁Cùng	-10.351
▁Malaysia	-10.352
▁!	-10.3523
▁kept	-10.3524
io	-10.3534
▁Second	-10.3536
▁humans	-10.3543
▁2,	-10.3544
▁novel	-10.3547
▁lôi	-10.3548
▁College	-10.3552
▁im	-10.3555
▁phe	-10.3558
▁players	-10.3559
▁biện	-10.3563
▁Spain	-10.3564
▁self	-10.3564
tin	-10.3565
▁step	-10.3566
▁Entertainment	-10.3571
▁primary	-10.358
▁rắc	-10.3585
▁loss	-10.3586
▁khuyến	-10.3587
▁ngại	-10.3589
▁required	-10.3602
▁ended	-10.3603
▁Bill	-10.3609
▁separate	-10.3613
▁placed	-10.362
▁Per	-10.3621
▁tiềm	-10.3622
▁competition	-10.3625
▁điệu	-10.3633
▁becoming	-10.3634
▁khô	-10.3634
▁stars	-10.3638
▁liều	-10.3639
▁films	-10.364
▁fear	-10.3643
▁hiển	-10.3644
▁direct	-10.3646
▁weight	-10.3648
▁damage	-10.3648
▁nine	-10.3648
▁Wales	-10.3651
▁hỗn	-10.3655
▁greater	-10.3667
▁Điển	-10.3673
bi	-10.3677
▁policy	-10.3678
▁Tổ	-10.3681
▁Khoa	-10.3687
▁miêu	-10.3693
ov	-10.3695
based	-10.3696
▁feeling	-10.3698
▁continue	-10.3705
▁giam	-10.3707
▁Thánh	-10.371
▁birth	-10.3712
▁Tập	-10.3713
▁join	-10.372
▁starting	-10.3723
▁serious	-10.3732
▁More	-10.3734
ó	-10.3737
▁hảo	-10.3738
▁remains	-10.3753
▁offer	-10.376
▁temperature	-10.3765
▁points	-10.3768
lt	-10.3769
▁Mo	-10.3775
ran	-10.3776
zi	-10.3779
▁Christian	-10.3782
▁Award	-10.3783
▁price	-10.3785
der	-10.3788
▁hào	-10.3788
▁via	-10.3791
▁đập	-10.3798
▁Song	-10.3799
▁practice	-10.3805
▁Captain	-10.3812
▁command	-10.3814
▁1986	-10.3815
▁Big	-10.3817
▁location	-10.3824
▁somebody	-10.3825
ham	-10.3833
▁drive	-10.3837
▁Tin	-10.3838
▁plays	-10.3839
▁tròn	-10.384
▁Town	-10.3845
▁huh	-10.3847
▁equal	-10.3855
▁voice	-10.3856
ru	-10.3857
▁goal	-10.386
▁minute	-10.3861
▁asking	-10.3863
▁software	-10.3873
▁blue	-10.3876
▁điển	-10.3877
▁Iraq	-10.388
▁aint	-10.3886
▁khơi	-10.389
▁cục	-10.3892
▁nợ	-10.3893
ger	-10.3909
▁bed	-10.3913
▁Q	-10.3914
▁learned	-10.3917
▁ảo	-10.3918
▁Tự	-10.3919
▁unit	-10.3924
▁drink	-10.3928
0	-10.3931
▁worth	-10.3931
▁Sân	-10.394
▁1943	-10.3941
▁Yu	-10.3942
▁mostly	-10.3943
sen	-10.395
▁Địa	-10.3954
▁crazy	-10.3957
▁giấc	-10.396
▁Vi	-10.3962
▁phiền	-10.3963
▁Joseph	-10.3968
▁responsible	-10.3971
▁interesting	-10.3972
▁boys	-10.3985
▁Harry	-10.3992
▁Games	-10.3998
▁contract	-10.4
▁camera	-10.4019
▁dứt	-10.4027
21	-10.4028
ase	-10.4031
▁oxy	-10.4033
▁finished	-10.4043
▁Han	-10.4046
▁sun	-10.4049
▁Trời	-10.405
ak	-10.4055
▁online	-10.4063
▁Pan	-10.4066
▁Nghiên	-10.4068
que	-10.4071
▁forced	-10.4072
▁whom	-10.4077
▁appointed	-10.4079
ns	-10.4081
▁animal	-10.4083
▁meant	-10.4086
▁Time	-10.4101
▁doctor	-10.4102
▁căng	-10.4102
▁independent	-10.411
▁speed	-10.4114
▁Hall	-10.4116
▁bối	-10.4122
▁supply	-10.4127
▁giấu	-10.413
ten	-10.4134
▁lành	-10.4134
ance	-10.4138
▁lọc	-10.4149
▁file	-10.4166
▁ủy	-10.4171
▁Times	-10.4177
▁economy	-10.4178
▁issue	-10.4179
▁provided	-10.4184
▁street	-10.4189
▁regions	-10.4192
▁tour	-10.4196
▁CD	-10.42
▁thảm	-10.4212
▁plants	-10.4213
ny	-10.4218
▁lông	-10.4222
led	-10.4227
▁dog	-10.4232
▁fourth	-10.4237
▁issues	-10.4237
yearold	-10.4246
▁chép	-10.4249
▁territory	-10.4258
▁limited	-10.4258
▁contains	-10.426
▁Ne	-10.4262
▁kg	-10.427
ent	-10.4271
▁Center	-10.4275
▁entered	-10.4275
▁Youll	-10.4284
▁Over	-10.4295
▁except	-10.4297
▁Mac	-10.4297
▁below	-10.4303
mer	-10.4303
Z	-10.4305
▁activities	-10.4306
ph	-10.4309
▁Three	-10.4309
▁sạn	-10.4317
▁Lý	-10.4319
▁subject	-10.4326
▁Olympic	-10.4327
▁forward	-10.4333
▁Colombia	-10.4334
▁Arabic	-10.4335
ler	-10.4341
▁Club	-10.4347
▁square	-10.4352
▁Hình	-10.4352
▁grow	-10.4353
▁Old	-10.4354
ski	-10.4358
▁Van	-10.4361
▁Their	-10.4362
▁Học	-10.4365
▁clean	-10.4367
▁tr	-10.4371
▁viêm	-10.4373
▁Before	-10.4388
▁park	-10.4388
▁spread	-10.439
▁ám	-10.44
▁eastern	-10.4412
▁điệp	-10.4415
▁Every	-10.4426
▁Dan	-10.4428
▁image	-10.4433
▁presence	-10.444
▁Ga	-10.4443
▁Tối	-10.4444
▁helped	-10.4445
▁immediately	-10.4447
▁highly	-10.4448
▁150	-10.445
▁islands	-10.445
▁everybody	-10.4455
▁nhấn	-10.4455
im	-10.4459
om	-10.4459
▁mainly	-10.4462
vi	-10.4463
▁cất	-10.4483
pe	-10.4491
▁Emperor	-10.4491
▁referred	-10.4495
▁compared	-10.4496
▁color	-10.4504
▁recent	-10.4506
▁flight	-10.4508
▁hỏng	-10.451
▁Thôi	-10.4513
zo	-10.4518
▁1999	-10.452
▁khấu	-10.4538
▁lines	-10.4538
▁bank	-10.4544
▁style	-10.4556
▁robot	-10.4566
▁vịnh	-10.457
▁trộm	-10.4575
▁thám	-10.4582
▁wide	-10.4599
▁yes	-10.4609
▁Those	-10.4609
▁đền	-10.461
▁Đường	-10.4616
▁killing	-10.4616
▁thạch	-10.4616
ber	-10.4618
▁Lực	-10.4622
ful	-10.4625
▁hỏa	-10.4631
▁Alexander	-10.4631
▁nhầm	-10.4631
▁Prime	-10.4633
▁launched	-10.4635
▁1998	-10.4635
▁focus	-10.4637
▁ideas	-10.464
▁estimated	-10.4651
▁Victoria	-10.4661
▁Ah	-10.4664
▁Both	-10.4665
▁Company	-10.4665
ci	-10.4668
▁2006.	-10.4671
▁nồng	-10.4672
▁mưu	-10.4672
▁spend	-10.4674
▁memory	-10.4678
▁Seoul	-10.4678
▁lừa	-10.4681
▁stated	-10.4686
▁Art	-10.4692
▁Bất	-10.4697
▁lẻ	-10.4698
▁Nhĩ	-10.47
▁charge	-10.4706
▁Football	-10.4708
▁elected	-10.4713
▁1985	-10.472
▁400	-10.4724
▁hầm	-10.4728
▁older	-10.4729
▁Cape	-10.4731
▁board	-10.4733
▁hồng	-10.4737
▁lồ	-10.4739
▁ư	-10.4739
▁gỗ	-10.4741
▁message	-10.4742
▁commercial	-10.4744
▁5,	-10.4749
▁Egypt	-10.475
▁appear	-10.4753
po	-10.4756
▁micro	-10.4756
▁8,	-10.476
ius	-10.4761
▁table	-10.4769
▁tiếc	-10.4772
▁raised	-10.4774
les	-10.4777
▁Gia	-10.4783
13	-10.4784
40	-10.4785
▁church	-10.4786
▁account	-10.4789
▁Mùa	-10.4791
▁sit	-10.4792
res	-10.48
▁nuclear	-10.4803
dy	-10.4803
▁6,	-10.4805
▁Đặc	-10.481
▁rules	-10.4815
▁status	-10.4816
▁appears	-10.4819
▁Cảnh	-10.4821
▁del	-10.4822
▁destroyed	-10.4824
▁schools	-10.4827
▁ngon	-10.4832
▁movie	-10.4835
▁chìm	-10.4837
▁Thần	-10.4839
▁failed	-10.4847
▁đồn	-10.4856
▁green	-10.4859
▁khổng	-10.4867
▁Chicago	-10.4867
▁enemy	-10.4867
▁đê	-10.487
▁Institute	-10.4876
▁perhaps	-10.4877
▁commonly	-10.4878
▁Mà	-10.4878
▁ro	-10.4881
ura	-10.4884
▁growing	-10.4888
▁forget	-10.489
▁Which	-10.4893
ship	-10.4904
▁soldiers	-10.4912
▁Phương	-10.4915
▁religious	-10.4917
▁Đô	-10.492
▁becomes	-10.492
▁touch	-10.4922
tra	-10.4932
▁dance	-10.4941
▁patient	-10.4943
▁travel	-10.4943
▁Awards	-10.4946
▁majority	-10.495
▁imagine	-10.4952
▁Academy	-10.4954
▁search	-10.4955
▁visit	-10.4961
▁gives	-10.4961
▁hô	-10.4966
▁seeing	-10.4968
▁sales	-10.4969
▁pop	-10.497
▁Thưa	-10.498
▁cross	-10.498
▁phai	-10.4981
▁explain	-10.4984
▁box	-10.4986
rin	-10.4987
▁begin	-10.4991
▁tree	-10.4991
▁previously	-10.4994
▁quà	-10.5008
▁uses	-10.501
▁mát	-10.5011
▁yeah	-10.5012
▁grew	-10.5012
▁nô	-10.5019
▁prison	-10.502
▁van	-10.5029
▁lão	-10.5032
▁length	-10.5035
▁4,	-10.5035
▁Phòng	-10.5038
▁Court	-10.5039
▁distance	-10.5045
ku	-10.5048
▁drugs	-10.5049
▁lãng	-10.5051
▁Men	-10.5051
▁TCN	-10.5058
▁tung	-10.506
▁trứng	-10.5061
▁2018.	-10.5064
▁Peru	-10.5067
▁đai	-10.5068
▁mouth	-10.5069
▁2003,	-10.507
24	-10.5074
▁lặp	-10.5074
▁Nigeria	-10.5075
▁dollars	-10.5083
▁financial	-10.5083
▁Giám	-10.5085
▁nhóc	-10.5093
▁perfect	-10.51
▁Kh	-10.5106
gu	-10.5108
▁organization	-10.513
▁đựng	-10.5132
▁cột	-10.5133
▁Un	-10.5133
▁election	-10.5135
▁studio	-10.5138
▁knowledge	-10.5146
▁wind	-10.5152
23	-10.5156
▁lư	-10.5157
▁bơi	-10.5157
▁elements	-10.5158
▁hãi	-10.5159
▁civil	-10.516
▁Show	-10.517
lan	-10.5174
▁respect	-10.5176
▁Vua	-10.5177
244;	-10.5178
▁Bác	-10.5185
▁remain	-10.5187
▁paid	-10.5189
▁cool	-10.5191
ium	-10.5197
▁vững	-10.5198
▁đón	-10.5201
▁nhắn	-10.5208
▁solution	-10.5209
▁reaction	-10.5214
▁Thanh	-10.5218
▁Sĩ	-10.5228
▁dao	-10.5229
ver	-10.5231
▁Today	-10.5232
▁dám	-10.5234
▁Disney	-10.5237
▁Hơn	-10.5241
▁thiệp	-10.5254
▁vầ	-10.5257
▁thousands	-10.5258
▁Hungary	-10.5261
▁Smith	-10.5262
▁1975	-10.5266
▁Pakistan	-10.5268
▁Lake	-10.5269
▁1992	-10.5275
▁lũng	-10.5277
▁variety	-10.5284
▁Bệnh	-10.5291
▁đen	-10.5293
▁mùi	-10.5293
▁Britain	-10.5307
▁Top	-10.531
▁7,	-10.531
▁families	-10.5311
▁khán	-10.5313
▁Northern	-10.5318
▁bá	-10.532
▁Afghanistan	-10.5321
▁75	-10.5321
▁recently	-10.5325
▁Sh	-10.5326
▁multiple	-10.5327
▁fell	-10.5328
▁horse	-10.5337
▁vân	-10.5338
▁1994	-10.534
▁36	-10.5353
▁Khoảng	-10.5361
▁typically	-10.5366
▁Once	-10.5369
▁buôn	-10.5369
▁rắn	-10.5371
2,	-10.5372
▁native	-10.5372
vo	-10.5375
▁feed	-10.5377
▁opening	-10.5378
▁anime	-10.538
▁object	-10.5382
▁tắm	-10.5388
▁Following	-10.5389
▁List	-10.5389
▁vơi	-10.5392
▁beyond	-10.5398
▁chả	-10.5398
▁ấm	-10.5404
▁additional	-10.5405
▁khuyên	-10.5411
▁Tri	-10.5412
gen	-10.5417
▁Applause	-10.5418
▁2000,	-10.5421
▁Nintendo	-10.5425
▁Video	-10.5426
▁Tiểu	-10.5431
▁exist	-10.5434
▁Pi	-10.5436
▁operation	-10.5438
▁dream	-10.5442
▁CO	-10.5447
▁Would	-10.5448
▁Dubai	-10.5448
60	-10.5449
▁Game	-10.5452
▁quality	-10.5461
▁ahead	-10.5466
▁weapons	-10.5467
80	-10.5471
▁lies	-10.5472
▁plans	-10.5478
▁đợt	-10.5479
▁happening	-10.5481
ot	-10.5482
▁male	-10.5491
▁Ross	-10.5491
▁1979	-10.5494
▁Warsaw	-10.55
▁divided	-10.5501
▁shoot	-10.5502
▁1997	-10.5508
ize	-10.5509
▁ơ	-10.551
▁10,	-10.5512
shi	-10.5513
▁Department	-10.5513
▁carried	-10.5513
▁túi	-10.5517
han	-10.5522
▁purpose	-10.5523
▁lỏng	-10.553
▁approach	-10.5531
▁Santa	-10.5534
▁wall	-10.5538
▁train	-10.5539
▁Eastern	-10.5542
▁Green	-10.5551
▁interested	-10.5556
▁Quan	-10.5558
▁Life	-10.5559
▁analysis	-10.556
▁Apple	-10.5573
▁Young	-10.5583
▁heat	-10.5591
▁1995	-10.5591
▁Under	-10.5592
▁sợi	-10.5594
▁province	-10.5594
▁Church	-10.5595
▁vở	-10.5598
▁climate	-10.5601
▁necessary	-10.5601
▁mom	-10.5611
▁triết	-10.5612
▁concept	-10.5617
▁serve	-10.5618
▁điêu	-10.5619
che	-10.562
si	-10.5623
▁plane	-10.563
▁Congress	-10.5638
▁expected	-10.5642
▁quê	-10.5652
▁Listen	-10.5653
▁missing	-10.5663
▁Virginia	-10.5664
▁Gi	-10.5669
▁student	-10.567
▁Bank	-10.567
▁ordered	-10.567
▁breed	-10.5672
ping	-10.5674
▁Asian	-10.5677
▁Trận	-10.5678
50	-10.5681
90	-10.5694
▁Nguyên	-10.5701
▁dad	-10.5702
▁Jim	-10.5703
▁Open	-10.5704
▁closed	-10.5711
▁nhuận	-10.5712
▁giường	-10.5715
▁3,	-10.5725
▁universe	-10.5726
▁individuals	-10.573
sha	-10.5731
▁sụp	-10.574
▁widely	-10.5747
▁officially	-10.5747
▁target	-10.5749
▁đói	-10.5755
▁manga	-10.5757
way	-10.5759
▁33	-10.5769
▁dính	-10.5771
▁brothers	-10.5776
▁condition	-10.5794
▁Cao	-10.5795
▁Đ	-10.5796
▁hundred	-10.5801
▁chín	-10.5807
▁Act	-10.5813
▁9,	-10.5817
▁letter	-10.5823
▁confirmed	-10.5825
▁buildings	-10.5827
▁scientific	-10.5827
▁content	-10.5839
▁Middle	-10.5851
▁1996	-10.5852
▁dangerous	-10.5854
▁Boy	-10.5854
▁kìa	-10.5854
▁thẻ	-10.5855
▁models	-10.5858
ating	-10.586
▁super	-10.5862
ial	-10.5863
▁straight	-10.5868
▁hate	-10.5869
▁press	-10.5875
▁thợ	-10.5877
▁phổi	-10.5882
▁huge	-10.5889
▁tốn	-10.5889
▁Luật	-10.589
▁tô	-10.5903
▁Mike	-10.5907
▁ex	-10.5907
▁Ya	-10.5909
▁Bằng	-10.5916
▁store	-10.5916
▁Bob	-10.5918
▁chemical	-10.5924
▁therefore	-10.5926
▁choose	-10.5931
▁attempt	-10.5935
▁đồi	-10.594
▁university	-10.5943
▁dã	-10.5946
out	-10.5948
▁Don	-10.5948
▁Thống	-10.5954
▁Nhóm	-10.5958
▁scale	-10.5958
▁chôn	-10.5961
▁Tính	-10.5973
▁engine	-10.5974
▁honor	-10.5977
▁Hồ	-10.5981
▁characters	-10.5982
▁tia	-10.5987
▁cultural	-10.5993
▁tuyết	-10.5993
▁Tình	-10.5997
▁sữa	-10.6008
45	-10.6011
▁Ver	-10.6012
▁gợi	-10.6026
▁ion	-10.603
▁Arthur	-10.6033
▁Anna	-10.6037
▁rửa	-10.604
▁ran	-10.6043
▁Bi	-10.6044
▁strength	-10.6046
▁Đạo	-10.6047
so	-10.6058
▁Chris	-10.6059
▁trạm	-10.6061
▁biêt	-10.6061
▁winter	-10.6064
▁Loài	-10.6065
▁learning	-10.6068
▁hổ	-10.6078
▁calling	-10.608
▁race	-10.6081
▁observed	-10.6088
san	-10.609
▁Bar	-10.6092
▁38	-10.6095
▁Diego	-10.6101
▁floor	-10.6102
▁artist	-10.6103
▁1972	-10.611
29	-10.6111
▁ghép	-10.6113
▁foot	-10.6116
70	-10.6116
▁bận	-10.6119
▁Pe	-10.6131
uk	-10.6136
▁Shin	-10.6137
▁Te	-10.6138
▁direction	-10.6143
▁Far	-10.6144
▁division	-10.6147
▁effective	-10.6148
▁whos	-10.6148
▁Venezuela	-10.6151
je	-10.6159
ists	-10.6163
▁Ten	-10.6164
▁trăng	-10.6166
▁đằng	-10.6166
▁broke	-10.6166
▁Lady	-10.6168
▁greatest	-10.6168
▁Ti	-10.6177
▁promise	-10.6178
▁expect	-10.6184
ted	-10.6189
▁Hoặc	-10.6192
▁operating	-10.6192
▁numerous	-10.6195
▁dược	-10.6195
▁officer	-10.6198
▁Brown	-10.6202
▁Chiếc	-10.6206
▁34	-10.621
▁basic	-10.6213
▁cẩn	-10.6213
▁invasion	-10.6217
▁caught	-10.6217
▁negative	-10.6219
▁opportunity	-10.6221
▁Thay	-10.6222
ville	-10.6232
▁xưa	-10.6239
▁2018,	-10.624
ier	-10.6242
▁murder	-10.6243
▁resources	-10.6251
▁đùa	-10.6254
▁occur	-10.6268
▁shouldnt	-10.6283
▁Elizabeth	-10.6294
▁Sha	-10.6294
ê	-10.6297
▁twice	-10.6301
▁Later	-10.6302
▁sources	-10.6308
▁Manchester	-10.6309
ene	-10.6314
▁proposed	-10.6321
▁Committee	-10.6323
tan	-10.6332
▁develop	-10.6334
▁reduced	-10.6336
▁Moscow	-10.6342
▁impact	-10.6343
▁mountain	-10.6344
26	-10.6346
▁kĩ	-10.6351
▁trầm	-10.6353
▁rich	-10.6357
▁Columbia	-10.6357
▁gián	-10.6357
▁Phát	-10.6357
▁worse	-10.636
▁Đôi	-10.6365
▁lang	-10.6365
▁cừu	-10.6368
▁Album	-10.6372
▁tụi	-10.6374
▁supported	-10.6375
▁von	-10.6375
▁taught	-10.6376
▁Mấy	-10.6379
▁Dự	-10.6382
▁48	-10.6384
▁partner	-10.6386
tu	-10.6388
op	-10.6392
▁somewhere	-10.6398
▁mực	-10.6398
▁Premier	-10.6401
▁possibly	-10.6405
▁ép	-10.6408
▁chấn	-10.6409
▁soạn	-10.6413
mar	-10.6417
▁chở	-10.6417
▁Little	-10.642
▁directed	-10.6426
q	-10.6426
bu	-10.6427
▁extra	-10.6428
▁tựa	-10.6429
▁ngũ	-10.6432
27	-10.6433
▁relatively	-10.6433
▁camp	-10.6434
▁1930	-10.6438
▁primarily	-10.6438
cho	-10.6439
▁earth	-10.644
▁bụng	-10.6457
▁acting	-10.646
▁dò	-10.6461
▁sell	-10.6464
▁đàm	-10.6481
▁carry	-10.6483
ard	-10.6484
▁Province	-10.6495
▁đậu	-10.6506
▁vỏ	-10.651
▁FIFA	-10.6517
field	-10.652
tes	-10.652
▁Sorry	-10.6526
▁rise	-10.6531
▁seat	-10.6533
▁standing	-10.6534
▁behavior	-10.6536
í	-10.6539
▁occurred	-10.6547
▁nghìn	-10.6551
▁Give	-10.6555
▁Master	-10.6561
▁huống	-10.6562
▁chief	-10.6565
▁basis	-10.6568
▁1981	-10.657
▁Máy	-10.657
Q	-10.6576
▁Ro	-10.6585
▁lây	-10.6585
▁metal	-10.6591
▁chain	-10.6593
▁ring	-10.6593
▁escape	-10.6602
▁methods	-10.6604
▁remaining	-10.6605
22	-10.6608
▁port	-10.6612
▁reasons	-10.6615
▁host	-10.6621
▁lie	-10.6622
▁Does	-10.6624
▁fully	-10.6625
▁1993	-10.6626
▁guns	-10.6626
ker	-10.663
▁Museum	-10.6631
▁Chương	-10.6634
ise	-10.6641
▁muộn	-10.6642
▁Each	-10.6643
▁Uganda	-10.6651
▁11,	-10.6652
▁Billboard	-10.6653
▁1976	-10.6659
▁màng	-10.6661
28	-10.6663
▁Hill	-10.6663
▁lặng	-10.667
ey	-10.6671
kin	-10.6672
▁prevent	-10.6679
▁nations	-10.6682
▁Ju	-10.6691
▁Government	-10.6692
▁agreed	-10.6694
tion	-10.6694
igt	-10.6695
▁Records	-10.6699
▁distribution	-10.6699
▁bodies	-10.6701
▁Mục	-10.6707
▁Bên	-10.6708
▁reality	-10.671
▁league	-10.6716
▁Christmas	-10.6718
▁2001,	-10.6721
min	-10.6728
▁lân	-10.6734
pro	-10.6734
▁2005.	-10.6738
▁stopped	-10.6738
fa	-10.6742
▁college	-10.6744
1,	-10.6749
▁allows	-10.675
▁lui	-10.6753
berg	-10.6761
▁reign	-10.6763
▁Thị	-10.6764
35	-10.6768
▁nha	-10.6772
▁agent	-10.6778
▁Thì	-10.6783
▁anybody	-10.6784
▁Australian	-10.6789
▁mãn	-10.6789
▁dinner	-10.6792
don	-10.6794
▁Ngoại	-10.6795
▁Joe	-10.6806
ria	-10.6809
▁Chung	-10.6809
▁anyway	-10.681
ung	-10.6813
▁initial	-10.6815
▁bùng	-10.6817
▁Arab	-10.6819
▁awarded	-10.682
▁Ge	-10.682
▁37	-10.6823
▁drop	-10.6834
▁san	-10.6838
▁bia	-10.6839
▁Moon	-10.6842
▁chừng	-10.685
▁appearance	-10.686
▁1989	-10.686
▁Ku	-10.6861
▁slow	-10.6865
▁nt	-10.6869
▁treat	-10.6877
▁fly	-10.6879
▁Ottoman	-10.6882
du	-10.6887
▁Max	-10.6888
▁mươi	-10.6889
▁Tour	-10.6891
▁Vấn	-10.6893
▁Hạ	-10.6894
ez	-10.6895
▁canh	-10.69
▁victory	-10.6901
▁pull	-10.6901
▁beat	-10.6905
▁Tiến	-10.691
▁conflict	-10.6916
▁thousand	-10.6928
▁shape	-10.6935
▁feature	-10.6937
▁wear	-10.6938
▁Ali	-10.6939
▁defeated	-10.6941
▁Sal	-10.6942
▁amazing	-10.6947
▁task	-10.695
▁2002,	-10.6952
▁Nations	-10.6953
▁đống	-10.6958
▁túc	-10.696
▁staff	-10.6962
▁mù	-10.6966
▁Also	-10.6969
▁tuân	-10.6971
▁dâm	-10.6975
pi	-10.6977
▁objects	-10.6981
ide	-10.6988
▁thoải	-10.6989
▁Quá	-10.6994
▁khóc	-10.6995
idae	-10.7
▁property	-10.7003
ac	-10.7011
▁scene	-10.7012
▁Alice	-10.7013
▁Phiên	-10.7015
▁treo	-10.7017
▁fan	-10.7019
▁1967	-10.7022
▁Chào	-10.7023
▁nhạy	-10.7026
▁sounds	-10.7026
▁64	-10.7027
▁Mu	-10.7028
off	-10.703
▁defined	-10.7034
▁1990,	-10.7038
▁administration	-10.7039
▁capacity	-10.7039
▁bridge	-10.704
▁thuần	-10.7043
ang	-10.7044
▁crew	-10.7056
▁developing	-10.7058
▁sếp	-10.7062
▁captured	-10.7078
▁transport	-10.7079
▁mạn	-10.708
▁initially	-10.7081
▁Carl	-10.7083
▁Um	-10.7091
tis	-10.7099
▁leaders	-10.7103
▁zero	-10.7113
of	-10.7117
▁attended	-10.7121
▁exchange	-10.7121
▁ngọt	-10.7122
▁oxygen	-10.7122
▁Alex	-10.7126
▁Despite	-10.713
▁nhắm	-10.7138
▁Albert	-10.714
▁Fa	-10.7143
▁bạch	-10.7145
▁42	-10.7158
▁Real	-10.7159
▁loved	-10.717
▁clubs	-10.7172
▁1920	-10.7174
▁kilometres	-10.7178
ua	-10.7178
▁yours	-10.718
▁Wait	-10.7184
▁Mrs	-10.7187
▁Ja	-10.7188
▁Port	-10.7194
▁text	-10.7194
net	-10.7198
▁wedding	-10.72
▁tax	-10.7205
▁Daniel	-10.7211
▁despite	-10.7214
▁survive	-10.7217
▁ourselves	-10.7218
▁Office	-10.7224
▁adopted	-10.7228
▁lady	-10.7231
▁covered	-10.7231
▁BBC	-10.7232
▁wild	-10.7234
▁worldwide	-10.7234
▁map	-10.7235
ô	-10.7236
▁finish	-10.7238
▁CA	-10.7242
▁khung	-10.7245
▁regular	-10.7247
▁bội	-10.7248
lu	-10.7248
▁sexual	-10.725
▁Scott	-10.7252
▁cast	-10.7252
▁Southern	-10.7255
▁Tr	-10.7263
▁independence	-10.7263
▁workers	-10.7266
▁medicine	-10.7267
▁address	-10.7267
▁gene	-10.7278
▁planned	-10.7283
▁cốt	-10.7285
▁Mars	-10.729
oc	-10.729
▁lò	-10.7292
▁double	-10.7295
ps	-10.7295
▁Dad	-10.7297
izing	-10.7299
▁YouTube	-10.7299
▁sốt	-10.7306
▁About	-10.7307
su	-10.7309
▁singer	-10.7312
▁vuông	-10.7315
▁đuôi	-10.7315
▁Boston	-10.7315
▁boat	-10.7316
▁arms	-10.7316
▁Media	-10.7325
▁nhẫn	-10.7327
▁flow	-10.7328
▁teacher	-10.7337
▁claimed	-10.7338
▁Rio	-10.7341
▁path	-10.7345
▁consider	-10.7347
▁Ocean	-10.7354
▁Live	-10.7355
▁xoay	-10.7357
ju	-10.7359
224;	-10.736
▁Nobel	-10.7366
▁Blue	-10.7367
▁avoid	-10.7368
tz	-10.7368
▁fleet	-10.7372
ren	-10.7373
▁herself	-10.7377
▁Oliver	-10.7378
▁cổng	-10.739
▁Kenya	-10.7391
▁crime	-10.7391
▁Tác	-10.7392
▁xóa	-10.7394
▁forest	-10.7398
32	-10.7408
▁recognized	-10.741
sk	-10.7417
▁Call	-10.742
▁protection	-10.7424
▁noi	-10.7428
▁Po	-10.7428
án	-10.7429
▁stupid	-10.743
▁fathers	-10.7434
▁um	-10.7435
86	-10.7436
▁industrial	-10.7439
▁centre	-10.7439
▁Ed	-10.744
▁1940	-10.744
wi	-10.7442
▁Za	-10.7444
ata	-10.7449
▁Airport	-10.7451
▁connected	-10.7451
ula	-10.7452
▁orders	-10.7455
▁muối	-10.7455
▁Bu	-10.746
▁holding	-10.7461
▁Atlantic	-10.7464
▁Nothing	-10.7472
▁draw	-10.7477
▁Festival	-10.7479
▁calls	-10.7484
▁obtained	-10.7487
▁Phó	-10.7487
bar	-10.7488
▁Nu	-10.7493
▁realize	-10.7495
▁Society	-10.7496
▁bottom	-10.75
▁Par	-10.7502
▁revealed	-10.7506
▁xinh	-10.7507
▁royal	-10.7512
▁ẩm	-10.7513
▁declared	-10.7514
48	-10.7516
▁waste	-10.752
like	-10.7521
▁dọn	-10.7525
bit	-10.7526
▁mây	-10.7547
▁formation	-10.7549
▁Last	-10.7551
▁digital	-10.7552
ola	-10.7552
ff	-10.7555
▁Sara	-10.7558
▁trộn	-10.7559
▁Fe	-10.7568
▁dàn	-10.7572
▁miss	-10.7572
▁65	-10.7573
▁magazine	-10.7574
▁nhịp	-10.758
▁phu	-10.7581
▁sitting	-10.7588
▁vote	-10.7588
▁bus	-10.7588
▁turns	-10.7592
▁đoạt	-10.7592
▁citizens	-10.7596
▁offered	-10.7597
▁Thai	-10.7598
▁centuries	-10.76
▁Jewish	-10.7606
▁ương	-10.7606
▁Hot	-10.7611
▁Sư	-10.7613
▁suggested	-10.7615
▁werent	-10.7615
▁dry	-10.7619
▁handle	-10.7624
▁coffee	-10.763
▁pin	-10.763
▁nation	-10.7631
▁thề	-10.7631
▁Year	-10.7637
▁powers	-10.7658
▁Ok	-10.7661
▁Hiến	-10.7668
▁Peoples	-10.7677
▁Any	-10.7678
▁Th	-10.7679
▁device	-10.7687
▁Gold	-10.7688
ev	-10.7689
▁freedom	-10.7693
▁respectively	-10.7698
▁causes	-10.7705
ens	-10.7707
▁laws	-10.7707
▁hoại	-10.7717
▁teach	-10.7718
▁Covid	-10.7718
▁unique	-10.7719
▁Rachel	-10.7723
ai	-10.7724
tus	-10.7725
▁1937	-10.7728
▁occurs	-10.7735
▁Up	-10.7737
▁mượn	-10.7741
▁historical	-10.7741
▁Chu	-10.7746
▁significantly	-10.7747
▁card	-10.7751
▁Jan	-10.7753
▁Uy	-10.7754
▁Something	-10.7757
▁generation	-10.7757
▁horses	-10.776
▁Tốt	-10.7762
▁seconds	-10.7768
▁Nghệ	-10.7769
▁Loan	-10.777
▁nấu	-10.777
▁prepared	-10.7777
▁enter	-10.7777
▁properties	-10.7778
▁section	-10.7783
▁Gen	-10.7785
▁identified	-10.7786
▁trees	-10.7789
fe	-10.7789
▁programs	-10.7794
ara	-10.7798
▁chẩn	-10.7799
▁giày	-10.7805
▁airport	-10.7805
▁sweet	-10.7811
▁hối	-10.7811
▁Jordan	-10.7812
▁NGC	-10.7812
▁presented	-10.7818
▁Xem	-10.7818
▁dày	-10.7829
▁era	-10.7831
nes	-10.7832
▁Hàng	-10.7836
▁cú	-10.7836
▁beta	-10.7838
47	-10.7841
ella	-10.7843
▁mạo	-10.7848
▁VI	-10.7858
▁managed	-10.7858
▁represented	-10.786
▁duty	-10.7862
▁thôn	-10.7864
▁Bang	-10.7865
ris	-10.7865
tro	-10.7867
▁Vietnamese	-10.7869
▁accepted	-10.787
▁route	-10.787
▁trip	-10.787
▁Hawaii	-10.7873
▁collection	-10.7874
▁accept	-10.7876
▁duyệt	-10.7877
▁News	-10.7879
▁dinh	-10.7881
mon	-10.7882
▁PC	-10.7889
▁wonder	-10.789
ros	-10.7892
sky	-10.7893
55	-10.7905
▁mì	-10.7908
▁easily	-10.7915
▁Fox	-10.7916
▁55	-10.7919
▁Guinea	-10.7919
▁biggest	-10.792
▁projects	-10.7925
▁materials	-10.7928
▁inter	-10.7931
▁Facebook	-10.7937
▁records	-10.7937
▁shut	-10.794
▁Francis	-10.794
▁đệ	-10.7943
ud	-10.7944
▁rare	-10.7945
tr	-10.7946
▁rác	-10.7953
▁till	-10.7954
▁combat	-10.7956
▁destroy	-10.7958
▁leaves	-10.7958
▁domestic	-10.7962
▁reading	-10.7965
▁Pre	-10.7966
▁Bell	-10.7968
▁increasing	-10.7977
lon	-10.7977
yo	-10.7979
▁values	-10.7982
tor	-10.7984
▁creating	-10.7985
▁department	-10.7987
ure	-10.799
▁agreement	-10.7992
gan	-10.7994
▁fought	-10.7998
▁DVD	-10.8002
▁planning	-10.8002
gar	-10.801
▁Film	-10.801
▁ocean	-10.8011
▁winning	-10.8014
▁Luân	-10.8015
▁artists	-10.8018
▁Khan	-10.8026
▁photo	-10.8028
ology	-10.8029
▁ngón	-10.803
▁transferred	-10.8033
▁Valley	-10.8034
ão	-10.8036
ino	-10.8037
▁2004.	-10.8044
▁Cant	-10.8047
▁Jean	-10.8052
▁Hợp	-10.8054
▁hoan	-10.8057
▁li	-10.8065
▁Free	-10.8067
▁Samsung	-10.8068
▁determined	-10.8072
▁Mor	-10.8075
ong	-10.8075
▁Quận	-10.8081
▁bought	-10.809
▁Vũ	-10.8093
▁visual	-10.8095
▁kín	-10.8097
▁challenge	-10.8104
▁39	-10.8105
ken	-10.8106
▁Put	-10.8106
▁genus	-10.811
▁degrees	-10.8112
▁1945,	-10.8115
▁master	-10.8115
▁fuel	-10.812
▁suggest	-10.8122
▁Điện	-10.8125
▁1955	-10.8125
▁extremely	-10.8127
▁tần	-10.8128
▁split	-10.8129
▁none	-10.8136
▁voi	-10.8144
▁Mai	-10.8145
▁Vùng	-10.8147
▁System	-10.8154
▁hung	-10.8157
▁1000	-10.8157
▁scientists	-10.8161
▁reduce	-10.8166
▁12,	-10.8166
▁throw	-10.8167
▁removed	-10.817
▁1945	-10.8172
▁TED	-10.8172
▁tells	-10.8173
▁storm	-10.8174
▁phase	-10.8174
▁Cu	-10.8179
▁email	-10.8186
▁lt	-10.8187
▁Chief	-10.8196
▁Phụ	-10.8202
time	-10.8203
▁nhãn	-10.8206
▁noted	-10.8209
▁applied	-10.8209
▁defeat	-10.8212
▁saved	-10.8213
▁users	-10.8215
▁broken	-10.8215
▁sáp	-10.8219
▁1951	-10.8219
▁manager	-10.8221
▁boss	-10.8221
▁1988	-10.8227
▁understanding	-10.823
▁goals	-10.8232
▁cắp	-10.8232
▁sứ	-10.8235
▁count	-10.8236
▁ranh	-10.8241
▁Thailand	-10.8246
▁screen	-10.825
▁conducted	-10.8252
▁Ke	-10.8253
▁Đưa	-10.8254
▁Panama	-10.8254
▁arm	-10.8256
▁Ru	-10.8256
ica	-10.8257
▁ngẫu	-10.8264
▁Princess	-10.8268
▁Er	-10.827
▁showing	-10.8277
he	-10.8278
▁Charlie	-10.8281
▁tournament	-10.8289
▁chán	-10.8298
▁Phong	-10.8298
port	-10.8299
▁relations	-10.8306
▁khía	-10.8308
▁Could	-10.8312
▁nobody	-10.8313
▁regional	-10.8313
▁Ngân	-10.8321
ring	-10.8325
▁kí	-10.833
▁factors	-10.8331
▁largely	-10.8332
▁Fu	-10.8332
▁ruột	-10.8335
▁tật	-10.834
ex	-10.8343
▁khẩn	-10.8344
ence	-10.8344
▁treated	-10.8346
▁Thiết	-10.8348
▁1918	-10.8349
▁tân	-10.8352
▁hydro	-10.8354
▁writer	-10.8354
▁Thu	-10.8358
▁interview	-10.8364
▁cat	-10.8375
cy	-10.8383
▁Ph	-10.8388
ita	-10.8388
side	-10.839
39	-10.8394
ea	-10.8399
▁spoken	-10.8407
▁efforts	-10.8415
▁lãm	-10.8421
▁Championship	-10.8421
▁featured	-10.8427
▁actress	-10.8428
▁Brasil	-10.843
▁Catholic	-10.843
day	-10.8433
▁Gar	-10.8438
▁stress	-10.8439
▁factor	-10.844
▁musical	-10.8442
▁bền	-10.8448
▁prior	-10.8452
▁Mal	-10.8462
▁clothes	-10.8462
▁anywhere	-10.8466
▁composed	-10.8467
▁Home	-10.8467
07	-10.847
▁FBI	-10.8471
▁metres	-10.8474
▁authorities	-10.8485
ani	-10.8485
▁receive	-10.8487
▁Ministry	-10.8489
ano	-10.8491
▁demand	-10.8493
36	-10.8494
▁author	-10.8494
▁Four	-10.8495
▁episode	-10.8496
▁talked	-10.8498
▁Đan	-10.8501
ach	-10.8502
▁Fleet	-10.8503
▁Phân	-10.8512
▁trial	-10.8518
▁images	-10.8523
▁meat	-10.8524
▁Hitler	-10.8524
▁plus	-10.8528
▁Science	-10.8531
▁poly	-10.8532
▁participated	-10.8534
▁gương	-10.8535
vin	-10.8535
▁Line	-10.8537
▁Ray	-10.8537
▁add	-10.8557
▁mentioned	-10.8559
▁Prize	-10.856
▁Toàn	-10.856
▁spot	-10.856
▁core	-10.8563
▁effort	-10.8564
▁béo	-10.8564
▁Tân	-10.8564
▁leo	-10.8565
▁window	-10.8567
era	-10.8568
▁origin	-10.8571
▁consists	-10.8573
▁Law	-10.8582
▁safety	-10.8582
▁Research	-10.8585
ou	-10.8585
▁equipment	-10.859
▁birthday	-10.8591
▁Revolution	-10.8604
▁Imperial	-10.8609
▁favorite	-10.8616
▁vê	-10.8621
▁hò	-10.8629
au	-10.863
▁brand	-10.8633
▁intended	-10.8634
▁Nơi	-10.8637
▁failure	-10.8638
▁promoted	-10.864
▁Corporation	-10.8641
▁Kông	-10.8643
▁Carolina	-10.8646
▁Gần	-10.8647
▁hưu	-10.8651
▁Juan	-10.8653
▁improve	-10.8654
▁Bỉ	-10.8656
▁muôn	-10.8657
▁contain	-10.8658
▁43	-10.866
▁Adam	-10.8663
▁younger	-10.8665
▁ride	-10.8669
▁piano	-10.8674
▁actual	-10.8675
▁vú	-10.8678
▁weather	-10.8682
▁Ri	-10.8684
▁electron	-10.8686
▁120	-10.8686
▁critical	-10.8688
▁transfer	-10.8702
00	-10.8705
▁favor	-10.8707
▁useful	-10.8714
▁latter	-10.8722
▁1999,	-10.8724
▁income	-10.8736
ans	-10.8737
▁trà	-10.8737
▁Thư	-10.8739
▁accident	-10.8739
▁internal	-10.8741
▁costs	-10.8742
▁Hollywood	-10.8749
▁capable	-10.8749
ised	-10.875
▁túy	-10.875
▁phun	-10.8752
▁mồi	-10.8755
▁organizations	-10.8756
▁parties	-10.8758
▁Night	-10.8761
▁signal	-10.8762
▁khiêu	-10.8762
▁600	-10.8762
ks	-10.8763
▁thoảng	-10.8767
▁FA	-10.8767
▁nêu	-10.8769
▁annual	-10.8774
▁hide	-10.8778
▁actions	-10.8782
34	-10.8782
▁warm	-10.879
yn	-10.8793
▁chosen	-10.8797
▁flying	-10.88
▁1998,	-10.8802
▁urban	-10.8803
ford	-10.8809
▁communities	-10.881
▁alpha	-10.882
▁đực	-10.882
▁Ly	-10.8824
▁resulting	-10.8826
ab	-10.8829
▁cậy	-10.883
▁drama	-10.8834
▁census	-10.8834
▁Bắt	-10.8839
2.	-10.8842
▁UEFA	-10.8843
▁provides	-10.8844
▁daily	-10.8845
ban	-10.8845
▁Har	-10.8846
▁Was	-10.8846
▁page	-10.885
▁marry	-10.8856
▁unknown	-10.8858
▁bomb	-10.886
▁Out	-10.8862
▁Inc	-10.8865
▁Xã	-10.8867
▁Vỗ	-10.8867
▁1953	-10.887
▁đeo	-10.8874
mp	-10.8878
▁rôi	-10.8878
▁sky	-10.8882
▁GDP	-10.8882
57	-10.8889
▁Georgia	-10.8892
▁unless	-10.8893
ini	-10.8894
▁Yo	-10.8899
▁nấm	-10.8901
▁extended	-10.8908
nia	-10.8912
▁measure	-10.8914
▁senior	-10.8915
▁radar	-10.8916
▁Health	-10.892
▁tí	-10.8928
▁motion	-10.8932
▁Steve	-10.8933
▁crisis	-10.8934
▁Lãnh	-10.8948
▁infection	-10.8951
▁claim	-10.8952
▁Nghị	-10.8954
▁thung	-10.8954
▁strange	-10.8955
▁advanced	-10.8962
▁flag	-10.8963
▁politics	-10.8965
▁realized	-10.8966
▁Ab	-10.8967
▁losing	-10.8969
ada	-10.897
har	-10.8982
▁branch	-10.8982
▁smart	-10.8983
▁changing	-10.8986
▁Parliament	-10.8987
▁cấy	-10.8988
▁fault	-10.8992
▁Johnson	-10.9003
▁Puerto	-10.9006
▁Make	-10.9007
ors	-10.901
▁funny	-10.9011
▁hundreds	-10.9017
▁fit	-10.9018
▁sites	-10.9018
ok	-10.902
▁Dur	-10.9023
▁application	-10.9024
▁Phật	-10.9025
▁Summer	-10.9026
▁reports	-10.9028
▁identity	-10.903
ee	-10.9034
▁federal	-10.9035
▁aid	-10.9038
▁Everything	-10.9039
▁strategy	-10.904
▁Got	-10.9041
▁Wall	-10.9043
▁HIV	-10.9045
▁officers	-10.9047
▁trúng	-10.9047
▁ưa	-10.905
▁minor	-10.9051
▁su	-10.9054
▁wearing	-10.9059
33	-10.9059
▁affected	-10.9059
len	-10.9061
▁combined	-10.9065
▁lay	-10.9071
▁symptoms	-10.9074
▁trương	-10.9074
▁trần	-10.9074
▁begins	-10.9075
▁1987	-10.9082
nic	-10.9083
▁COVID	-10.9084
ys	-10.9084
▁creation	-10.9084
▁thoái	-10.9088
▁closer	-10.9091
▁Anne	-10.9091
▁concentration	-10.9093
ap	-10.9102
▁AD	-10.9107
▁wonderful	-10.9111
▁đên	-10.9112
99	-10.9116
kh	-10.9117
▁trượt	-10.9118
▁wave	-10.912
▁contrast	-10.9123
▁environmental	-10.9124
▁46	-10.9126
▁úy	-10.9127
▁subsequently	-10.913
▁theyll	-10.9131
▁mệt	-10.9133
▁represent	-10.9133
▁Jin	-10.9133
tal	-10.9138
▁Sri	-10.9139
car	-10.9143
▁literature	-10.9152
▁worst	-10.9152
her	-10.9154
▁shared	-10.9154
▁Ji	-10.9155
▁notice	-10.9156
▁walls	-10.9157
▁toward	-10.9157
▁Wilson	-10.9157
▁Marie	-10.9161
▁operated	-10.9162
▁nút	-10.9162
▁táo	-10.9163
▁journey	-10.9171
▁gained	-10.9172
▁tị	-10.9176
▁forever	-10.9182
▁Kế	-10.9187
▁finding	-10.9189
75	-10.9189
▁ngã	-10.9197
95	-10.9197
▁Wa	-10.9197
▁runs	-10.92
▁lợn	-10.9206
▁prime	-10.9209
▁issued	-10.921
▁Shi	-10.9212
▁liver	-10.9212
▁opera	-10.9214
▁Barry	-10.9214
▁functions	-10.9215
▁Matt	-10.9218
▁prove	-10.9224
▁Jones	-10.9224
▁onto	-10.9226
38	-10.923
▁bụi	-10.923
▁Jimmy	-10.9231
▁Land	-10.9233
yan	-10.9234
fi	-10.9234
▁Radio	-10.9234
let	-10.9237
▁Jesus	-10.924
▁internet	-10.9241
▁slightly	-10.9241
▁Madrid	-10.925
mu	-10.9252
▁Portuguese	-10.9256
▁ngực	-10.9257
▁fix	-10.9263
▁violence	-10.9265
▁article	-10.9267
ow	-10.9269
▁Lục	-10.9275
▁Armenia	-10.9278
▁birds	-10.928
▁Born	-10.9285
▁applications	-10.9286
▁nor	-10.929
▁huyền	-10.929
▁Claire	-10.9297
▁severe	-10.9304
▁bột	-10.9305
▁Simon	-10.9309
ding	-10.9309
▁Lịch	-10.931
31	-10.931
ay	-10.9316
▁speech	-10.9317
▁Mạch	-10.932
▁Stone	-10.9322
▁Tiếp	-10.9325
▁ball	-10.9329
▁painting	-10.9329
▁tràn	-10.9331
▁Costa	-10.9339
▁visited	-10.9339
▁totally	-10.9339
kan	-10.934
▁fifth	-10.9341
▁Hành	-10.9342
▁41	-10.9345
▁authority	-10.9345
▁faster	-10.9347
▁leg	-10.9348
▁Sometimes	-10.935
▁hẹp	-10.935
▁connection	-10.9351
ky	-10.9351
dan	-10.9352
▁z	-10.9353
▁progress	-10.9356
▁Tony	-10.936
▁fellow	-10.9364
▁trễ	-10.9365
▁tropical	-10.9372
▁Jane	-10.9374
house	-10.9376
▁award	-10.9378
▁Major	-10.9379
▁móc	-10.9381
ari	-10.9385
43	-10.9389
▁channel	-10.939
▁minister	-10.9391
▁hâm	-10.94
▁quét	-10.9405
ities	-10.9412
▁multi	-10.9414
▁Actually	-10.9415
mann	-10.9421
▁footballer	-10.9422
▁1944	-10.9425
▁trưa	-10.9425
▁cong	-10.9426
▁Fire	-10.9427
▁Taylor	-10.943
▁Chưa	-10.943
▁Canadian	-10.9431
▁Gulf	-10.9431
▁processes	-10.9434
▁lộn	-10.9435
▁Hama	-10.9435
▁audience	-10.9436
▁sides	-10.9438
37	-10.9438
▁Val	-10.9439
▁soul	-10.9439
pt	-10.9441
▁governments	-10.9444
▁bo	-10.9444
▁iron	-10.9446
▁evening	-10.945
▁cụm	-10.9452
▁Americans	-10.9455
▁advantage	-10.9462
▁launch	-10.9471
▁SS	-10.9473
▁cám	-10.9475
▁Lincoln	-10.948
▁enjoy	-10.9481
▁agree	-10.9481
▁Road	-10.9483
▁selling	-10.9483
▁1938	-10.9484
▁volume	-10.9485
▁Cục	-10.9486
▁ngập	-10.9487
▁Kings	-10.9488
▁Mom	-10.9492
▁Mount	-10.9495
▁cương	-10.9496
wood	-10.9498
09	-10.95
100	-10.9501
▁giãn	-10.9503
▁dạ	-10.9509
▁Walter	-10.9513
▁scared	-10.9516
fer	-10.9519
▁lật	-10.9521
▁Inter	-10.9524
ability	-10.9524
▁Arts	-10.9526
▁Rose	-10.9527
▁threat	-10.9529
▁sons	-10.9529
▁selected	-10.9529
▁Android	-10.9534
64	-10.9534
ries	-10.9535
▁đâm	-10.9536
cal	-10.9538
van	-10.9541
▁kiên	-10.955
▁95	-10.955
▁putting	-10.9555
▁impossible	-10.9556
▁dogs	-10.9557
▁spring	-10.956
▁coach	-10.956
▁Foundation	-10.9562
▁Col	-10.9564
▁et	-10.9566
▁Head	-10.9567
ida	-10.9568
▁devices	-10.9569
▁tea	-10.9569
▁mountains	-10.9579
▁conversation	-10.9579
▁kinds	-10.9579
▁Mother	-10.9582
ile	-10.9586
▁fair	-10.9588
▁hoãn	-10.9592
▁dropped	-10.9597
▁NASA	-10.9597
▁Khmer	-10.9598
▁combination	-10.96
▁peoples	-10.9603
▁Castle	-10.9603
▁cac	-10.9605
▁Nước	-10.9608
▁kingdom	-10.961
▁resistance	-10.9618
▁19,	-10.9622
▁suffered	-10.9627
▁entirely	-10.9633
▁beauty	-10.9633
▁fashion	-10.9633
▁throne	-10.9633
▁Ken	-10.9651
▁2003.	-10.9651
jin	-10.9653
▁Amazon	-10.9654
cu	-10.9658
▁Qu	-10.9666
▁structures	-10.9668
▁phấn	-10.9669
▁Vụ	-10.967
▁sports	-10.967
▁pure	-10.967
▁faith	-10.9672
▁Duke	-10.9672
▁decades	-10.9674
▁Never	-10.9676
▁willing	-10.9677
amine	-10.9684
▁Hạm	-10.9685
▁copies	-10.9685
▁trừng	-10.9687
▁sight	-10.9689
▁oldest	-10.9693
▁Ad	-10.9694
▁worried	-10.9695
500	-10.9703
▁decide	-10.9703
▁intelligence	-10.9705
▁Play	-10.9706
▁dis	-10.9709
▁47	-10.971
▁victims	-10.9711
▁Tương	-10.9711
▁weapon	-10.9712
▁matters	-10.9713
▁Civil	-10.972
▁Liệu	-10.9721
▁weird	-10.9721
▁hu	-10.9724
▁fresh	-10.9725
▁Perhaps	-10.9726
▁Tim	-10.9733
▁xuân	-10.9736
▁stone	-10.9741
ble	-10.9744
▁rủi	-10.9748
▁chúc	-10.9753
▁fat	-10.9756
▁250	-10.9763
▁achieved	-10.9767
▁existence	-10.9768
▁rates	-10.9769
▁raise	-10.977
46	-10.9771
▁1,000	-10.9774
▁wine	-10.978
▁1934	-10.9785
▁Phim	-10.9785
ft	-10.9787
▁bigger	-10.979
▁Power	-10.9793
▁bacteria	-10.98
▁evil	-10.9802
▁capture	-10.9804
▁51	-10.9804
▁resulted	-10.9807
▁Ukraine	-10.9809
▁review	-10.9811
▁hero	-10.9814
▁chẽ	-10.9815
▁Thủy	-10.9815
▁Model	-10.982
▁dáng	-10.9821
▁require	-10.9822
▁mobile	-10.9823
▁ruled	-10.9826
▁blow	-10.9829
66	-10.9829
red	-10.9829
▁thùng	-10.9831
▁1944,	-10.9832
▁derived	-10.9834
▁certainly	-10.9836
▁mu	-10.9838
▁solar	-10.9838
▁pictures	-10.984
▁refer	-10.9842
▁khiếp	-10.9843
▁Bor	-10.9853
▁versions	-10.9854
▁Quản	-10.986
▁Sydney	-10.9861
▁Bridge	-10.9862
▁differences	-10.9868
▁organized	-10.987
▁castle	-10.9873
▁Human	-10.9874
▁Pat	-10.9875
rat	-10.9877
uri	-10.9877
▁hoà	-10.9879
▁44	-10.9884
▁MTV	-10.9884
▁Space	-10.9888
▁ây	-10.9892
▁solo	-10.9895
▁silver	-10.9898
▁commander	-10.9899
▁pieces	-10.99
▁tools	-10.9905
▁apart	-10.9905
▁Special	-10.9909
ik	-10.9911
▁khôi	-10.9912
fo	-10.9915
▁upper	-10.9916
▁huynh	-10.9916
▁closely	-10.9926
▁Quảng	-10.9927
▁owned	-10.9928
▁des	-10.9931
▁yellow	-10.9931
▁1997,	-10.9935
▁Communist	-10.9936
▁nearby	-10.9937
▁cars	-10.9938
▁importance	-10.9941
▁Think	-10.9944
▁tóm	-10.9946
▁expression	-10.9948
▁goods	-10.9948
▁khỉ	-10.9951
▁adult	-10.9955
▁Keep	-10.9957
▁1980,	-10.9958
ala	-10.9963
▁speaking	-10.9966
zu	-10.9966
▁Post	-10.9969
▁fields	-10.9969
▁52	-10.9974
▁Hu	-10.9975
65	-10.9978
▁youth	-10.998
▁Tai	-10.9982
▁Station	-10.9982
▁Hỏa	-10.9983
ena	-10.9984
mm	-10.9985
▁bear	-10.9986
▁chăn	-10.9987
▁cỏ	-10.9988
▁revolution	-10.9988
▁atmosphere	-10.9994
▁gay	-10.9994
▁houses	-10.9995
ven	-10.9996
▁tháo	-10.9999
lic	-11.0001
▁nhượng	-11.0004
▁Cám	-11.0005
▁dear	-11.0006
▁solid	-11.0009
▁thinks	-11.0014
▁Bur	-11.0024
▁zone	-11.0026
▁vang	-11.003
▁Tam	-11.0031
wan	-11.0033
▁chợ	-11.0033
▁Project	-11.0036
illa	-11.0036
▁Bruce	-11.0037
▁symbol	-11.0041
▁đụng	-11.0042
▁overall	-11.0046
▁god	-11.0047
▁officials	-11.0048
▁Team	-11.005
▁hotel	-11.0054
lar	-11.0055
▁Min	-11.0056
well	-11.006
79	-11.0061
▁cash	-11.0064
▁constant	-11.0065
▁chart	-11.0068
▁formal	-11.0071
▁ending	-11.0073
▁armed	-11.0074
▁arrested	-11.0075
▁arrest	-11.0078
▁solve	-11.008
▁containing	-11.0083
▁Philadelphia	-11.0085
CO	-11.0088
▁Between	-11.009
▁Bulgaria	-11.009
▁Philip	-11.0091
85	-11.0093
▁starts	-11.0093
▁99	-11.0094
▁returning	-11.0095
▁cát	-11.0095
▁Service	-11.0096
▁1942	-11.0098
▁helping	-11.0099
▁lab	-11.0101
▁1933	-11.0103
76	-11.0105
49	-11.0106
▁bông	-11.0107
▁architecture	-11.0112
▁surgery	-11.0112
▁Sen	-11.0112
▁Marshall	-11.0113
▁perform	-11.0117
▁Part	-11.0119
▁lạm	-11.0121
▁Đảo	-11.0122
▁Lễ	-11.0123
▁ngợi	-11.0128
▁municipality	-11.0133
▁weak	-11.014
▁user	-11.0146
▁mixed	-11.0153
▁miếng	-11.0155
▁Father	-11.0161
tri	-11.0166
▁ngừa	-11.0166
▁Cause	-11.0169
▁Sarah	-11.0171
bal	-11.0174
▁thịnh	-11.0178
▁Trang	-11.0182
▁sàn	-11.0184
à	-11.0188
ification	-11.0188
▁cự	-11.0189
▁cài	-11.0192
▁Trump	-11.0195
▁Bueno	-11.0198
▁clinical	-11.0201
▁Linux	-11.0206
▁Biển	-11.0209
▁cóc	-11.0209
▁Brian	-11.021
▁Ana	-11.0212
▁towns	-11.0212
▁le	-11.0214
▁Development	-11.0215
▁Os	-11.0215
▁walking	-11.0217
87	-11.022
▁alongside	-11.0221
▁trinh	-11.0221
▁terrible	-11.0225
▁dying	-11.0226
▁investment	-11.0226
▁Light	-11.0229
▁Dark	-11.0232
▁rain	-11.0232
▁Đôn	-11.0233
▁mòn	-11.0235
01	-11.0239
▁sq	-11.0239
▁thanks	-11.0241
▁lb	-11.0243
ser	-11.0243
05	-11.0253
ag	-11.0259
▁lệch	-11.0262
▁Oregon	-11.0263
▁Sweden	-11.0264
▁Alaska	-11.0264
▁serving	-11.0264
▁marked	-11.0265
▁wed	-11.0266
▁10,000	-11.0267
▁mono	-11.0269
▁professor	-11.027
▁Joey	-11.0273
▁genetic	-11.0275
68	-11.0277
▁opposite	-11.028
▁Remember	-11.028
▁Karl	-11.0285
▁đáo	-11.0285
▁Thi	-11.0286
all	-11.029
▁cycle	-11.0295
▁History	-11.0297
▁tươi	-11.0297
▁hằng	-11.0302
▁gift	-11.0303
▁requires	-11.0303
▁cống	-11.0304
▁2000.	-11.0311
▁grand	-11.0311
▁distinct	-11.0312
▁thô	-11.0312
▁Quần	-11.0313
▁rào	-11.0314
ric	-11.0314
▁frequently	-11.0315
▁gọn	-11.0324
▁doubt	-11.0329
▁captain	-11.0329
year	-11.0335
▁chìa	-11.0338
▁Heres	-11.0339
▁Stalin	-11.0342
▁1984	-11.0343
▁soil	-11.0343
▁đếm	-11.0344
▁1983	-11.0345
ls	-11.0349
61	-11.0351
▁kem	-11.0352
▁leads	-11.0356
▁milk	-11.0357
▁apartment	-11.0363
▁rồng	-11.0365
▁Golden	-11.0365
▁Roma	-11.0366
▁sequence	-11.0367
▁bọc	-11.037
▁administrative	-11.0373
▁proud	-11.0374
▁pair	-11.0379
▁nhi	-11.0379
▁trans	-11.0383
▁rẻ	-11.0385
▁hell	-11.0386
tel	-11.0387
eo	-11.0387
▁clearly	-11.039
▁allowing	-11.0395
▁controlled	-11.0396
▁computers	-11.04
▁ven	-11.04
▁1921	-11.0402
▁skills	-11.0404
▁ổ	-11.0406
▁Harvard	-11.0407
▁provinces	-11.0408
▁invited	-11.0409
▁Aires	-11.0412
▁magic	-11.0413
▁buried	-11.0418
▁stable	-11.042
▁Dưới	-11.0424
▁Cực	-11.0424
▁Thus	-11.0424
▁grown	-11.0426
▁hydrogen	-11.0427
84	-11.0428
▁credit	-11.0433
▁responsibility	-11.0434
▁Pope	-11.0437
▁religion	-11.0447
▁mũ	-11.0449
▁statement	-11.0452
53	-11.0456
▁surprise	-11.0457
▁testing	-11.0459
▁vay	-11.0461
▁Taiwan	-11.0462
▁maintain	-11.0463
▁gain	-11.0465
▁mg	-11.0468
▁ends	-11.0469
▁đạp	-11.0474
ew	-11.0475
▁Pu	-11.0477
▁waters	-11.0477
▁trôi	-11.0479
▁engineering	-11.048
▁tests	-11.0484
▁refers	-11.0486
▁concerned	-11.049
08	-11.0492
▁techniques	-11.0493
lia	-11.0495
dong	-11.0496
▁thây	-11.0497
▁womens	-11.0497
▁nao	-11.0501
▁edition	-11.0504
▁Chart	-11.0507
ane	-11.051
can	-11.0513
▁Hòa	-11.0513
▁refused	-11.0515
▁eating	-11.0516
▁headed	-11.052
▁Thanks	-11.0522
▁plasma	-11.0524
▁Someone	-11.0525
▁focused	-11.0526
▁Tài	-11.0535
▁Public	-11.0535
▁leadership	-11.0536
▁fixed	-11.0537
ori	-11.0538
▁determine	-11.0538
▁inch	-11.0538
▁relative	-11.054
▁mỹ	-11.0541
▁Sunday	-11.0549
▁proper	-11.0556
1.	-11.0557
▁1982	-11.0562
▁56	-11.0563
▁temple	-11.0565
▁physics	-11.0566
▁describe	-11.0567
▁vĩnh	-11.057
▁positions	-11.0573
▁chai	-11.0575
▁smell	-11.0578
▁Wars	-11.0578
▁rapidly	-11.0578
▁bio	-11.058
▁recording	-11.0585
▁Vài	-11.0585
▁Director	-11.0586
▁xưởng	-11.0586
▁Báo	-11.0587
ons	-11.0588
▁politician	-11.0595
▁agents	-11.0599
▁Ash	-11.06
▁causing	-11.0603
▁Age	-11.0606
▁countrys	-11.0606
▁recognize	-11.0606
▁thỉnh	-11.0608
▁Robin	-11.0609
▁nghiện	-11.0609
▁1942,	-11.0611
▁Pop	-11.0613
▁dũng	-11.0614
▁Rico	-11.062
▁kiệm	-11.062
▁elections	-11.062
▁Say	-11.0622
▁maximum	-11.0626
06	-11.063
ram	-11.0632
ins	-11.0634
▁Mer	-11.0634
▁Syrian	-11.0634
▁meters	-11.064
▁carrier	-11.064
▁healthy	-11.064
gon	-11.0642
▁Stop	-11.0644
69	-11.0648
▁tissue	-11.0648
▁el	-11.0648
▁feelings	-11.0652
▁therapy	-11.0655
▁bringing	-11.066
▁communication	-11.0661
▁nho	-11.0661
▁link	-11.0661
42	-11.0663
▁Coast	-11.0664
▁driving	-11.0665
▁tend	-11.0665
▁jobs	-11.0666
▁Stephen	-11.0671
▁logic	-11.0673
▁Cor	-11.0674
▁UN	-11.0675
▁RNA	-11.0675
▁kings	-11.0677
▁easier	-11.0682
▁phú	-11.0683
▁Caribbean	-11.0683
my	-11.0683
▁1996,	-11.0687
▁height	-11.069
▁800	-11.069
▁mistake	-11.0691
▁exact	-11.0693
▁Zo	-11.0695
tter	-11.0695
▁gods	-11.0696
▁correct	-11.0696
▁compound	-11.0698
▁keeping	-11.07
▁Gu	-11.0701
▁Has	-11.0707
ib	-11.0709
▁vision	-11.0709
▁Should	-11.0711
rus	-11.0713
▁thổi	-11.0716
▁Netherlands	-11.0717
xi	-11.0718
▁hearing	-11.0719
▁Fort	-11.072
▁Book	-11.0722
sin	-11.0722
use	-11.0728
▁Tiền	-11.0729
đ	-11.073
ative	-11.0731
▁mothers	-11.0733
▁joint	-11.0734
200	-11.0734
▁đẻ	-11.0734
▁salt	-11.0739
▁Five	-11.0741
▁Ngôi	-11.0742
▁flat	-11.0743
▁bớt	-11.0745
▁Final	-11.0746
▁truly	-11.0746
▁Đáng	-11.0748
▁bồi	-11.075
▁reference	-11.075
▁nhựa	-11.0751
▁Abu	-11.0751
▁khát	-11.0757
▁basically	-11.0763
▁lots	-11.0766
▁actor	-11.0769
▁Thậm	-11.0774
▁inspired	-11.0777
▁snow	-11.078
▁pattern	-11.0783
▁Latinh	-11.0785
▁Until	-11.0786
▁loan	-11.0786
▁improved	-11.0786
▁Whatever	-11.0788
▁Social	-11.0788
▁Holy	-11.0789
▁seemed	-11.0791
▁abandoned	-11.0793
▁Che	-11.0795
▁granted	-11.0795
cin	-11.0803
▁Tàu	-11.0809
▁medium	-11.0812
▁institutions	-11.0814
▁guitar	-11.0821
▁nát	-11.0822
▁Pra	-11.0822
king	-11.0828
▁kịp	-11.0832
▁isolated	-11.0833
▁lawyer	-11.0837
▁Egyptian	-11.0837
II	-11.0838
▁tradition	-11.0838
▁scored	-11.084
▁Channel	-11.0843
▁surrounding	-11.0844
▁58	-11.0849
▁palace	-11.0849
▁Cầu	-11.085
▁wake	-11.0856
▁Sáng	-11.0857
hr	-11.0859
▁soft	-11.0862
rate	-11.0864
zy	-11.0865
▁mờ	-11.0866
▁Secretary	-11.0866
▁Due	-11.0866
▁Several	-11.0867
dia	-11.0869
▁letters	-11.0871
▁corner	-11.0874
ell	-11.0876
ney	-11.0876
▁Global	-11.0878
▁Olympics	-11.0879
▁Kan	-11.0891
04	-11.0895
▁thép	-11.0896
▁Wow	-11.0897
▁feels	-11.0897
▁approved	-11.0898
▁Saudi	-11.0902
▁j	-11.0902
▁Cá	-11.0905
▁emergency	-11.0907
▁1973	-11.091
▁Tra	-11.091
▁discovery	-11.091
▁sơn	-11.0911
▁damaged	-11.0912
▁1974	-11.0914
▁Caesar	-11.0914
▁renamed	-11.0919
end	-11.0923
▁specifically	-11.0926
▁chose	-11.0929
ich	-11.0934
▁dress	-11.0935
▁theyve	-11.0937
▁promised	-11.0939
▁display	-11.094
▁achieve	-11.0942
▁Beach	-11.0943
tar	-11.0944
77	-11.0945
▁sugar	-11.0948
▁moon	-11.0955
▁49	-11.0956
▁producer	-11.0957
▁spoke	-11.0957
af	-11.0958
tt	-11.096
▁José	-11.096
▁titled	-11.096
▁Las	-11.096
▁protected	-11.0965
▁sword	-11.0965
▁trained	-11.0966
▁lake	-11.0966
44	-11.0969
▁Mông	-11.0971
▁lắp	-11.0972
▁Jews	-11.0977
▁details	-11.0979
▁bill	-11.0983
▁literally	-11.0984
▁Batman	-11.0985
▁hasnt	-11.0986
▁1994,	-11.0989
▁setting	-11.0994
▁newspaper	-11.1001
ning	-11.1005
▁suppose	-11.1013
▁1995,	-11.1016
▁element	-11.1018
▁conference	-11.1022
▁Mediterranean	-11.1025
▁Swedish	-11.1025
▁claims	-11.1026
67	-11.1026
▁Ci	-11.1027
▁Byzantine	-11.103
▁shooting	-11.1033
▁Vị	-11.1037
▁Jersey	-11.1048
▁nộp	-11.1049
▁quát	-11.105
▁Commission	-11.1052
▁Tìm	-11.1054
▁investigation	-11.106
▁Turkey	-11.1066
▁khử	-11.1066
▁CIA	-11.1069
▁naval	-11.1072
▁1927	-11.1074
▁nét	-11.1076
▁unable	-11.1077
▁đáy	-11.1077
sta	-11.1078
▁20,	-11.1078
▁honey	-11.1078
▁Son	-11.1078
▁Nghĩa	-11.108
▁Mon	-11.1084
▁expansion	-11.109
59	-11.109
▁1970,	-11.1093
▁2019	-11.1095
▁Okinawa	-11.1096
▁lying	-11.1097
▁Though	-11.1098
▁bet	-11.1099
▁ethnic	-11.1101
▁Lai	-11.1103
và	-11.1107
▁arts	-11.1108
mun	-11.111
▁secondary	-11.1112
▁Andrew	-11.1116
tte	-11.1117
▁streets	-11.1117
▁expanded	-11.1117
▁Java	-11.1121
▁Campuchia	-11.1125
▁Tar	-11.1127
ther	-11.113
▁Norman	-11.1131
▁sand	-11.1133
▁formula	-11.1133
▁khoan	-11.1143
▁promotion	-11.1146
▁cốc	-11.1147
▁Congo	-11.1149
▁rapid	-11.1158
▁1931	-11.1167
▁concert	-11.1167
bel	-11.1168
▁clan	-11.1168
▁CEO	-11.1174
▁85	-11.1179
▁traffic	-11.1179
▁justice	-11.118
▁hed	-11.118
▁instance	-11.1184
78	-11.1186
▁liquid	-11.1186
▁blind	-11.1191
▁Next	-11.1191
▁Eric	-11.1192
hi	-11.1198
▁rose	-11.1199
▁graduated	-11.12
▁Square	-11.1203
del	-11.1204
▁Palace	-11.1204
▁Women	-11.1205
▁planets	-11.1208
▁Loại	-11.1211
sia	-11.1213
▁ti	-11.1217
▁Carlos	-11.1224
ú	-11.123
▁Euro	-11.1231
ER	-11.1234
▁72	-11.1235
▁xỉ	-11.1235
▁advice	-11.1239
▁acquired	-11.1241
▁alternative	-11.1243
▁definitely	-11.1246
▁xích	-11.1246
▁Mad	-11.1247
▁Allen	-11.1247
▁examples	-11.1251
▁deaths	-11.1257
▁Jerusalem	-11.1257
bin	-11.1258
▁1939	-11.1259
ome	-11.1261
▁providing	-11.1263
▁Instead	-11.1266
▁Camp	-11.1266
ral	-11.1266
▁đinh	-11.1267
▁yesterday	-11.1269
▁earned	-11.1273
▁Water	-11.1278
▁absolutely	-11.1278
▁separated	-11.1281
val	-11.1283
▁tool	-11.1293
▁Mc	-11.1299
▁aware	-11.1301
az	-11.1302
▁firm	-11.1303
▁broadcast	-11.1305
▁ngưng	-11.1306
▁Monica	-11.1307
▁escort	-11.131
▁Alan	-11.1314
tta	-11.1317
mus	-11.1317
▁Kar	-11.1325
▁labor	-11.1326
ensis	-11.1329
▁Tới	-11.1331
▁rã	-11.1333
▁bê	-11.1341
▁spirit	-11.1344
mat	-11.1346
▁definition	-11.1347
ec	-11.1347
▁Kitô	-11.1349
▁End	-11.1349
▁Iron	-11.135
▁Kẻ	-11.1355
▁tang	-11.1358
qu	-11.1358
▁Nobody	-11.1361
▁ghé	-11.1366
▁heads	-11.137
▁welcome	-11.1374
▁formerly	-11.1376
▁Đa	-11.1378
▁Security	-11.1385
▁Democratic	-11.1385
▁dải	-11.1386
▁00	-11.1386
pan	-11.1387
▁1946	-11.1391
▁signs	-11.1394
▁Way	-11.1399
▁legs	-11.1403
od	-11.1407
▁suicide	-11.141
▁Treaty	-11.141
▁tro	-11.1411
▁bound	-11.1413
▁gà	-11.1415
▁bag	-11.1416
▁Davis	-11.1417
▁Ol	-11.1419
▁Sky	-11.142
▁shop	-11.1425
▁laser	-11.1426
▁copy	-11.1426
▁đớn	-11.1428
▁complicated	-11.1428
▁museum	-11.143
▁mental	-11.1432
bra	-11.1433
▁depending	-11.1438
▁Je	-11.1439
▁seriously	-11.1442
ón	-11.1443
▁emperor	-11.1443
▁winner	-11.1444
▁Doctor	-11.1445
▁expensive	-11.1446
▁Vẫn	-11.1447
▁ngoan	-11.1448
▁giơ	-11.1452
▁nướng	-11.1453
▁opposition	-11.1459
▁lăng	-11.1461
▁Point	-11.1462
▁1924	-11.1465
▁cưng	-11.1465
▁influenced	-11.1465
▁Sử	-11.1467
▁replace	-11.1471
▁sets	-11.1473
pur	-11.1473
▁mad	-11.1473
▁2002.	-11.1478
▁jump	-11.148
▁Sar	-11.1483
▁Everyone	-11.1487
▁khớp	-11.149
▁ong	-11.1493
▁guard	-11.1499
▁equivalent	-11.1502
▁Einstein	-11.1502
hiếp	-11.1502
ero	-11.1504
▁Professor	-11.1508
▁script	-11.1509
▁Del	-11.151
▁cu	-11.1511
▁fruit	-11.1511
▁millions	-11.1511
▁decisions	-11.1513
▁measured	-11.1515
3,	-11.1517
▁criminal	-11.152
ep	-11.152
▁evolution	-11.152
▁Trò	-11.1521
iya	-11.1521
4,	-11.1523
▁machines	-11.1526
▁remove	-11.1526
▁wing	-11.1528
cer	-11.1529
▁mò	-11.1534
▁1968	-11.1534
ae	-11.1537
▁mồ	-11.154
▁suddenly	-11.1542
▁1993,	-11.1552
▁context	-11.1557
▁Sta	-11.1557
▁1941	-11.1558
▁Portugal	-11.1558
▁dynasty	-11.1558
▁Oscar	-11.1558
▁1926	-11.156
▁Mau	-11.1565
hu	-11.1565
ii	-11.1566
ct	-11.1566
▁prominent	-11.1567
▁doctors	-11.1567
▁Twitter	-11.157
000	-11.1574
ator	-11.1574
▁18,	-11.1579
▁1992,	-11.1581
iv	-11.1581
▁dịp	-11.1582
▁experiment	-11.1585
300	-11.1588
▁Cung	-11.1588
▁affect	-11.1594
▁technique	-11.1599
▁balance	-11.1601
58	-11.1603
▁normally	-11.1606
▁roles	-11.1607
▁roof	-11.1614
▁existing	-11.1615
▁nghịch	-11.1617
eb	-11.1618
▁ngơi	-11.1623
ves	-11.1625
▁Norfolk	-11.1627
▁dắt	-11.1627
▁Cal	-11.1628
▁si	-11.1633
▁Mô	-11.1636
pp	-11.1638
▁Giá	-11.1639
98	-11.1639
▁limit	-11.164
ora	-11.1641
▁settlement	-11.1643
▁0,	-11.1643
▁lọt	-11.1647
▁bone	-11.1648
▁everywhere	-11.1652
head	-11.1652
▁53	-11.1654
▁tested	-11.1656
▁Oxford	-11.1658
▁Victor	-11.1661
▁engaged	-11.1662
▁listed	-11.1662
▁push	-11.1662
▁familiar	-11.1664
▁relationships	-11.1665
▁gấu	-11.1665
aceae	-11.1667
▁Girl	-11.1675
▁Mas	-11.1677
▁prefer	-11.1677
51	-11.1681
▁Bad	-11.1683
▁Nh	-11.1684
▁suffering	-11.1689
▁acts	-11.1689
▁Sáu	-11.169
▁giant	-11.1699
▁củng	-11.1706
▁expressed	-11.1706
▁Bao	-11.1708
▁albums	-11.1708
▁w	-11.1709
▁constructed	-11.1711
kov	-11.1714
▁extensive	-11.1717
▁Brazilian	-11.172
▁otherwise	-11.1722
▁USA	-11.1723
▁titles	-11.1725
▁sector	-11.1726
▁Miami	-11.1728
▁stations	-11.1728
din	-11.1731
▁dedicated	-11.1734
▁Dave	-11.1734
▁typical	-11.1735
▁Nepal	-11.1736
▁bird	-11.174
▁Đệ	-11.174
▁Jamaica	-11.1742
▁teaching	-11.1743
▁Ted	-11.1746
yama	-11.1753
▁chốt	-11.176
▁Giáng	-11.1762
▁manh	-11.1763
▁muscle	-11.1764
▁Greece	-11.1765
▁proved	-11.1766
▁farm	-11.1767
ichi	-11.1768
▁danger	-11.1771
▁coronavirus	-11.1772
▁Palestine	-11.1772
▁busy	-11.1772
Cl	-11.1773
▁mo	-11.1777
▁Vo	-11.1779
88	-11.1783
▁ceremony	-11.1784
▁Business	-11.1785
▁Command	-11.1787
▁territories	-11.1791
▁Thằng	-11.1791
▁buýt	-11.1791
ball	-11.1793
pin	-11.1793
▁sp	-11.1798
▁cop	-11.1798
▁cạn	-11.1802
▁sỹ	-11.1804
▁mọc	-11.1804
▁Thêm	-11.1804
▁Cúp	-11.1808
▁follows	-11.1809
▁tọa	-11.181
▁Định	-11.1816
▁Among	-11.1817
▁alcohol	-11.182
▁Thuật	-11.1823
▁recognition	-11.1824
▁heres	-11.1824
▁note	-11.1829
▁bright	-11.1832
▁organic	-11.1834
▁Milan	-11.1836
▁OS	-11.1852
▁covers	-11.1854
▁17,	-11.186
▁1978	-11.1863
▁13,	-11.1868
▁PlayStation	-11.1874
▁mis	-11.1875
▁jail	-11.1876
▁concern	-11.1879
▁killer	-11.1881
▁Third	-11.1881
▁experienced	-11.1885
:00	-11.1885
▁executive	-11.1886
▁edge	-11.1887
▁bẩn	-11.1893
▁Ford	-11.1896
▁suit	-11.1897
▁Six	-11.1902
▁Il	-11.1905
ice	-11.1907
▁mess	-11.191
▁Den	-11.1914
burg	-11.1914
▁residents	-11.1915
▁flowers	-11.1916
▁settled	-11.1916
▁occupied	-11.1917
▁diseases	-11.1919
▁Hoàn	-11.192
▁sailed	-11.1924
▁Wikipedia	-11.1926
▁facilities	-11.1926
▁Op	-11.193
▁Peace	-11.1932
▁Constitution	-11.1934
▁fired	-11.1935
▁1971	-11.1941
▁tough	-11.1943
▁Qua	-11.1946
▁net	-11.1949
▁Sin	-11.1952
▁peak	-11.1954
▁Type	-11.1955
och	-11.1955
▁opinion	-11.1957
▁sắm	-11.1958
▁uncle	-11.1958
▁county	-11.196
▁continues	-11.1963
▁sum	-11.1964
▁sad	-11.1965
ward	-11.1966
▁attempted	-11.197
▁glad	-11.197
▁empty	-11.1971
ira	-11.1973
56	-11.1974
▁1923	-11.1975
▁Lewis	-11.1978
phy	-11.198
▁Girls	-11.198
▁orbit	-11.1981
▁Ur	-11.1981
▁extreme	-11.1982
▁newly	-11.1983
▁incident	-11.1983
▁customers	-11.1984
▁taste	-11.1986
ika	-11.1986
▁pleasure	-11.199
ima	-11.199
54	-11.2
▁Động	-11.2006
▁notable	-11.2006
▁measures	-11.2007
▁cup	-11.2012
▁theme	-11.2016
▁neither	-11.2016
▁Stadium	-11.2016
▁teeth	-11.2016
▁Vườn	-11.2018
▁glucose	-11.202
▁DC	-11.2021
▁Ex	-11.2029
▁Ukraina	-11.2029
ible	-11.2032
▁63	-11.2035
ông	-11.2036
ela	-11.2038
▁biological	-11.2039
form	-11.204
▁mathematics	-11.2042
▁decade	-11.2049
▁bunch	-11.205
▁chăng	-11.2052
▁tê	-11.2059
▁Such	-11.2065
▁missed	-11.2066
▁1977	-11.2069
▁Anti	-11.2073
dar	-11.2074
▁reaching	-11.2074
▁carrying	-11.2075
▁bin	-11.2075
▁Tướng	-11.2075
ato	-11.2079
▁273;	-11.2082
▁permanent	-11.2085
▁filled	-11.2086
▁Order	-11.2087
▁sat	-11.2088
▁studying	-11.2088
ations	-11.2092
▁rank	-11.2092
▁Houston	-11.2095
▁Leo	-11.2096
▁score	-11.2096
▁VII	-11.2097
▁survived	-11.2097
▁subsequent	-11.2098
▁rồ	-11.2099
▁rạp	-11.2103
▁roughly	-11.2104
▁Dong	-11.2107
▁Dịch	-11.2108
▁ngai	-11.211
▁markets	-11.211
▁Williams	-11.211
▁proteins	-11.2115
▁obviously	-11.2118
▁khoáng	-11.2119
ction	-11.2126
▁honest	-11.2126
▁careful	-11.2127
rie	-11.213
▁Mel	-11.2133
▁Hóa	-11.2134
▁pa	-11.2141
▁Howard	-11.2141
▁tuệ	-11.2141
▁Kepler	-11.2148
▁defense	-11.2148
▁desert	-11.2149
▁opposed	-11.2149
▁temperatures	-11.2153
los	-11.2154
▁Operation	-11.2155
▁Archived	-11.2155
▁Xa	-11.2155
▁designated	-11.2156
▁Yi	-11.216
▁Chelsea	-11.2161
▁holds	-11.2161
og	-11.2161
▁rice	-11.2165
▁solutions	-11.2167
▁manufacturing	-11.2167
▁possibility	-11.2167
▁nose	-11.2172
▁rural	-11.2175
▁Mexican	-11.2177
ơ	-11.2177
▁secure	-11.2182
long	-11.2182
▁subjects	-11.2183
▁portion	-11.2187
▁Education	-11.2192
ming	-11.2194
▁Web	-11.2195
▁succeeded	-11.2198
▁platform	-11.2199
▁Pennsylvania	-11.2201
▁Ghana	-11.2201
▁Vịnh	-11.2201
▁1965	-11.2201
▁bù	-11.2203
▁advance	-11.2204
▁mỏi	-11.2205
▁populations	-11.2206
▁Truyền	-11.2207
▁Tower	-11.2208
▁queen	-11.2208
ight	-11.2211
▁bốc	-11.2213
▁inhabitants	-11.2214
▁Thể	-11.2221
▁Womens	-11.2226
▁Lanka	-11.2227
▁afternoon	-11.2227
▁strike	-11.2228
ical	-11.2228
▁ensure	-11.223
▁stayed	-11.2231
▁Napoleon	-11.2233
▁Military	-11.2234
▁visible	-11.2234
▁ultimately	-11.2235
▁Cap	-11.2238
▁Sơn	-11.2238
ye	-11.2239
▁slowly	-11.224
▁Hospital	-11.224
▁steal	-11.2241
▁Miller	-11.2242
41	-11.2242
▁Danny	-11.2248
▁Chan	-11.2252
▁reform	-11.2253
▁components	-11.2258
▁library	-11.226
▁Muốn	-11.2261
▁dĩ	-11.2262
▁lùng	-11.2262
▁1962	-11.2263
▁pi	-11.2268
tsu	-11.2269
▁Sudan	-11.227
▁Supreme	-11.2274
▁judge	-11.2274
yu	-11.2274
▁singing	-11.2274
ska	-11.2276
▁mention	-11.2277
▁successfully	-11.2277
aria	-11.2279
▁hôi	-11.228
ù	-11.228
▁Still	-11.228
ré	-11.2281
▁vượng	-11.2281
▁steps	-11.2284
▁manner	-11.2285
▁Morgan	-11.2286
▁EP	-11.2287
▁Para	-11.2293
kai	-11.2294
▁Lời	-11.2294
▁perspective	-11.2301
▁policies	-11.2301
▁girlfriend	-11.2308
▁1964	-11.2308
▁exists	-11.2311
▁quãng	-11.2314
▁Quỹ	-11.2314
▁childhood	-11.2314
▁óc	-11.2317
▁persons	-11.2318
ì	-11.2321
▁Centre	-11.2323
pha	-11.2331
▁Serbia	-11.2332
▁waves	-11.2334
▁Emily	-11.2335
▁Croatia	-11.2339
▁technical	-11.2339
▁Kha	-11.2339
▁quiet	-11.234
▁singles	-11.2343
▁Arizona	-11.2348
▁rivers	-11.2348
▁vehicle	-11.235
oid	-11.235
▁technologies	-11.2354
▁weekend	-11.2356
▁Sang	-11.2359
if	-11.2359
tha	-11.2361
▁Cross	-11.2368
▁Modern	-11.2369
▁57	-11.2369
▁standards	-11.237
▁establishment	-11.2371
▁CH	-11.2373
▁factory	-11.2376
▁hunting	-11.2382
▁Key	-11.2383
▁turning	-11.2385
▁discussed	-11.2388
▁rẽ	-11.2389
▁forests	-11.2389
▁ni	-11.2389
▁1999.	-11.2393
▁northeast	-11.2395
qua	-11.2396
ip	-11.2397
▁Stark	-11.2401
▁Kevin	-11.2402
▁Early	-11.2405
▁gãy	-11.2406
▁plastic	-11.2406
▁Tỉnh	-11.2409
▁Trông	-11.2409
▁Studios	-11.2409
▁marketing	-11.241
▁label	-11.2413
▁thâm	-11.2423
sis	-11.2423
▁Ser	-11.2426
▁1910	-11.2429
▁Champions	-11.2429
▁hormone	-11.2433
▁2001.	-11.2433
▁Pedro	-11.2436
▁54	-11.2441
▁đắt	-11.2442
▁Corps	-11.2444
▁itll	-11.2444
uma	-11.2446
ck	-11.2449
ub	-11.2452
▁vao	-11.2454
▁Bush	-11.246
▁increasingly	-11.2462
▁Airlines	-11.2463
▁Lưu	-11.2464
ese	-11.2467
▁1969	-11.2469
sch	-11.2473
▁EU	-11.2476
▁cuộn	-11.2477
▁brief	-11.2477
▁reduction	-11.2477
▁Chà	-11.2477
▁listening	-11.2477
▁ái	-11.2478
▁Cat	-11.2482
▁THE	-11.2482
born	-11.2485
▁mau	-11.2486
▁fundamental	-11.2486
▁burn	-11.2489
▁1940,	-11.2491
▁móng	-11.2494
▁1989,	-11.2495
▁vành	-11.2496
▁compounds	-11.2499
▁Guatemala	-11.25
▁68	-11.2504
▁Santiago	-11.2504
ona	-11.251
▁satellite	-11.2513
▁seasons	-11.2514
▁blog	-11.2516
des	-11.2516
▁Foreign	-11.2517
▁Thương	-11.2518
▁Cambridge	-11.2518
▁Thiếu	-11.2518
▁vaccine	-11.252
▁academic	-11.2524
▁bẫy	-11.2525
▁whereas	-11.2526
▁Ram	-11.2526
▁pilot	-11.253
▁Ber	-11.2531
▁rescue	-11.2533
▁understood	-11.2538
▁guest	-11.254
83	-11.2542
▁Press	-11.2542
▁benefit	-11.2548
▁tower	-11.2548
▁calm	-11.2549
▁shortly	-11.255
▁headquarters	-11.2552
▁vắng	-11.2552
▁increases	-11.2554
▁producing	-11.2557
▁Chandler	-11.2559
▁southeast	-11.2565
▁angry	-11.2566
▁lường	-11.2566
▁khen	-11.2568
▁Vol	-11.2568
▁distributed	-11.2574
▁proof	-11.2575
▁figures	-11.2582
▁fill	-11.2583
▁USS	-11.2585
sp	-11.2585
las	-11.2589
▁Muslim	-11.2589
▁700	-11.2595
ose	-11.2596
elle	-11.2597
▁delivered	-11.2599
03	-11.26
▁nervous	-11.26
▁HMS	-11.2602
▁tiny	-11.2603
▁1960,	-11.2608
▁accounts	-11.2608
▁tired	-11.2609
▁Roy	-11.2611
▁employees	-11.2613
▁Catherine	-11.2614
▁Phổ	-11.2614
▁Billy	-11.2614
bb	-11.2618
ms	-11.2623
tre	-11.2628
▁dốc	-11.2628
▁experiments	-11.2631
▁Switzerland	-11.2635
▁mảng	-11.2635
▁Gordon	-11.2635
▁Police	-11.2635
▁thỏ	-11.2636
▁diệu	-11.2642
▁thắt	-11.2649
72	-11.2655
▁Ak	-11.2662
ette	-11.2662
book	-11.2664
▁Naval	-11.2667
▁principal	-11.2672
▁Bra	-11.2674
52	-11.2678
▁establish	-11.2679
▁Admiral	-11.2683
▁110	-11.2683
▁Tan	-11.2684
▁bút	-11.2685
vis	-11.2691
▁Rica	-11.2692
▁Franklin	-11.2692
▁na	-11.2694
eg	-11.2696
▁cỗ	-11.2698
▁sói	-11.2699
▁retired	-11.2699
▁discuss	-11.2703
▁squad	-11.2704
▁ranked	-11.2704
ites	-11.2705
bre	-11.2705
▁bám	-11.2706
top	-11.2706
74	-11.2708
ret	-11.2708
ants	-11.2715
▁lunch	-11.2718
▁Dar	-11.2722
▁Ecuador	-11.2724
▁Iceland	-11.2724
▁Lawrence	-11.2725
▁Liverpool	-11.2725
▁radiation	-11.2725
art	-11.2727
71	-11.2729
ST	-11.2731
stone	-11.2732
▁parallel	-11.2732
▁stood	-11.2732
▁appreciate	-11.2734
▁deliver	-11.2735
ery	-11.2737
▁Bá	-11.2741
ama	-11.2741
ig	-11.2742
▁essential	-11.2743
▁ngoái	-11.2746
▁Galaxy	-11.2746
▁Biết	-11.2747
but	-11.2747
▁1941,	-11.2751
▁nạp	-11.2756
▁rid	-11.2759
▁Network	-11.2765
gin	-11.2765
nan	-11.2765
▁harm	-11.2765
▁committed	-11.2767
▁Phu	-11.277
ified	-11.2776
▁apply	-11.2778
▁Barcelona	-11.2781
600	-11.2781
▁depression	-11.2782
▁sing	-11.2783
▁ân	-11.2783
▁participate	-11.2783
▁hole	-11.2787
▁Ng	-11.2789
▁Federal	-11.279
▁illegal	-11.2792
▁mechanism	-11.2792
▁tons	-11.2795
▁files	-11.2796
▁Lấy	-11.2796
▁purchase	-11.2797
▁suggests	-11.2798
▁dreams	-11.2798
▁Sony	-11.2801
fu	-11.2802
▁Cảng	-11.2804
▁côn	-11.2806
▁Christ	-11.2807
board	-11.281
rk	-11.281
▁Senate	-11.2811
▁arrival	-11.2817
▁Nào	-11.2817
▁moves	-11.2821
pping	-11.2822
dis	-11.2823
▁swear	-11.2824
▁14,	-11.2825
▁Hoạt	-11.2831
▁situated	-11.2831
▁Var	-11.2831
lla	-11.2832
▁prize	-11.2835
▁Dean	-11.2837
▁landing	-11.2838
▁lặn	-11.2843
▁daughters	-11.2846
tia	-11.2851
▁Darwin	-11.2852
▁Bre	-11.2854
62	-11.2856
▁gai	-11.2858
▁1956	-11.2858
▁stadium	-11.2859
▁ill	-11.286
▁lung	-11.2864
▁lát	-11.2864
▁sisters	-11.2865
▁Kai	-11.2868
▁afford	-11.2872
▁indicate	-11.2873
▁1:	-11.2874
▁patterns	-11.2877
gy	-11.288
sing	-11.288
▁Jon	-11.288
mic	-11.2881
▁Sho	-11.2884
▁knowing	-11.2886
▁Walt	-11.2887
lis	-11.289
▁debate	-11.289
81	-11.2891
▁nở	-11.2896
▁1.5	-11.2897
▁request	-11.29
▁Hướng	-11.2902
▁Ren	-11.2907
med	-11.2909
▁cultures	-11.291
▁1948	-11.2913
▁transition	-11.2916
▁northwest	-11.2916
▁kiệt	-11.2916
▁México	-11.2923
▁Villa	-11.2924
3.	-11.2924
▁surrounded	-11.2925
▁0.	-11.2925
▁Gal	-11.2927
▁linked	-11.2928
▁shift	-11.2929
▁boyfriend	-11.2937
▁manage	-11.2938
▁para	-11.294
▁nề	-11.2942
▁1958	-11.2944
▁Kra	-11.2945
73	-11.2947
▁Years	-11.2955
96	-11.2957
02	-11.2958
▁Kỹ	-11.2959
▁Ethiopia	-11.296
▁Ham	-11.2961
▁mark	-11.2961
nam	-11.2964
▁frequency	-11.2969
▁Điểm	-11.2973
▁lưng	-11.2979
▁Trừ	-11.2979
zer	-11.2986
▁villages	-11.2986
TV	-11.2987
▁Haiti	-11.2992
▁wood	-11.2993
mb	-11.2994
▁Sultan	-11.2995
▁desire	-11.2995
▁Cần	-11.2996
oma	-11.2997
▁1961	-11.2997
▁tò	-11.2999
▁purposes	-11.3
▁Kor	-11.3
▁Front	-11.3
89	-11.3002
hy	-11.3004
▁finds	-11.3004
dom	-11.3005
▁entry	-11.3009
▁Federation	-11.3009
▁xóm	-11.3011
▁Bou	-11.302
▁molecules	-11.3021
▁murdered	-11.3029
▁Cam	-11.3034
▁collected	-11.3037
▁Official	-11.3038
▁pregnant	-11.3038
▁promote	-11.3041
▁1915	-11.3043
▁appropriate	-11.3046
▁Jacob	-11.3048
▁Soon	-11.305
▁kiss	-11.305
▁16,	-11.3053
▁fate	-11.3053
▁neo	-11.3056
▁infections	-11.3057
▁decline	-11.3069
zen	-11.3069
▁app	-11.3069
▁Persian	-11.3071
▁Amy	-11.3074
▁Mười	-11.3074
▁represents	-11.3074
▁Cuốn	-11.3078
▁Manhattan	-11.3081
light	-11.3085
▁Beijing	-11.3088
▁Dynasty	-11.3088
▁Bal	-11.309
▁thọ	-11.3091
gh	-11.3091
▁tông	-11.3095
▁Lao	-11.3095
▁storage	-11.3096
ras	-11.31
▁Dragon	-11.3101
▁sin	-11.3101
▁southwest	-11.3103
▁cops	-11.3103
▁Everybody	-11.3103
▁Grant	-11.3106
▁laid	-11.3109
97	-11.311
▁tam	-11.3111
▁treaty	-11.3112
cia	-11.3113
▁MP	-11.3113
▁1913	-11.3113
▁sought	-11.3114
▁mập	-11.3126
▁gác	-11.3126
▁Heart	-11.3126
▁belong	-11.3127
ED	-11.313
ned	-11.3133
63	-11.3134
▁converted	-11.3136
▁regarded	-11.3136
▁heavily	-11.3139
▁exercise	-11.3141
▁owner	-11.3144
▁governor	-11.3145
▁Lin	-11.315
▁interests	-11.3151
▁layer	-11.3154
▁Technology	-11.3154
▁pp	-11.3155
ped	-11.3157
▁attempts	-11.3158
▁prisoners	-11.3165
▁amino	-11.3165
▁cởi	-11.3169
▁Colorado	-11.3169
▁cards	-11.3169
▁remind	-11.3175
▁candidate	-11.3176
▁Bangladesh	-11.3176
▁electricity	-11.3177
▁mode	-11.3183
▁Vienna	-11.3183
▁fans	-11.3185
▁thuẫn	-11.3191
▁Sierra	-11.3198
▁seek	-11.3201
▁Giao	-11.3205
▁contemporary	-11.3213
▁HD	-11.3213
▁Sông	-11.3217
▁Vegas	-11.3217
▁Alfred	-11.3218
istic	-11.3218
▁Ve	-11.3222
town	-11.3224
▁Forces	-11.3225
▁principle	-11.3227
▁Death	-11.3227
▁1990.	-11.3228
▁Phục	-11.3232
▁explained	-11.3234
▁beach	-11.3237
▁pho	-11.3241
▁Region	-11.3245
▁output	-11.325
▁uy	-11.3252
▁lu	-11.3256
▁agency	-11.3257
▁notes	-11.3258
▁Pen	-11.3262
▁Bon	-11.3262
▁admit	-11.3264
▁identify	-11.3264
▁1954	-11.3273
▁license	-11.3274
▁receiving	-11.3279
▁organ	-11.328
▁documents	-11.328
Bức	-11.3281
▁tùng	-11.3281
▁khói	-11.3283
▁đắn	-11.3284
lam	-11.3285
ila	-11.3289
mit	-11.329
▁breaking	-11.3292
▁Wayne	-11.3292
▁Commander	-11.3293
▁ốc	-11.3293
▁supplies	-11.3294
▁khuyết	-11.3295
▁Baltic	-11.3299
▁option	-11.3299
▁Douglas	-11.3301
▁Monte	-11.3304
ox	-11.3304
▁der	-11.3306
▁earliest	-11.3309
▁Digital	-11.3309
▁sheep	-11.3309
▁Forest	-11.3309
ei	-11.3314
▁Junior	-11.3316
▁nắng	-11.3316
▁1947	-11.3319
▁benefits	-11.332
▁survival	-11.3323
▁Colonel	-11.3324
▁restaurant	-11.3324
▁Vật	-11.3324
▁nâu	-11.3325
▁1998.	-11.3326
you	-11.3328
▁tank	-11.3328
▁62	-11.3331
rum	-11.3331
pre	-11.3332
ux	-11.3334
▁Isnt	-11.3335
▁dealing	-11.3335
▁Athens	-11.3338
▁successor	-11.3342
▁amounts	-11.3344
▁electric	-11.3346
▁Germans	-11.3349
▁Kal	-11.335
▁figured	-11.335
▁emotional	-11.3351
ale	-11.3352
▁khôn	-11.3353
▁extent	-11.3353
▁Ste	-11.3355
iz	-11.3356
▁hoping	-11.3358
some	-11.336
▁twenty	-11.336
▁genes	-11.3362
▁hiding	-11.3363
▁offering	-11.3364
▁Mountains	-11.337
▁contained	-11.3371
▁dollar	-11.3373
aki	-11.3375
▁characteristics	-11.3377
stra	-11.3378
hl	-11.3378
▁locations	-11.3379
▁awards	-11.3382
▁NATO	-11.3383
▁items	-11.3383
▁vehicles	-11.3388
▁UNESCO	-11.339
▁spending	-11.3393
▁philosophy	-11.3398
▁budget	-11.3398
▁múa	-11.3398
▁1966	-11.3403
▁victim	-11.3405
▁María	-11.3406
▁Unlike	-11.3406
▁circle	-11.3406
ological	-11.341
▁Vice	-11.3411
ów	-11.3411
▁etc	-11.3414
▁Romania	-11.3414
▁breath	-11.3419
▁tail	-11.342
▁shoes	-11.3422
▁1952	-11.3429
▁reactions	-11.343
▁performing	-11.3438
▁Irish	-11.344
▁dâu	-11.3444
▁concluded	-11.3445
▁vast	-11.3446
nie	-11.3447
▁category	-11.345
▁Organization	-11.345
our	-11.3453
▁Try	-11.3454
▁châm	-11.3459
▁districts	-11.3465
▁agricultural	-11.3465
▁Lâu	-11.3466
ami	-11.3469
▁Justice	-11.3474
▁constitution	-11.3475
▁essentially	-11.3477
▁sale	-11.348
▁Bangkok	-11.3481
▁Boeing	-11.3481
▁smoke	-11.3483
▁drinking	-11.3484
▁Seven	-11.3486
▁borders	-11.3496
▁Guadalcanal	-11.3496
▁tẩy	-11.3496
bus	-11.3503
▁Grace	-11.3504
▁noise	-11.3506
▁mâu	-11.3512
▁modified	-11.3518
▁threatened	-11.3521
▁empire	-11.3522
▁stronger	-11.3526
▁foundation	-11.3527
▁Sở	-11.3535
▁100,000	-11.3536
▁Marcus	-11.3536
▁Dance	-11.354
▁bó	-11.354
▁surprised	-11.3541
▁Tuần	-11.3541
▁banks	-11.3544
▁engines	-11.3546
war	-11.3548
▁Norway	-11.3549
▁noticed	-11.3549
▁Vô	-11.3552
▁phế	-11.3552
▁vải	-11.3554
▁DS	-11.3555
▁external	-11.3556
▁Turkish	-11.3559
uc	-11.356
eu	-11.3561
▁depends	-11.3564
▁prepare	-11.3566
▁mỏng	-11.3568
oon	-11.3569
▁Ohio	-11.3571
▁existed	-11.3571
▁Journal	-11.3571
▁Pearl	-11.3572
▁serves	-11.3573
▁Ron	-11.3573
▁adults	-11.3573
▁Bốn	-11.3576
▁SC	-11.358
▁Very	-11.3583
nal	-11.3589
ably	-11.359
▁hat	-11.359
▁1945.	-11.3592
▁tủ	-11.3593
PA	-11.3602
▁Arsenal	-11.3602
▁đứt	-11.3602
▁96	-11.3602
ef	-11.3609
▁incredible	-11.361
▁Plan	-11.3612
▁Wu	-11.3613
▁narrow	-11.3614
▁coastal	-11.3616
▁Anyway	-11.3618
▁Tử	-11.3619
▁Win	-11.3621
▁particles	-11.3623
▁rat	-11.3624
▁Quyền	-11.3625
hara	-11.3627
▁59	-11.3628
▁Đang	-11.364
▁Giả	-11.364
▁Roger	-11.3641
▁Main	-11.3643
▁prince	-11.3646
▁operate	-11.3646
▁gũi	-11.3648
▁client	-11.3653
▁chục	-11.3656
▁respond	-11.3657
are	-11.3659
aw	-11.366
▁Ryan	-11.366
▁Sur	-11.3664
▁lands	-11.3667
▁electrical	-11.3676
▁facility	-11.3679
▁occupation	-11.3681
▁hired	-11.3682
▁Đơn	-11.3686
▁Donald	-11.3686
▁Dòng	-11.3687
▁vờ	-11.3687
nin	-11.3689
▁funds	-11.3689
qui	-11.369
▁struggle	-11.3691
▁Cố	-11.3692
▁walked	-11.3694
▁mộng	-11.37
▁viếng	-11.371
nik	-11.371
▁1932	-11.3714
▁liked	-11.3715
▁gánh	-11.3718
▁presidential	-11.3718
tos	-11.3719
▁stands	-11.3719
▁sample	-11.372
▁Dis	-11.3732
gal	-11.3735
▁15,	-11.3735
▁66	-11.3737
▁1900	-11.3738
▁component	-11.3743
▁Johnny	-11.3744
▁trật	-11.3748
400	-11.3748
▁Bị	-11.3749
▁Set	-11.375
▁Without	-11.375
▁taxi	-11.3753
▁collect	-11.3756
▁excited	-11.3756
▁thấu	-11.3756
▁Phil	-11.3757
hờ	-11.3761
▁AS	-11.3762
▁Tha	-11.3764
▁Tommy	-11.3766
94	-11.3768
▁Nan	-11.3769
▁vẹn	-11.3771
▁Albania	-11.3778
▁greatly	-11.3783
rid	-11.3784
▁evolved	-11.3784
▁galaxy	-11.3787
▁giật	-11.3787
▁Earths	-11.3795
▁maintained	-11.3796
▁1959	-11.3798
sy	-11.38
▁mắn	-11.3801
▁registered	-11.3801
▁regarding	-11.3807
▁fighter	-11.3809
▁compete	-11.3813
▁papers	-11.3813
▁resolution	-11.3814
▁sườn	-11.3814
OS	-11.3817
▁nảy	-11.3818
▁innocent	-11.3818
▁dời	-11.3819
▁ratio	-11.3824
▁Xe	-11.3829
▁imperial	-11.3834
▁council	-11.3837
▁unusual	-11.3838
▁obvious	-11.3838
▁Kiểu	-11.3842
▁khoẻ	-11.3842
▁thiêu	-11.3843
ians	-11.3847
▁aspects	-11.3849
▁vitamin	-11.3849
▁hét	-11.3852
▁Tor	-11.3855
▁drawn	-11.3862
▁false	-11.3865
▁employed	-11.3868
▁Harbor	-11.3871
▁counter	-11.3871
▁cloud	-11.3876
▁Delta	-11.3877
▁stores	-11.3878
gue	-11.3879
▁21,	-11.3879
EC	-11.3879
▁Kara	-11.388
var	-11.3881
▁authors	-11.3882
▁row	-11.3884
▁molecular	-11.3884
▁đôla	-11.3884
▁ideal	-11.3885
▁Anderson	-11.3885
▁chip	-11.3887
▁Series	-11.3889
▁tiệm	-11.3889
▁experiences	-11.389
▁po	-11.389
▁ve	-11.389
▁falling	-11.3891
▁Andy	-11.3894
▁viêc	-11.3897
▁rũ	-11.3897
▁Run	-11.3903
▁founder	-11.3904
▁sọ	-11.3904
▁61	-11.3906
▁hạch	-11.3906
▁gentlemen	-11.3913
mis	-11.3913
cus	-11.3919
▁Marine	-11.392
▁Hal	-11.3921
▁st	-11.3927
▁Thường	-11.3928
eh	-11.393
▁Tro	-11.3935
▁Swiss	-11.3936
▁Besides	-11.3936
▁Vincent	-11.3936
▁permission	-11.3936
ray	-11.3937
uấn	-11.3937
▁Hán	-11.3937
▁Chang	-11.3938
82	-11.3941
▁Jung	-11.3942
▁Quả	-11.3942
▁larvae	-11.3944
▁Bel	-11.3948
▁Nova	-11.3952
▁Charlotte	-11.396
▁hidden	-11.396
▁Xbox	-11.396
▁par	-11.3962
▁Mun	-11.3963
▁reserve	-11.3967
▁Newton	-11.3968
▁Lại	-11.3969
▁dạo	-11.3969
▁spin	-11.3973
▁Luc	-11.3981
▁experimental	-11.3982
▁Ngôn	-11.3982
▁episodes	-11.3982
▁Sub	-11.3983
▁ghê	-11.3983
▁dẹp	-11.3984
▁bread	-11.3984
pri	-11.3985
▁suffer	-11.3985
▁valley	-11.3988
▁hyper	-11.399
▁Control	-11.3991
▁samesex	-11.3992
▁Gods	-11.3993
▁Quy	-11.3995
▁Jr	-11.3998
▁bắp	-11.4
DS	-11.4001
▁rư	-11.4002
▁nạ	-11.4006
▁pen	-11.4006
▁hey	-11.4007
▁sending	-11.4007
▁concerns	-11.4009
▁1963	-11.401
▁prices	-11.4012
▁sake	-11.4015
▁Kraków	-11.4015
▁indeed	-11.4015
▁Gil	-11.4016
▁Đêm	-11.4016
▁partners	-11.4017
rist	-11.4017
▁electronic	-11.402
cle	-11.4022
▁vỗ	-11.4024
▁1997.	-11.4024
▁Saturday	-11.4031
▁Hotel	-11.4034
▁Winter	-11.4034
▁pulled	-11.4036
▁circumstances	-11.4038
▁pal	-11.4039
▁enemies	-11.4039
▁cuồng	-11.4039
▁railway	-11.404
▁Jason	-11.404
for	-11.4041
▁hall	-11.4042
▁pounds	-11.4042
▁samples	-11.4044
▁Gor	-11.4044
▁Paulo	-11.4045
▁garden	-11.4046
▁crown	-11.4046
▁Governor	-11.4047
▁Idlib	-11.4048
▁77	-11.4054
▁Belgium	-11.4055
▁Kennedy	-11.4055
▁Lucas	-11.4058
▁Story	-11.4058
▁1916	-11.4059
▁helps	-11.4061
▁Michigan	-11.4063
▁Pin	-11.4067
ions	-11.4071
▁Venice	-11.4071
▁Allied	-11.4072
▁shed	-11.4076
▁missions	-11.4076
▁democracy	-11.4079
▁Snow	-11.4079
▁Seung	-11.4081
▁organisms	-11.4084
▁auto	-11.4087
▁forgive	-11.4087
▁widespread	-11.4087
▁departed	-11.4088
▁Trans	-11.4089
▁lights	-11.409
▁Zimbabwe	-11.4095
▁executed	-11.4097
▁oh	-11.4098
cent	-11.4099
▁Ry	-11.41
▁Macedonia	-11.4101
▁Ward	-11.4102
▁1950,	-11.4105
▁Des	-11.4105
▁Sound	-11.4109
▁exposure	-11.4111
91	-11.4114
▁eggs	-11.4114
aba	-11.4114
▁Baby	-11.4118
▁Walker	-11.412
▁cream	-11.4122
▁ATP	-11.4125
▁Florence	-11.4127
▁1949	-11.4129
lov	-11.413
tas	-11.413
▁supporting	-11.4134
▁chair	-11.4134
lat	-11.4135
▁movies	-11.4137
▁motor	-11.4138
▁Austria	-11.4138
▁videos	-11.4139
▁interaction	-11.4142
SA	-11.4142
▁Theyll	-11.4142
▁Secret	-11.4143
▁detail	-11.4143
ade	-11.4145
▁offers	-11.415
▁Conference	-11.4152
▁Clark	-11.4153
ses	-11.4153
▁Friday	-11.416
▁hận	-11.416
▁strongly	-11.4161
▁Down	-11.4161
▁saving	-11.4166
▁grandfather	-11.4167
▁sixth	-11.4171
▁apparently	-11.4171
sưu	-11.4175
▁crash	-11.4176
▁Luke	-11.4176
▁Israeli	-11.4179
▁Mari	-11.418
uff	-11.4183
▁agriculture	-11.4184
▁chòm	-11.4184
▁honour	-11.4185
▁appearances	-11.4188
▁infected	-11.4189
▁consisting	-11.4195
▁eo	-11.4197
▁dose	-11.4197
▁Pierre	-11.4201
▁Alpha	-11.4201
▁Pha	-11.4202
▁businesses	-11.4203
▁faces	-11.4204
huyến	-11.4204
▁thói	-11.4209
▁gradually	-11.4209
▁tomb	-11.4214
cing	-11.4214
dic	-11.4216
▁effectively	-11.4216
run	-11.4218
▁1925	-11.4218
ân	-11.4219
▁xăng	-11.4225
▁cắn	-11.4232
▁equation	-11.4233
▁điền	-11.4233
▁lấp	-11.4233
▁Bảy	-11.4234
▁outbreak	-11.4235
▁ear	-11.4236
▁download	-11.4236
▁staying	-11.4237
▁introduction	-11.424
▁featuring	-11.4241
▁decrease	-11.4241
▁Manila	-11.4242
▁wa	-11.4243
▁Czech	-11.4249
oli	-11.4249
die	-11.425
▁Ltd	-11.425
▁Eu	-11.4255
▁Yoshi	-11.4256
▁Apollo	-11.4257
▁Chất	-11.4258
▁profile	-11.4261
▁Nazi	-11.4261
▁syndrome	-11.4265
rah	-11.4265
▁comfortable	-11.4266
▁dating	-11.4272
▁Hans	-11.4274
▁format	-11.4277
▁Solomon	-11.428
▁2:	-11.428
▁Gun	-11.428
▁keeps	-11.4283
una	-11.4286
▁moral	-11.4287
▁cousin	-11.4288
▁AI	-11.4288
▁charges	-11.429
▁Bolivia	-11.4291
▁Fi	-11.43
▁đoan	-11.4303
rian	-11.4303
▁Ger	-11.4306
▁stream	-11.4307
▁covering	-11.4307
▁Cro	-11.4309
▁gender	-11.4309
air	-11.4309
▁Tunisia	-11.4314
▁journalist	-11.432
▁document	-11.4321
▁Thuyền	-11.4322
▁quarter	-11.4325
▁Rosa	-11.4325
▁nerve	-11.4327
▁mổ	-11.4332
▁mến	-11.4332
▁answers	-11.4334
▁wealth	-11.4334
mal	-11.4335
▁wounded	-11.4335
▁Hell	-11.434
▁Finally	-11.4344
▁130	-11.4347
▁Upon	-11.4351
▁diet	-11.4353
▁fluid	-11.4354
▁creative	-11.4355
▁Hiệu	-11.4355
▁inner	-11.4356
▁pan	-11.4358
▁Wolf	-11.4358
▁LA	-11.4359
▁paying	-11.4359
▁1935	-11.4361
▁hadnt	-11.4361
▁rats	-11.4362
▁witness	-11.4363
▁steel	-11.4363
▁ớc	-11.4363
▁nốt	-11.4365
▁flu	-11.4367
▁teachers	-11.4369
▁theater	-11.4377
▁hước	-11.438
▁marine	-11.4382
▁remote	-11.4384
▁rau	-11.4385
▁hãm	-11.4388
▁loves	-11.4388
▁cook	-11.4389
▁Cruz	-11.4391
▁22,	-11.4391
▁ngụ	-11.4395
▁procedure	-11.4395
▁rung	-11.4401
▁seats	-11.4404
▁grade	-11.4405
nus	-11.4406
▁Nice	-11.4412
▁periods	-11.4412
▁Through	-11.4413
▁Trắng	-11.4413
▁Căn	-11.4413
▁Thuốc	-11.4413
▁Therefore	-11.4413
▁TO	-11.4414
▁Wood	-11.4417
▁PS	-11.4417
▁coat	-11.4418
▁Missouri	-11.4421
▁blame	-11.4424
▁demonstrated	-11.4424
▁Zi	-11.4424
uda	-11.4426
star	-11.4428
▁nưa	-11.4431
▁Want	-11.4432
▁gotten	-11.4433
▁Khá	-11.4434
fin	-11.4435
▁moi	-11.4435
olo	-11.4436
▁Trinidad	-11.4438
▁kiềm	-11.4439
▁67	-11.4444
▁Ter	-11.4445
▁absence	-11.4446
▁immune	-11.4446
▁Les	-11.4447
▁Arabia	-11.4448
▁Lang	-11.445
▁1957	-11.4461
▁views	-11.4463
▁brown	-11.4463
▁attend	-11.4465
▁tambon	-11.4471
ben	-11.4473
▁180	-11.4474
▁2,000	-11.4479
▁romantic	-11.4479
▁fool	-11.4482
AR	-11.4482
CC	-11.4485
▁formally	-11.4489
▁guilty	-11.4489
▁Sản	-11.4491
▁dì	-11.4494
▁injury	-11.4496
▁Nguồn	-11.4496
▁Samuel	-11.4496
▁toà	-11.4499
▁rejected	-11.4499
▁Carter	-11.45
▁lasted	-11.4501
cher	-11.4505
▁Sol	-11.4505
▁Nathan	-11.4505
ọ	-11.4507
▁Studio	-11.4513
▁Nicholas	-11.4513
▁Islamic	-11.4514
▁networks	-11.4514
▁debuted	-11.4517
vers	-11.4519
▁cắm	-11.4521
▁insurance	-11.4521
▁dội	-11.4521
▁chiên	-11.4524
▁union	-11.4525
▁Agent	-11.4525
ò	-11.4525
lus	-11.4527
▁introduce	-11.4532
▁landed	-11.4539
▁Antonio	-11.4544
▁destruction	-11.4546
▁indigenous	-11.4546
▁Mori	-11.455
down	-11.4554
sz	-11.4555
▁sét	-11.4557
gun	-11.456
▁kilometers	-11.4563
▁Vợ	-11.4564
▁concentrations	-11.4564
▁connect	-11.4569
nu	-11.4573
▁Ball	-11.4574
aya	-11.4577
▁smile	-11.4581
▁1914	-11.4582
▁broad	-11.4583
▁mathematical	-11.4585
▁Taka	-11.4585
▁ả	-11.4589
▁1988,	-11.4589
▁ấu	-11.4591
▁poet	-11.4592
▁movements	-11.4593
▁trials	-11.4597
room	-11.4598
▁Stay	-11.4598
▁Tre	-11.46
▁Dead	-11.4601
▁chua	-11.4602
▁wondering	-11.4603
▁somehow	-11.4606
▁carriers	-11.4608
▁phenomenon	-11.4614
▁Kazakhstan	-11.4614
eri	-11.4615
▁Trust	-11.4616
▁synthesis	-11.4617
▁popularity	-11.4617
▁defend	-11.4618
▁cry	-11.462
▁hosted	-11.462
▁IBM	-11.462
▁Salvador	-11.4622
▁Metro	-11.4622
▁98	-11.4625
▁warning	-11.4629
▁involving	-11.4631
▁Ivan	-11.4631
▁somewhat	-11.4632
▁trading	-11.4634
▁Hat	-11.4634
▁chemistry	-11.4635
▁hệt	-11.4637
▁debt	-11.4638
▁Things	-11.4639
▁suspect	-11.4641
▁liberal	-11.4648
▁nominated	-11.4649
▁engineer	-11.4651
▁roll	-11.4661
ix	-11.4661
▁Lào	-11.4663
▁stages	-11.4665
▁dioxide	-11.4665
▁sensitive	-11.4666
▁1929	-11.4666
▁Too	-11.4667
more	-11.4668
▁reputation	-11.4681
▁nhục	-11.4682
▁Kyoto	-11.4682
ết	-11.4682
▁surrender	-11.4684
nis	-11.4684
▁Tay	-11.4684
▁upset	-11.4687
▁Dai	-11.4688
▁Mang	-11.4688
NG	-11.469
▁Management	-11.469
▁Standard	-11.4691
▁quyên	-11.4691
▁xoáy	-11.4691
▁Didnt	-11.4692
▁joining	-11.4695
▁Belarus	-11.4696
▁Mag	-11.4698
▁Roosevelt	-11.4699
▁xướng	-11.4699
▁soldier	-11.47
▁140	-11.47
▁lê	-11.4703
win	-11.4703
▁Cole	-11.4704
▁SA	-11.4704
par	-11.4704
▁nhạt	-11.4707
▁schedule	-11.471
▁Libya	-11.4713
▁mainland	-11.4714
tti	-11.4714
ole	-11.4714
pped	-11.4716
▁chọc	-11.4716
▁Cairo	-11.4716
▁begun	-11.4717
▁exposed	-11.4717
ids	-11.4719
nica	-11.4723
amide	-11.4723
▁Universe	-11.4724
▁Cambodia	-11.4726
▁1908	-11.4728
▁faced	-11.4731
dra	-11.4733
▁print	-11.4734
▁1939,	-11.4735
▁ồn	-11.4735
ao	-11.4736
▁humanity	-11.4741
▁Matthew	-11.4742
▁bottle	-11.4743
▁lit	-11.4746
▁tribes	-11.4746
osa	-11.4748
▁tanks	-11.475
▁appointment	-11.4751
▁Dream	-11.4752
▁1907	-11.4752
▁vice	-11.476
▁disappeared	-11.4763
cap	-11.4767
▁Convention	-11.4769
▁friendly	-11.4769
▁Perry	-11.4769
▁Had	-11.477
ob	-11.4773
▁researchers	-11.4773
ties	-11.4773
▁heo	-11.4775
▁Lebanon	-11.4776
▁chuông	-11.4776
adi	-11.4778
▁personnel	-11.4778
▁Hand	-11.478
▁Affairs	-11.478
▁immediate	-11.4781
▁sodium	-11.4782
▁Madagascar	-11.4784
▁Peninsula	-11.4784
▁Cameron	-11.4784
▁Auto	-11.4787
▁súc	-11.4794
▁neighborhood	-11.4794
une	-11.4797
▁apparent	-11.4798
AT	-11.4799
▁Bond	-11.4801
▁lifetime	-11.481
▁Ze	-11.4814
GA	-11.4816
▁males	-11.4818
▁Thấy	-11.4819
▁belief	-11.4819
én	-11.4819
▁1996.	-11.4819
rit	-11.4823
▁Within	-11.4824
▁đệm	-11.4826
▁tỏa	-11.4827
▁Magic	-11.4827
▁principles	-11.4827
▁involves	-11.4828
▁Eddie	-11.4828
▁committee	-11.4829
▁competed	-11.4833
▁gang	-11.4835
▁burned	-11.4835
▁programming	-11.4836
▁Ag	-11.4837
▁Ras	-11.4838
▁contest	-11.4844
▁valuable	-11.4844
▁cheese	-11.4845
▁coal	-11.4846
▁attached	-11.4846
▁sleeping	-11.4847
▁customer	-11.4856
▁brings	-11.4858
▁Honey	-11.4863
▁Shan	-11.4865
▁Opera	-11.4866
▁bands	-11.4868
mes	-11.4868
▁representative	-11.4872
▁Hor	-11.4876
▁indicated	-11.4877
▁kẹt	-11.488
▁Enterprise	-11.4881
▁Cây	-11.4882
uro	-11.4884
nk	-11.4885
ges	-11.4887
inch	-11.4887
▁Trăng	-11.4888
▁vector	-11.489
ếm	-11.4894
▁ván	-11.4895
▁Virgin	-11.4896
hen	-11.4897
ging	-11.4898
▁citys	-11.4899
▁ôm	-11.4901
▁Wang	-11.4905
▁usual	-11.4906
ue	-11.4906
▁targets	-11.4908
uz	-11.4912
▁cacbon	-11.4914
▁belongs	-11.4915
▁falls	-11.4915
▁1928	-11.4916
ual	-11.4916
▁Hold	-11.4922
▁personality	-11.4926
▁Cl	-11.4928
ét	-11.4928
met	-11.4928
mont	-11.493
▁paint	-11.4933
4.	-11.4939
▁Margaret	-11.494
▁Ukrainian	-11.494
ado	-11.4941
▁Ye	-11.4944
▁Shah	-11.4945
▁rarely	-11.4948
AM	-11.4948
▁fishing	-11.4949
set	-11.4952
rt	-11.4959
▁root	-11.496
ova	-11.4965
ets	-11.4966
▁nu	-11.4967
▁sharing	-11.4971
▁1995.	-11.4977
▁chiết	-11.4978
▁Lam	-11.4978
▁decreased	-11.4981
▁xoắn	-11.4984
▁Harold	-11.4984
▁rising	-11.4986
▁obtain	-11.4988
ele	-11.4988
▁1919	-11.4991
▁options	-11.4992
▁ordinary	-11.4993
▁Chuẩn	-11.4993
▁burning	-11.4993
hắc	-11.4996
mas	-11.4998
▁hiếp	-11.5001
▁vessels	-11.5003
▁nén	-11.5007
▁funeral	-11.501
▁Board	-11.5012
▁neuro	-11.5013
▁Philippine	-11.5013
▁forming	-11.5015
▁articles	-11.5015
▁dê	-11.5015
▁Ty	-11.5016
▁Gri	-11.5017
▁wars	-11.5018
▁Thử	-11.5019
▁1906	-11.5022
▁describes	-11.5023
▁Tanzania	-11.5028
▁consumption	-11.5028
▁poverty	-11.5028
▁speakers	-11.5032
▁smooth	-11.5037
MA	-11.5037
▁1987,	-11.5037
▁Cuban	-11.5045
ING	-11.5045
▁communicate	-11.5045
▁Hunter	-11.5046
▁Yemen	-11.5046
▁quyến	-11.5046
▁invented	-11.5048
▁composition	-11.5048
▁hoài	-11.5048
▁xá	-11.5051
▁Family	-11.5054
▁constellation	-11.5054
▁Nhiệm	-11.5054
▁ướt	-11.5054
▁Illinois	-11.5054
▁Vòng	-11.5055
▁destroyer	-11.506
▁collaboration	-11.5063
▁duties	-11.5064
▁88	-11.5065
lit	-11.5065
gs	-11.5067
▁xé	-11.5069
▁injured	-11.5072
▁1994.	-11.5073
▁ngột	-11.5078
▁Đỏ	-11.5081
▁detected	-11.5086
▁Ann	-11.5087
RI	-11.5087
▁crossed	-11.5089
▁flash	-11.509
▁Cy	-11.509
IN	-11.5091
▁Malta	-11.5093
yr	-11.5095
▁Americas	-11.5098
▁brains	-11.5098
▁arriving	-11.5098
▁101	-11.5099
▁tím	-11.5099
▁homes	-11.5101
▁Area	-11.5103
▁artificial	-11.5104
▁parent	-11.5108
▁survey	-11.5113
▁Augustus	-11.5115
▁vội	-11.5117
▁longterm	-11.5117
▁selection	-11.5117
▁69	-11.5118
▁beer	-11.5122
Ma	-11.5122
▁Phản	-11.5125
▁Mat	-11.513
hem	-11.5133
▁rỗng	-11.5134
▁emerged	-11.5137
▁owe	-11.514
▁sôi	-11.5141
▁hits	-11.5142
▁Munich	-11.5143
▁pool	-11.5148
▁frame	-11.5151
▁excuse	-11.5153
anh	-11.5153
▁fled	-11.5154
▁Qatar	-11.5154
▁Linh	-11.5155
lum	-11.5157
▁colors	-11.5157
▁Kang	-11.5158
▁lũy	-11.5159
▁Tụi	-11.5161
▁Kho	-11.5161
▁incorporated	-11.5163
▁convoy	-11.5164
▁talent	-11.5166
▁linear	-11.5169
▁Muhammad	-11.517
▁khoang	-11.517
ear	-11.5172
▁plot	-11.5173
▁delivery	-11.5175
▁fiction	-11.5177
ute	-11.5182
▁Hindu	-11.5183
▁tape	-11.5186
▁sport	-11.5187
▁Toronto	-11.5188
▁admitted	-11.5188
▁lãi	-11.5188
▁đúc	-11.5188
▁1909	-11.519
▁medal	-11.519
▁Sports	-11.5191
▁happiness	-11.5196
▁Prior	-11.52
▁density	-11.52
IS	-11.5201
ense	-11.5203
▁Atlanta	-11.5205
▁personally	-11.5206
▁Fine	-11.5208
box	-11.5211
▁regime	-11.5212
▁sentence	-11.5214
▁Giới	-11.5214
▁wouldve	-11.5217
▁Blood	-11.5219
▁minimum	-11.5223
▁Char	-11.5223
▁lụt	-11.5224
▁hill	-11.5224
▁bể	-11.5225
▁contributed	-11.5227
▁quit	-11.5229
chan	-11.523
▁lùn	-11.5231
▁produces	-11.5232
▁Meanwhile	-11.5232
▁insulin	-11.5232
▁nhì	-11.5233
tine	-11.5233
▁processing	-11.5234
▁celebrate	-11.5235
oni	-11.5237
▁cure	-11.5242
▁mans	-11.5245
▁scheduled	-11.5247
▁Uruguay	-11.5248
▁choices	-11.5249
▁comparison	-11.5251
▁binding	-11.5251
▁160	-11.5251
▁mix	-11.5252
▁Dĩ	-11.5252
▁Daily	-11.5254
▁Clinton	-11.526
▁Cooper	-11.5261
water	-11.5263
▁Emma	-11.5263
▁visitors	-11.5265
tom	-11.5267
▁designs	-11.5267
▁universities	-11.5268
over	-11.5269
▁Myanmar	-11.5269
▁Christopher	-11.527
▁lord	-11.527
▁finance	-11.5272
▁representing	-11.5273
▁parliament	-11.5277
▁Cleopatra	-11.5277
▁Defense	-11.5277
▁flew	-11.5278
▁Child	-11.528
▁collapse	-11.5281
▁Estonia	-11.5281
▁xám	-11.5282
▁vary	-11.5283
▁currency	-11.5286
▁Sarawak	-11.5286
▁Scottish	-11.5287
▁Madonna	-11.5295
▁Mississippi	-11.5295
▁entrance	-11.5295
▁1992.	-11.5296
▁poetry	-11.5296
▁rooms	-11.5297
▁dust	-11.53
▁random	-11.5301
▁affairs	-11.5302
▁Ara	-11.5305
▁methyl	-11.5309
ire	-11.5312
▁Tiêu	-11.5314
243;	-11.5314
▁Bỏ	-11.5316
▁chronic	-11.5317
▁scenes	-11.5318
▁mixture	-11.5323
▁gối	-11.5323
khoảnh	-11.5324
▁gel	-11.5326
▁historic	-11.5329
▁adding	-11.5329
▁TH	-11.5333
▁angle	-11.5339
ito	-11.534
▁chư	-11.5342
▁trùm	-11.5342
▁generated	-11.5345
▁flows	-11.5346
▁Field	-11.5347
▁Denmark	-11.535
▁depth	-11.5352
▁Trade	-11.5352
▁hunt	-11.5359
▁đuối	-11.5359
▁bếp	-11.536
▁engage	-11.536
▁Rằng	-11.536
▁considerable	-11.5361
ien	-11.5362
▁champion	-11.5364
tum	-11.5364
▁latest	-11.5365
vert	-11.5366
▁bọ	-11.5366
▁stomach	-11.5368
▁Thầy	-11.5368
▁forgot	-11.5369
ude	-11.537
▁nôn	-11.5373
▁Luis	-11.5374
ration	-11.5378
▁bổng	-11.5379
▁membrane	-11.5382
row	-11.5383
▁deserve	-11.5386
▁Gra	-11.5386
▁confused	-11.5387
▁Mobile	-11.5388
▁cent	-11.5391
bs	-11.5394
▁Sp	-11.5394
eng	-11.5394
▁Nhớ	-11.5396
ui	-11.54
free	-11.5402
▁Chen	-11.5403
▁Tham	-11.5405
▁Dylan	-11.5405
▁Hope	-11.5406
▁Temple	-11.5406
▁Shu	-11.5407
far	-11.5408
mura	-11.5413
▁Theatre	-11.5414
▁replacement	-11.5416
▁ya	-11.5417
▁Gabriel	-11.5417
▁MiG	-11.5417
lay	-11.5418
Buổi	-11.5418
▁Vai	-11.5419
▁Khả	-11.5419
▁Governorate	-11.5424
▁1901	-11.5425
dor	-11.5426
▁functional	-11.5428
▁Au	-11.5431
▁infrastructure	-11.5432
▁Wilhelm	-11.5432
▁armies	-11.5433
▁phiêu	-11.5433
▁patrol	-11.5437
ín	-11.5438
col	-11.5439
▁Warner	-11.544
▁nghiêng	-11.5444
▁trigger	-11.5444
yang	-11.5444
uch	-11.5447
▁Yet	-11.5448
▁Southeast	-11.545
▁Swift	-11.545
▁twelve	-11.545
▁mầm	-11.5452
▁Find	-11.5453
▁10.000	-11.5453
heim	-11.5458
▁Leyte	-11.546
▁seed	-11.5463
▁sees	-11.5464
▁Dam	-11.5465
▁Non	-11.5466
▁founding	-11.5466
93	-11.5466
▁Agency	-11.5469
ates	-11.5471
thcentury	-11.5473
▁mayor	-11.5473
▁entertainment	-11.5478
yi	-11.5479
ức	-11.5479
▁Tuyến	-11.548
gra	-11.5483
▁Com	-11.5485
▁regret	-11.5487
▁Chờ	-11.5491
nce	-11.5492
▁math	-11.5493
▁bullet	-11.5493
▁farmers	-11.5495
▁column	-11.5497
▁Finland	-11.5497
▁accompanied	-11.55
▁Angel	-11.5501
rich	-11.5501
▁practical	-11.5502
AC	-11.5507
▁Tinh	-11.5508
▁escaped	-11.551
▁domain	-11.551
ug	-11.5511
▁sudden	-11.5511
▁strategic	-11.5515
▁requirements	-11.5515
▁entitled	-11.5515
▁breeding	-11.5516
▁abuse	-11.5517
sar	-11.5519
isation	-11.5524
▁hụt	-11.5525
▁crowd	-11.5526
zan	-11.5527
▁1912	-11.5535
▁convinced	-11.5538
▁nhị	-11.5542
TA	-11.5543
▁24,	-11.5544
▁harder	-11.5545
▁tight	-11.5547
▁alliance	-11.5549
▁purchased	-11.555
▁Raymond	-11.5552
▁guide	-11.5553
▁Ms	-11.5554
▁sô	-11.5554
▁magnetic	-11.5556
▁extinct	-11.556
▁AIDS	-11.5561
▁Ever	-11.5565
▁Economic	-11.5567
▁Zu	-11.5568
▁hưng	-11.5569
▁Jun	-11.5569
▁Cher	-11.557
▁Around	-11.5572
▁Bio	-11.5572
▁clip	-11.5573
chen	-11.5573
ique	-11.5573
▁mice	-11.5574
▁ruler	-11.5575
ings	-11.5577
▁entering	-11.5577
▁Moskva	-11.558
▁Universal	-11.558
▁Wil	-11.5581
▁Alexandria	-11.5582
▁2020	-11.5582
▁76	-11.5583
▁princess	-11.5584
org	-11.5585
▁Sciences	-11.5588
▁anniversary	-11.5589
▁Đoàn	-11.5589
▁ladies	-11.559
SE	-11.559
▁SP	-11.5592
▁cameras	-11.5592
▁briefly	-11.5594
▁fund	-11.5597
▁Melbourne	-11.5599
▁tráng	-11.5599
▁lúa	-11.56
▁festival	-11.5605
▁repair	-11.5608
▁roads	-11.5608
▁underground	-11.5609
▁ham	-11.561
▁hố	-11.5612
▁transmission	-11.5617
▁Ap	-11.5618
ille	-11.562
ym	-11.5621
ular	-11.5625
work	-11.5628
▁78	-11.5628
▁recommended	-11.5631
gram	-11.5631
▁thiêng	-11.5632
▁mate	-11.5637
▁Caroline	-11.5638
▁bond	-11.5638
▁Harrison	-11.5639
▁continuous	-11.5642
ải	-11.5643
nos	-11.5645
uli	-11.565
▁females	-11.5651
low	-11.5651
▁1,5	-11.5654
▁theories	-11.5659
▁Nhất	-11.5664
oo	-11.5666
▁consisted	-11.5667
pen	-11.5671
nit	-11.5674
▁Lily	-11.5674
▁Silver	-11.5674
▁tumor	-11.5678
▁Coi	-11.5678
▁Bro	-11.568
▁bách	-11.568
▁identical	-11.5683
onic	-11.5683
▁controls	-11.5688
▁earthquake	-11.5688
xa	-11.5689
PS	-11.5692
CH	-11.5692
▁Natural	-11.5692
▁tall	-11.5693
▁thoughts	-11.5697
▁Gary	-11.5699
kar	-11.5699
▁Mont	-11.5701
chy	-11.5702
▁vạch	-11.5702
▁phiến	-11.5703
▁Woman	-11.5703
▁fail	-11.5707
▁te	-11.571
▁kiêm	-11.5712
stein	-11.5713
▁drawing	-11.5716
eta	-11.5723
▁joke	-11.5724
▁planes	-11.5726
▁Pol	-11.5727
mel	-11.5729
▁extraordinary	-11.573
▁Thân	-11.573
llo	-11.573
▁heading	-11.5732
▁installed	-11.5732
▁khiết	-11.5733
ds	-11.5736
ava	-11.5739
▁Anthony	-11.5739
▁kẹo	-11.5739
▁ngắm	-11.5739
▁Quý	-11.574
▁bơm	-11.5742
▁1904	-11.5744
nate	-11.5744
▁estate	-11.5748
▁dates	-11.5748
▁jazz	-11.5749
▁exception	-11.5749
▁vòm	-11.575
▁flower	-11.5751
▁Guam	-11.5754
▁brave	-11.5758
▁disc	-11.5758
▁Jake	-11.5758
▁sh	-11.5761
▁Whos	-11.5764
▁profit	-11.5764
ments	-11.5767
▁charged	-11.5768
▁Welcome	-11.5768
▁receptor	-11.5768
▁aim	-11.5768
▁argued	-11.5773
tur	-11.5774
▁laugh	-11.5774
▁outer	-11.5776
▁memories	-11.5777
▁Russell	-11.5777
▁Thung	-11.5778
▁Năng	-11.5779
▁Food	-11.5779
▁UTC	-11.5779
▁pages	-11.5782
▁visa	-11.5783
▁notably	-11.5784
▁scientist	-11.5785
▁illness	-11.5785
▁Tiger	-11.5786
▁nhiễu	-11.5787
▁facing	-11.5793
▁babies	-11.5797
▁Really	-11.5798
▁bones	-11.5798
▁tip	-11.5798
▁translated	-11.5798
▁pageant	-11.58
ET	-11.5802
▁perfectly	-11.5807
▁explore	-11.5807
▁divisions	-11.581
kha	-11.5811
▁Baker	-11.5813
▁Kate	-11.5813
▁1993.	-11.5815
▁Namibia	-11.5815
▁bô	-11.5815
▁nghiệt	-11.5816
▁exit	-11.5816
▁duệ	-11.5817
cz	-11.5821
▁drunk	-11.5824
▁traveled	-11.5825
▁semi	-11.5826
RA	-11.5827
▁minus	-11.5828
inus	-11.5831
dal	-11.5831
aga	-11.5832
▁acids	-11.5832
▁prototype	-11.5833
its	-11.5833
▁1.000	-11.5833
▁Borneo	-11.5835
▁Guy	-11.5837
▁tựu	-11.5839
▁fake	-11.5841
▁expedition	-11.5842
▁representation	-11.5844
▁serum	-11.5845
▁protecting	-11.5847
▁challenges	-11.5847
▁cúp	-11.5848
▁Crown	-11.5853
ides	-11.5853
▁bỏng	-11.5854
▁Giang	-11.5855
▁cattle	-11.5855
▁lovely	-11.5856
▁1903	-11.5857
▁bả	-11.5857
▁Mus	-11.5858
▁Yang	-11.5858
▁ngộ	-11.5858
▁centers	-11.5861
▁cooperation	-11.5863
▁magnitude	-11.5863
▁mouse	-11.5864
methyl	-11.5868
▁Tạng	-11.5869
lor	-11.5871
▁proposal	-11.5871
▁recovery	-11.5876
▁86	-11.5879
style	-11.5879
▁Kin	-11.588
▁1980.	-11.5881
▁talks	-11.5882
▁Explorer	-11.5882
▁Die	-11.5885
▁Adams	-11.5887
▁rỉ	-11.5887
▁Manuel	-11.5887
▁signals	-11.5888
ever	-11.5888
▁conduct	-11.5888
▁paintings	-11.5893
▁limits	-11.5896
ust	-11.5896
▁chest	-11.5897
fra	-11.5898
ema	-11.5899
▁Susan	-11.5901
▁express	-11.5902
▁uniform	-11.5902
▁natri	-11.5902
ago	-11.5904
▁error	-11.5906
oh	-11.5908
▁App	-11.5909
▁Wii	-11.5911
▁consequences	-11.5913
▁shame	-11.5914
▁flights	-11.5916
▁percentage	-11.5917
▁cave	-11.5917
▁28,	-11.5918
bol	-11.5919
▁stability	-11.5921
▁Ros	-11.5922
▁cake	-11.5926
▁1930,	-11.5931
▁Queens	-11.5933
▁pretend	-11.5933
▁thin	-11.5933
▁Canal	-11.5933
▁Marc	-11.5933
▁finger	-11.5933
▁Mur	-11.5933
▁Giữa	-11.5934
itis	-11.5935
ế	-11.5939
▁literary	-11.594
▁Grammy	-11.594
▁shopping	-11.594
▁stole	-11.5942
onia	-11.5943
▁Leon	-11.5946
▁Kon	-11.5947
▁monster	-11.5947
92	-11.595
▁Place	-11.5952
▁Wi	-11.5952
▁1870	-11.5953
225;	-11.5954
▁violent	-11.5956
▁vâng	-11.5957
▁báu	-11.5958
▁Bureau	-11.596
▁theatre	-11.596
▁nguyền	-11.5961
▁Slovakia	-11.5964
▁26,	-11.5968
▁Nixon	-11.5969
▁Tokugawa	-11.5969
ld	-11.5971
▁Poly	-11.5972
ati	-11.5973
▁chì	-11.5974
▁pet	-11.5975
zh	-11.5978
▁imp	-11.5978
▁Seattle	-11.5979
▁naturally	-11.598
▁Solar	-11.5982
▁Sy	-11.5986
át	-11.5986
▁photos	-11.5986
▁1860	-11.5987
▁Kuwait	-11.5988
▁matrix	-11.5989
▁Viên	-11.5989
▁occasionally	-11.599
bro	-11.5992
eth	-11.5995
▁coup	-11.5995
▁chairman	-11.5997
▁Talk	-11.5998
▁residence	-11.5998
▁fever	-11.5999
▁xưng	-11.5999
idine	-11.6005
▁Julia	-11.6006
▁tứ	-11.6007
▁bìa	-11.6011
▁clo	-11.6012
▁mirror	-11.6013
▁Zero	-11.6014
▁strip	-11.6016
▁1974,	-11.6016
▁grandmother	-11.6017
▁vần	-11.6018
▁xấp	-11.6018
▁aged	-11.6019
▁Rob	-11.602
▁channels	-11.6021
▁1983,	-11.6024
gre	-11.6025
▁Bảng	-11.6027
▁Voivodeship	-11.6027
▁Delhi	-11.6028
▁Islam	-11.603
▁Đồ	-11.6032
▁Sai	-11.6033
▁3:	-11.6034
▁1936	-11.6034
▁guards	-11.6035
▁temporary	-11.6037
▁Qa	-11.6039
ote	-11.6039
▁colonial	-11.6042
▁bon	-11.6044
▁phím	-11.6045
▁argument	-11.6046
▁Viết	-11.6047
CA	-11.6048
ụ	-11.6049
▁arranged	-11.6049
▁pound	-11.6053
▁hàn	-11.6067
▁01	-11.6075
▁disaster	-11.6076
▁Benjamin	-11.6076
▁Library	-11.6076
▁Magazine	-11.6076
▁bathroom	-11.6076
▁toilet	-11.6078
related	-11.6081
▁2.5	-11.6081
▁Design	-11.6083
▁đc	-11.6084
▁miện	-11.6085
▁Aaron	-11.6086
▁khốn	-11.6087
▁sừng	-11.6087
▁Cur	-11.6091
▁expand	-11.6092
OH	-11.6093
▁mìn	-11.6093
▁Gre	-11.6093
point	-11.6094
La	-11.6094
▁translation	-11.6095
▁diagnosis	-11.6095
▁interface	-11.6096
▁Movie	-11.6098
▁Mah	-11.6099
▁predict	-11.61
▁bong	-11.6104
▁Ky	-11.6105
▁Angola	-11.6106
▁discover	-11.6107
▁heir	-11.611
▁tủy	-11.6111
▁variant	-11.6113
▁load	-11.6115
▁Nhạc	-11.6115
▁đầm	-11.6116
gor	-11.6118
▁neutral	-11.6118
▁recovered	-11.612
▁phones	-11.6123
▁battles	-11.6125
▁commission	-11.6126
mor	-11.6127
▁360	-11.6129
▁colour	-11.6134
▁reducing	-11.6135
try	-11.6135
▁84	-11.6136
mate	-11.6138
▁crimes	-11.6138
▁25,	-11.6144
▁Chó	-11.6145
▁Jupiter	-11.6145
▁gate	-11.6145
lle	-11.6146
chin	-11.6146
▁diplomatic	-11.615
▁mechanical	-11.6151
vel	-11.6153
▁Jeff	-11.6154
▁cược	-11.6155
AN	-11.6156
▁log	-11.6159
▁Bahrain	-11.6164
▁Mercury	-11.6164
▁restored	-11.6168
▁900	-11.617
ule	-11.617
▁Mis	-11.6172
▁Cold	-11.6173
▁Cameroon	-11.6173
▁3,000	-11.6173
sol	-11.6173
▁SO	-11.6174
▁adapted	-11.618
▁1902	-11.6182
umi	-11.6182
▁Reserve	-11.6185
▁xà	-11.6186
▁1880	-11.6188
amp	-11.619
▁Number	-11.6194
▁kép	-11.6195
▁MI	-11.6195
▁EC	-11.6195
nor	-11.6196
▁rât	-11.6196
▁Jay	-11.62
▁Ac	-11.62
▁dare	-11.6202
▁Detective	-11.6204
▁barely	-11.6205
▁Kane	-11.6205
pon	-11.6207
▁youngest	-11.6207
type	-11.6207
▁Lower	-11.621
▁repeat	-11.6211
▁publication	-11.6211
▁proton	-11.6213
▁Shanghai	-11.6214
▁dominant	-11.6214
▁accused	-11.6215
tron	-11.6219
▁Looks	-11.6219
▁nụ	-11.622
▁editor	-11.6223
▁vu	-11.6225
avi	-11.6225
▁Store	-11.6225
▁Sil	-11.6227
▁Algeria	-11.6233
▁1982,	-11.6235
▁offices	-11.6241
▁pig	-11.6242
▁superior	-11.6243
▁bull	-11.6244
shima	-11.6245
▁alien	-11.6246
▁Sure	-11.6246
▁đòn	-11.6247
▁draft	-11.6248
ido	-11.6248
▁twin	-11.6249
▁fossil	-11.6253
▁iPhone	-11.6254
ech	-11.6255
ả	-11.6256
700	-11.6256
uta	-11.6257
mir	-11.6257
▁bướm	-11.6263
sson	-11.6264
▁accurate	-11.627
mine	-11.6271
tive	-11.6273
▁execution	-11.6273
▁Slav	-11.6274
▁Lẽ	-11.6274
▁Wheres	-11.6278
▁breakfast	-11.6284
▁Data	-11.6285
▁Code	-11.6285
▁Kelly	-11.6286
als	-11.6289
▁taxes	-11.6289
aries	-11.629
▁sharp	-11.629
▁AC	-11.6293
▁râu	-11.6296
▁returns	-11.6297
ios	-11.6301
▁cáp	-11.6302
▁73	-11.6302
▁plenty	-11.6303
▁Hungarian	-11.6303
oy	-11.6304
▁Fuji	-11.6304
▁Youd	-11.6305
▁á	-11.6307
▁branches	-11.6308
▁crossing	-11.6311
▁Phía	-11.6315
▁1911	-11.6315
▁objective	-11.6316
▁dirty	-11.6316
SC	-11.6316
ến	-11.632
hwa	-11.6322
▁driver	-11.6322
▁interior	-11.6323
▁nhũng	-11.6328
▁Stan	-11.6329
▁1973,	-11.6332
▁breeds	-11.6334
▁Palm	-11.6336
▁fu	-11.6337
▁thưc	-11.6337
▁Mountain	-11.6341
▁Pictures	-11.6347
▁grave	-11.6348
▁designation	-11.6348
▁settle	-11.6348
▁absolute	-11.635
▁ad	-11.635
▁Garden	-11.6351
▁Pri	-11.6353
▁grab	-11.6354
▁bệ	-11.6356
▁trá	-11.6356
▁ST	-11.6357
▁27,	-11.6361
state	-11.6368
▁Pho	-11.6371
▁SM	-11.6373
▁bother	-11.6374
▁mốc	-11.6376
▁PA	-11.6376
▁Santo	-11.6377
▁tied	-11.6377
▁Together	-11.6384
▁Bobby	-11.6385
▁designer	-11.6387
ên	-11.6389
▁1984,	-11.6391
▁mar	-11.6391
▁longest	-11.6393
▁intellectual	-11.6394
▁Beatles	-11.6394
▁enzymes	-11.6395
▁Queensland	-11.6395
▁nowhere	-11.6395
▁writers	-11.6397
▁Sức	-11.6398
▁bến	-11.6399
ett	-11.64
▁letting	-11.64
▁description	-11.6403
▁Unless	-11.6405
▁Vệ	-11.6408
int	-11.6413
▁necessarily	-11.6414
▁Rights	-11.6414
▁dịu	-11.6417
▁convince	-11.6419
▁transformation	-11.6419
▁bồn	-11.6421
▁treasure	-11.6424
▁triệt	-11.6424
▁earn	-11.6427
▁aired	-11.6428
▁consumer	-11.6431
▁funding	-11.6433
▁Hang	-11.6433
ây	-11.6434
▁Ngược	-11.6434
▁hardware	-11.6435
▁chéo	-11.6435
▁cap	-11.6435
▁vé	-11.6438
▁efficient	-11.6438
American	-11.6439
▁relation	-11.6439
▁Officer	-11.6442
▁Tennessee	-11.6444
▁đính	-11.6445
▁23,	-11.6446
▁Khách	-11.6447
▁Voice	-11.6448
▁Binh	-11.6449
▁ôn	-11.645
▁plate	-11.6453
▁losses	-11.6453
MP	-11.6454
▁Bóng	-11.6455
▁Anything	-11.6455
▁Mario	-11.6455
▁transform	-11.6457
▁clients	-11.6458
▁Again	-11.6465
▁Nelson	-11.6465
▁Pokémon	-11.6465
level	-11.6465
▁Hank	-11.6466
▁Bee	-11.6469
oi	-11.6473
nar	-11.6474
▁Doug	-11.6474
▁exciting	-11.6475
▁intense	-11.6475
▁exercises	-11.6476
▁votes	-11.6476
▁secretary	-11.6477
shin	-11.6477
▁mini	-11.6481
▁tơ	-11.6481
▁Maya	-11.6482
tôi	-11.6483
▁1965,	-11.6484
LA	-11.6486
▁rough	-11.6494
▁excellent	-11.6495
▁beating	-11.6496
▁Osaka	-11.6496
▁Mối	-11.6497
RE	-11.6497
▁variation	-11.6498
▁Children	-11.6498
▁Siêu	-11.6506
▁plain	-11.651
uni	-11.651
▁1949,	-11.6513
▁Sch	-11.6513
▁lowest	-11.6514
▁atoms	-11.6515
▁arch	-11.6516
▁Gọi	-11.6516
▁laboratory	-11.6516
▁dán	-11.6516
▁Carol	-11.6516
▁colony	-11.6519
hal	-11.6523
via	-11.6524
▁Pla	-11.6525
▁chloride	-11.6525
▁Commonwealth	-11.6526
▁fortune	-11.6526
▁colleagues	-11.6527
▁bow	-11.6528
▁Chúc	-11.6529
▁nhát	-11.6529
▁observations	-11.6529
▁MC	-11.6533
▁Hebrew	-11.6536
▁boundary	-11.6537
▁Gro	-11.6537
▁tetra	-11.6537
▁Mở	-11.6538
▁wet	-11.6541
fish	-11.6544
▁Janeiro	-11.6547
▁Tưởng	-11.6547
▁Br	-11.6548
▁undergo	-11.6548
▁encourage	-11.6551
rac	-11.6552
eau	-11.6553
▁charts	-11.6556
▁Article	-11.6557
▁dancing	-11.6557
▁medication	-11.6559
oka	-11.6561
▁min	-11.6563
▁rộn	-11.657
▁Lou	-11.6572
▁ought	-11.6574
▁fairly	-11.6574
▁Potter	-11.6578
▁1922	-11.6582
▁stem	-11.6582
▁dâng	-11.6582
▁retain	-11.6585
▁81	-11.6588
bor	-11.6588
▁1.2	-11.6589
▁Edo	-11.659
▁confidence	-11.659
▁thính	-11.6591
▁1991.	-11.6593
▁phô	-11.6593
▁Horse	-11.6593
NA	-11.6593
▁Information	-11.6598
▁Nancy	-11.6599
▁transportation	-11.66
wer	-11.6604
ple	-11.6605
▁Jerry	-11.6609
osis	-11.6609
▁ruling	-11.6609
ory	-11.6613
▁Note	-11.6614
▁arrive	-11.6616
▁strikes	-11.6617
▁Fair	-11.6617
▁Isaac	-11.6619
▁gói	-11.6619
▁PDF	-11.662
800	-11.662
▁bóp	-11.6621
▁hanging	-11.6621
CT	-11.6623
▁89	-11.6623
▁buồng	-11.6639
▁Đánh	-11.6639
▁slide	-11.6641
ali	-11.6641
▁belt	-11.6643
▁Sim	-11.6643
AL	-11.6645
not	-11.6645
▁cụt	-11.6645
▁sacrifice	-11.6647
▁argue	-11.6647
▁relief	-11.665
ious	-11.665
▁clothing	-11.6654
moto	-11.6656
▁quật	-11.666
▁Biên	-11.6661
▁đấm	-11.6661
▁voted	-11.6663
▁Helen	-11.6664
AP	-11.667
▁Nicaragua	-11.667
▁Phoebe	-11.667
▁Chỗ	-11.6671
▁Youth	-11.6671
▁Venus	-11.6672
▁competitive	-11.6673
▁logo	-11.6674
▁destroyers	-11.6675
▁Guardian	-11.6675
ography	-11.6675
▁Khí	-11.6675
▁tie	-11.6676
▁Fred	-11.6678
▁institution	-11.6679
▁000	-11.668
▁Imagine	-11.6681
▁enormous	-11.6681
bert	-11.6682
▁Ghi	-11.6682
▁duyên	-11.6683
▁Cre	-11.6684
▁AM	-11.6685
▁Pete	-11.6686
▁Kiến	-11.6688
▁biology	-11.669
▁toxic	-11.6691
▁váy	-11.6692
▁82	-11.6695
▁74	-11.6695
▁Carey	-11.6696
▁bu	-11.6697
▁Championships	-11.6701
▁Buddhist	-11.6701
▁Small	-11.6702
▁Page	-11.6703
▁originated	-11.6704
right	-11.6704
▁Wo	-11.6704
▁conclusion	-11.6705
ope	-11.6712
▁arc	-11.6713
▁venture	-11.6714
▁preparation	-11.6715
▁pyramid	-11.6716
▁Naga	-11.6722
▁hypothesis	-11.6722
gna	-11.6723
▁extension	-11.6726
▁substance	-11.6726
▁administered	-11.6726
▁5,000	-11.6728
▁critics	-11.6728
uf	-11.6729
▁Grande	-11.6731
▁deputy	-11.6733
▁1969,	-11.6736
▁landscape	-11.6737
▁Harris	-11.6741
▁Hậu	-11.6743
▁Wright	-11.6744
ES	-11.6748
ore	-11.6749
hour	-11.675
▁scan	-11.6752
▁Bat	-11.6755
▁1896	-11.6756
▁ears	-11.6759
▁practices	-11.6759
▁radical	-11.676
▁gamma	-11.6762
▁Ancient	-11.6764
▁Monday	-11.6764
▁Mali	-11.6765
▁gravity	-11.6767
▁1905	-11.6771
▁Sean	-11.6771
▁Zone	-11.6773
▁1968,	-11.6773
▁vợt	-11.6773
▁UFO	-11.6775
vy	-11.6778
▁reverse	-11.6779
ware	-11.6779
▁slave	-11.6779
▁minds	-11.6784
▁socalled	-11.6785
▁tiễn	-11.6785
▁Bernard	-11.6788
▁select	-11.6789
▁explanation	-11.6789
▁Ny	-11.6789
▁Babylon	-11.679
▁1944.	-11.679
▁properly	-11.6792
sti	-11.6794
quin	-11.6795
▁Paraguay	-11.6796
▁gởi	-11.6796
▁Uncle	-11.6796
▁engagement	-11.6799
▁survivors	-11.6799
▁1960.	-11.68
▁frequent	-11.6802
▁lăn	-11.6805
▁Constantinople	-11.6806
▁abroad	-11.6806
▁acute	-11.6806
▁suitable	-11.6807
▁buying	-11.6808
▁1898	-11.6809
▁lift	-11.6812
▁Bengal	-11.6812
▁pot	-11.6813
▁loyal	-11.6816
▁shirt	-11.6817
▁đậm	-11.6817
ái	-11.6818
▁Mộc	-11.6818
▁injection	-11.6818
5,000	-11.6819
▁pursue	-11.6822
▁Nevada	-11.6827
▁Somebody	-11.6828
▁tongue	-11.6828
▁dependent	-11.683
▁Titan	-11.6832
▁define	-11.6837
▁winds	-11.6837
▁knife	-11.6838
▁conservation	-11.6838
▁attracted	-11.6842
▁variable	-11.6842
▁Short	-11.6844
▁connections	-11.6846
▁DA	-11.6846
▁Minnesota	-11.6848
▁naked	-11.6848
▁lyrics	-11.6849
▁Romans	-11.6851
▁Masa	-11.6852
▁Vin	-11.6854
▁Barbara	-11.6859
▁Lieutenant	-11.6861
▁Flight	-11.6862
lé	-11.6863
▁steam	-11.6864
rr	-11.6865
▁virtual	-11.6866
▁Giai	-11.6869
▁Trân	-11.687
▁anger	-11.6872
MS	-11.6872
▁wound	-11.6872
▁disorder	-11.6874
rine	-11.6875
wing	-11.6877
▁celebrated	-11.6877
▁soái	-11.6877
▁Yak	-11.6879
▁Linda	-11.688
▁ngô	-11.688
▁Vatican	-11.688
▁cabinet	-11.6882
▁robots	-11.6884
▁habitat	-11.6884
▁Medical	-11.6885
▁transit	-11.6886
▁Ob	-11.6888
▁Administration	-11.6891
▁Neo	-11.6892
▁nhàng	-11.6893
▁regularly	-11.69
▁bloody	-11.6901
▁hít	-11.6902
▁legend	-11.6906
▁Por	-11.6908
▁unlike	-11.691
▁pregnancy	-11.6912
▁quantum	-11.6912
▁Fantasy	-11.6912
▁merged	-11.6914
▁signing	-11.6914
▁likes	-11.6918
▁offensive	-11.6923
▁Argentine	-11.6923
lip	-11.6923
▁Fan	-11.6923
▁fed	-11.6925
▁golf	-11.6925
rm	-11.6926
▁Nguyễn	-11.6933
▁chay	-11.6934
Ch	-11.6936
▁đà	-11.6938
▁Qui	-11.6941
▁Low	-11.6943
▁driven	-11.6943
▁opportunities	-11.6944
▁Tuyên	-11.6947
zar	-11.6947
▁Ker	-11.6948
▁Hard	-11.6953
▁martial	-11.6954
▁nano	-11.6955
▁gạo	-11.6955
▁cute	-11.6957
▁Near	-11.6959
▁cluster	-11.696
cell	-11.6961
▁Mega	-11.6963
iga	-11.6963
▁Abraham	-11.6965
▁Nature	-11.6967
▁IT	-11.6971
êu	-11.6971
▁discussion	-11.6971
▁71	-11.6971
▁negotiations	-11.6976
▁starred	-11.6977
▁Daddy	-11.6977
▁Count	-11.6978
▁situations	-11.6979
▁explosion	-11.6981
▁1800	-11.6986
▁theyd	-11.6986
▁2.0	-11.6987
▁fee	-11.6989
▁1971,	-11.6991
cr	-11.6996
▁Belgian	-11.6997
aj	-11.7
▁deeply	-11.7001
▁Bin	-11.7005
▁Mill	-11.7006
▁1978,	-11.7007
tana	-11.7007
▁Orleans	-11.7008
▁shelter	-11.7008
▁Siberia	-11.701
▁operational	-11.701
▁nãy	-11.701
▁enjoyed	-11.7011
▁missile	-11.7013
▁Knight	-11.7018
▁Otto	-11.7025
▁Justin	-11.7025
▁terminal	-11.7025
▁novels	-11.7031
▁Sách	-11.7031
▁bid	-11.7031
▁database	-11.7032
▁actors	-11.7034
▁87	-11.7034
▁revenue	-11.7035
ert	-11.7036
▁VIII	-11.7039
▁generations	-11.7039
7871;	-11.704
▁thầu	-11.7041
▁differently	-11.7042
ough	-11.7042
▁conservative	-11.7042
▁Bí	-11.7043
▁shell	-11.7044
das	-11.7047
▁creatures	-11.7047
ij	-11.7048
▁civilian	-11.7048
▁Az	-11.705
▁euro	-11.7051
table	-11.7052
▁Der	-11.7054
▁beings	-11.7054
▁shore	-11.7056
▁interact	-11.7056
▁Jam	-11.7059
▁Sicily	-11.7062
▁relevant	-11.7062
▁Viễn	-11.7062
▁Country	-11.7063
▁reward	-11.7063
▁protest	-11.7065
▁Total	-11.7066
▁Mir	-11.7067
▁cats	-11.7068
gg	-11.7068
▁couples	-11.7069
▁Kansas	-11.7073
▁Television	-11.7073
▁characterized	-11.7076
▁findings	-11.7076
▁meetings	-11.7079
▁scholars	-11.7081
▁Italia	-11.7082
py	-11.7083
▁Diễn	-11.7084
rea	-11.7084
5,	-11.7089
Th	-11.709
▁conventional	-11.7091
▁mon	-11.7091
▁messages	-11.7091
▁declined	-11.7091
▁portal	-11.7094
▁đạc	-11.7097
▁corresponding	-11.7098
▁Quang	-11.7098
gas	-11.7098
ở	-11.7099
▁refugees	-11.7101
▁2019,	-11.7103
▁Es	-11.7104
▁dish	-11.7105
▁lót	-11.7106
▁Much	-11.711
▁meal	-11.7114
▁incredibly	-11.7116
▁forgotten	-11.7116
▁bấy	-11.7117
▁Chí	-11.7119
▁molecule	-11.712
▁experts	-11.7121
▁ghost	-11.7122
▁Đĩa	-11.7127
▁2019.	-11.7127
▁Marvel	-11.7127
▁1,2	-11.713
stro	-11.713
vir	-11.7131
iki	-11.7132
▁mask	-11.7134
▁1946,	-11.7135
▁Huy	-11.7135
AS	-11.7136
▁97	-11.7136
cast	-11.7136
▁dies	-11.7137
▁spiritual	-11.7138
TS	-11.7141
▁grant	-11.7142
▁raid	-11.7143
▁Guard	-11.7148
▁fewer	-11.7148
▁influential	-11.7149
▁Hannah	-11.7149
▁Boys	-11.7149
▁Lâm	-11.715
▁Cook	-11.715
▁Bring	-11.715
▁Leave	-11.7152
▁ngục	-11.7154
▁afterwards	-11.7155
uka	-11.7155
▁bàng	-11.7158
▁surviving	-11.716
▁YOU	-11.7167
▁guests	-11.7167
▁battery	-11.717
▁Computer	-11.717
▁pizza	-11.717
▁Somalia	-11.7171
▁Upper	-11.7172
▁alarm	-11.7177
▁innovation	-11.7177
▁rear	-11.7177
▁collective	-11.7178
▁nàn	-11.7179
▁Language	-11.7181
▁diversity	-11.7181
▁throat	-11.7181
▁Trưởng	-11.7181
▁Julius	-11.7181
▁thât	-11.7182
▁emotions	-11.7186
▁expert	-11.7187
▁q	-11.7187
▁Azerbaijan	-11.7188
▁Trần	-11.7192
▁dynamic	-11.7193
▁Tâm	-11.7194
6,	-11.7195
▁Liga	-11.7196
▁1942.	-11.7196
▁Tur	-11.7197
ớ	-11.7198
▁láng	-11.7198
▁Deep	-11.7198
▁Ce	-11.7199
ean	-11.7201
▁Tomorrow	-11.7203
▁hypo	-11.7203
▁wash	-11.7206
old	-11.7206
▁fe	-11.7208
▁1962,	-11.7209
▁universal	-11.721
▁Shaw	-11.7211
▁Liban	-11.7212
▁moments	-11.7213
▁xơ	-11.7213
▁thự	-11.7214
▁Alliance	-11.7214
▁FDA	-11.7216
▁stake	-11.7217
▁performances	-11.7217
▁interactions	-11.7218
▁kills	-11.7218
iko	-11.7218
▁guarantee	-11.722
▁idiot	-11.7221
▁constantly	-11.7222
cept	-11.7223
ste	-11.7223
ically	-11.7224
▁Núi	-11.7225
ess	-11.7229
▁breast	-11.7232
▁DJ	-11.7233
▁tơi	-11.7234
▁ABC	-11.7234
▁Excuse	-11.7236
▁Norwegian	-11.7236
▁consecutive	-11.7236
▁kilômét	-11.7236
▁distant	-11.7236
▁Nokia	-11.7237
▁Gã	-11.7238
▁Julian	-11.7238
▁Mao	-11.7241
▁bath	-11.7241
hor	-11.7243
▁None	-11.7243
ising	-11.7246
▁Studies	-11.7247
ạp	-11.7247
▁Additionally	-11.7248
▁Wat	-11.7249
bia	-11.725
▁AFC	-11.7252
▁coli	-11.7253
▁conversion	-11.7255
els	-11.726
▁1956,	-11.726
▁1920,	-11.7266
▁Wei	-11.7267
▁Market	-11.7268
▁approval	-11.7269
ston	-11.727
▁candidates	-11.727
ines	-11.7271
▁Senator	-11.7271
▁ki	-11.7272
▁Rama	-11.7273
BA	-11.7275
▁Wild	-11.7275
▁console	-11.7277
▁XX	-11.7277
elli	-11.7278
▁29,	-11.7279
▁stolen	-11.7279
PP	-11.7279
▁breathing	-11.728
▁Brooklyn	-11.728
▁diameter	-11.728
▁Clo	-11.7283
▁demo	-11.7284
▁rely	-11.7286
▁eaten	-11.7287
▁keys	-11.7287
▁tribe	-11.7289
▁partly	-11.7289
▁societies	-11.7291
▁Nhiệt	-11.7291
▁Murray	-11.7291
▁spacecraft	-11.7291
▁sole	-11.7292
▁clinic	-11.7295
▁hardly	-11.7296
owski	-11.7297
▁Dựa	-11.7297
▁poison	-11.7298
▁Yêu	-11.7303
▁Start	-11.7303
cut	-11.7306
▁hoi	-11.7307
▁Gaul	-11.7308
▁nurse	-11.7309
▁mining	-11.7311
▁boundaries	-11.7313
▁Band	-11.7318
▁Rad	-11.732
Đ	-11.732
▁usage	-11.7321
gate	-11.7321
▁Moore	-11.7321
▁Soul	-11.7324
▁ju	-11.7324
▁phơi	-11.7324
▁suối	-11.7325
▁Đấy	-11.7327
list	-11.7327
▁fingers	-11.7329
▁holiday	-11.7332
▁cavalry	-11.7335
▁Use	-11.7336
▁Chun	-11.7336
▁Pascal	-11.7342
▁Pink	-11.7344
▁rebellion	-11.7346
▁educational	-11.7347
▁Along	-11.7352
▁chamber	-11.7354
▁vital	-11.7355
nas	-11.7356
▁behalf	-11.7358
▁Except	-11.7358
gia	-11.7359
▁Greenland	-11.7361
▁khac	-11.7363
▁Yan	-11.7364
▁hip	-11.7364
▁instruments	-11.7368
▁Hiro	-11.7368
▁Heritage	-11.7369
▁mail	-11.7373
matic	-11.7378
▁Mind	-11.738
▁organs	-11.738
▁controversial	-11.738
▁Harvey	-11.738
▁elsewhere	-11.738
▁Khối	-11.738
▁Petersburg	-11.738
▁criticism	-11.738
gle	-11.7383
▁investigated	-11.7385
▁observation	-11.7388
▁khoai	-11.7391
ture	-11.7391
▁Thập	-11.7391
▁vứt	-11.7391
▁recognised	-11.7393
▁camps	-11.7398
▁tre	-11.7401
▁secrets	-11.7401
▁Deputy	-11.7402
▁Trẻ	-11.7402
▁MO	-11.7403
▁rational	-11.7404
▁graduate	-11.7405
most	-11.7405
▁partial	-11.7406
▁Tang	-11.7407
▁Kiev	-11.7409
▁succeed	-11.7411
▁Bhutan	-11.7413
▁calendar	-11.7413
▁defence	-11.7413
▁Reagan	-11.7414
DP	-11.7415
▁cach	-11.7419
▁Jose	-11.7419
▁session	-11.7422
▁dozen	-11.7423
▁Ari	-11.7423
▁Arctic	-11.7426
▁restricted	-11.7427
▁everyday	-11.7428
▁Gregory	-11.7429
▁20,000	-11.7431
▁Nông	-11.7431
▁carefully	-11.7432
▁Ontario	-11.7436
▁industries	-11.7436
▁Capital	-11.7436
▁Limited	-11.7437
▁Georg	-11.7438
▁chổi	-11.7439
▁Đo	-11.7443
▁appeal	-11.7445
▁Micro	-11.7445
▁detailed	-11.7445
bed	-11.7445
▁Kit	-11.7446
▁closing	-11.7447
▁loud	-11.7448
▁tourist	-11.7449
▁Séc	-11.7451
▁viewed	-11.7452
▁comfort	-11.7457
▁Community	-11.7458
▁sufficient	-11.7466
▁roots	-11.7467
▁swim	-11.7467
▁Hamilton	-11.7467
▁92	-11.7468
▁printing	-11.7468
▁cooking	-11.7468
▁couldve	-11.747
▁Brothers	-11.7473
▁Building	-11.7474
▁79	-11.7476
▁vessel	-11.7478
▁Lisa	-11.7478
▁bombs	-11.7482
▁diverse	-11.7483
▁egg	-11.7484
rn	-11.7485
sei	-11.7486
▁93	-11.7486
▁Late	-11.7488
▁lô	-11.7489
▁adaptation	-11.749
vu	-11.7492
▁mile	-11.7492
▁luân	-11.7492
aku	-11.7496
▁Mos	-11.7497
▁encouraged	-11.7498
▁finishing	-11.7501
▁creates	-11.7501
▁nhã	-11.7503
▁corporate	-11.7503
▁ongoing	-11.7503
▁nhât	-11.7504
▁khao	-11.7504
▁Hills	-11.7508
▁dại	-11.7508
▁rival	-11.7512
RP	-11.7513
▁mood	-11.7515
▁outcome	-11.7516
hn	-11.7517
iba	-11.7517
ulation	-11.7522
▁Help	-11.7523
▁submarine	-11.7523
rim	-11.7524
▁kề	-11.7524
▁grounds	-11.7526
▁tasks	-11.7527
▁partially	-11.7529
▁desk	-11.753
▁Maryland	-11.753
▁Đề	-11.7534
▁Bun	-11.7536
▁Jessica	-11.7537
▁remarkable	-11.7537
▁Having	-11.7538
▁traveling	-11.754
cio	-11.7541
▁statue	-11.7546
▁Ts	-11.7548
▁skull	-11.7548
▁swimming	-11.7549
▁tràng	-11.7552
ax	-11.7554
▁Mĩ	-11.7555
▁ka	-11.7557
lio	-11.7558
▁Mid	-11.7559
▁animation	-11.756
▁index	-11.756
▁folks	-11.7561
▁Larry	-11.7562
ất	-11.7562
▁divide	-11.7564
▁wings	-11.7564
▁Know	-11.7566
▁comedy	-11.7568
▁Fo	-11.7576
log	-11.7583
▁Freedom	-11.7583
▁Mạng	-11.7583
▁Pur	-11.7584
▁Parker	-11.7584
▁Bru	-11.7586
▁Eun	-11.7587
▁Rain	-11.7588
▁1977,	-11.759
▁sequel	-11.7594
▁Kiểm	-11.7594
▁1889	-11.7596
gus	-11.7599
▁mechanisms	-11.76
▁golden	-11.76
xe	-11.7602
▁pray	-11.7604
FA	-11.7604
▁Brunei	-11.7605
▁MS	-11.7606
▁dressed	-11.7606
▁lesson	-11.7608
▁indicates	-11.7609
▁Kent	-11.7609
▁1989.	-11.761
▁Cer	-11.7613
▁allies	-11.7615
▁confirm	-11.7617
▁reflect	-11.7619
▁cutting	-11.7619
▁1899	-11.762
▁clorua	-11.7621
▁Village	-11.7622
▁Hanoi	-11.7623
▁communications	-11.7626
▁characteristic	-11.7626
horn	-11.7626
▁Naples	-11.7628
▁trap	-11.7628
▁playoff	-11.7629
▁Planet	-11.7633
▁artistic	-11.7637
▁stating	-11.764
▁involvement	-11.764
▁rễ	-11.7641
pes	-11.7642
▁Nor	-11.7644
rel	-11.7645
▁Nhanh	-11.7645
▁exile	-11.7646
▁Bán	-11.7647
chu	-11.7649
▁Henri	-11.7649
▁Mil	-11.765
▁derivative	-11.7652
▁Indonesian	-11.7655
▁detect	-11.7656
▁invite	-11.7658
▁ke	-11.766
▁notion	-11.766
▁chiêu	-11.7665
▁poll	-11.7668
▁Spring	-11.7668
▁substantial	-11.767
mos	-11.7671
▁LGBT	-11.7674
▁Review	-11.7674
▁Thor	-11.7674
▁prey	-11.7676
▁searching	-11.7677
SO	-11.7682
▁Work	-11.7683
▁prisoner	-11.7684
Ba	-11.7684
▁chớ	-11.7684
▁Tsu	-11.7684
▁Sahara	-11.7686
▁summit	-11.7688
▁reviews	-11.769
iana	-11.7691
▁khe	-11.7691
▁trail	-11.7692
▁gather	-11.7692
▁extend	-11.7693
unt	-11.7694
▁adapt	-11.7694
▁Masters	-11.7694
▁closest	-11.7696
▁Mak	-11.7696
ID	-11.7696
▁Movement	-11.7698
▁Ngựa	-11.7698
▁Martha	-11.7698
▁Zambia	-11.7699
▁wins	-11.7702
▁gross	-11.7702
lot	-11.7704
▁marks	-11.7705
anda	-11.7705
▁bombing	-11.7711
▁nang	-11.7712
sie	-11.7714
▁doors	-11.7715
▁demands	-11.7715
▁Turner	-11.7716
▁Kam	-11.7716
▁consistent	-11.7716
▁bồ	-11.7718
mark	-11.7718
▁Tuyệt	-11.7721
▁Chase	-11.7721
▁nights	-11.7721
▁bell	-11.7723
▁350	-11.7724
▁AU	-11.7725
▁seeking	-11.7728
ias	-11.7729
▁Marshal	-11.7729
▁inspiration	-11.7731
▁Friedrich	-11.7731
▁siege	-11.7731
▁Reg	-11.7732
▁Danish	-11.7733
▁breathe	-11.7734
▁Malay	-11.7737
▁Fund	-11.7738
▁Steven	-11.7741
RC	-11.7741
▁amin	-11.7741
▁orange	-11.7745
▁Mae	-11.7746
▁participants	-11.7746
▁1963,	-11.7747
▁Môi	-11.7747
▁banned	-11.7747
▁Brother	-11.7751
▁export	-11.7753
▁agencies	-11.7754
▁suýt	-11.7755
▁Tyler	-11.7755
▁sương	-11.7756
▁hungry	-11.7756
▁1958,	-11.7763
▁huỳnh	-11.7766
▁qualified	-11.7766
▁communist	-11.7768
ía	-11.7769
▁ID	-11.777
▁MIT	-11.7771
▁odd	-11.7773
▁Austrian	-11.7774
▁hook	-11.7774
sus	-11.7775
wo	-11.7777
foot	-11.7777
▁Being	-11.7778
▁powder	-11.7778
▁withdrew	-11.7778
▁Squadron	-11.7778
▁Rey	-11.778
▁eliminated	-11.7782
▁audio	-11.7783
▁crap	-11.7783
▁seventh	-11.7785
itz	-11.7785
▁Lev	-11.7786
play	-11.7788
ect	-11.7788
▁pe	-11.7789
▁brilliant	-11.7789
▁pollution	-11.7789
hood	-11.7791
lim	-11.7792
▁badly	-11.7792
▁Phố	-11.7793
▁Laura	-11.7794
▁custom	-11.7795
duct	-11.7795
▁ok	-11.7795
▁cơm	-11.78
▁continuing	-11.7801
▁rail	-11.7803
burn	-11.7804
sel	-11.7804
▁friendship	-11.7804
▁1850	-11.7805
▁heaven	-11.7808
▁civilization	-11.7813
▁Obama	-11.7813
▁Sung	-11.7813
load	-11.7814
▁fo	-11.7814
▁intention	-11.782
shu	-11.782
▁joy	-11.7821
EA	-11.7821
phi	-11.7821
▁newspapers	-11.7824
▁Happy	-11.7824
▁nhở	-11.7825
▁drew	-11.7825
▁Ladies	-11.7825
6.	-11.7828
▁seeds	-11.7829
▁whenever	-11.7831
▁retained	-11.7831
▁xen	-11.7832
▁believes	-11.7832
▁amongst	-11.7834
▁rent	-11.7835
▁housing	-11.7836
▁lau	-11.7837
▁suspended	-11.7837
▁shower	-11.7838
ugh	-11.7838
▁stored	-11.7842
ý	-11.7844
▁Change	-11.7844
▁routes	-11.7845
▁epi	-11.7845
▁Wal	-11.7845
ree	-11.7845
▁Hung	-11.7847
▁giọt	-11.7847
▁Flash	-11.7849
▁trend	-11.785
▁lầy	-11.785
▁lánh	-11.7851
▁estimate	-11.7853
▁Dun	-11.7855
▁Earl	-11.7855
▁Màu	-11.7856
▁resource	-11.7857
▁crying	-11.7858
▁activist	-11.7859
▁folk	-11.7862
▁170	-11.7862
▁Must	-11.7863
▁potentially	-11.7863
▁hospitals	-11.7864
▁involve	-11.7864
▁championship	-11.7871
▁curious	-11.7871
▁Ultra	-11.7871
▁divorce	-11.7877
▁1890	-11.7877
▁meta	-11.7878
▁adjacent	-11.7883
eno	-11.7883
▁Stanford	-11.7883
▁impression	-11.7884
▁darkness	-11.7885
▁bleeding	-11.7886
▁economics	-11.7887
bri	-11.7887
read	-11.7889
▁fallen	-11.7889
▁architect	-11.7894
▁mysterious	-11.7894
▁hurry	-11.7894
▁Nàng	-11.7895
▁rệt	-11.7895
BC	-11.7896
▁1966,	-11.7898
shire	-11.7906
▁efficiency	-11.7908
lation	-11.7908
▁grid	-11.7909
▁1868	-11.7909
sion	-11.7911
lk	-11.7911
▁Sei	-11.7913
▁approaches	-11.7914
▁shadow	-11.7914
▁Plus	-11.7915
▁Nahiyah	-11.7918
▁inches	-11.7921
▁rải	-11.7921
▁aimed	-11.7921
▁CPU	-11.7921
▁repairs	-11.7921
pu	-11.7923
▁Beat	-11.7927
âu	-11.7934
▁RB	-11.7937
▁Eve	-11.7937
▁Dia	-11.7937
▁bite	-11.7938
▁Culture	-11.7941
▁continent	-11.7942
▁noble	-11.7943
▁1897	-11.7944
put	-11.7945
▁1895	-11.7945
▁doses	-11.7946
▁Karen	-11.795
▁TP	-11.795
▁1947,	-11.795
▁citizen	-11.7953
PO	-11.7953
▁Louisiana	-11.7954
▁nọ	-11.7954
▁đắp	-11.7954
▁devil	-11.7956
▁Sto	-11.7956
RO	-11.7957
▁peptide	-11.7957
▁Neu	-11.7958
▁Khán	-11.7962
▁masters	-11.7964
▁Trọng	-11.7965
▁silence	-11.7965
▁flesh	-11.7965
▁shares	-11.7965
brg	-11.7965
▁Lip	-11.7965
▁Rwanda	-11.7965
▁Watson	-11.7966
▁framework	-11.7966
til	-11.7966
▁Edition	-11.7966
▁Palmer	-11.7967
non	-11.7969
won	-11.7969
▁suggesting	-11.7973
dale	-11.7975
tain	-11.7981
▁CE	-11.7982
ode	-11.7982
ổ	-11.7984
▁depend	-11.7986
▁belonged	-11.7987
▁Nar	-11.7988
▁subspecies	-11.7989
spor	-11.7989
▁ranks	-11.7989
▁Gran	-11.7989
▁strict	-11.7999
▁ISO	-11.8
ền	-11.8
▁lận	-11.8001
▁Bla	-11.8001
▁khuất	-11.8005
▁điếm	-11.8006
▁Report	-11.8007
▁1970.	-11.8008
▁painted	-11.801
▁phosphate	-11.8011
▁giềng	-11.8012
▁tries	-11.8013
▁Program	-11.8017
▁Est	-11.8017
▁hoạ	-11.8022
▁reforms	-11.8022
oph	-11.8024
▁telephone	-11.8024
▁Furthermore	-11.8024
▁structural	-11.8024
shan	-11.8025
▁Gang	-11.8026
▁shouldve	-11.8034
▁Season	-11.8036
▁thầm	-11.8037
▁input	-11.8039
▁gap	-11.804
▁qui	-11.8041
▁rap	-11.8045
▁cheap	-11.8046
oe	-11.8047
▁Probably	-11.8048
▁Europa	-11.8049
▁83	-11.8051
▁interpretation	-11.8052
▁equipped	-11.8053
▁democratic	-11.8057
▁Express	-11.8058
▁medieval	-11.806
▁Staff	-11.8061
▁Ian	-11.8065
▁cruiser	-11.8065
▁aspect	-11.8067
eur	-11.8068
▁commissioned	-11.8068
▁trơn	-11.8068
▁Mission	-11.807
▁abilities	-11.8072
▁buddy	-11.8072
sil	-11.8072
anga	-11.8073
▁dập	-11.8073
▁retail	-11.8073
▁Turn	-11.8076
▁Rat	-11.8076
▁generate	-11.808
amino	-11.8082
ỏ	-11.8082
▁Pet	-11.8083
▁Ghost	-11.8084
▁Senior	-11.8084
▁Vancouver	-11.8084
▁spectrum	-11.8084
▁goodbye	-11.8084
dos	-11.8084
▁Bờ	-11.8084
▁simultaneously	-11.8085
▁Bạch	-11.8085
▁investigate	-11.809
▁Greater	-11.8093
▁tản	-11.8095
▁1948,	-11.8095
▁beneath	-11.8096
lines	-11.8097
▁Engineering	-11.8097
▁visiting	-11.8099
▁Marcel	-11.8099
▁Sk	-11.81
▁fighters	-11.8101
bur	-11.8103
▁crowned	-11.8105
SL	-11.8105
▁skill	-11.8106
yer	-11.8108
▁chuyền	-11.8108
▁lăm	-11.8109
IA	-11.811
▁oral	-11.811
▁poem	-11.811
▁IN	-11.811
▁vocal	-11.8113
▁vitro	-11.8114
▁photograph	-11.8115
▁Tôn	-11.8115
▁hoped	-11.8115
nen	-11.8116
▁Dor	-11.8118
▁1500	-11.8118
▁Base	-11.812
▁denied	-11.812
▁Stefan	-11.812
▁dỗ	-11.812
ill	-11.8121
▁mẻ	-11.8121
▁deployed	-11.8122
▁ties	-11.8124
Co	-11.8124
aka	-11.8125
▁links	-11.8126
▁contribute	-11.8127
▁trán	-11.8127
ops	-11.8129
▁rìa	-11.8132
▁tennis	-11.8132
▁Grey	-11.8133
▁improvement	-11.8134
▁1964,	-11.8135
rak	-11.8136
▁instrument	-11.8136
▁trừu	-11.8138
▁acted	-11.8141
dian	-11.8142
▁childrens	-11.8145
ằm	-11.8148
meter	-11.815
▁dominated	-11.8156
▁Stewart	-11.8156
▁northwestern	-11.8156
▁Lucy	-11.8158
▁neurons	-11.8159
NT	-11.816
▁Mama	-11.816
▁Chim	-11.8163
▁Unit	-11.8164
▁Edinburgh	-11.8168
▁Luxembourg	-11.8168
▁charity	-11.8168
▁intervention	-11.8169
▁bư	-11.817
▁bra	-11.817
▁campus	-11.817
▁tourism	-11.8171
lie	-11.8172
▁Sc	-11.8173
▁lists	-11.8176
▁ri	-11.8178
▁button	-11.8179
▁spell	-11.8179
ics	-11.8179
tim	-11.8179
▁mystery	-11.818
▁Energy	-11.8181
▁theorem	-11.8184
▁presentation	-11.8185
▁IP	-11.8186
▁gathered	-11.8186
▁thơm	-11.8187
▁campaigns	-11.8188
▁Unfortunately	-11.8192
▁Finch	-11.8192
▁coins	-11.8193
▁dở	-11.8193
▁tunnel	-11.8193
▁dated	-11.8196
▁1940.	-11.8196
ook	-11.8196
▁Gua	-11.8197
▁distinction	-11.8198
▁cur	-11.8198
▁recover	-11.8198
▁Woo	-11.8198
▁Leone	-11.8199
▁clouds	-11.82
▁Ptolemy	-11.8204
▁ngẩn	-11.8204
▁đắm	-11.8204
▁mild	-11.8204
▁pushed	-11.8204
▁trace	-11.8204
▁descent	-11.8205
▁Using	-11.8205
▁balls	-11.8208
mmer	-11.8208
▁ed	-11.8209
▁1.0	-11.8209
▁Kei	-11.8211
▁parks	-11.8211
▁miracle	-11.8216
▁Churchill	-11.8216
▁Weekly	-11.8219
▁Gan	-11.822
▁preserve	-11.8223
▁trapped	-11.8231
▁Dog	-11.8234
▁educated	-11.8235
▁Constantine	-11.8236
▁yield	-11.8236
▁ru	-11.8238
illo	-11.8239
num	-11.824
▁maintenance	-11.824
▁amateur	-11.824
▁nuốt	-11.824
▁craft	-11.8246
▁Days	-11.8246
▁Stra	-11.8246
▁rò	-11.8247
▁thy	-11.825
▁Mk	-11.8251
▁Local	-11.8257
▁compare	-11.826
▁organize	-11.8262
▁Sơ	-11.8264
▁Phoenix	-11.8265
▁IX	-11.8267
▁1885	-11.8269
▁1959,	-11.8269
ress	-11.827
▁thoả	-11.8273
▁freak	-11.8275
woo	-11.8276
▁vắc	-11.8277
▁Map	-11.8277
▁Ring	-11.8277
▁contributions	-11.8279
▁AR	-11.8281
▁occurring	-11.829
▁hosts	-11.8295
▁Sand	-11.8295
▁volumes	-11.8297
▁Ran	-11.8299
bot	-11.83
▁woods	-11.83
▁cán	-11.8301
▁Bishop	-11.8301
▁Calvin	-11.8302
▁Geneva	-11.8302
▁wise	-11.8304
Ta	-11.8304
▁xôi	-11.8307
▁TF	-11.8308
▁distinguished	-11.8308
▁routine	-11.831
8,	-11.8311
▁Vel	-11.8312
▁behaviour	-11.8313
▁pandemic	-11.8313
▁Terry	-11.8315
▁Sing	-11.8316
▁ah	-11.8317
▁commitment	-11.8317
▁remembered	-11.8318
▁march	-11.8318
▁Dec	-11.8319
part	-11.8319
▁programme	-11.8322
ego	-11.8322
▁boats	-11.8322
ois	-11.8324
elo	-11.8325
▁photon	-11.8325
In	-11.8329
▁string	-11.8329
▁Found	-11.8333
▁polymer	-11.8334
▁coin	-11.8335
▁sections	-11.8336
▁reaches	-11.8337
tru	-11.8338
stan	-11.8338
▁labour	-11.8339
enberg	-11.834
▁disappear	-11.8345
logy	-11.8347
ât	-11.8348
▁oxide	-11.8349
SP	-11.835
▁Alabama	-11.835
▁Istanbul	-11.835
▁Broadway	-11.835
▁WHO	-11.8351
▁Task	-11.8353
gawa	-11.8353
▁household	-11.8356
▁Face	-11.8357
▁lipid	-11.8359
▁4:	-11.836
sur	-11.836
▁Spears	-11.8361
▁Metropolitan	-11.8363
▁Territory	-11.8363
▁khuynh	-11.8363
▁colonies	-11.8363
▁riding	-11.8364
ị	-11.8366
▁bóc	-11.8368
▁champions	-11.8368
▁Ay	-11.8369
etti	-11.8371
▁Gin	-11.8373
lies	-11.8375
▁Tháp	-11.8375
ters	-11.8377
▁Nile	-11.8377
▁Doc	-11.8381
▁McC	-11.8381
tle	-11.8384
▁Xi	-11.8385
▁invention	-11.8387
tting	-11.8387
▁Biểu	-11.8388
▁estimates	-11.8388
▁punishment	-11.8389
▁Nền	-11.8389
▁Works	-11.839
âm	-11.839
▁Systems	-11.8391
▁traditionally	-11.8394
▁shots	-11.8396
▁100.000	-11.8398
▁Busan	-11.8402
▁copper	-11.8402
▁repeated	-11.8404
hun	-11.8405
▁apologize	-11.8406
▁Honor	-11.8408
▁fraction	-11.8408
▁Mini	-11.8412
▁Majesty	-11.8412
▁overseas	-11.8412
▁warfare	-11.8412
▁documentary	-11.8412
▁remainder	-11.8413
▁Wol	-11.8414
▁Kat	-11.8414
▁Mare	-11.8414
▁concentrated	-11.8415
▁algorithm	-11.8421
act	-11.8423
▁replacing	-11.8424
▁Miguel	-11.8424
▁vắcxin	-11.8424
▁regard	-11.8426
▁priest	-11.8427
atus	-11.8428
▁spaces	-11.8431
bach	-11.8432
▁curve	-11.8435
RT	-11.8436
▁ruồi	-11.8437
▁Cấu	-11.8439
▁1871	-11.8439
▁Timor	-11.844
▁EA	-11.8441
▁ME	-11.8448
▁expecting	-11.8449
▁Miến	-11.845
▁Better	-11.8451
▁merely	-11.8451
▁1888	-11.8453
▁examined	-11.8453
bis	-11.8453
▁Bus	-11.8454
▁lakes	-11.8457
▁printed	-11.8458
▁advertising	-11.8461
▁categories	-11.8461
▁1917	-11.8464
▁mistakes	-11.8465
▁Lão	-11.8466
▁bases	-11.8468
▁Beta	-11.847
▁Lie	-11.847
▁làn	-11.8472
▁Services	-11.8473
236;	-11.8474
▁Mul	-11.8475
▁Dùng	-11.8475
lem	-11.8475
▁minority	-11.8476
▁1952,	-11.8476
TC	-11.8477
▁tube	-11.8478
▁phrase	-11.8482
▁Greg	-11.8484
▁Carr	-11.8486
hab	-11.8487
▁detective	-11.8487
▁escorted	-11.8487
▁vầy	-11.8491
▁blast	-11.8491
▁premiered	-11.8492
▁Hmm	-11.8494
▁khiếu	-11.8495
ere	-11.8497
ante	-11.8497
▁surveillance	-11.8499
▁revolt	-11.8499
▁threw	-11.8499
▁Chân	-11.85
▁Need	-11.8501
▁favour	-11.8501
een	-11.8505
verse	-11.8509
MC	-11.851
▁Hudson	-11.8511
▁asleep	-11.8511
▁psychological	-11.8511
▁distinguish	-11.8512
▁tăm	-11.8513
▁integrated	-11.8513
▁ngọc	-11.8513
▁invaded	-11.8514
▁seal	-11.8515
▁Ul	-11.8518
oxy	-11.8519
iso	-11.8521
▁Gaga	-11.8522
stat	-11.8523
▁Aleppo	-11.8524
▁Mẫu	-11.8525
sum	-11.8525
▁attributed	-11.8525
ốt	-11.8525
▁Online	-11.8526
bon	-11.8528
thi	-11.8531
▁Direct	-11.8534
▁Ark	-11.8535
▁dramatic	-11.8537
▁manufactured	-11.854
▁environments	-11.8541
▁125	-11.8541
und	-11.8542
▁Wan	-11.8543
▁vả	-11.8547
▁laptop	-11.8549
ashi	-11.8549
▁partnership	-11.8553
nna	-11.8556
▁CT	-11.8559
▁Newfoundland	-11.8561
▁Đâu	-11.8561
▁94	-11.8562
▁engineers	-11.8564
▁measurements	-11.8567
▁loose	-11.8567
▁Bible	-11.8568
▁constitutional	-11.8571
▁Adolf	-11.8574
▁iOS	-11.8575
NS	-11.8576
▁trọn	-11.8578
ử	-11.8579
▁graph	-11.8579
▁reserves	-11.8579
▁chains	-11.858
▁Tele	-11.8581
▁instructions	-11.8581
ée	-11.8582
▁ADN	-11.8585
▁Amsterdam	-11.8586
▁revenge	-11.8586
▁chocolate	-11.8586
▁meets	-11.8587
▁Underwood	-11.8587
▁Luzon	-11.8587
lian	-11.8588
▁publishing	-11.859
▁bát	-11.8592
▁BA	-11.8592
▁cồn	-11.8597
▁climb	-11.8598
inae	-11.8599
▁nòng	-11.86
▁Maha	-11.8601
▁xả	-11.8601
▁Holmes	-11.8602
▁fur	-11.8604
▁Half	-11.8604
▁slaves	-11.8607
▁annually	-11.8609
▁trơ	-11.8609
▁maps	-11.861
có	-11.8612
ovich	-11.8614
▁Kirk	-11.8615
ake	-11.8615
▁Comp	-11.8615
▁2020.	-11.8616
ologist	-11.8617
av	-11.8619
▁particle	-11.8619
▁Minor	-11.8621
ctor	-11.8622
vol	-11.8627
▁rổ	-11.8627
▁helicopter	-11.8628
▁Intel	-11.8629
▁Wind	-11.8629
cor	-11.863
ened	-11.863
▁dude	-11.8632
ged	-11.8632
▁historians	-11.8632
▁considering	-11.8634
▁scar	-11.8635
7843;	-11.8637
▁Jonathan	-11.8637
▁Memorial	-11.8637
▁credited	-11.8638
▁affair	-11.864
▁Len	-11.8643
hee	-11.8644
▁wire	-11.8644
▁neighbors	-11.8648
gging	-11.8648
ces	-11.8649
▁Republican	-11.8649
▁1954,	-11.8649
▁Barney	-11.865
▁risks	-11.8652
▁Liu	-11.8653
▁relax	-11.8654
▁preserved	-11.8655
▁hop	-11.8662
▁FM	-11.8663
gel	-11.8663
▁pilots	-11.8664
▁polar	-11.8665
▁deeper	-11.8665
▁Medicine	-11.8665
press	-11.8668
gua	-11.8668
▁ancestors	-11.867
▁winners	-11.867
▁Gates	-11.8672
▁Gla	-11.8674
▁preferred	-11.8675
▁lấn	-11.8675
eda	-11.8676
▁bùn	-11.868
▁Than	-11.868
▁publicly	-11.8682
▁shoulder	-11.8683
▁Yuri	-11.8683
ốc	-11.8683
▁companys	-11.8687
pir	-11.8689
▁Off	-11.8689
▁implementation	-11.8691
▁Ninh	-11.8695
▁lied	-11.8696
▁3000	-11.8697
▁operates	-11.8697
core	-11.8697
ave	-11.8698
PD	-11.87
▁consciousness	-11.87
▁genome	-11.8701
▁hiên	-11.8701
▁91	-11.8701
▁Chester	-11.8702
▁Tel	-11.8702
▁50,000	-11.8704
▁varies	-11.8704
law	-11.8704
▁Giữ	-11.8707
▁SE	-11.8709
▁proportion	-11.871
▁Dallas	-11.8711
▁statistics	-11.8712
▁Executive	-11.8713
▁khuếch	-11.8713
▁Morocco	-11.8713
▁Jesse	-11.8714
▁Bước	-11.8715
▁asks	-11.8717
▁creature	-11.8717
lli	-11.8718
arch	-11.8718
▁courage	-11.8718
▁Mong	-11.8718
▁grows	-11.8719
pop	-11.872
▁Said	-11.8723
▁screw	-11.8725
▁ngặt	-11.8727
▁ranging	-11.8728
▁Russians	-11.8729
▁segment	-11.873
▁historian	-11.873
hua	-11.8732
▁intend	-11.8738
▁supplement	-11.8738
▁separation	-11.8739
▁ghen	-11.874
▁Fighter	-11.8741
▁resigned	-11.8742
▁ab	-11.8744
worth	-11.8747
▁neutron	-11.875
▁Shakespeare	-11.8751
▁Yale	-11.8751
▁disk	-11.8752
ttle	-11.8753
jan	-11.8754
▁bơ	-11.8755
band	-11.8757
▁jet	-11.8757
▁serial	-11.8759
kes	-11.876
▁stroke	-11.876
ars	-11.8762
▁fantastic	-11.8764
▁Thursday	-11.8764
▁informed	-11.8765
▁1893	-11.8766
▁silent	-11.8777
▁dam	-11.8777
▁gạt	-11.8777
▁wi	-11.8779
▁Hunt	-11.8788
▁rush	-11.8789
▁retirement	-11.879
▁diễu	-11.879
place	-11.8791
tern	-11.8792
▁Kid	-11.8793
▁traditions	-11.8796
bat	-11.8798
▁Oz	-11.8799
▁gathering	-11.8801
▁photographs	-11.8801
7845;	-11.8802
▁Heaven	-11.8802
▁luồng	-11.8803
▁tissues	-11.8803
▁Tech	-11.8804
▁Thompson	-11.8804
▁chày	-11.8806
tai	-11.8809
▁Bé	-11.8811
hydroxy	-11.8813
▁ob	-11.8814
▁TR	-11.8816
▁genius	-11.8817
▁Castro	-11.8819
▁implemented	-11.882
▁kidney	-11.8821
▁recall	-11.8822
▁difficulty	-11.8828
get	-11.8829
▁Lima	-11.8829
rell	-11.8829
▁ranges	-11.8831
omi	-11.8831
isa	-11.8832
▁corn	-11.8832
▁journal	-11.8833
uring	-11.8835
rina	-11.8839
▁đàng	-11.884
ér	-11.8841
▁Budapest	-11.8841
▁Tae	-11.8843
▁commanded	-11.8844
▁nitrogen	-11.8845
▁Luôn	-11.8846
▁NO	-11.8847
▁raw	-11.8847
dine	-11.8851
▁Visual	-11.8854
▁attractive	-11.8854
▁gear	-11.8855
▁dragon	-11.8861
▁precious	-11.8867
▁feeding	-11.887
▁Sat	-11.8872
▁hearts	-11.8873
▁Johann	-11.8874
cat	-11.8875
▁Franco	-11.8875
▁Sel	-11.8875
ved	-11.8878
US	-11.888
▁ja	-11.8882
AF	-11.8885
▁variations	-11.889
▁1943.	-11.889
▁Mach	-11.889
▁sacred	-11.8893
▁trội	-11.8893
▁Malawi	-11.8893
▁Đám	-11.8895
▁Storm	-11.8897
▁mature	-11.8897
▁delay	-11.8897
▁hence	-11.89
▁Ou	-11.8902
▁Save	-11.8903
▁soup	-11.8905
▁calcium	-11.8906
▁Creek	-11.8906
▁Lega	-11.8906
▁Tonight	-11.8906
▁producers	-11.8909
ches	-11.8916
▁Tara	-11.8916
▁Stein	-11.8916
▁treating	-11.8917
▁dump	-11.8918
▁Carthage	-11.8919
▁táng	-11.8919
▁Đặt	-11.8919
▁Pablo	-11.8919
▁niêm	-11.892
▁Rod	-11.892
▁Pot	-11.8926
▁predicted	-11.8927
▁xít	-11.8931
▁Latvia	-11.8931
▁respiratory	-11.8932
▁Aki	-11.8932
▁Forbes	-11.8933
▁Đợi	-11.8933
▁PM	-11.8935
Br	-11.8936
▁Won	-11.8936
▁Anime	-11.8938
▁facts	-11.894
▁Side	-11.894
▁soap	-11.894
nell	-11.8943
▁trân	-11.8945
▁Niger	-11.8946
▁Lá	-11.8947
oa	-11.8947
▁Originally	-11.8947
▁elevation	-11.8951
▁mines	-11.8955
▁Kur	-11.8956
▁Sếp	-11.8958
▁cạo	-11.8958
▁nương	-11.8959
▁Độc	-11.8959
▁gu	-11.8959
▁Box	-11.8959
▁Chairman	-11.896
▁105	-11.897
▁nhuộm	-11.8971
▁participation	-11.8971
▁vulnerable	-11.8971
▁uranium	-11.8971
▁Lập	-11.8972
▁presentday	-11.8972
▁đỗ	-11.8972
▁concepts	-11.8973
▁magazines	-11.8975
▁regulations	-11.8976
dri	-11.8976
▁exhibition	-11.8978
▁hăn	-11.8983
hin	-11.8984
▁giặt	-11.8984
▁Lượng	-11.8984
sley	-11.8986
▁IL	-11.8986
ffe	-11.8988
▁wheel	-11.8988
▁Rus	-11.8991
▁restore	-11.8995
▁Chuyển	-11.8997
▁infantry	-11.8997
▁Seth	-11.9
▁IC	-11.9001
▁payment	-11.9007
▁raising	-11.9009
▁probability	-11.901
▁duration	-11.9012
▁ages	-11.9014
▁hoạn	-11.9014
▁politicians	-11.9016
▁CBS	-11.9016
▁1830	-11.9016
SI	-11.902
▁đãi	-11.9021
▁phôi	-11.9021
▁Ask	-11.9023
▁Medal	-11.9027
▁tệp	-11.9029
▁behave	-11.903
▁resist	-11.9035
▁intelligent	-11.9036
▁upstairs	-11.9036
▁Lennon	-11.9036
▁ruin	-11.9038
▁bực	-11.9039
sign	-11.9039
▁thiếp	-11.9041
▁spare	-11.9048
▁Oman	-11.9053
bble	-11.9055
▁dialect	-11.9056
▁fa	-11.9059
bil	-11.9061
▁len	-11.9062
▁filming	-11.9062
▁completion	-11.9063
▁Jacques	-11.9063
▁crucial	-11.9063
▁Huân	-11.9063
▁Common	-11.9063
▁conquered	-11.9066
oku	-11.9067
▁Sex	-11.9071
tens	-11.9071
rry	-11.9074
▁prop	-11.9076
▁corruption	-11.9076
▁ports	-11.9077
▁criticized	-11.9077
ign	-11.908
▁lessons	-11.908
▁MB	-11.9081
▁reveal	-11.9082
uto	-11.9084
▁Fiji	-11.9087
▁atomic	-11.9088
▁Bosnia	-11.9091
▁inform	-11.9094
▁wealthy	-11.9096
▁Xê	-11.9097
ving	-11.9098
▁Fish	-11.9099
▁Word	-11.91
▁Twenty	-11.9102
▁aggressive	-11.9102
▁Industrial	-11.9103
▁chằm	-11.9105
▁torpedo	-11.9107
▁shake	-11.9108
▁Beth	-11.9108
▁proven	-11.9109
aro	-11.9113
esh	-11.9113
IP	-11.9114
EN	-11.9115
▁Saturn	-11.9116
▁Orange	-11.9117
▁1863	-11.9119
thy	-11.912
▁tourists	-11.912
▁lọ	-11.9123
▁supports	-11.9124
▁geo	-11.9128
▁Honduras	-11.9129
▁nhường	-11.9129
▁Always	-11.9129
▁displayed	-11.913
ern	-11.9131
▁Based	-11.9132
▁khoái	-11.9134
▁Khó	-11.9139
▁Oklahoma	-11.9142
cc	-11.9145
▁Hạt	-11.9145
▁Kay	-11.9145
▁GPS	-11.9147
▁2.000	-11.9148
▁arrangement	-11.915
▁vươn	-11.9154
▁Birmingham	-11.9155
▁Damascus	-11.9155
▁Ferdinand	-11.9155
▁thirty	-11.9155
▁Austin	-11.9155
▁Boris	-11.9158
▁Biến	-11.916
▁drove	-11.916
ăng	-11.9164
▁Action	-11.9164
▁Ei	-11.9166
stri	-11.9166
▁Chinas	-11.9167
▁peaceful	-11.9168
▁Capitol	-11.9169
▁Brad	-11.917
▁Whoa	-11.9173
▁bears	-11.9177
▁Helena	-11.9178
▁comment	-11.9179
than	-11.918
▁Kre	-11.918
▁landings	-11.9182
▁loyalty	-11.9182
▁Mất	-11.9184
▁1887	-11.9186
agi	-11.9186
hel	-11.9188
▁Met	-11.9189
▁composer	-11.919
▁moderate	-11.9191
▁awful	-11.9192
▁sandwich	-11.9193
▁1957,	-11.9198
▁âu	-11.9198
▁Jong	-11.9201
▁fr	-11.9205
▁commit	-11.9206
▁competitions	-11.9208
▁withdrawal	-11.9211
ư	-11.9216
ural	-11.9218
▁vs	-11.9222
▁Ages	-11.9222
▁Slovenia	-11.9222
uga	-11.9224
▁receptors	-11.9225
gger	-11.9225
▁Papa	-11.9227
▁Indiana	-11.9227
▁register	-11.9229
▁spelled	-11.9229
LE	-11.9229
nder	-11.9231
▁1950.	-11.9233
tam	-11.9235
▁Fri	-11.9235
▁invisible	-11.9235
▁Stuart	-11.9236
▁employment	-11.9236
▁Chữ	-11.9236
nat	-11.9237
bul	-11.9241
mie	-11.9242
▁immigrants	-11.9243
▁dig	-11.9244
▁Mei	-11.9247
▁Lớn	-11.9249
▁decay	-11.9249
▁municipalities	-11.9249
▁firing	-11.9249
ố	-11.9249
▁loop	-11.925
ogen	-11.9251
▁regulation	-11.9251
▁cholesterol	-11.9252
▁accounting	-11.9253
▁belonging	-11.9254
▁restrictions	-11.9254
▁nest	-11.9254
▁Armenian	-11.9255
▁Michel	-11.9256
▁destination	-11.9257
▁Wonder	-11.926
▁Palau	-11.926
Mar	-11.9263
▁Mới	-11.9264
gie	-11.9264
▁lều	-11.9265
▁Băng	-11.9265
master	-11.9266
▁praised	-11.9266
▁mineral	-11.9267
▁Mayor	-11.9272
▁Wy	-11.9273
▁Danube	-11.9276
▁foods	-11.9278
▁muscles	-11.928
pas	-11.9282
▁responded	-11.9287
▁injuries	-11.9289
▁significance	-11.9289
▁casualties	-11.9289
▁Nhận	-11.9289
▁courts	-11.9291
▁retreat	-11.9292
▁pink	-11.9295
▁protests	-11.9295
▁Jang	-11.9297
▁mod	-11.9298
▁fl	-11.9299
tation	-11.93
▁ISBN	-11.9303
▁Amanda	-11.9303
▁Hamburg	-11.9303
▁Phúc	-11.9304
▁rập	-11.9305
▁alert	-11.9306
▁dai	-11.9307
▁Cas	-11.9308
▁relatives	-11.9309
▁disorders	-11.931
rous	-11.9311
enko	-11.9315
▁hybrid	-11.9316
▁Bella	-11.9316
▁topic	-11.9318
▁strain	-11.932
▁luc	-11.9321
iti	-11.9322
osaurus	-11.9324
▁sorts	-11.9325
▁responses	-11.9326
▁Abdul	-11.9326
▁representatives	-11.9327
▁cable	-11.9329
▁Uzbekistan	-11.933
▁examination	-11.933
▁perceived	-11.9332
amo	-11.9332
ller	-11.9332
▁convert	-11.9333
▁specialized	-11.9335
mbi	-11.9335
lands	-11.9337
▁Jump	-11.934
▁MA	-11.9341
▁Collins	-11.9344
rol	-11.9345
▁Chứng	-11.9348
AD	-11.9353
▁rescued	-11.9354
▁Socialist	-11.9354
▁Galileo	-11.9357
▁fifteen	-11.9357
▁pride	-11.9358
▁Samoa	-11.9359
▁Bros	-11.9363
▁owners	-11.9365
▁Graham	-11.9371
she	-11.9372
▁AT	-11.9372
út	-11.9373
▁cruise	-11.9373
gui	-11.9373
▁đố	-11.9377
▁bonds	-11.938
OR	-11.938
▁Nacional	-11.9384
▁pronunciation	-11.9384
▁Litva	-11.9384
eus	-11.9385
cla	-11.9385
▁announcement	-11.9385
iri	-11.9387
▁Dy	-11.9387
▁franchise	-11.9387
▁Dae	-11.9388
▁Highway	-11.939
▁resort	-11.9398
kawa	-11.9399
▁chước	-11.9399
▁associated	-11.9401
▁dishes	-11.9402
ify	-11.9403
▁physically	-11.9404
▁3.0	-11.9406
▁comic	-11.9406
zin	-11.9409
▁restaurants	-11.9411
▁Guide	-11.9411
▁ngắt	-11.9411
▁Hood	-11.9412
▁Full	-11.9413
▁procedures	-11.9413
ishi	-11.9414
▁Franz	-11.9421
▁suspected	-11.9422
▁worship	-11.9425
▁artillery	-11.9425
▁chuộc	-11.9426
▁gmina	-11.9426
▁difficulties	-11.9427
▁Pas	-11.9428
CP	-11.9428
ili	-11.9429
▁1848	-11.943
▁slip	-11.943
▁scare	-11.9431
rov	-11.9431
▁altitude	-11.9432
ấy	-11.9433
▁ngớ	-11.9433
▁eleven	-11.9437
▁DO	-11.9438
▁Eventually	-11.9439
▁relegated	-11.9439
tric	-11.944
ario	-11.944
▁Robinson	-11.9441
▁mammals	-11.9442
▁electro	-11.945
▁nm	-11.945
▁Aristotle	-11.9452
▁Ragnar	-11.9452
▁Utah	-11.9452
odon	-11.9455
▁insects	-11.9456
▁Marty	-11.9457
▁adventure	-11.9457
▁Shortly	-11.9457
▁Lane	-11.9458
▁occasion	-11.9459
▁crops	-11.9461
▁chemicals	-11.9461
▁tear	-11.9465
▁Wisconsin	-11.9466
▁circulation	-11.9466
▁narrative	-11.9466
▁trói	-11.9466
▁rotation	-11.9468
▁missiles	-11.9474
▁genera	-11.9477
ffer	-11.9478
pers	-11.9478
▁dive	-11.9479
otic	-11.9479
▁aunt	-11.9479
▁velocity	-11.948
▁Software	-11.948
▁Chế	-11.9481
▁Portland	-11.9482
▁mega	-11.9484
▁CS	-11.9485
▁conquest	-11.9487
ivity	-11.9487
game	-11.9487
▁Maine	-11.9487
ovi	-11.9489
▁horrible	-11.9494
▁Chồng	-11.9494
▁tạ	-11.9495
ON	-11.9496
▁armor	-11.9497
eli	-11.9497
▁complexity	-11.9498
▁1961,	-11.95
▁Motor	-11.9503
ăn	-11.9504
▁XP	-11.9506
▁beliefs	-11.9507
▁Mikhail	-11.9507
▁Montgomery	-11.9507
▁clever	-11.9507
zon	-11.9508
▁zones	-11.9509
▁Large	-11.9511
▁Machine	-11.9511
▁explains	-11.9511
aire	-11.9515
reg	-11.9516
▁toan	-11.9517
▁Sab	-11.9517
hai	-11.9519
▁reporting	-11.952
isha	-11.9521
▁technological	-11.9521
▁Spirit	-11.9522
▁dissolved	-11.9523
▁1894	-11.9524
dit	-11.9526
▁Abe	-11.953
▁soi	-11.9535
▁cuisine	-11.9535
▁versus	-11.9535
▁cord	-11.9535
▁Panzer	-11.9536
▁Joy	-11.9537
▁Prix	-11.9537
▁1.1	-11.954
▁Salt	-11.9542
▁Bas	-11.9543
nde	-11.9543
▁Close	-11.9543
pet	-11.9543
▁Cla	-11.9547
▁Ice	-11.9547
sey	-11.9548
▁imagination	-11.9549
mod	-11.9552
▁Mou	-11.9553
▁induced	-11.9554
▁encountered	-11.9555
▁30,000	-11.956
▁emissions	-11.9561
▁xí	-11.9562
▁Berkeley	-11.9563
▁controversy	-11.9563
TP	-11.9563
▁Steel	-11.9563
▁resumed	-11.9566
▁chat	-11.9567
▁aside	-11.9568
pat	-11.957
▁PR	-11.9575
▁Ulithi	-11.9577
▁ridiculous	-11.9577
▁Cultural	-11.9577
▁trươc	-11.9577
ói	-11.9577
▁Homs	-11.9578
metric	-11.9578
chon	-11.9579
▁Julie	-11.9579
▁Songs	-11.9579
▁Net	-11.958
▁OF	-11.958
▁exclusively	-11.958
virus	-11.9581
▁cleared	-11.9583
▁por	-11.9583
▁Muslims	-11.9584
pos	-11.9586
▁scheme	-11.9587
▁influences	-11.959
▁Garcia	-11.9591
lai	-11.9591
▁Sul	-11.9592
▁Dữ	-11.9592
ony	-11.9596
▁Et	-11.9598
▁Card	-11.9602
▁Bern	-11.9603
▁xế	-11.9604
▁Tal	-11.9604
▁coalition	-11.9604
▁Campbell	-11.9604
ME	-11.9606
▁Georges	-11.9607
▁Ama	-11.9607
▁Chad	-11.9607
▁1886	-11.961
▁Angela	-11.961
▁delayed	-11.9611
rot	-11.9615
hole	-11.9618
▁quantity	-11.9618
▁elevated	-11.9619
▁footage	-11.962
▁Lagos	-11.962
▁xay	-11.9622
▁1975.	-11.9622
▁equally	-11.9622
▁cay	-11.9623
▁31,	-11.9627
TE	-11.9628
bury	-11.9628
▁internationally	-11.9628
▁Tree	-11.9631
▁consequence	-11.9631
▁Kom	-11.9631
▁judgment	-11.9632
▁ownership	-11.9633
amin	-11.9633
zz	-11.9636
▁Lau	-11.964
▁Test	-11.9642
▁Reid	-11.9642
▁breaks	-11.9643
▁Welsh	-11.9644
▁Mia	-11.9645
▁invitation	-11.9646
▁op	-11.9647
▁Almost	-11.9647
▁Gotham	-11.9648
hat	-11.9648
▁AP	-11.9648
▁husbands	-11.9649
▁Moses	-11.965
▁rét	-11.965
▁genre	-11.9651
▁bọt	-11.9653
uit	-11.9654
igo	-11.9658
▁pointed	-11.9659
▁Belle	-11.9659
▁exploration	-11.966
▁migration	-11.966
ington	-11.966
ulf	-11.9661
▁Bird	-11.9663
▁vòi	-11.9663
▁Plant	-11.9666
▁Kun	-11.9667
▁Nghĩ	-11.9669
▁trains	-11.9669
gli	-11.9669
▁canxi	-11.967
para	-11.9671
▁contribution	-11.9671
▁transplant	-11.9673
▁tởm	-11.9674
▁frozen	-11.9675
▁TB	-11.9678
young	-11.9679
▁Marco	-11.9683
▁protocol	-11.9685
▁improving	-11.9688
▁warrant	-11.9688
▁Support	-11.9688
▁burden	-11.9688
▁Throughout	-11.9689
▁dệt	-11.9689
▁wellknown	-11.9689
▁occasions	-11.9692
lab	-11.9695
▁Josh	-11.9699
CS	-11.9702
▁nitơ	-11.9702
▁promoting	-11.9702
▁Đứa	-11.9702
▁sneak	-11.9702
5.000	-11.9705
▁PD	-11.9706
▁urine	-11.9707
▁Pont	-11.9708
▁Homo	-11.9708
▁1988.	-11.9709
▁recommend	-11.9709
Al	-11.9711
▁chóc	-11.9713
▁Ramesses	-11.9716
▁awesome	-11.9716
▁intensity	-11.9716
▁cult	-11.9716
▁vacation	-11.9717
▁conflicts	-11.9717
▁stops	-11.9718
▁NT	-11.9718
cht	-11.972
▁calculated	-11.972
ners	-11.972
▁virtually	-11.9721
▁menu	-11.9722
fan	-11.9722
▁Py	-11.9725
▁Bàn	-11.9728
▁Nevertheless	-11.973
kra	-11.9732
▁Gregor	-11.9734
specific	-11.9736
▁Rolling	-11.9736
▁dispute	-11.9737
▁zoo	-11.9737
▁airline	-11.9737
▁Owen	-11.9738
atory	-11.9743
cra	-11.9743
▁anxiety	-11.9744
▁psychology	-11.9745
▁gục	-11.9745
▁referring	-11.9745
▁endemic	-11.9745
▁Singh	-11.9746
▁ugly	-11.9746
▁shipping	-11.9747
▁worker	-11.9747
▁homo	-11.9748
▁Ronald	-11.9749
▁Bayern	-11.975
ăm	-11.975
▁Finn	-11.9751
bound	-11.9752
▁consumers	-11.9756
iyah	-11.9758
▁Avenue	-11.9759
▁Jennifer	-11.9759
▁galaxies	-11.9759
▁Further	-11.9759
▁geometry	-11.9759
▁Lyon	-11.976
▁bike	-11.9761
ente	-11.9761
▁Hit	-11.9761
▁MW	-11.9764
▁lờ	-11.9767
▁1861	-11.9767
▁transformed	-11.9768
▁kệ	-11.9768
▁Cử	-11.9768
▁LG	-11.977
▁differ	-11.9773
▁Của	-11.9773
▁attorney	-11.9773
▁Fernando	-11.9773
▁Felix	-11.9773
▁Dạ	-11.9773
▁Renaissance	-11.9774
▁ease	-11.9782
▁react	-11.9784
▁Vàng	-11.9786
▁Xác	-11.9786
▁Malaya	-11.9787
▁reliable	-11.9787
▁screening	-11.9787
▁thấm	-11.9787
▁directors	-11.9788
▁Sounds	-11.9788
Mo	-11.9789
▁demonstrate	-11.9793
▁lén	-11.9793
tech	-11.9794
▁củ	-11.9795
▁Khoan	-11.9799
▁poster	-11.9799
▁nephew	-11.9801
▁boring	-11.9802
▁developers	-11.9803
▁devoted	-11.9803
▁lungs	-11.9806
ần	-11.9807
▁monitoring	-11.9808
mia	-11.981
▁viruses	-11.9813
▁450	-11.9814
eti	-11.9815
▁Century	-11.9815
▁khánh	-11.9816
▁pronounced	-11.9816
▁independently	-11.9819
gri	-11.982
trans	-11.9822
▁Lost	-11.9823
▁AG	-11.9824
▁threats	-11.9824
▁whoever	-11.9825
iva	-11.9826
▁Pay	-11.9828
▁concrete	-11.983
▁southeastern	-11.983
▁Gilbert	-11.983
▁Hero	-11.983
▁Morning	-11.983
▁Edwards	-11.983
▁Banks	-11.983
▁animated	-11.9831
ối	-11.9833
qa	-11.9836
ập	-11.9838
dr	-11.9843
▁Buddha	-11.9844
▁Xưởng	-11.9844
▁hiếu	-11.9844
▁hopes	-11.9846
▁syn	-11.9847
▁Gì	-11.9847
▁Tamil	-11.9848
▁appearing	-11.9848
▁scrap	-11.9849
▁Kill	-11.9849
PR	-11.9852
▁pigs	-11.9853
▁painful	-11.9854
▁physician	-11.9856
▁Bull	-11.9856
lee	-11.9856
dz	-11.9857
▁fortress	-11.9858
▁Dal	-11.9859
▁Cloud	-11.9859
ota	-11.9862
▁Og	-11.9866
▁Bag	-11.9866
odi	-11.9867
không	-11.9867
▁pairs	-11.9867
▁precise	-11.9869
▁BCE	-11.987
▁Electric	-11.987
▁Quebec	-11.9872
▁Thẩm	-11.9872
▁Tránh	-11.9872
▁Railway	-11.9873
▁establishing	-11.9873
NH	-11.9873
▁gân	-11.9874
▁Mall	-11.9877
▁valid	-11.9877
▁họng	-11.9882
▁ver	-11.9886
▁Mozambique	-11.9887
▁chùa	-11.9887
▁smoking	-11.9887
▁nhúng	-11.9887
▁bầy	-11.9887
▁Marx	-11.9888
▁hills	-11.9889
▁2,5	-11.9892
â	-11.9893
▁EM	-11.9894
▁licensed	-11.9897
▁Naka	-11.9899
▁competing	-11.9901
▁junior	-11.9901
▁automatically	-11.9901
▁Stanley	-11.9902
▁dawn	-11.9902
▁Syn	-11.9906
TT	-11.9906
▁Gene	-11.9908
▁ngự	-11.9911
▁approached	-11.9913
▁cinema	-11.9914
▁chapter	-11.9915
▁borrow	-11.9915
▁permitted	-11.9916
▁mortality	-11.9916
▁1.3	-11.9916
▁lầu	-11.9918
▁initiated	-11.9918
▁Hol	-11.9918
▁Papua	-11.9918
▁encounter	-11.9922
▁Friends	-11.9923
▁smallest	-11.9923
▁Name	-11.9923
▁ne	-11.9925
▁Bia	-11.9926
▁API	-11.9927
TH	-11.9928
fully	-11.9929
▁Sumatra	-11.993
▁cọ	-11.9931
▁USSR	-11.9931
▁Kant	-11.9931
▁Đàn	-11.9931
▁Wells	-11.9931
gno	-11.9932
▁evaluation	-11.9934
▁punch	-11.9937
▁exclusive	-11.994
▁Mono	-11.9941
dio	-11.9941
▁flood	-11.9942
ôn	-11.9943
▁lơ	-11.9944
▁legislation	-11.9944
▁Jefferson	-11.9944
▁remix	-11.9944
▁Cánh	-11.9946
▁concerning	-11.9946
▁Fra	-11.9947
aa	-11.9947
▁ngào	-11.9949
▁layers	-11.9949
mber	-11.995
mina	-11.9952
▁filmed	-11.9953
uca	-11.9957
▁AB	-11.9957
▁Eagle	-11.9958
▁Gate	-11.9959
▁Currently	-11.996
ick	-11.9968
▁Nation	-11.9969
▁attitude	-11.9972
▁monitor	-11.9972
▁Malcolm	-11.9973
▁Tuesday	-11.9973
▁accompany	-11.9973
▁temporarily	-11.9973
▁territorial	-11.9973
▁Gy	-11.9978
▁dimensions	-11.9978
coming	-11.9979
▁margin	-11.998
▁rope	-11.998
▁Berg	-11.9981
▁Mé	-11.9983
▁releases	-11.9983
▁requested	-11.9986
eas	-11.9986
432;	-11.9987
nov	-11.9988
▁nhốt	-11.9988
▁Bart	-11.9988
▁locally	-11.9992
▁cre	-11.9993
▁ions	-11.9993
▁rounds	-11.9994
▁maam	-11.9995
▁Sit	-11.9996
▁rapper	-12.0001
▁poems	-12.0001
▁texts	-12.0001
▁northeastern	-12.0002
FC	-12.0003
fen	-12.0003
ề	-12.0005
▁Springs	-12.0006
▁True	-12.0006
▁jo	-12.0006
▁shorter	-12.0009
▁civilians	-12.0009
▁Luna	-12.001
▁aboard	-12.0014
▁Hart	-12.0016
▁emphasis	-12.0016
▁heritage	-12.0016
▁acres	-12.0017
tto	-12.0019
▁Alps	-12.002
▁Gru	-12.002
▁specimens	-12.0021
▁downtown	-12.0022
gl	-12.0022
▁Gray	-12.0023
▁apple	-12.0024
▁elite	-12.0027
▁connecting	-12.0029
▁Newcastle	-12.0031
▁hở	-12.0033
▁Oslo	-12.0035
▁giáng	-12.0035
▁axis	-12.0037
▁Actor	-12.0038
ệ	-12.0041
▁Thought	-12.0041
▁firms	-12.0041
▁Arent	-12.0043
▁merchant	-12.0045
▁excess	-12.0045
▁Iranian	-12.0045
▁Yokosuka	-12.0045
▁Madison	-12.0045
▁Guess	-12.0046
tone	-12.0046
▁Carlo	-12.0048
▁Vu	-12.0048
▁overcome	-12.0049
cine	-12.0054
▁torture	-12.0055
sal	-12.0057
rium	-12.0058
▁wishes	-12.006
▁khiêm	-12.006
▁extinction	-12.0063
▁Gay	-12.0063
▁0.0	-12.0063
▁trauma	-12.0064
rg	-12.0065
▁highway	-12.0065
▁angel	-12.0065
▁demon	-12.0066
grad	-12.0066
▁Comm	-12.0069
▁themes	-12.007
▁Regional	-12.007
▁Đà	-12.0073
▁perception	-12.0074
ike	-12.0074
▁1941.	-12.0074
▁construct	-12.0074
▁hurricane	-12.0074
▁Political	-12.0075
▁Caribe	-12.0075
▁Khal	-12.0079
late	-12.0083
▁IS	-12.0084
▁abstract	-12.0085
elia	-12.0086
▁Gas	-12.0086
▁Yoo	-12.0087
fold	-12.0088
▁Huh	-12.0088
▁rụng	-12.0089
▁desktop	-12.0089
▁origins	-12.0093
dd	-12.0094
▁graphics	-12.0097
ợ	-12.0097
▁shops	-12.0098
▁wider	-12.0099
▁ethanol	-12.0101
▁Silesian	-12.0102
▁Burma	-12.0102
▁lội	-12.0103
▁equations	-12.0103
▁tone	-12.0103
▁Production	-12.0103
▁Either	-12.0104
▁styles	-12.0105
tics	-12.0105
▁pants	-12.0106
world	-12.0108
▁Keith	-12.0108
▁Wed	-12.0111
▁claiming	-12.0111
▁tears	-12.0118
▁khùng	-12.0119
▁Search	-12.0119
▁xăm	-12.0119
▁gentleman	-12.012
▁Step	-12.0121
▁Fre	-12.0122
path	-12.0122
▁revolutionary	-12.0123
▁spreading	-12.0124
▁Native	-12.0125
position	-12.0126
awa	-12.0127
▁vertical	-12.0129
ering	-12.0131
▁pulling	-12.0131
iel	-12.0133
▁graduating	-12.0133
▁strategies	-12.0133
▁Future	-12.0133
▁sustainable	-12.0134
▁kiếp	-12.0134
▁Rhodes	-12.0135
▁rể	-12.0136
▁Guys	-12.0137
rze	-12.0139
▁sulfate	-12.0141
ể	-12.0141
▁invest	-12.0141
▁Tab	-12.0146
▁Hun	-12.0146
hei	-12.0147
tile	-12.0147
▁1973.	-12.0148
▁Kosovo	-12.0148
▁psycho	-12.0148
▁Xuất	-12.0148
▁Desert	-12.0148
▁Zeus	-12.0151
ographic	-12.0151
▁Flag	-12.0151
▁swing	-12.0151
PL	-12.0153
▁Santos	-12.0154
▁rec	-12.0155
▁Warren	-12.0155
▁Diana	-12.0156
DA	-12.0158
▁CP	-12.0159
▁cúm	-12.0161
7879;	-12.0162
▁capabilities	-12.0162
▁peninsula	-12.0162
▁possession	-12.0163
▁awareness	-12.0164
▁Nêu	-12.0165
▁panel	-12.0165
▁1891	-12.0165
▁neighboring	-12.0168
▁server	-12.0171
▁convention	-12.0172
▁cow	-12.0173
▁wolf	-12.0175
▁Chilean	-12.0175
▁CC	-12.0177
▁defensive	-12.0177
▁Hows	-12.0179
▁unclear	-12.0179
gt	-12.0179
▁Singles	-12.018
▁Palestinian	-12.018
▁xô	-12.018
▁Sister	-12.0181
▁Whit	-12.0182
▁posted	-12.0183
▁Silva	-12.0186
fall	-12.0186
▁Sz	-12.0187
▁bomber	-12.019
rc	-12.019
▁Johns	-12.0192
▁Might	-12.0192
▁Hannibal	-12.0192
▁autonomous	-12.0192
▁destiny	-12.0192
▁Move	-12.0194
▁extract	-12.0197
▁Us	-12.0197
▁gram	-12.0197
▁chess	-12.0199
▁Seo	-12.0199
▁burst	-12.0206
▁widow	-12.0207
▁Construction	-12.0207
▁Airways	-12.0207
▁chances	-12.0207
▁Ligue	-12.0207
▁sảnh	-12.0208
▁Independence	-12.0209
▁hub	-12.0209
▁khoác	-12.021
ỉ	-12.0211
▁farming	-12.0211
sai	-12.0212
▁Rhine	-12.0215
▁codes	-12.0219
▁intermediate	-12.0221
evich	-12.0222
▁Vận	-12.0223
▁windows	-12.0224
mid	-12.0226
▁Que	-12.0229
▁1987.	-12.023
ked	-12.023
▁UV	-12.0233
▁participating	-12.0236
trop	-12.0237
▁XIX	-12.0237
▁phì	-12.0237
ủ	-12.0238
▁1892	-12.0239
▁descended	-12.0239
ello	-12.0241
hold	-12.0241
▁parking	-12.0243
person	-12.0245
▁measurement	-12.0246
▁Bryan	-12.0246
▁Clarke	-12.0246
▁Gothic	-12.0249
ssel	-12.0249
▁Saud	-12.025
sted	-12.0251
▁impressive	-12.0251
▁Savage	-12.0252
▁1982.	-12.0253
▁ranking	-12.0254
vid	-12.0255
▁Xu	-12.0258
sim	-12.0259
▁Arena	-12.0259
▁hire	-12.026
▁Morris	-12.0263
▁lượn	-12.0264
▁Mala	-12.0266
▁Leopold	-12.0266
▁jurisdiction	-12.0266
▁focusing	-12.0271
yon	-12.0271
▁Franois	-12.0271
là	-12.0272
▁leak	-12.0275
▁đam	-12.0277
▁Fall	-12.0279
▁USB	-12.028
▁grateful	-12.0281
▁Đốc	-12.0281
▁Stu	-12.0281
▁Aviation	-12.0281
cis	-12.0286
▁Coll	-12.0287
▁Blake	-12.0288
▁rulers	-12.029
▁Lance	-12.029
▁defeating	-12.029
▁phàn	-12.0292
▁bẩm	-12.0296
mol	-12.0296
▁Fujiwara	-12.0296
▁rực	-12.0297
▁localities	-12.0298
▁membership	-12.0299
▁stopping	-12.03
▁Fisher	-12.0301
▁todays	-12.0303
▁colon	-12.0303
▁exhibit	-12.0304
cies	-12.0305
cious	-12.0306
▁realm	-12.0306
kers	-12.0308
▁reportedly	-12.0311
phon	-12.0312
▁orbital	-12.0312
▁grain	-12.0313
▁vách	-12.0313
▁Nico	-12.0313
▁republic	-12.0316
▁den	-12.0316
▁oceans	-12.0318
▁warned	-12.0319
▁ignore	-12.032
▁tạng	-12.0322
▁measuring	-12.0326
▁preparing	-12.0326
▁triangle	-12.0326
▁consent	-12.0327
▁organisation	-12.0327
▁Holland	-12.0329
▁1864	-12.0331
▁cabin	-12.0331
▁affects	-12.0332
▁1,3	-12.0334
▁nộ	-12.0335
▁Room	-12.0337
▁sha	-12.034
▁Heinrich	-12.0341
▁attempting	-12.0342
▁hân	-12.0343
EP	-12.0344
▁dense	-12.0345
▁lột	-12.0346
▁synthetic	-12.0346
▁Cửa	-12.0346
▁RAF	-12.0347
▁holy	-12.0351
▁lately	-12.0352
mission	-12.0355
7853;	-12.0356
▁Gibraltar	-12.0356
▁lympho	-12.0356
▁adopt	-12.0357
eva	-12.0357
▁Uni	-12.0358
▁Cai	-12.036
▁hoc	-12.0363
▁thà	-12.0364
▁coral	-12.0366
▁Rum	-12.0373
▁Ethan	-12.0373
▁Ober	-12.0374
rated	-12.0375
card	-12.0377
▁cối	-12.0378
250;	-12.038
mbo	-12.0383
▁alter	-12.0383
▁Bear	-12.0384
▁thrown	-12.0385
▁musician	-12.0385
▁tribute	-12.0386
▁flagship	-12.0387
▁surgical	-12.0389
▁discipline	-12.0391
▁sooner	-12.0393
▁substitute	-12.0395
▁supporters	-12.0396
▁109	-12.0399
▁improvements	-12.04
▁worn	-12.0401
▁kiêu	-12.0401
▁parliamentary	-12.0401
▁succession	-12.0402
▁signature	-12.0402
iro	-12.0404
êt	-12.0405
▁beam	-12.0407
▁Trả	-12.0407
▁substances	-12.0411
wed	-12.0414
feld	-12.0416
▁harsh	-12.0416
▁lướt	-12.0416
cit	-12.042
ẻ	-12.042
▁lifestyle	-12.042
sty	-12.042
▁drinks	-12.042
bun	-12.0421
dai	-12.0422
▁waited	-12.0424
azine	-12.0425
▁Dear	-12.0425
▁côi	-12.0425
▁Môn	-12.0425
▁NH	-12.0426
suke	-12.0426
▁LP	-12.0428
▁SK	-12.043
▁peaked	-12.0431
▁Brussels	-12.0431
nius	-12.0431
▁ngủi	-12.0431
ash	-12.0431
▁0.5	-12.0432
TO	-12.0432
▁Quay	-12.0435
▁Tế	-12.0435
▁đốm	-12.0435
▁1986.	-12.0435
▁1865	-12.0435
▁tele	-12.0436
▁item	-12.0437
oke	-12.044
cca	-12.0441
▁tụy	-12.0441
▁infinite	-12.0442
▁trusted	-12.0444
▁touched	-12.0446
▁eighth	-12.0448
▁triple	-12.045
▁1884	-12.0451
▁Joan	-12.0452
▁1840	-12.0453
oro	-12.0453
▁magical	-12.0454
lag	-12.0456
▁eliminate	-12.0456
phen	-12.0461
▁Percy	-12.0462
▁powered	-12.0462
▁stealing	-12.0463
▁priority	-12.0464
▁NBC	-12.0464
▁Abd	-12.0464
▁Tăng	-12.0464
▁Flu	-12.0466
▁Princeton	-12.0467
▁gut	-12.0468
▁counting	-12.0471
▁Sid	-12.0472
▁bôi	-12.0473
dam	-12.0473
evi	-12.0475
away	-12.0475
▁Colombian	-12.0476
▁quote	-12.0476
▁bronze	-12.0476
▁penalty	-12.0476
etic	-12.0479
▁pulse	-12.0479
▁Vista	-12.048
▁merger	-12.0482
ency	-12.0484
▁Vic	-12.0485
bla	-12.0486
▁Lũ	-12.0487
▁Japans	-12.0491
▁Dakota	-12.0492
▁Saipan	-12.0492
▁regardless	-12.0492
▁warrior	-12.0493
▁SD	-12.0494
ace	-12.0494
▁1.6	-12.0495
▁bars	-12.0495
▁Turin	-12.0495
alis	-12.0496
▁cleaning	-12.0498
udi	-12.0503
▁Fed	-12.0503
▁Same	-12.0505
▁spa	-12.0505
▁Orthodox	-12.0507
▁khéo	-12.0507
▁detection	-12.0508
▁Core	-12.0509
nova	-12.0509
▁flavor	-12.0509
▁Christians	-12.0509
▁Tạ	-12.051
▁Hugo	-12.051
ác	-12.0513
▁Deb	-12.0513
▁Newport	-12.0517
▁Raj	-12.0521
▁slept	-12.0522
▁drivers	-12.0523
▁fastest	-12.0523
Ho	-12.0523
một	-12.0523
▁Lep	-12.0524
▁pyr	-12.0525
▁Montana	-12.0526
▁Athena	-12.0526
sko	-12.0527
▁bearing	-12.0528
▁dumb	-12.0529
▁Ot	-12.0531
▁khan	-12.0531
▁Nigerian	-12.0532
▁Bran	-12.0532
▁bro	-12.0533
dus	-12.0534
▁fantasy	-12.0537
▁đắc	-12.0537
▁Phạm	-12.0537
▁nhậm	-12.0537
▁employee	-12.0539
▁Sherman	-12.054
▁heroes	-12.0544
▁1867	-12.0544
het	-12.0545
▁Fear	-12.0551
▁sail	-12.0552
▁Adelaide	-12.0553
▁horror	-12.0553
▁Johannesburg	-12.0553
▁Laurel	-12.0553
▁boom	-12.0553
▁bedroom	-12.0553
▁Tropical	-12.0553
▁Sweet	-12.0554
▁neighbour	-12.0555
br	-12.0556
▁fer	-12.0563
▁Mua	-12.0565
▁indicating	-12.0568
▁Andes	-12.0568
▁Bol	-12.0569
▁wore	-12.0569
▁Single	-12.0569
▁yo	-12.0573
▁Iowa	-12.0574
▁Stand	-12.0575
▁filed	-12.0575
mans	-12.058
▁Rebecca	-12.0583
▁dopamine	-12.0583
▁orientation	-12.0584
▁removal	-12.0585
zing	-12.0585
▁observe	-12.0588
▁CN	-12.059
▁drives	-12.059
▁Independent	-12.0593
▁Fourth	-12.0596
kins	-12.0598
▁monkey	-12.0598
▁Authority	-12.0599
▁Huyện	-12.0599
▁Ahmed	-12.0599
▁Pel	-12.06
▁chớp	-12.0602
ulate	-12.0602
▁pit	-12.0602
▁ủi	-12.0604
▁controlling	-12.0607
▁NA	-12.0608
▁1,4	-12.0609
▁Glasgow	-12.0614
▁elevator	-12.0614
▁Vir	-12.0615
▁possess	-12.0616
▁tể	-12.0616
dol	-12.0618
iff	-12.0618
▁demanded	-12.062
▁investors	-12.0623
▁leaf	-12.0624
ờ	-12.0625
▁theoretical	-12.0626
Le	-12.0627
▁quark	-12.0629
▁cẩu	-12.0629
▁trillion	-12.0629
yeon	-12.063
▁lion	-12.0631
▁dual	-12.0632
▁circuit	-12.0632
▁lề	-12.0633
▁Theodore	-12.0635
tie	-12.0636
▁Drake	-12.0637
▁churches	-12.0641
▁mãnh	-12.0642
▁Andrea	-12.0644
▁Tông	-12.0644
▁Connecticut	-12.0645
▁bore	-12.0649
▁Yuan	-12.0651
▁importantly	-12.0651
▁5000	-12.0652
▁xi	-12.0653
▁Mine	-12.0654
▁sc	-12.0655
hon	-12.0656
▁Nord	-12.0657
▁Copenhagen	-12.066
▁decree	-12.066
▁varieties	-12.066
▁Otherwise	-12.066
hol	-12.0661
▁Chaplin	-12.0661
▁CLB	-12.0661
▁sank	-12.0665
▁Bud	-12.0669
League	-12.067
ilo	-12.067
▁defending	-12.0674
▁Bruno	-12.0674
▁epidemic	-12.0676
▁metabolism	-12.0676
▁volcanic	-12.0676
▁Trạm	-12.0677
cos	-12.0677
▁update	-12.0678
hill	-12.0678
▁enable	-12.0679
▁speaks	-12.068
▁Ada	-12.0682
▁wisdom	-12.0691
▁Whitney	-12.0691
▁sùng	-12.0693
▁integration	-12.0693
▁Player	-12.0696
▁Louise	-12.0697
▁Baek	-12.07
▁vest	-12.0701
▁throwing	-12.0701
▁Ming	-12.0702
▁severely	-12.0703
▁atom	-12.0705
▁historically	-12.0705
▁Sicilia	-12.0707
▁Đoạn	-12.0707
▁diagnosed	-12.0709
ume	-12.0709
LC	-12.0709
▁Horn	-12.0711
▁1939.	-12.0712
▁tụng	-12.0712
▁GB	-12.0712
Po	-12.0716
▁photographer	-12.0716
▁mơi	-12.0717
had	-12.0718
▁warming	-12.0719
icus	-12.0719
▁warn	-12.072
▁Wednesday	-12.0722
▁rainfall	-12.0722
▁cH	-12.0723
▁1969.	-12.0723
▁mông	-12.0724
▁MV	-12.0725
▁visits	-12.0727
▁photography	-12.0728
▁mens	-12.0731
▁CR	-12.0733
▁bì	-12.0735
▁uốn	-12.0737
▁Sophia	-12.0738
▁giếng	-12.0738
▁Def	-12.0739
▁impressed	-12.0741
▁divorced	-12.0745
▁Fat	-12.0746
▁sphere	-12.0748
ấp	-12.075
▁Eva	-12.075
III	-12.0751
▁Lithuania	-12.0753
▁describing	-12.0753
minute	-12.0754
▁nhện	-12.0754
aq	-12.0755
▁Brand	-12.0755
▁mRNA	-12.0755
▁heal	-12.0755
▁Ellen	-12.0756
▁shield	-12.0757
▁immuno	-12.0757
▁200,000	-12.0758
▁Boss	-12.0761
▁Commons	-12.0761
▁doạ	-12.0765
▁handed	-12.0766
lea	-12.0766
▁secured	-12.0766
arm	-12.0767
ats	-12.0768
vor	-12.0768
▁municipal	-12.0768
any	-12.0769
▁submitted	-12.0769
▁fame	-12.0769
▁Betty	-12.077
▁wooden	-12.0772
▁cớm	-12.0773
▁Slam	-12.0776
▁Arabian	-12.0777
▁ter	-12.0777
▁đan	-12.0778
phosphate	-12.0778
hydro	-12.0779
▁chùm	-12.0785
▁dwarf	-12.0785
▁Prefecture	-12.0785
▁Actress	-12.0785
ain	-12.0787
ndi	-12.0788
▁inherited	-12.0788
imi	-12.0796
▁expanding	-12.0796
▁painter	-12.0797
PC	-12.0798
▁implement	-12.0798
▁mud	-12.0799
▁handsome	-12.0799
pra	-12.0801
▁thối	-12.0802
▁Money	-12.0802
▁xộn	-12.0803
▁Chết	-12.0807
▁Route	-12.0807
▁Fla	-12.081
▁Hã	-12.0811
▁certificate	-12.0816
▁eldest	-12.0816
▁buồm	-12.0816
▁Gặp	-12.0818
▁mụ	-12.0818
nya	-12.0818
▁portrayed	-12.082
óc	-12.082
▁tens	-12.082
▁3.5	-12.0821
▁scary	-12.0822
▁vớ	-12.0822
Ra	-12.0823
rang	-12.0823
▁08	-12.0824
▁terrorist	-12.0825
ici	-12.0827
bridge	-12.0827
▁ray	-12.0828
▁attract	-12.0829
▁Mariana	-12.083
▁Fer	-12.083
▁Ant	-12.0831
▁Detroit	-12.0832
▁Mauritius	-12.0832
▁Normandy	-12.0833
▁Xray	-12.0834
SF	-12.0834
▁Jet	-12.0835
▁Christianity	-12.0836
▁bacterial	-12.0836
▁cr	-12.0837
▁delta	-12.0842
▁SN	-12.0843
▁cellular	-12.0845
▁ballad	-12.0845
▁custody	-12.0848
▁gradient	-12.0848
▁ngửi	-12.0848
▁provincial	-12.0848
tem	-12.085
▁Sebastian	-12.085
▁settlements	-12.0854
▁1.4	-12.0854
▁seized	-12.0855
▁1936,	-12.0855
▁cargo	-12.0856
▁puts	-12.0857
▁marketed	-12.0857
▁Sparta	-12.0858
▁Hua	-12.0859
▁antibiotics	-12.0861
iest	-12.0862
▁symbols	-12.0863
▁Montenegro	-12.0863
▁Pozna	-12.0863
▁trunk	-12.0863
▁Aircraft	-12.0864
▁Prague	-12.0864
▁sướng	-12.0864
uan	-12.0865
SM	-12.0866
▁filter	-12.0868
▁1974.	-12.0868
▁rings	-12.0868
▁Math	-12.087
▁comprises	-12.0872
▁sauce	-12.0873
▁Falls	-12.0874
cation	-12.0875
▁Manga	-12.0875
▁Sport	-12.0876
ại	-12.0876
▁Barb	-12.0877
ấu	-12.0878
▁cardiac	-12.0879
▁lonely	-12.0881
▁Nine	-12.0881
▁4,000	-12.0881
▁Yasu	-12.0883
▁presents	-12.0883
life	-12.0883
▁1862	-12.0884
▁Site	-12.0884
apa	-12.0885
▁pie	-12.0891
▁xông	-12.0891
▁Cơn	-12.0892
▁deals	-12.0892
▁Arc	-12.0895
▁Diamond	-12.0895
▁departure	-12.0895
▁Liberty	-12.0895
▁Maurice	-12.0895
▁Dennis	-12.0895
▁optical	-12.0896
▁Initially	-12.0896
▁coverage	-12.0898
▁counts	-12.0898
▁judges	-12.0899
▁barrier	-12.09
▁Noah	-12.0901
▁Urban	-12.0901
▁mồm	-12.0905
emia	-12.0907
wen	-12.0908
▁Havana	-12.0911
▁Mason	-12.0911
ico	-12.0911
▁Anyone	-12.0912
▁und	-12.0913
▁Bach	-12.0915
kka	-12.0916
▁viral	-12.0917
▁wanting	-12.0918
▁intra	-12.0919
▁220	-12.0921
▁vegetables	-12.0923
ete	-12.0924
▁1,1	-12.0925
anti	-12.0925
▁criteria	-12.0927
▁Moldova	-12.0927
▁Arnold	-12.0927
▁Von	-12.0927
▁fitted	-12.0928
▁thoa	-12.0929
▁Winston	-12.0933
▁voices	-12.0934
▁1946.	-12.0935
▁sheet	-12.0936
▁cafe	-12.0941
hyun	-12.0942
▁refuse	-12.0942
▁lắc	-12.0943
boy	-12.0943
▁Kol	-12.0945
dh	-12.0951
▁thermal	-12.0953
▁palm	-12.0953
▁Dude	-12.0955
gr	-12.0956
▁Bali	-12.0956
ord	-12.0957
▁Bavaria	-12.0957
▁Lester	-12.0957
amba	-12.0958
▁lứa	-12.0959
▁minimal	-12.0959
▁browser	-12.0961
▁approaching	-12.0961
kel	-12.0962
▁strongest	-12.0962
▁1869	-12.0963
▁crystal	-12.0964
▁Lei	-12.0964
▁Armed	-12.0965
issa	-12.0965
▁altered	-12.0965
▁manufacturer	-12.0965
▁3.000	-12.0966
▁ministers	-12.0971
▁1919,	-12.0972
▁40,000	-12.0973
▁attending	-12.0973
▁Rangers	-12.0973
▁steady	-12.0975
▁Habsburg	-12.0975
▁Đứng	-12.0975
▁Giúp	-12.0975
▁Finnish	-12.0975
▁depicted	-12.0976
▁proclaimed	-12.0976
▁snake	-12.0979
▁collapsed	-12.0984
yeong	-12.0985
▁darling	-12.099
▁Consider	-12.0991
▁Joshua	-12.0991
▁fancy	-12.0992
▁Bert	-12.0993
▁confusion	-12.0995
▁vạn	-12.0995
lder	-12.0996
▁Incheon	-12.0999
▁sunk	-12.1002
▁Hawk	-12.1003
▁ultimate	-12.1003
IT	-12.1003
pus	-12.1004
1000	-12.1006
itt	-12.1006
ista	-12.1006
▁gốm	-12.1006
▁Gruzia	-12.1007
▁Pod	-12.1008
ă	-12.1009
▁pushing	-12.1009
CI	-12.1009
IF	-12.101
▁02	-12.101
▁Phone	-12.1012
▁Kiss	-12.1012
▁Suy	-12.1013
▁thereby	-12.1013
▁ớt	-12.1014
▁Oak	-12.1016
▁safely	-12.1019
dre	-12.1021
▁Drive	-12.1022
▁underwent	-12.1022
▁terrain	-12.1023
▁hoành	-12.1026
▁pur	-12.1026
▁monsters	-12.1027
▁united	-12.1028
▁Yong	-12.1031
present	-12.1033
pyr	-12.1037
▁Fast	-12.1038
▁samurai	-12.1039
▁legacy	-12.1039
lib	-12.1039
▁Chiều	-12.1039
▁Shadow	-12.104
anna	-12.1041
▁1965.	-12.1043
hra	-12.1043
▁Hed	-12.1046
▁reveals	-12.1046
▁metric	-12.1048
plane	-12.1049
▁advisor	-12.105
▁1.8	-12.1051
▁Eli	-12.1053
▁Neil	-12.1053
▁besides	-12.1054
▁khỏa	-12.1055
▁navy	-12.1055
▁Rev	-12.1055
▁inhibition	-12.1056
▁Protestant	-12.1056
▁mặn	-12.1056
oun	-12.1056
▁answered	-12.1057
▁vã	-12.1058
▁Stars	-12.1058
▁enhance	-12.1059
▁celebration	-12.106
▁Chàng	-12.106
▁suppress	-12.1064
▁mill	-12.1064
qi	-12.1066
pel	-12.1067
dt	-12.1068
▁curse	-12.1068
▁Orlando	-12.1071
▁Xuân	-12.1071
▁Alright	-12.1072
▁dẻo	-12.1072
▁rebels	-12.1074
▁Dominican	-12.1075
uv	-12.1078
▁span	-12.108
▁khinh	-12.108
▁liêng	-12.1083
▁sciences	-12.1084
▁equilibrium	-12.1087
▁Ludwig	-12.1087
▁Animation	-12.1087
▁cuôc	-12.1087
▁rebuilt	-12.1087
▁thereafter	-12.109
▁PH	-12.1091
▁tôt	-12.1091
rik	-12.1091
name	-12.1091
▁maintaining	-12.1092
rone	-12.1093
▁variables	-12.1096
és	-12.1097
▁Send	-12.1098
OL	-12.1098
▁squared	-12.1099
LP	-12.1101
▁shifted	-12.1101
▁brush	-12.1102
phe	-12.1103
▁aggregate	-12.1103
▁metropolitan	-12.1103
▁Cleveland	-12.1103
▁elementary	-12.1104
▁Iberia	-12.1106
▁consumed	-12.1107
inger	-12.1111
▁1962.	-12.1111
▁beef	-12.1112
▁Res	-12.1113
▁1917,	-12.1119
▁underlying	-12.1119
▁voting	-12.112
▁Mecca	-12.112
▁Silesia	-12.1121
ales	-12.1123
▁rhythm	-12.1123
▁accomplished	-12.1124
▁CNN	-12.1124
▁reflected	-12.1128
▁preparations	-12.113
▁declare	-12.113
▁withdraw	-12.1133
▁tremendous	-12.1135
▁Holocaust	-12.1135
▁Whether	-12.1135
▁patent	-12.1135
▁cancelled	-12.1136
▁clay	-12.1139
▁1882	-12.1141
▁hao	-12.1142
that	-12.1142
▁ski	-12.1143
▁wo	-12.1143
▁spy	-12.1143
rio	-12.1145
▁Cra	-12.1147
▁1972.	-12.1147
▁documented	-12.1148
▁Algérie	-12.1152
▁atmospheric	-12.1152
▁cares	-12.1152
▁scoring	-12.1152
▁pleased	-12.1154
▁tablet	-12.1154
phone	-12.1155
▁courses	-12.1155
▁Round	-12.1156
NO	-12.1157
▁organism	-12.1159
ced	-12.1159
▁Sabah	-12.1162
tun	-12.1163
▁boxes	-12.1163
▁Kind	-12.1163
▁André	-12.1166
bell	-12.1168
▁Kích	-12.1169
▁1979.	-12.1169
ầm	-12.117
shed	-12.117
▁Chức	-12.1171
▁surgeon	-12.1173
▁Chả	-12.1174
ã	-12.1175
idi	-12.1175
▁manufacture	-12.1176
▁basement	-12.1178
▁ă	-12.1178
▁prevented	-12.1179
▁1983.	-12.1179
▁1815	-12.1179
▁Fr	-12.1184
▁tract	-12.1185
▁adoption	-12.1185
rod	-12.1185
▁nghiền	-12.1186
▁Wong	-12.1186
▁Celtic	-12.1187
▁imported	-12.119
▁Bet	-12.119
▁Choi	-12.1191
▁parameters	-12.1191
▁pl	-12.1195
▁instruction	-12.1196
▁Luther	-12.1197
▁ASEAN	-12.12
▁Kênh	-12.12
▁possibilities	-12.12
▁Hideyoshi	-12.1201
▁radius	-12.1201
▁flee	-12.1201
▁1984.	-12.1202
▁violin	-12.1202
▁Khai	-12.1203
▁Khắc	-12.1204
▁mât	-12.1204
▁chà	-12.1204
ứ	-12.1204
▁Oil	-12.1205
▁Pal	-12.1206
▁Hạng	-12.1207
▁punish	-12.1209
▁Món	-12.1211
▁Hon	-12.1212
▁Ralph	-12.1214
wn	-12.1214
Na	-12.1215
▁2020,	-12.1216
▁quantities	-12.1217
▁illusion	-12.1217
Me	-12.1217
▁crop	-12.1217
▁monarch	-12.1219
▁basin	-12.1219
▁carries	-12.122
lly	-12.122
▁telescope	-12.1223
roy	-12.1225
▁bump	-12.1227
▁Troy	-12.1227
▁DE	-12.1228
▁Evans	-12.1228
▁fusion	-12.123
▁forth	-12.1231
▁whore	-12.1231
▁Cứu	-12.1233
▁confident	-12.1233
▁solved	-12.1233
▁wounds	-12.1235
▁Others	-12.1236
▁1985.	-12.1236
▁Lê	-12.1237
▁tảo	-12.1239
▁ce	-12.1239
▁initiative	-12.124
▁NC	-12.1242
nut	-12.1243
pl	-12.1243
dependent	-12.1245
▁examine	-12.1248
▁chặng	-12.1249
lene	-12.1251
▁Isabella	-12.1252
▁activated	-12.1253
▁nhơ	-12.1257
▁scream	-12.1259
▁fears	-12.1261
▁dA	-12.1261
mara	-12.1262
▁magnet	-12.1262
▁Liberia	-12.1262
▁Gr	-12.1266
▁Hugh	-12.1267
orum	-12.1267
▁keyboard	-12.1267
▁nồi	-12.1268
▁Walk	-12.127
▁Anton	-12.127
ander	-12.1271
▁scenario	-12.1273
▁1971.	-12.1273
▁mớ	-12.1279
▁Erik	-12.1279
▁Trình	-12.1283
▁iPad	-12.1283
▁plum	-12.1286
▁Wallace	-12.1287
▁beaten	-12.1288
rma	-12.1288
▁yard	-12.1289
lom	-12.1291
▁rub	-12.1292
▁medals	-12.1292
▁electrons	-12.1293
ancy	-12.1293
ừ	-12.1296
▁Apparently	-12.1299
▁Brisbane	-12.1299
▁Taliban	-12.1299
▁Sophie	-12.1299
▁Believe	-12.1299
▁burial	-12.1299
▁distinctive	-12.13
▁Oda	-12.1303
▁absorbed	-12.1304
▁Rin	-12.1305
▁Pole	-12.1305
▁Ned	-12.1306
▁Comics	-12.1308
emp	-12.1311
[...]
